unsigned char _content_gesture_model_quant_tflite[] = {
  0x1c, 0x00, 0x00, 0x00, 0x54, 0x46, 0x4c, 0x33, 0x14, 0x00, 0x20, 0x00,
  0x1c, 0x00, 0x18, 0x00, 0x14, 0x00, 0x10, 0x00, 0x0c, 0x00, 0x00, 0x00,
  0x08, 0x00, 0x04, 0x00, 0x14, 0x00, 0x00, 0x00, 0x1c, 0x00, 0x00, 0x00,
  0x98, 0x00, 0x00, 0x00, 0xf0, 0x00, 0x00, 0x00, 0x08, 0x51, 0x00, 0x00,
  0x18, 0x51, 0x00, 0x00, 0x2c, 0x58, 0x00, 0x00, 0x03, 0x00, 0x00, 0x00,
  0x01, 0x00, 0x00, 0x00, 0x10, 0x00, 0x00, 0x00, 0x00, 0x00, 0x0a, 0x00,
  0x10, 0x00, 0x0c, 0x00, 0x08, 0x00, 0x04, 0x00, 0x0a, 0x00, 0x00, 0x00,
  0x0c, 0x00, 0x00, 0x00, 0x1c, 0x00, 0x00, 0x00, 0x3c, 0x00, 0x00, 0x00,
  0x0f, 0x00, 0x00, 0x00, 0x73, 0x65, 0x72, 0x76, 0x69, 0x6e, 0x67, 0x5f,
  0x64, 0x65, 0x66, 0x61, 0x75, 0x6c, 0x74, 0x00, 0x01, 0x00, 0x00, 0x00,
  0x04, 0x00, 0x00, 0x00, 0x90, 0xff, 0xff, 0xff, 0x0d, 0x00, 0x00, 0x00,
  0x04, 0x00, 0x00, 0x00, 0x08, 0x00, 0x00, 0x00, 0x6f, 0x75, 0x74, 0x70,
  0x75, 0x74, 0x5f, 0x30, 0x00, 0x00, 0x00, 0x00, 0x01, 0x00, 0x00, 0x00,
  0x04, 0x00, 0x00, 0x00, 0xda, 0xae, 0xff, 0xff, 0x04, 0x00, 0x00, 0x00,
  0x0c, 0x00, 0x00, 0x00, 0x6b, 0x65, 0x72, 0x61, 0x73, 0x5f, 0x74, 0x65,
  0x6e, 0x73, 0x6f, 0x72, 0x00, 0x00, 0x00, 0x00, 0x02, 0x00, 0x00, 0x00,
  0x34, 0x00, 0x00, 0x00, 0x04, 0x00, 0x00, 0x00, 0xdc, 0xff, 0xff, 0xff,
  0x10, 0x00, 0x00, 0x00, 0x04, 0x00, 0x00, 0x00, 0x13, 0x00, 0x00, 0x00,
  0x43, 0x4f, 0x4e, 0x56, 0x45, 0x52, 0x53, 0x49, 0x4f, 0x4e, 0x5f, 0x4d,
  0x45, 0x54, 0x41, 0x44, 0x41, 0x54, 0x41, 0x00, 0x08, 0x00, 0x0c, 0x00,
  0x08, 0x00, 0x04, 0x00, 0x08, 0x00, 0x00, 0x00, 0x0f, 0x00, 0x00, 0x00,
  0x04, 0x00, 0x00, 0x00, 0x13, 0x00, 0x00, 0x00, 0x6d, 0x69, 0x6e, 0x5f,
  0x72, 0x75, 0x6e, 0x74, 0x69, 0x6d, 0x65, 0x5f, 0x76, 0x65, 0x72, 0x73,
  0x69, 0x6f, 0x6e, 0x00, 0x11, 0x00, 0x00, 0x00, 0x14, 0x50, 0x00, 0x00,
  0x0c, 0x50, 0x00, 0x00, 0xfc, 0x4e, 0x00, 0x00, 0xec, 0x46, 0x00, 0x00,
  0xdc, 0x26, 0x00, 0x00, 0xbc, 0x26, 0x00, 0x00, 0x6c, 0x26, 0x00, 0x00,
  0xdc, 0x25, 0x00, 0x00, 0xcc, 0x24, 0x00, 0x00, 0xbc, 0x00, 0x00, 0x00,
  0xb4, 0x00, 0x00, 0x00, 0xac, 0x00, 0x00, 0x00, 0xa4, 0x00, 0x00, 0x00,
  0x9c, 0x00, 0x00, 0x00, 0x94, 0x00, 0x00, 0x00, 0x74, 0x00, 0x00, 0x00,
  0x04, 0x00, 0x00, 0x00, 0x9a, 0xaf, 0xff, 0xff, 0x04, 0x00, 0x00, 0x00,
  0x60, 0x00, 0x00, 0x00, 0x10, 0x00, 0x00, 0x00, 0x00, 0x00, 0x00, 0x00,
  0x08, 0x00, 0x0e, 0x00, 0x08, 0x00, 0x04, 0x00, 0x08, 0x00, 0x00, 0x00,
  0x10, 0x00, 0x00, 0x00, 0x24, 0x00, 0x00, 0x00, 0x00, 0x00, 0x06, 0x00,
  0x08, 0x00, 0x04, 0x00, 0x06, 0x00, 0x00, 0x00, 0x04, 0x00, 0x00, 0x00,
  0x00, 0x00, 0x00, 0x00, 0x0c, 0x00, 0x18, 0x00, 0x14, 0x00, 0x10, 0x00,
  0x0c, 0x00, 0x04, 0x00, 0x0c, 0x00, 0x00, 0x00, 0x19, 0x47, 0xc5, 0xcb,
  0xb2, 0x07, 0x1b, 0xc4, 0x02, 0x00, 0x00, 0x00, 0x02, 0x00, 0x00, 0x00,
  0x04, 0x00, 0x00, 0x00, 0x06, 0x00, 0x00, 0x00, 0x32, 0x2e, 0x31, 0x39,
  0x2e, 0x30, 0x00, 0x00, 0x06, 0xb0, 0xff, 0xff, 0x04, 0x00, 0x00, 0x00,
  0x10, 0x00, 0x00, 0x00, 0x31, 0x2e, 0x35, 0x2e, 0x30, 0x00, 0x00, 0x00,
  0x00, 0x00, 0x00, 0x00, 0x00, 0x00, 0x00, 0x00, 0xc0, 0xa9, 0xff, 0xff,
  0xc4, 0xa9, 0xff, 0xff, 0xc8, 0xa9, 0xff, 0xff, 0xcc, 0xa9, 0xff, 0xff,
  0xd0, 0xa9, 0xff, 0xff, 0x36, 0xb0, 0xff, 0xff, 0x04, 0x00, 0x00, 0x00,
  0x00, 0x24, 0x00, 0x00, 0x0a, 0x26, 0x0e, 0x3d, 0x68, 0xec, 0x15, 0xbe,
  0xf7, 0xa5, 0x05, 0x3e, 0x1e, 0x65, 0x37, 0x3e, 0x75, 0x5f, 0xa2, 0x3d,
  0xc7, 0x9b, 0x48, 0xbe, 0x28, 0x10, 0x1e, 0x3e, 0xf1, 0x74, 0x1f, 0x3e,
  0x00, 0x92, 0xf5, 0xbd, 0xe2, 0x26, 0x8c, 0xbe, 0x77, 0x2c, 0xad, 0x3c,
  0xff, 0x7c, 0x7b, 0xbe, 0x3d, 0x41, 0xb1, 0x3d, 0x83, 0xf3, 0x8f, 0xbd,
  0x1a, 0x87, 0x0b, 0xbe, 0xea, 0xb8, 0xc4, 0xbd, 0x0d, 0x50, 0x4d, 0x3c,
  0x29, 0xe6, 0x99, 0x3d, 0x75, 0x6d, 0x83, 0x3c, 0x93, 0x6a, 0x2f, 0x3d,
  0x2b, 0x1a, 0x83, 0x3c, 0x29, 0x57, 0x1d, 0x3e, 0xa5, 0xbf, 0x0c, 0xbe,
  0x3e, 0x7e, 0x89, 0x3e, 0x9b, 0xd6, 0x39, 0xbe, 0xc0, 0x0a, 0x22, 0xbe,
  0x63, 0x27, 0x66, 0x3d, 0x2b, 0x9a, 0xa1, 0xbd, 0x21, 0x01, 0x9f, 0xbe,
  0xae, 0x66, 0xa4, 0x3d, 0xb2, 0x76, 0x88, 0xbd, 0x5e, 0x1e, 0xf1, 0x3d,
  0xb9, 0x9d, 0x33, 0x3e, 0xc9, 0x08, 0x4c, 0xbe, 0x26, 0xf2, 0xf9, 0xbd,
  0x1a, 0xd9, 0x0e, 0x3e, 0x44, 0x98, 0x35, 0x3e, 0xf4, 0x17, 0x7d, 0xbe,
  0x02, 0xd1, 0x0a, 0xbe, 0xd4, 0xbd, 0xc6, 0xbc, 0x8f, 0x4f, 0xa9, 0x3d,
  0x3d, 0x27, 0xd1, 0x3d, 0x2e, 0xbc, 0x06, 0x3e, 0xae, 0x3c, 0xdd, 0x3d,
  0x80, 0x5b, 0xd2, 0x3d, 0x95, 0x6c, 0xf5, 0x3c, 0x44, 0x91, 0x3d, 0x3e,
  0x36, 0x3a, 0xa1, 0x3e, 0xae, 0x47, 0x7f, 0x3d, 0xcf, 0xf0, 0x1f, 0xbe,
  0x08, 0x11, 0x27, 0xbe, 0x33, 0x40, 0x93, 0x3c, 0x7c, 0x3c, 0x08, 0x3d,
  0x5e, 0x8a, 0x4b, 0x3e, 0xfa, 0x75, 0xf5, 0x3d, 0xd9, 0x3b, 0x88, 0x3e,
  0xaa, 0x70, 0x62, 0x3e, 0x19, 0xca, 0xa1, 0xbd, 0x6d, 0x5b, 0x7e, 0xbd,
  0x34, 0xd8, 0xfe, 0x3d, 0xc7, 0x29, 0x55, 0x3e, 0x8d, 0x2c, 0x5d, 0x3d,
  0x55, 0x26, 0x3e, 0x3e, 0xfc, 0xb2, 0x42, 0xbe, 0xd1, 0xa0, 0x9d, 0x3e,
  0x80, 0xc3, 0x95, 0x3e, 0xee, 0x69, 0xa6, 0xbd, 0x8a, 0xf6, 0x02, 0xbd,
  0x8a, 0x7c, 0x61, 0x3e, 0xe5, 0xa0, 0x9a, 0xbe, 0xd6, 0x50, 0xe4, 0x3d,
  0xe5, 0xec, 0x54, 0xbd, 0x0a, 0x0a, 0x82, 0x3e, 0xcb, 0xb9, 0x4b, 0xbd,
  0x9c, 0x25, 0xcb, 0xbd, 0x55, 0xbf, 0x44, 0xbe, 0xc0, 0x64, 0xad, 0xbe,
  0x45, 0xc6, 0xfc, 0xbd, 0x12, 0x37, 0x97, 0x3d, 0x2a, 0xef, 0xc2, 0x3d,
  0x6e, 0x09, 0x6c, 0x3e, 0x5d, 0x7b, 0xe1, 0x3d, 0x9a, 0x60, 0xc8, 0x3d,
  0x3c, 0x28, 0x97, 0x3d, 0x4e, 0xa5, 0xe2, 0x3d, 0xcd, 0x71, 0x2e, 0xbd,
  0x40, 0xe6, 0x9b, 0xbd, 0xbd, 0x32, 0x1d, 0x3e, 0x4d, 0xe7, 0xc6, 0xbd,
  0x04, 0xc2, 0xc6, 0xbd, 0x43, 0x2f, 0x23, 0xbe, 0x39, 0x82, 0xef, 0x3d,
  0xe0, 0xae, 0x48, 0x3e, 0x3a, 0xa6, 0xb6, 0xbd, 0xc7, 0xa9, 0x91, 0x3e,
  0xc5, 0xdf, 0xc0, 0x3d, 0xa4, 0x9c, 0x2b, 0xbc, 0x00, 0x0d, 0x9a, 0x3e,
  0xca, 0xff, 0x0e, 0x3d, 0x47, 0x26, 0x85, 0xbe, 0x2e, 0x97, 0x82, 0x3e,
  0xb7, 0x0f, 0x78, 0x3b, 0x61, 0x14, 0xfc, 0x3d, 0x03, 0xd7, 0xa0, 0xba,
  0x86, 0x06, 0x27, 0x3e, 0x79, 0xc7, 0x5c, 0xbe, 0xee, 0xe8, 0xac, 0x3d,
  0x49, 0xca, 0x39, 0xbe, 0xe0, 0xf2, 0x31, 0x3e, 0xe4, 0x2d, 0x5d, 0x3d,
  0x7c, 0x8c, 0xb4, 0x3e, 0xcc, 0x91, 0xd3, 0x3c, 0xbc, 0x86, 0x7c, 0x3e,
  0x47, 0xbf, 0xbb, 0x3d, 0xf0, 0xfb, 0x7d, 0xbe, 0xbe, 0xd4, 0x82, 0xbe,
  0x95, 0x48, 0x3f, 0xbe, 0x94, 0xfc, 0x8a, 0x3e, 0x6a, 0x4b, 0xe1, 0x3d,
  0x41, 0xef, 0x8c, 0xbe, 0x61, 0xd2, 0x5a, 0xbc, 0x48, 0x04, 0x18, 0x3e,
  0x1a, 0x56, 0x36, 0xbd, 0x9e, 0x24, 0x79, 0x3e, 0xd7, 0x8b, 0xaf, 0x3d,
  0xd1, 0xf5, 0x8b, 0x3e, 0x3c, 0xa9, 0x12, 0x3e, 0x0b, 0x92, 0xbc, 0x3c,
  0xd2, 0x03, 0x0b, 0x3e, 0xc0, 0x8d, 0x9c, 0x3e, 0x2a, 0x2f, 0x52, 0x3e,
  0x55, 0x84, 0x6c, 0xbe, 0x74, 0x2f, 0x15, 0x3e, 0xeb, 0x8f, 0x9f, 0xbd,
  0xf1, 0x96, 0x56, 0x3e, 0x03, 0xc1, 0xfc, 0x3d, 0x0c, 0xf3, 0xe7, 0xbd,
  0x14, 0xd8, 0x0f, 0xbe, 0xe7, 0x28, 0x83, 0xbe, 0x17, 0x22, 0x4a, 0x3e,
  0xc1, 0x8d, 0x30, 0x3e, 0x18, 0x9a, 0x84, 0x3e, 0x44, 0xbf, 0x04, 0xbc,
  0x9b, 0x99, 0x76, 0x3e, 0x04, 0x9a, 0x4b, 0x3e, 0x51, 0xc2, 0xdf, 0xbd,
  0xe6, 0x84, 0x14, 0xbe, 0x91, 0x1e, 0x59, 0xbe, 0xa1, 0xd5, 0xe0, 0xbd,
  0xee, 0xdb, 0xa9, 0x3d, 0x8b, 0x74, 0x21, 0xbb, 0xab, 0x59, 0x56, 0x3e,
  0xb4, 0x38, 0x20, 0x3d, 0x7a, 0x82, 0xab, 0x3b, 0x38, 0xc3, 0x91, 0xbd,
  0x82, 0x12, 0xdb, 0x3d, 0xd4, 0xe8, 0xcc, 0xbc, 0xb1, 0x59, 0x38, 0x3e,
  0xfe, 0xc8, 0xd0, 0x3d, 0x64, 0xf1, 0xa9, 0x3c, 0x07, 0x53, 0x08, 0xbd,
  0x71, 0x4e, 0xbb, 0xbc, 0x1a, 0x02, 0x79, 0xbe, 0x8e, 0xcb, 0xa8, 0x3d,
  0xfa, 0xd4, 0xbd, 0x3d, 0x5c, 0x55, 0x0c, 0x3e, 0x67, 0xea, 0x4f, 0x3d,
  0x00, 0x98, 0x56, 0xbe, 0xd5, 0xd6, 0x84, 0xbb, 0xf0, 0xfc, 0xc1, 0xbc,
  0x36, 0x47, 0x18, 0xbd, 0xed, 0xc6, 0x4c, 0x3e, 0x3d, 0x84, 0x1a, 0x3d,
  0xb6, 0xcd, 0x84, 0xbd, 0xc7, 0x80, 0x16, 0xbc, 0x24, 0x3a, 0xcb, 0x3c,
  0xe3, 0x58, 0x5e, 0x3b, 0x68, 0xb9, 0x83, 0x3c, 0x1f, 0x54, 0xe0, 0xbd,
  0x54, 0xa7, 0x69, 0xbe, 0x85, 0xf4, 0x20, 0xbe, 0xe9, 0xf7, 0xa3, 0xbd,
  0xee, 0x08, 0x11, 0xbe, 0x93, 0x16, 0xb6, 0xbd, 0xa1, 0xe6, 0x90, 0xbd,
  0x45, 0x0b, 0xf2, 0xbd, 0x4b, 0x3b, 0x1f, 0xbc, 0x80, 0x19, 0xe3, 0x3d,
  0x32, 0xa4, 0xa0, 0xbe, 0x36, 0x45, 0x9e, 0xbd, 0xad, 0x62, 0x11, 0x3e,
  0x22, 0xdb, 0x3f, 0x3c, 0xdc, 0xf3, 0x11, 0x3e, 0x31, 0xec, 0xfc, 0x3d,
  0x71, 0x2f, 0x41, 0x3e, 0xfb, 0xe8, 0x9c, 0x3a, 0x4f, 0xab, 0xba, 0x3e,
  0xe5, 0x09, 0x9b, 0xbd, 0x67, 0x0e, 0x08, 0x3e, 0xfb, 0xd6, 0x8e, 0x3e,
  0x0e, 0xae, 0x8a, 0x3e, 0x54, 0xb1, 0xe5, 0xbd, 0xd4, 0x8f, 0x16, 0x3e,
  0x75, 0x76, 0x99, 0x3d, 0x94, 0x30, 0xf5, 0x3c, 0xf1, 0xc1, 0xbc, 0xbc,
  0xe4, 0xa9, 0x4f, 0xbe, 0x67, 0x0d, 0xe9, 0xbd, 0x5d, 0x14, 0x47, 0xbd,
  0x2d, 0x49, 0x50, 0xbe, 0x0c, 0x03, 0x6a, 0xbd, 0xe9, 0xb1, 0x25, 0xbc,
  0x5b, 0xe5, 0x3d, 0x3e, 0xac, 0xe0, 0xb3, 0x3e, 0xa2, 0xf6, 0x51, 0x3d,
  0xdd, 0xe6, 0xb6, 0xbd, 0xd9, 0xe7, 0x5a, 0x3e, 0x07, 0x2c, 0x35, 0x3e,
  0xac, 0x23, 0xb7, 0x3d, 0x7c, 0x06, 0x23, 0x3e, 0x00, 0xf4, 0x9e, 0xbc,
  0x2d, 0xe9, 0x13, 0xbe, 0xd6, 0xb9, 0xb3, 0x3e, 0xa1, 0xef, 0x57, 0xbe,
  0xb3, 0x15, 0x72, 0xbd, 0xb3, 0x2e, 0x33, 0xbe, 0x36, 0xec, 0xae, 0xbe,
  0x00, 0xd4, 0xa6, 0xbd, 0xf4, 0xd0, 0x82, 0x3e, 0xfd, 0x58, 0x19, 0x3e,
  0x4f, 0x6e, 0x8a, 0x3d, 0x47, 0x68, 0x61, 0x3e, 0x73, 0xaa, 0xbe, 0x3d,
  0x57, 0xa1, 0x65, 0xbe, 0x21, 0x69, 0x6a, 0x3e, 0x88, 0x66, 0x3d, 0x3e,
  0x6a, 0xf3, 0x0f, 0x3e, 0xd4, 0x87, 0x82, 0xbe, 0x66, 0x88, 0xab, 0xbb,
  0xc0, 0xbf, 0x06, 0xbe, 0xef, 0x49, 0xf3, 0x3d, 0x80, 0x93, 0x6d, 0xbe,
  0x22, 0xa4, 0x94, 0xbe, 0xbb, 0x58, 0x08, 0xbd, 0x44, 0x41, 0xce, 0x3c,
  0x49, 0x8f, 0xa3, 0xbe, 0x7d, 0x7d, 0x2b, 0x3d, 0xda, 0xc3, 0x07, 0xbe,
  0x7e, 0xda, 0x16, 0x3c, 0x0a, 0xc1, 0x93, 0xbb, 0x26, 0xed, 0x99, 0x3d,
  0x1b, 0xfe, 0x94, 0x3e, 0x40, 0x32, 0xdc, 0x3d, 0x8c, 0x16, 0xd7, 0x3b,
  0x64, 0xdb, 0x05, 0x3e, 0xd3, 0x27, 0x84, 0x3d, 0xd0, 0x83, 0xe5, 0x3c,
  0xf5, 0x13, 0x62, 0x3e, 0x87, 0x6c, 0x84, 0xbe, 0x2d, 0xe7, 0x3c, 0x3e,
  0x56, 0x04, 0xcf, 0x3d, 0x6e, 0xd3, 0x03, 0xbe, 0x86, 0xdb, 0x54, 0xbe,
  0x23, 0x42, 0x67, 0xbe, 0x5a, 0xef, 0xd2, 0x3d, 0xe8, 0xcc, 0x83, 0x39,
  0x3a, 0xd1, 0x48, 0x3e, 0x03, 0x53, 0x60, 0xbe, 0x9c, 0x55, 0x71, 0xbe,
  0x3d, 0x35, 0xe0, 0xbd, 0xd8, 0xbc, 0xa2, 0xbc, 0x65, 0xb8, 0xf1, 0xbd,
  0x3e, 0xca, 0x2e, 0xbe, 0x3b, 0x50, 0xf7, 0x3c, 0x22, 0xaf, 0x8d, 0x3d,
  0xd5, 0xc7, 0xac, 0xbc, 0x51, 0x3a, 0xb3, 0x3c, 0xc3, 0xf8, 0x7b, 0xbe,
  0x96, 0xa3, 0xdd, 0x3c, 0xb3, 0x65, 0x4e, 0x3e, 0x99, 0x96, 0xe8, 0x3d,
  0x4b, 0x6b, 0xb7, 0xbd, 0xda, 0xb5, 0x15, 0x3d, 0x5f, 0x75, 0xaf, 0xbd,
  0xaf, 0xd7, 0x87, 0x3d, 0xb7, 0x10, 0x18, 0xbe, 0xfe, 0x0a, 0x4e, 0x3a,
  0xa8, 0x4f, 0x25, 0x3d, 0x43, 0x49, 0xb8, 0xbd, 0x29, 0xde, 0x30, 0xbc,
  0xe8, 0x5b, 0x19, 0x3e, 0x67, 0x00, 0x45, 0x3e, 0xc2, 0x92, 0x59, 0xbe,
  0x2b, 0xc5, 0x8b, 0x3e, 0x6d, 0x80, 0x8e, 0xbd, 0x3c, 0x1b, 0x84, 0x3e,
  0xba, 0x46, 0x0e, 0x3e, 0xbf, 0x41, 0x07, 0xbd, 0xf3, 0x9a, 0x8e, 0xbd,
  0x5b, 0xce, 0x11, 0x3e, 0x63, 0x86, 0x5e, 0xbd, 0x10, 0x34, 0x80, 0xbe,
  0x2b, 0x6b, 0xab, 0xbc, 0x42, 0x52, 0x2f, 0x3e, 0x2e, 0xda, 0x8b, 0xbd,
  0xbb, 0x04, 0x9e, 0x3e, 0x70, 0x46, 0x99, 0x3d, 0x38, 0x1e, 0x01, 0x3e,
  0xd6, 0xcd, 0x51, 0x3e, 0xa2, 0x4e, 0x58, 0x3e, 0x99, 0x64, 0x03, 0x3e,
  0xd6, 0xf3, 0x3b, 0xbe, 0x4e, 0x40, 0x42, 0x3d, 0x45, 0x40, 0x4b, 0x3e,
  0xb8, 0xb8, 0x54, 0x3e, 0x93, 0x5f, 0x73, 0x3c, 0xa8, 0xa4, 0x45, 0x3e,
  0xdd, 0xc5, 0x4f, 0x3e, 0xf2, 0xb7, 0x28, 0xbb, 0x36, 0xa5, 0x5f, 0x3e,
  0x80, 0x66, 0x9f, 0x3e, 0xf6, 0xa1, 0x8a, 0xbe, 0x9e, 0x75, 0x78, 0x3e,
  0x24, 0xa6, 0x86, 0x3e, 0xef, 0xba, 0xae, 0x3e, 0xc2, 0x3b, 0xd8, 0x3e,
  0xc9, 0xc8, 0x70, 0xbc, 0x9b, 0xa6, 0x82, 0x3d, 0x97, 0x33, 0xaa, 0x3e,
  0xfb, 0x34, 0x37, 0xbd, 0x4d, 0x59, 0xbb, 0x3e, 0x60, 0x69, 0x1f, 0xbe,
  0xf5, 0xfa, 0x69, 0xbe, 0xbb, 0x21, 0x83, 0x3e, 0xc1, 0xe7, 0xbd, 0x3c,
  0x76, 0x58, 0x79, 0xbe, 0x9f, 0x32, 0x8a, 0x3c, 0x92, 0x49, 0x54, 0xbd,
  0x3c, 0xf2, 0xb4, 0x3e, 0x67, 0x58, 0x9b, 0x3e, 0x54, 0xe6, 0xa4, 0x3e,
  0x41, 0xaf, 0xf4, 0x3d, 0x28, 0x9c, 0x85, 0xbc, 0x14, 0x9b, 0xcc, 0x3d,
  0xac, 0x70, 0xd2, 0xbb, 0x35, 0xc9, 0x10, 0x3e, 0xd2, 0xff, 0x7d, 0xbe,
  0xbc, 0x8e, 0xb2, 0xbd, 0x97, 0xf8, 0xb0, 0xbd, 0xf4, 0x0c, 0x19, 0xbb,
  0x03, 0x8e, 0x1e, 0xbe, 0x22, 0xaa, 0x1e, 0x3e, 0x51, 0x16, 0xfa, 0xbc,
  0x7e, 0x5d, 0x39, 0xbd, 0x94, 0x80, 0x29, 0x3d, 0x77, 0x6c, 0x15, 0xbd,
  0x4f, 0x25, 0x1e, 0x3e, 0x9e, 0x34, 0x6c, 0x3d, 0x4b, 0x02, 0x87, 0x3e,
  0x31, 0x87, 0xc0, 0x3e, 0xec, 0xd1, 0x7d, 0x3e, 0xc4, 0xf1, 0xd9, 0x3c,
  0xc5, 0x0f, 0x89, 0x3d, 0x02, 0xd0, 0x70, 0x3e, 0xb3, 0x64, 0x83, 0xbd,
  0x3b, 0xac, 0x1c, 0xbe, 0x53, 0xb7, 0x1f, 0x3e, 0x34, 0xe7, 0x5b, 0xbe,
  0xce, 0x44, 0x27, 0x3d, 0xd6, 0xb5, 0x45, 0x3e, 0xa8, 0x86, 0xdd, 0x3d,
  0xa1, 0x51, 0xd7, 0xbb, 0xb4, 0x29, 0xf9, 0x3d, 0xf2, 0xe2, 0x6e, 0x3e,
  0xf1, 0x25, 0xb9, 0x3d, 0xeb, 0x12, 0x4f, 0x3e, 0x0a, 0x0c, 0x9e, 0x3e,
  0x12, 0xad, 0xc0, 0xbd, 0x5e, 0x47, 0xe9, 0xbc, 0xe2, 0xe8, 0x68, 0x3e,
  0xe0, 0xe4, 0x7f, 0x3e, 0xbf, 0x37, 0x3f, 0xbd, 0xdc, 0x81, 0x60, 0x3e,
  0x0e, 0xa3, 0x66, 0x3e, 0x48, 0x8f, 0x8c, 0xbe, 0x0d, 0x00, 0xe5, 0xbd,
  0xee, 0x42, 0x00, 0xbe, 0xdf, 0x29, 0x64, 0xbd, 0xe2, 0xd2, 0x6f, 0xbe,
  0x0a, 0x08, 0x33, 0xbd, 0x9d, 0xe3, 0x9e, 0x3e, 0xd7, 0xe8, 0x81, 0x3e,
  0x9d, 0xf7, 0xbe, 0x3d, 0xb0, 0x28, 0x21, 0x3e, 0xdb, 0x83, 0x95, 0x3d,
  0xd2, 0x23, 0xf0, 0x3d, 0x54, 0x0f, 0x26, 0xbd, 0x00, 0xf5, 0x3a, 0xbb,
  0x9f, 0xbb, 0x5f, 0xbe, 0x5e, 0x79, 0x3a, 0xbe, 0xb4, 0xd1, 0x76, 0x3d,
  0x8a, 0x42, 0xf3, 0x3d, 0x33, 0x6b, 0x1a, 0x3e, 0x53, 0x28, 0x2f, 0x3e,
  0x24, 0x80, 0x71, 0xbd, 0x00, 0x67, 0x73, 0x3b, 0x17, 0x99, 0x6a, 0x3e,
  0xe0, 0x92, 0x62, 0xbd, 0x2c, 0x20, 0x10, 0xbd, 0x99, 0xa1, 0x59, 0xbe,
  0xcc, 0x6e, 0x7c, 0x3d, 0x68, 0x63, 0x65, 0xbe, 0x6e, 0xa3, 0x08, 0xbe,
  0x00, 0xfa, 0xf3, 0xba, 0x82, 0xff, 0x3a, 0xbe, 0x40, 0x6d, 0x18, 0xbb,
  0xec, 0x87, 0x3b, 0xbd, 0x80, 0xeb, 0x44, 0xbc, 0x52, 0x47, 0x6e, 0xbe,
  0x47, 0x75, 0x54, 0x3e, 0x6c, 0x60, 0x30, 0x3d, 0x85, 0x51, 0x4d, 0x3e,
  0x16, 0xec, 0x0d, 0xbe, 0x28, 0xd2, 0xaa, 0x3c, 0x26, 0x51, 0xbf, 0xbd,
  0x3e, 0x91, 0xee, 0x3d, 0xc8, 0xdd, 0xe5, 0x3c, 0xd6, 0x67, 0x02, 0xbe,
  0x4b, 0xea, 0x28, 0x3e, 0x49, 0x7c, 0x6d, 0x3e, 0xca, 0x3f, 0x62, 0xbe,
  0x6f, 0x3c, 0x37, 0x3e, 0x44, 0x91, 0x94, 0xbc, 0xf3, 0x21, 0x54, 0xbe,
  0x97, 0xa2, 0x4a, 0x3e, 0x90, 0x7f, 0x0e, 0xbe, 0x4e, 0x1d, 0x9b, 0xbd,
  0x86, 0xf7, 0x9c, 0xbd, 0x21, 0x2f, 0x1b, 0x3e, 0xcf, 0x09, 0x5e, 0xbe,
  0xa8, 0x09, 0x9c, 0x3c, 0x11, 0xdf, 0x89, 0xbe, 0xb8, 0x09, 0x5d, 0x3d,
  0x41, 0xbd, 0xfd, 0x3d, 0x78, 0xf6, 0x0f, 0x3d, 0x82, 0xc7, 0xf3, 0xbd,
  0xd4, 0x51, 0x3b, 0x3e, 0xfc, 0x0a, 0xb3, 0x3d, 0x95, 0x21, 0x8d, 0xbd,
  0x1f, 0x0f, 0x37, 0xbe, 0xcc, 0xc0, 0x0e, 0xbd, 0x2c, 0x11, 0x43, 0xbd,
  0xae, 0x76, 0x11, 0xbe, 0xd7, 0x49, 0x52, 0x3e, 0xcb, 0x5a, 0x52, 0x3e,
  0x7f, 0x21, 0xc3, 0x3d, 0x86, 0xa8, 0x48, 0x3e, 0x1f, 0x20, 0x5d, 0xbe,
  0x14, 0x2d, 0x2d, 0xbc, 0x0e, 0xf8, 0x7e, 0xbd, 0xf1, 0x1a, 0x2b, 0xbe,
  0x72, 0xa9, 0x03, 0xbe, 0xa4, 0x4e, 0xb6, 0xbd, 0xa9, 0x64, 0x89, 0x3d,
  0x2d, 0x1b, 0x88, 0x3b, 0x4d, 0xe4, 0x0b, 0x3e, 0xa9, 0xd7, 0xda, 0x3c,
  0xe0, 0x74, 0xab, 0xbb, 0x74, 0xa3, 0x1c, 0xbe, 0x0e, 0x72, 0x33, 0x3d,
  0x5b, 0x7d, 0x6e, 0x3d, 0x13, 0x14, 0x28, 0x3e, 0xbc, 0xd8, 0x4e, 0x3d,
  0xe0, 0x17, 0x86, 0x3d, 0xa8, 0xfd, 0x13, 0x3e, 0xd8, 0xcc, 0x18, 0x3e,
  0x66, 0x02, 0xac, 0xbd, 0x36, 0xf0, 0x70, 0x3e, 0x12, 0x8e, 0xf6, 0x3d,
  0x94, 0x53, 0x16, 0x3c, 0xe8, 0x1b, 0x6c, 0x3e, 0x00, 0x72, 0xb7, 0xbd,
  0xbd, 0xf2, 0x48, 0x3e, 0x64, 0xb2, 0xa9, 0x3d, 0xc3, 0x69, 0xfd, 0x3c,
  0x11, 0x22, 0xb1, 0xbd, 0xc1, 0x2d, 0x92, 0x3e, 0x9a, 0x34, 0xe2, 0x3d,
  0x03, 0xba, 0xda, 0xbd, 0xda, 0x77, 0x00, 0xbe, 0x4d, 0xe8, 0xfa, 0xbd,
  0x5b, 0xa1, 0x50, 0x3d, 0x53, 0x86, 0x97, 0x3d, 0x92, 0x21, 0xfb, 0x3d,
  0xf7, 0x6f, 0x1a, 0x3e, 0x3a, 0xe3, 0x0d, 0x3d, 0xf6, 0x43, 0x6e, 0x3e,
  0x26, 0x97, 0x04, 0x3e, 0xde, 0x7f, 0x59, 0xbe, 0xae, 0xf0, 0xf6, 0xbd,
  0xe1, 0x3a, 0x04, 0xbe, 0x72, 0xd6, 0x8e, 0xbd, 0xc4, 0xc7, 0x25, 0xbe,
  0x7f, 0x5b, 0x02, 0xbe, 0x1a, 0x29, 0x8f, 0xbe, 0xf9, 0xe0, 0x7b, 0xbe,
  0xb4, 0xb6, 0x06, 0x3e, 0xbb, 0xbe, 0xb5, 0x3d, 0x85, 0x6e, 0x5a, 0xbe,
  0xcb, 0xbd, 0x1e, 0xbd, 0x2f, 0xe7, 0xa3, 0xbe, 0x57, 0x14, 0xa9, 0x3e,
  0x17, 0x99, 0xa1, 0x3d, 0x48, 0x50, 0x39, 0x3e, 0x74, 0x73, 0xab, 0x3e,
  0xaa, 0x02, 0x4d, 0x3e, 0x40, 0x47, 0x1f, 0x3e, 0x00, 0x59, 0x2b, 0xbe,
  0xdf, 0x09, 0x60, 0xbe, 0x9f, 0x61, 0x01, 0x3e, 0x87, 0x99, 0x20, 0xbe,
  0xbc, 0x14, 0x25, 0x3e, 0x6b, 0xf6, 0x01, 0xbe, 0x96, 0xf6, 0xf5, 0x3d,
  0xfb, 0xe8, 0x13, 0xbe, 0x90, 0x81, 0xa3, 0x3e, 0x0c, 0xfe, 0x8b, 0x3e,
  0xd6, 0x91, 0xf3, 0xbd, 0x0c, 0x36, 0x07, 0xbe, 0xc6, 0xb0, 0x2b, 0x3e,
  0x82, 0xae, 0x66, 0xbc, 0xe5, 0xaf, 0xb3, 0x3d, 0xd5, 0x2b, 0x40, 0x3e,
  0x51, 0x69, 0xe2, 0x3c, 0x52, 0x78, 0xef, 0x3d, 0x7a, 0x3b, 0x45, 0x3e,
  0xa3, 0xea, 0x00, 0xbe, 0x6b, 0xe6, 0xbf, 0xbd, 0x68, 0xf4, 0xee, 0x3c,
  0x39, 0xf3, 0x8a, 0xbb, 0xdd, 0x3c, 0x46, 0xbe, 0x42, 0x01, 0x65, 0xbe,
  0x55, 0xee, 0x17, 0x3e, 0x48, 0x32, 0x89, 0xbd, 0x90, 0x28, 0x65, 0x3c,
  0xbc, 0x36, 0x5d, 0x3d, 0x1d, 0x55, 0x53, 0x3e, 0x54, 0x9d, 0x32, 0xbe,
  0xc4, 0x5c, 0x29, 0xbd, 0xde, 0x6c, 0x1b, 0xbe, 0x8d, 0xd7, 0x62, 0xbe,
  0xc3, 0x2d, 0x36, 0x3e, 0x04, 0x35, 0x2d, 0xbe, 0x88, 0x44, 0x2f, 0xbd,
  0x04, 0xe9, 0x74, 0xbd, 0xf8, 0x58, 0x17, 0xbe, 0xcf, 0x64, 0x26, 0xbe,
  0xdd, 0x65, 0x54, 0xbe, 0x9b, 0x7c, 0x2f, 0x3e, 0xd6, 0x14, 0x06, 0xbe,
  0x90, 0x0b, 0xc1, 0xbc, 0x36, 0x79, 0x4b, 0xbe, 0xc0, 0x90, 0x8c, 0xbd,
  0x50, 0x54, 0x27, 0xbd, 0x1c, 0xd8, 0x4d, 0xbd, 0x58, 0xd1, 0xc2, 0x3c,
  0x89, 0x53, 0x6e, 0xbe, 0x06, 0xc7, 0xfd, 0x3d, 0x53, 0xec, 0x2b, 0xbe,
  0xbe, 0x5c, 0xbd, 0x3d, 0x5a, 0xb6, 0x3d, 0xbe, 0x94, 0x7d, 0x4d, 0xbe,
  0xb5, 0x46, 0x58, 0x3e, 0x0a, 0x3a, 0x4a, 0xbe, 0xdd, 0x09, 0x07, 0x3e,
  0xec, 0x40, 0x28, 0x3d, 0xca, 0x9f, 0x90, 0xbd, 0x00, 0x5f, 0xd5, 0xbc,
  0x20, 0x55, 0xd4, 0x3b, 0xad, 0xb1, 0x09, 0x3e, 0x02, 0xa4, 0xa4, 0x3d,
  0xe9, 0x1f, 0x08, 0x3e, 0x20, 0xde, 0xc0, 0xbc, 0xa9, 0xee, 0x1a, 0x3e,
  0x2a, 0x65, 0xf1, 0xbd, 0x2a, 0x7c, 0x3e, 0xbe, 0xb2, 0x3d, 0xfe, 0xbd,
  0x69, 0x2f, 0x3f, 0x3e, 0xf0, 0x3f, 0x57, 0xbc, 0xda, 0x86, 0x60, 0xbe,
  0x0c, 0x8e, 0x66, 0xbe, 0x00, 0x2a, 0xa2, 0x3a, 0x3a, 0x25, 0xac, 0xbd,
  0x9c, 0xb3, 0x08, 0xbd, 0xab, 0x46, 0x49, 0xbe, 0xbc, 0xc4, 0x60, 0xbe,
  0x00, 0x38, 0x13, 0x39, 0xc6, 0x1b, 0xba, 0x3d, 0xd0, 0x4c, 0x6c, 0xbe,
  0x15, 0x2e, 0x35, 0x3e, 0x96, 0x9c, 0xf0, 0xbd, 0xd3, 0x5f, 0x63, 0x3e,
  0x07, 0x94, 0xf8, 0xbd, 0x00, 0xa7, 0xaf, 0x3a, 0x2e, 0x2d, 0xa7, 0xbd,
  0x23, 0x3c, 0x50, 0xbe, 0x02, 0x5a, 0x99, 0x3d, 0xe2, 0x13, 0xa6, 0x3d,
  0xf4, 0xc0, 0x8f, 0xbd, 0x54, 0x1b, 0x22, 0xbe, 0xf0, 0x7e, 0x9e, 0xbd,
  0x10, 0xa1, 0x15, 0xbd, 0xaa, 0xb2, 0x0f, 0xbe, 0x86, 0x88, 0xef, 0xbd,
  0x15, 0xc9, 0x03, 0xbe, 0x49, 0xea, 0x37, 0xbe, 0xb8, 0x9e, 0x31, 0xbe,
  0xc0, 0x1f, 0x52, 0x3b, 0x1e, 0x4d, 0xdc, 0x3d, 0x90, 0x41, 0x6d, 0xbe,
  0xac, 0x34, 0xa4, 0xbd, 0x87, 0x05, 0x0b, 0x3e, 0x3c, 0x82, 0x32, 0x3d,
  0x5e, 0xee, 0xa0, 0xbd, 0x40, 0x67, 0x0e, 0xbc, 0xe2, 0x7d, 0x74, 0xbe,
  0xd7, 0x2f, 0x06, 0x3e, 0xfe, 0x35, 0x47, 0xbe, 0x12, 0x9a, 0x48, 0xbe,
  0x2a, 0x05, 0xd1, 0xbd, 0xec, 0xbe, 0x16, 0x3d, 0x60, 0x8b, 0xf8, 0x3b,
  0x52, 0x23, 0xdd, 0xbd, 0xe6, 0xcd, 0xce, 0x3d, 0xb1, 0x43, 0x0a, 0xbe,
  0x3e, 0xc7, 0xb0, 0x3d, 0x9c, 0xb5, 0x76, 0xbe, 0xb4, 0x3c, 0x35, 0x3d,
  0x0e, 0x0f, 0xc7, 0x3d, 0x3c, 0x6c, 0x25, 0x3d, 0x90, 0x34, 0xde, 0xbd,
  0xba, 0x01, 0xe8, 0xbd, 0x79, 0x2f, 0x0c, 0xbe, 0xaa, 0x96, 0xc3, 0xbd,
  0x58, 0xf1, 0x8c, 0xbc, 0x98, 0x7f, 0xc8, 0x3c, 0x33, 0xb1, 0x1e, 0x3e,
  0xb8, 0x55, 0x65, 0xbe, 0xa8, 0xd2, 0x29, 0xbd, 0xb7, 0xcc, 0x2c, 0xbd,
  0x19, 0x53, 0x9b, 0xbc, 0x9e, 0x51, 0x42, 0xbe, 0x07, 0x48, 0x0e, 0x3e,
  0x29, 0xf6, 0x03, 0x3e, 0x3a, 0xb0, 0x32, 0x3d, 0xe4, 0x1c, 0xeb, 0x3d,
  0x1c, 0x9d, 0x3e, 0x3d, 0xca, 0xbb, 0x77, 0x3e, 0x36, 0xb1, 0x3c, 0xbd,
  0x3b, 0x8b, 0xa6, 0xbd, 0x45, 0x72, 0x6a, 0xbe, 0x22, 0xf4, 0x29, 0x3d,
  0x0e, 0x0b, 0xf0, 0xbc, 0xfe, 0x8a, 0x86, 0xbc, 0xe2, 0xae, 0x2f, 0xbe,
  0x23, 0x53, 0xfc, 0xbc, 0x8e, 0xe4, 0x06, 0xbd, 0xde, 0xcd, 0x17, 0x3d,
  0x72, 0xad, 0xac, 0xbe, 0x5a, 0x7a, 0xb7, 0x3e, 0xfb, 0xb8, 0xe4, 0x3c,
  0xd2, 0xd7, 0x5f, 0xbd, 0xdf, 0xde, 0x56, 0x3e, 0x03, 0x42, 0x81, 0x3e,
  0xde, 0xcb, 0x1e, 0xbe, 0x09, 0x2b, 0x08, 0x3e, 0x37, 0x26, 0xb1, 0x3e,
  0x1d, 0x8f, 0xd3, 0x3c, 0x7e, 0xaa, 0x25, 0xbd, 0x0d, 0x9c, 0x80, 0xbd,
  0xb4, 0xfe, 0x26, 0x3e, 0x75, 0xa9, 0x67, 0xbd, 0x71, 0xf9, 0x21, 0x3c,
  0x8e, 0x7e, 0x2e, 0x3e, 0xd5, 0x89, 0x51, 0xbd, 0x9e, 0x28, 0x6a, 0x3e,
  0x5e, 0xb5, 0x3c, 0x3e, 0x54, 0x88, 0x69, 0x3e, 0x97, 0x0f, 0xa5, 0xbd,
  0x3d, 0xf7, 0x9f, 0x3d, 0x3d, 0x80, 0xc2, 0x3e, 0xf1, 0x66, 0xa2, 0xbe,
  0xe0, 0x68, 0xaa, 0xbd, 0x2e, 0xea, 0x16, 0x3e, 0xec, 0x0d, 0x7f, 0xbe,
  0xc3, 0x4a, 0x12, 0x3e, 0xbb, 0x21, 0x19, 0x3e, 0xd0, 0xcc, 0x84, 0x3d,
  0xe2, 0xae, 0x72, 0xbe, 0x9e, 0xad, 0x1c, 0xbe, 0x15, 0x46, 0xaa, 0x3c,
  0x46, 0x4d, 0xfd, 0x3d, 0x3c, 0xe5, 0xd8, 0xbd, 0xbd, 0x4d, 0xf3, 0x3b,
  0x55, 0xab, 0x64, 0x3e, 0x05, 0xf9, 0xb8, 0xbe, 0x49, 0xae, 0x7a, 0x3d,
  0xfa, 0x06, 0x6b, 0x3e, 0x8b, 0x2e, 0xae, 0xbe, 0xb0, 0xef, 0x88, 0xbd,
  0xde, 0x0f, 0xc0, 0x3d, 0xb7, 0x18, 0xd6, 0x3d, 0x3d, 0x12, 0x96, 0xbe,
  0x29, 0x5f, 0x84, 0xbe, 0x04, 0xd9, 0x69, 0x3e, 0x56, 0x54, 0x16, 0x3e,
  0x80, 0x25, 0x83, 0xbd, 0x97, 0x55, 0x36, 0x3e, 0x3d, 0xbf, 0xbb, 0x3d,
  0xf7, 0xe3, 0x5e, 0x3d, 0x23, 0x4e, 0x18, 0x3e, 0x44, 0x4e, 0x5a, 0xbd,
  0x4f, 0xb6, 0x29, 0x3e, 0x3a, 0x8e, 0x14, 0xbe, 0xfa, 0xe0, 0xd1, 0xbd,
  0xfc, 0x72, 0xce, 0xbd, 0xe2, 0x3b, 0xb8, 0x3d, 0xb8, 0xe8, 0x6b, 0xbe,
  0xec, 0x59, 0x26, 0x3d, 0x54, 0x88, 0x13, 0xbe, 0x4b, 0x72, 0x75, 0x3e,
  0xd6, 0x6f, 0x0d, 0xbe, 0x28, 0x7b, 0x08, 0xbe, 0xd2, 0x4f, 0xb7, 0x3d,
  0x18, 0x73, 0x4e, 0xbe, 0x2f, 0x25, 0x2d, 0xbe, 0xba, 0x38, 0xba, 0x3d,
  0x38, 0x0d, 0x93, 0x3c, 0x93, 0xe5, 0x1f, 0x3e, 0x30, 0x18, 0x48, 0xbc,
  0x50, 0xcd, 0x11, 0x3c, 0xf9, 0xce, 0x1d, 0x3e, 0x74, 0x48, 0xa6, 0xbd,
  0xc4, 0xbd, 0x79, 0xbd, 0x03, 0x5e, 0x68, 0x3e, 0x2e, 0x1b, 0xb7, 0xbd,
  0x78, 0xc5, 0xd7, 0x3c, 0xc8, 0x7a, 0x22, 0xbd, 0x0a, 0x7d, 0xaa, 0xbd,
  0x0f, 0xd6, 0x71, 0x3e, 0x68, 0xbe, 0xa6, 0xbc, 0xe0, 0xb8, 0x6b, 0xbc,
  0x8c, 0x26, 0x07, 0xbd, 0x53, 0x00, 0x2f, 0xbe, 0x6c, 0x92, 0x40, 0x3d,
  0xe0, 0x30, 0x97, 0xbb, 0xe7, 0x90, 0x37, 0xbe, 0x4a, 0xd3, 0xe6, 0x3e,
  0xd9, 0x1b, 0xd8, 0x3d, 0x67, 0xf7, 0x2e, 0x3e, 0x5b, 0x22, 0xc5, 0x3e,
  0x2a, 0x1b, 0xd0, 0x3d, 0x5b, 0x95, 0x1d, 0xbe, 0x95, 0x5f, 0xcd, 0xbe,
  0xe8, 0xd6, 0xb2, 0xbd, 0x33, 0xb6, 0x36, 0x3e, 0x02, 0xd6, 0x9a, 0x3d,
  0x25, 0xed, 0x65, 0x3d, 0xa0, 0x53, 0x96, 0xbd, 0xdb, 0x74, 0xb0, 0x3d,
  0x8e, 0xba, 0x04, 0xbe, 0xcd, 0xf8, 0x8c, 0x3e, 0xab, 0x6b, 0x58, 0x3e,
  0x29, 0xa4, 0x81, 0xbd, 0x98, 0xfb, 0x3b, 0xbd, 0x39, 0x53, 0x36, 0xbe,
  0x9a, 0x63, 0xe6, 0x3a, 0x9f, 0xc3, 0x82, 0x3d, 0xa1, 0xba, 0x89, 0xbe,
  0x63, 0xed, 0x9a, 0xbe, 0xcd, 0x14, 0x91, 0x3b, 0x84, 0x2c, 0x7d, 0xbe,
  0xce, 0x33, 0x4a, 0xbe, 0xfe, 0xb7, 0xd4, 0xbc, 0x97, 0x63, 0xe3, 0xbd,
  0xb8, 0x89, 0x83, 0x3b, 0xe9, 0x66, 0xf7, 0x3d, 0xb7, 0x41, 0x92, 0x3e,
  0x4e, 0x56, 0xe6, 0x3d, 0xc7, 0xe0, 0x5f, 0x3e, 0xfa, 0xec, 0x2c, 0xbd,
  0x83, 0x72, 0x90, 0x3e, 0x5c, 0x42, 0x96, 0xbd, 0x4f, 0xf8, 0x60, 0x3e,
  0x50, 0x54, 0x5d, 0x3c, 0x05, 0x55, 0x36, 0x3e, 0x39, 0x08, 0x4f, 0x3e,
  0x60, 0x6e, 0x6f, 0xbe, 0x6d, 0xd3, 0x71, 0x3e, 0xf9, 0xb8, 0x52, 0x3e,
  0x51, 0x3d, 0x1b, 0xbe, 0xd2, 0xa2, 0x38, 0xbe, 0xb5, 0x54, 0x27, 0xbe,
  0xe4, 0xde, 0x57, 0xbe, 0x82, 0x38, 0xcd, 0x3d, 0xd0, 0xe6, 0x6e, 0xbe,
  0x0e, 0x8a, 0xec, 0x3d, 0x3f, 0x23, 0x72, 0xbe, 0x02, 0x2d, 0xa0, 0xbd,
  0x29, 0x47, 0x13, 0x3e, 0xd4, 0xa9, 0x6b, 0x3d, 0x00, 0x03, 0x9a, 0xbb,
  0x9a, 0xa5, 0x64, 0xbe, 0x95, 0x2a, 0x67, 0x3e, 0x90, 0x86, 0x76, 0x3c,
  0xf8, 0xb2, 0x30, 0xbd, 0xba, 0xc5, 0xee, 0xbd, 0x5b, 0xd9, 0x2a, 0x3e,
  0xc2, 0x40, 0xd6, 0x3d, 0x44, 0x8e, 0x42, 0xbd, 0x20, 0x3e, 0xed, 0xbc,
  0xd2, 0xbc, 0xaf, 0x3d, 0xb0, 0xc1, 0x29, 0xbd, 0x10, 0xbc, 0x49, 0xbc,
  0x9e, 0xa8, 0x71, 0xbe, 0x30, 0xf6, 0x4d, 0xbd, 0x8d, 0x3a, 0x74, 0xbe,
  0xf0, 0xfd, 0xdc, 0xbd, 0x4c, 0x6d, 0x95, 0x3d, 0x3c, 0x5f, 0x9c, 0xbe,
  0xb8, 0xeb, 0xd6, 0xbd, 0xaf, 0x67, 0x1b, 0x3e, 0xc3, 0xfe, 0x7b, 0xbe,
  0x56, 0x1c, 0xf0, 0x3b, 0x58, 0x8a, 0x08, 0x3e, 0xcd, 0xed, 0x4c, 0x3e,
  0x61, 0x57, 0xa6, 0x3d, 0x72, 0x2b, 0xea, 0x3d, 0x8b, 0x88, 0xf1, 0xbd,
  0xfd, 0xe5, 0x4a, 0x3e, 0x45, 0xd1, 0x03, 0xbe, 0xf8, 0xa4, 0xaa, 0x3e,
  0xd8, 0x04, 0xbf, 0xbd, 0x05, 0x9b, 0x13, 0x3d, 0x2c, 0xe1, 0xe9, 0xbd,
  0xdf, 0x77, 0x43, 0xbe, 0x43, 0xea, 0x68, 0x3d, 0x86, 0x1c, 0x57, 0x3e,
  0x7b, 0xf1, 0x29, 0x3e, 0x97, 0x25, 0x05, 0xbe, 0x42, 0x48, 0x2b, 0xbe,
  0x0c, 0xdd, 0x70, 0x3e, 0xdd, 0x24, 0x89, 0xbe, 0xb5, 0x56, 0x3c, 0x3e,
  0x99, 0x47, 0x7d, 0x3e, 0xde, 0xc5, 0x13, 0x3d, 0x72, 0x8d, 0xb1, 0xbd,
  0x6a, 0x44, 0x2d, 0xbd, 0x2f, 0xff, 0x3b, 0x3d, 0xb1, 0x08, 0x17, 0xbe,
  0x85, 0x6f, 0x09, 0x3e, 0x88, 0x1a, 0x15, 0xbe, 0x63, 0x44, 0x5b, 0xbe,
  0x8c, 0xac, 0x15, 0x3e, 0xa0, 0x12, 0xce, 0xbd, 0x90, 0x0b, 0x9c, 0x3e,
  0x05, 0xd0, 0x38, 0x3e, 0xea, 0x91, 0x68, 0x3e, 0x28, 0xad, 0xd0, 0x3d,
  0x63, 0x57, 0x08, 0xbe, 0x2c, 0x1c, 0x34, 0xbe, 0x1c, 0x83, 0xf7, 0xbd,
  0x5d, 0x83, 0x9e, 0x3d, 0xc5, 0x81, 0x29, 0xbc, 0xe4, 0xcd, 0x38, 0xbd,
  0x68, 0x0a, 0x3c, 0xbd, 0xfb, 0x58, 0x06, 0xbe, 0x57, 0x9a, 0x80, 0x3d,
  0x31, 0x4c, 0xec, 0x3c, 0xfe, 0xb0, 0x0e, 0xbe, 0xef, 0x8f, 0x9b, 0x3e,
  0x7f, 0xb6, 0x3c, 0xbd, 0x65, 0x42, 0x5e, 0x3e, 0x57, 0x44, 0x43, 0x3e,
  0x21, 0xc8, 0x79, 0x3e, 0xfe, 0xaf, 0x7f, 0xbe, 0x9a, 0x1b, 0x4f, 0x3e,
  0x2b, 0xe2, 0x89, 0x3e, 0xec, 0xa6, 0xe8, 0x3c, 0x71, 0xe0, 0x86, 0xbe,
  0x04, 0xa8, 0x6d, 0xbe, 0x3e, 0xd2, 0x89, 0x3e, 0xc9, 0x28, 0x9c, 0x3d,
  0x53, 0xb8, 0xeb, 0x3c, 0x32, 0xc5, 0x03, 0xbd, 0xf1, 0x01, 0x2b, 0xbe,
  0xdb, 0x2c, 0x3a, 0x3e, 0x59, 0x29, 0x08, 0xbc, 0x61, 0x20, 0x23, 0xbe,
  0x07, 0x85, 0x97, 0xbd, 0x35, 0x6e, 0x1c, 0xbd, 0xf3, 0x95, 0x06, 0xbd,
  0x4a, 0x2e, 0xb0, 0x3e, 0x9f, 0xa4, 0x39, 0x3c, 0x75, 0x16, 0x8f, 0xbb,
  0x27, 0xa9, 0x63, 0x3e, 0xd2, 0x7a, 0xf6, 0xbd, 0xd9, 0xff, 0xa7, 0xbd,
  0x99, 0xa1, 0x72, 0xbe, 0xc1, 0xef, 0x80, 0x3e, 0xcb, 0x12, 0x05, 0xbe,
  0xcc, 0xed, 0x82, 0x3e, 0x19, 0xf7, 0x7a, 0x3e, 0x75, 0x1c, 0xb3, 0x3b,
  0x04, 0x3c, 0x9e, 0xbc, 0x9b, 0x1b, 0x37, 0x3c, 0xfd, 0x2a, 0xf3, 0xbd,
  0x47, 0x90, 0x7f, 0x3e, 0x00, 0x1a, 0xc2, 0xbd, 0x79, 0xab, 0xd1, 0x3d,
  0xa5, 0x78, 0x96, 0xbd, 0x2a, 0xa9, 0xa4, 0x3e, 0xc7, 0x50, 0x86, 0xbc,
  0x70, 0xfd, 0xaf, 0x3c, 0xa3, 0xfd, 0x74, 0x3e, 0xe6, 0x1e, 0x40, 0xbd,
  0x37, 0x8d, 0xb3, 0xbd, 0xde, 0xbf, 0x4f, 0x3d, 0xd7, 0x47, 0x34, 0xbc,
  0xff, 0x9b, 0xa9, 0xbd, 0xd8, 0x3b, 0x34, 0x3e, 0xea, 0x3e, 0xbc, 0x3e,
  0xc1, 0x43, 0x40, 0x3e, 0x2e, 0x20, 0x51, 0xbe, 0xde, 0x32, 0x9b, 0x3e,
  0x6d, 0x59, 0x92, 0x3d, 0xa9, 0xd5, 0x9e, 0x3d, 0x92, 0xd5, 0xaf, 0xbc,
  0x65, 0x9e, 0xdc, 0x3d, 0x89, 0xac, 0x40, 0x3d, 0xc6, 0x6e, 0xac, 0xbe,
  0x87, 0xce, 0x3f, 0x3c, 0xbe, 0xe1, 0x74, 0x3d, 0x5f, 0xa1, 0x08, 0x3d,
  0x6c, 0xf1, 0x7e, 0x3e, 0x4f, 0xac, 0x87, 0x3e, 0x4e, 0x46, 0xcc, 0xbd,
  0xe7, 0x71, 0x47, 0x3c, 0xd6, 0xda, 0x39, 0x3d, 0xa1, 0xc1, 0xab, 0xbc,
  0x5c, 0xaa, 0xf4, 0xbd, 0xb2, 0x32, 0xe0, 0xbd, 0x76, 0xe5, 0x5d, 0xbe,
  0xd6, 0xa3, 0x81, 0xbe, 0x21, 0xe0, 0x8b, 0x3d, 0x9a, 0x16, 0xa4, 0x3e,
  0x2c, 0x28, 0xa0, 0x3e, 0x17, 0x6c, 0x9e, 0xbe, 0x4a, 0x99, 0x67, 0x3e,
  0xc8, 0x3d, 0xbc, 0x3e, 0x47, 0x03, 0x4e, 0xbe, 0x86, 0xd7, 0xf2, 0x3d,
  0xa9, 0x73, 0xdb, 0xbd, 0xfb, 0xe7, 0x37, 0x3d, 0x62, 0xfb, 0x7d, 0x3d,
  0xa9, 0x2f, 0x3e, 0x3c, 0x1d, 0xca, 0xe3, 0xbc, 0x73, 0x7c, 0xfe, 0xbd,
  0x6f, 0x32, 0x97, 0xbc, 0xa8, 0xed, 0x58, 0x3c, 0xf5, 0x41, 0xdf, 0xbd,
  0x2d, 0x82, 0xd0, 0xbc, 0xc9, 0x24, 0xc8, 0x3d, 0xfb, 0x74, 0x13, 0xbd,
  0x03, 0x60, 0x22, 0x3d, 0xd2, 0x61, 0x36, 0x3c, 0xcf, 0xb3, 0x92, 0xbc,
  0x54, 0xb4, 0x79, 0xbe, 0x03, 0xb1, 0x04, 0xbe, 0x77, 0xf4, 0x46, 0xbe,
  0x3d, 0x7e, 0x2b, 0x3d, 0xca, 0xb8, 0xda, 0xbc, 0x72, 0x7f, 0x3b, 0xbe,
  0xe9, 0xeb, 0x62, 0xbe, 0x1a, 0xdf, 0x7d, 0xbe, 0x43, 0xdd, 0x55, 0xbe,
  0xff, 0x3c, 0x4a, 0x3e, 0xeb, 0x77, 0x2d, 0x3e, 0x51, 0xc0, 0xa8, 0x3d,
  0xa6, 0x16, 0x3c, 0xbd, 0x8f, 0xb4, 0xc0, 0x3c, 0x6a, 0x3b, 0x83, 0xbd,
  0x89, 0x51, 0x04, 0xbe, 0xcd, 0xfc, 0xd2, 0xbd, 0x3b, 0x04, 0xf4, 0xbd,
  0x18, 0xe1, 0x06, 0xbd, 0xaa, 0xa1, 0x43, 0x3e, 0x57, 0x21, 0x70, 0xbe,
  0x65, 0xfc, 0x5f, 0x3c, 0xdc, 0xf1, 0xc1, 0x3d, 0xf0, 0x21, 0x80, 0x3d,
  0x00, 0x32, 0xec, 0x3d, 0x2a, 0x98, 0x2a, 0x3e, 0x0d, 0xaf, 0x6f, 0xbe,
  0xcd, 0xba, 0x2f, 0xbd, 0x6a, 0x7a, 0x58, 0x3c, 0x65, 0x6c, 0x2e, 0x3e,
  0x31, 0xeb, 0x81, 0xbd, 0xc5, 0x8e, 0xdd, 0xbd, 0x5c, 0xb9, 0x63, 0x3e,
  0xe9, 0x19, 0xa7, 0xbc, 0xa5, 0xd1, 0x5c, 0xbd, 0x15, 0x27, 0x93, 0x3e,
  0x23, 0x1b, 0x2c, 0x3e, 0xca, 0x35, 0xd3, 0xbd, 0xc2, 0xa5, 0x02, 0xbe,
  0xd9, 0x13, 0x27, 0x3d, 0xa7, 0xcd, 0x76, 0x3e, 0x1b, 0x92, 0xdf, 0xbd,
  0xf1, 0xeb, 0x44, 0x3d, 0x76, 0xfe, 0x6c, 0xbe, 0xbe, 0x51, 0x92, 0x3d,
  0x86, 0xf6, 0x85, 0x3d, 0xff, 0xa8, 0xf4, 0x3d, 0x73, 0x9b, 0xb0, 0x3d,
  0xb7, 0x68, 0x8a, 0x3e, 0x54, 0x3f, 0x46, 0xbe, 0xac, 0xac, 0x22, 0x3c,
  0x8f, 0xc7, 0x68, 0xbe, 0xd2, 0x84, 0xcb, 0x3e, 0x44, 0xe6, 0x40, 0x3d,
  0xb5, 0x06, 0xad, 0xbe, 0xa5, 0x29, 0x59, 0x3d, 0x0d, 0x40, 0x3f, 0x3e,
  0x0e, 0x94, 0xd2, 0x3d, 0xd3, 0xd5, 0x60, 0x3e, 0x08, 0x20, 0x84, 0x3e,
  0x96, 0x63, 0x69, 0x3d, 0xc5, 0x8b, 0x49, 0x3e, 0xec, 0x5e, 0x5a, 0x3e,
  0xe2, 0xc8, 0x28, 0x3e, 0xca, 0xfe, 0xf7, 0xbd, 0x6c, 0x11, 0x5d, 0x3d,
  0x93, 0xee, 0xc3, 0xbd, 0x75, 0x8a, 0xda, 0xbd, 0xf2, 0x03, 0xaa, 0x3e,
  0xf9, 0x31, 0xcf, 0x3d, 0x54, 0x52, 0x36, 0xbe, 0x7d, 0xd2, 0x40, 0xbd,
  0x17, 0xbf, 0xf1, 0xbc, 0x43, 0xff, 0x6d, 0xbe, 0x74, 0x05, 0xd2, 0xbe,
  0xe9, 0x8b, 0x89, 0xbe, 0x76, 0x54, 0x86, 0x3b, 0xa5, 0xbf, 0xa7, 0x3d,
  0x2a, 0xcb, 0x39, 0xbb, 0xce, 0x90, 0x2b, 0x3e, 0xfd, 0xfe, 0x60, 0xbe,
  0xcb, 0xaf, 0x0a, 0xbe, 0xbe, 0xd9, 0x87, 0x3e, 0x6b, 0xd5, 0x15, 0x3e,
  0x31, 0x33, 0xd9, 0xbd, 0x3f, 0x79, 0x95, 0x3d, 0x70, 0xcb, 0xb1, 0xbe,
  0xaf, 0x85, 0x0a, 0xbe, 0x43, 0x0b, 0xea, 0xbd, 0xe0, 0x65, 0x1e, 0xbe,
  0xac, 0x0b, 0xb0, 0xbe, 0xaa, 0xeb, 0xc3, 0x3a, 0x29, 0xcd, 0x17, 0xbd,
  0x40, 0x7d, 0x70, 0x3d, 0xfb, 0x18, 0x9f, 0x3e, 0xb8, 0xac, 0x73, 0x3e,
  0x2a, 0x04, 0x46, 0xbe, 0xb1, 0x0e, 0x8c, 0xbe, 0x24, 0xba, 0xf9, 0x3d,
  0xfe, 0x9d, 0x9a, 0x3e, 0x8d, 0x10, 0xee, 0x3c, 0x8f, 0x5e, 0x1c, 0x3d,
  0x22, 0x33, 0xa5, 0x3d, 0x88, 0x74, 0x24, 0xbe, 0x64, 0x99, 0xaa, 0xbd,
  0x60, 0xa9, 0x52, 0xbd, 0x7a, 0x0a, 0xf5, 0x3d, 0xe0, 0x99, 0x89, 0xbc,
  0x1a, 0x34, 0x15, 0xbe, 0xcd, 0x41, 0x65, 0x3e, 0x47, 0x3a, 0x4c, 0x3d,
  0xcc, 0xe8, 0x1d, 0x3e, 0xd2, 0xa5, 0x43, 0xbe, 0x80, 0x9e, 0x44, 0x3e,
  0xd7, 0x53, 0x66, 0xbe, 0xca, 0xaa, 0x26, 0xbd, 0xfb, 0x62, 0x03, 0xbd,
  0x47, 0x78, 0xbe, 0x3d, 0xe9, 0x93, 0xb1, 0xbd, 0x06, 0xb2, 0x39, 0xbe,
  0x95, 0x91, 0x7a, 0x3c, 0x2c, 0x9a, 0x55, 0x3d, 0xf4, 0x0c, 0x53, 0x3d,
  0x6b, 0x60, 0x62, 0xbe, 0x38, 0x56, 0x75, 0xbe, 0x1c, 0x18, 0xff, 0x3d,
  0x80, 0x08, 0x1c, 0x3e, 0xa5, 0xdb, 0x71, 0xbe, 0x59, 0xa7, 0x2c, 0xbe,
  0x6f, 0xa9, 0x7f, 0xbe, 0x7b, 0x7c, 0xdc, 0x3d, 0x35, 0x2b, 0x4f, 0xbe,
  0x50, 0xe7, 0x8b, 0xbd, 0x5b, 0x28, 0x66, 0xbe, 0xe3, 0xa5, 0x2c, 0xbe,
  0x21, 0x7d, 0x6b, 0x3e, 0xe6, 0x9f, 0x3c, 0x3d, 0xf8, 0x44, 0xdb, 0x3d,
  0x9a, 0x1a, 0xf9, 0x3d, 0x95, 0x1d, 0xfa, 0x3d, 0x2a, 0xd2, 0xa8, 0xbe,
  0x6b, 0x22, 0x4e, 0xbe, 0x11, 0x3f, 0x55, 0x39, 0x89, 0x45, 0x85, 0x3d,
  0x8e, 0x3c, 0x41, 0x3e, 0x4f, 0xc9, 0x95, 0x3d, 0x8b, 0x02, 0x6c, 0x3d,
  0x85, 0x7d, 0xb8, 0x3c, 0x3a, 0x7b, 0xa2, 0xbd, 0x96, 0xb9, 0xa6, 0x3e,
  0x82, 0xb7, 0x86, 0x3e, 0xbb, 0x20, 0xd4, 0xbd, 0xe6, 0x2f, 0xb9, 0xbd,
  0x11, 0x65, 0x50, 0xbc, 0xe3, 0xbb, 0x69, 0x3e, 0xca, 0x7c, 0x86, 0xbe,
  0x44, 0x19, 0xa1, 0x3d, 0xae, 0x22, 0x08, 0xbe, 0xfa, 0xbe, 0x63, 0x3e,
  0x0a, 0x5e, 0x80, 0x3e, 0xb9, 0xd7, 0x4a, 0x3e, 0x51, 0x9d, 0x8a, 0x3e,
  0x0a, 0x49, 0xe4, 0x3d, 0x89, 0xc5, 0x99, 0x3d, 0x92, 0xe2, 0x3c, 0x3e,
  0xe3, 0xdd, 0x9e, 0x3e, 0xcb, 0x0c, 0x1d, 0x3d, 0x13, 0x9d, 0x1a, 0x3e,
  0xe9, 0x3c, 0xa4, 0x3e, 0x92, 0xf1, 0x84, 0x3c, 0x7b, 0x3b, 0x3e, 0xbe,
  0xba, 0xcb, 0x3a, 0xbe, 0x9a, 0xaf, 0x72, 0x3e, 0x0f, 0x65, 0x54, 0xbd,
  0xed, 0x7f, 0x6f, 0x3e, 0xe9, 0x5b, 0x1f, 0xbe, 0x09, 0xed, 0xa5, 0x3d,
  0x9b, 0x9a, 0x3e, 0x3e, 0x3a, 0x55, 0x8f, 0x3e, 0x00, 0xdd, 0x90, 0x3e,
  0x03, 0x88, 0x51, 0xbe, 0xfa, 0x3f, 0xee, 0x3b, 0xf5, 0xb2, 0x86, 0xbe,
  0x1e, 0xae, 0x27, 0xbe, 0x20, 0x2e, 0x36, 0x3e, 0x4c, 0x66, 0x14, 0xbe,
  0xf2, 0xaf, 0x4c, 0xbe, 0xe9, 0xc9, 0xc5, 0x3d, 0xa1, 0x14, 0x5a, 0xbe,
  0x64, 0x8f, 0xea, 0x3d, 0xbd, 0x1f, 0x12, 0xbe, 0x09, 0x0b, 0xdc, 0x3c,
  0x03, 0x94, 0x94, 0x3e, 0x45, 0x58, 0x0b, 0xbe, 0xd0, 0xe1, 0xe8, 0x3d,
  0x37, 0x65, 0x5f, 0xbe, 0xd5, 0xe8, 0x20, 0x3e, 0x3d, 0x8a, 0xe4, 0xbd,
  0xa0, 0x0e, 0x8e, 0xbd, 0x16, 0xbe, 0x31, 0xbd, 0x04, 0x5b, 0x0b, 0x3e,
  0x21, 0xf0, 0x3a, 0xbe, 0xb2, 0x01, 0x91, 0x3d, 0xbc, 0x29, 0x7c, 0x3d,
  0x31, 0x39, 0x90, 0xbe, 0x4c, 0x84, 0x83, 0xbe, 0xf8, 0x0e, 0xef, 0x3d,
  0x37, 0xe3, 0x6e, 0x3e, 0xc0, 0x27, 0x03, 0xbe, 0xfe, 0xdb, 0x59, 0x3d,
  0xb2, 0xf9, 0x60, 0x3d, 0xa9, 0x91, 0xfc, 0x3d, 0x41, 0xb3, 0x80, 0x3e,
  0xa4, 0xf1, 0x7b, 0x3e, 0x39, 0x4c, 0x81, 0x3e, 0x42, 0xc5, 0xd0, 0xbd,
  0x78, 0xc3, 0x50, 0xbe, 0x2a, 0xf3, 0x5b, 0x3e, 0x4e, 0x1c, 0x88, 0xbe,
  0xbf, 0xda, 0x96, 0xbe, 0xf1, 0x1b, 0x13, 0x3e, 0x1f, 0x80, 0xc9, 0x3c,
  0x8e, 0xce, 0x57, 0xbd, 0xc7, 0x58, 0x83, 0x3d, 0x50, 0x18, 0xc7, 0xbd,
  0x2e, 0x61, 0xf1, 0x3d, 0x35, 0xb4, 0x58, 0xbd, 0x84, 0x51, 0xc3, 0x3d,
  0x2e, 0xda, 0x88, 0xbc, 0x3f, 0x28, 0x59, 0x3e, 0x6c, 0x90, 0x9e, 0x3e,
  0x13, 0xcd, 0x8f, 0x3d, 0x0e, 0x6a, 0x00, 0xbe, 0xf5, 0x66, 0x45, 0x3b,
  0xf3, 0x14, 0x8c, 0x3e, 0x74, 0x06, 0x8c, 0xbd, 0x53, 0x26, 0x9a, 0xbe,
  0x04, 0x7a, 0xd8, 0x3d, 0x2d, 0x2a, 0xf9, 0x3d, 0x0a, 0x8a, 0xc7, 0xbd,
  0x1d, 0x9f, 0x62, 0xbe, 0x37, 0x9c, 0x00, 0xbe, 0xd3, 0x74, 0x34, 0x3c,
  0x3a, 0x12, 0x15, 0xbe, 0xac, 0xa6, 0x52, 0x3e, 0x9f, 0x39, 0x10, 0xbe,
  0x2a, 0x4a, 0xe7, 0xbc, 0x7e, 0x9d, 0xc4, 0xbd, 0x20, 0x36, 0x45, 0xbe,
  0x10, 0x95, 0x2f, 0x3c, 0x80, 0x3a, 0x37, 0xbd, 0xcd, 0xc4, 0x0c, 0xbe,
  0xd4, 0xa8, 0x49, 0x3d, 0xb0, 0xe4, 0x48, 0xbe, 0xff, 0xe3, 0x26, 0x3e,
  0x06, 0xce, 0x9a, 0x3d, 0x9f, 0x78, 0x12, 0x3e, 0x3c, 0x3f, 0x5f, 0xbe,
  0x2b, 0xda, 0x67, 0xbe, 0x40, 0x8a, 0x87, 0xbc, 0x5a, 0x79, 0xc1, 0x3d,
  0xa5, 0xdf, 0x1b, 0x3e, 0xac, 0x2b, 0x6e, 0xbe, 0xa4, 0x32, 0x08, 0x3d,
  0x08, 0x79, 0x86, 0x3c, 0x7b, 0xdb, 0x2a, 0x3e, 0xe8, 0x62, 0xd2, 0x3c,
  0xe5, 0x93, 0x39, 0x3e, 0xdd, 0xa9, 0x46, 0x3e, 0x77, 0xa6, 0x45, 0xbe,
  0xbd, 0xbc, 0x01, 0xbe, 0x70, 0xad, 0xb3, 0xbd, 0xff, 0x8e, 0x3f, 0x3e,
  0x1b, 0x91, 0x45, 0x3e, 0x06, 0x02, 0x35, 0xbe, 0x29, 0x6f, 0x5c, 0xbe,
  0x82, 0xf0, 0x0d, 0xbe, 0x82, 0xc2, 0xaa, 0x3d, 0x7e, 0x06, 0xbd, 0xbd,
  0x52, 0xe7, 0x81, 0x3d, 0xf4, 0xe2, 0x0f, 0xbe, 0x5a, 0x2b, 0x83, 0xbd,
  0x28, 0xbf, 0x5b, 0xbd, 0xbc, 0x8f, 0x53, 0xbe, 0xc0, 0x0e, 0xfb, 0xbd,
  0xfd, 0x58, 0x8b, 0x3e, 0x1b, 0x86, 0x19, 0xbe, 0xac, 0x4b, 0xf3, 0x3d,
  0x36, 0x17, 0x16, 0x3c, 0x18, 0xb1, 0x2f, 0x3e, 0xad, 0x5a, 0x8c, 0x3d,
  0x2b, 0x66, 0x45, 0x3e, 0xcd, 0x52, 0x0b, 0x3e, 0x14, 0x62, 0x42, 0x3c,
  0x0f, 0x71, 0x5e, 0x3e, 0x1e, 0x2d, 0x6f, 0x3e, 0xcd, 0xc2, 0xb0, 0xbe,
  0x60, 0x1b, 0x6e, 0x3e, 0xa9, 0xc4, 0x52, 0x3e, 0x1f, 0xb7, 0x6b, 0x3e,
  0x1c, 0xd1, 0xb7, 0xbd, 0xda, 0x1a, 0x92, 0x3c, 0x8a, 0x7c, 0xa4, 0x3d,
  0x87, 0xad, 0x99, 0xbe, 0x77, 0x0f, 0x02, 0x3e, 0x16, 0xa8, 0x1f, 0xbe,
  0xcd, 0x49, 0x7c, 0xbe, 0x68, 0x64, 0xcd, 0x3d, 0x20, 0x42, 0xb5, 0x3e,
  0x98, 0xac, 0x80, 0x3e, 0x93, 0xfc, 0xa9, 0x3d, 0x2f, 0xa2, 0xb5, 0x3e,
  0xca, 0xbf, 0x8a, 0x3e, 0x40, 0xe2, 0x74, 0x3e, 0x4f, 0x4d, 0x41, 0x3d,
  0xad, 0x4d, 0x8e, 0x3e, 0x6a, 0xf6, 0xfc, 0x3d, 0xaa, 0x51, 0x24, 0x39,
  0x23, 0xaa, 0x39, 0x3e, 0x51, 0xb6, 0x66, 0x3e, 0x1d, 0xbf, 0x43, 0x3d,
  0x6e, 0x53, 0xa1, 0x3e, 0x4a, 0x1f, 0x13, 0x3e, 0x19, 0x3b, 0xb3, 0x3e,
  0xba, 0xf6, 0x58, 0x3e, 0x1d, 0x57, 0x2a, 0xbe, 0xc7, 0x22, 0x98, 0x3d,
  0xa3, 0x33, 0x47, 0xbe, 0xbb, 0x93, 0x03, 0xbe, 0x3b, 0xaf, 0xcb, 0x3b,
  0xd2, 0x31, 0x82, 0x3d, 0xa7, 0xe7, 0x6a, 0x3e, 0x0d, 0x5d, 0x9c, 0xbe,
  0xc0, 0xb5, 0x11, 0xbe, 0x49, 0x99, 0x0d, 0xbe, 0x5d, 0x70, 0x36, 0x3e,
  0x84, 0xde, 0x9f, 0x3d, 0xa6, 0x99, 0x33, 0x3e, 0x2b, 0xb7, 0x71, 0x3c,
  0x8d, 0xea, 0xe4, 0xbd, 0x29, 0x97, 0x43, 0x3e, 0xec, 0x02, 0x82, 0xbe,
  0xcf, 0x63, 0x15, 0x3e, 0x27, 0xd6, 0x9c, 0x3e, 0x2a, 0xcd, 0x3b, 0xbe,
  0x43, 0xe8, 0x0b, 0xbe, 0x89, 0x84, 0x85, 0x3e, 0x20, 0xd4, 0x36, 0x3d,
  0x01, 0xf8, 0xea, 0x3d, 0x2a, 0xa4, 0x89, 0xbe, 0xc6, 0x70, 0x6d, 0x3e,
  0xc5, 0x5e, 0x51, 0xbe, 0xa7, 0x17, 0xee, 0x3b, 0x24, 0x81, 0x39, 0x3d,
  0x7f, 0xb1, 0x36, 0xbd, 0x18, 0x15, 0xc6, 0xba, 0x32, 0x17, 0xad, 0xbe,
  0xc2, 0x66, 0x8d, 0x3d, 0x38, 0x55, 0xab, 0xbd, 0x2b, 0x9d, 0x70, 0xbc,
  0xe4, 0x7d, 0xa4, 0x3d, 0xf5, 0x18, 0x85, 0x3e, 0xc9, 0x3c, 0x23, 0x3e,
  0x14, 0xa0, 0xa6, 0x3e, 0x44, 0xba, 0x47, 0x3e, 0x64, 0xa0, 0x93, 0x3e,
  0x2b, 0x4f, 0x43, 0x3e, 0x1c, 0xf0, 0xe6, 0xbd, 0x50, 0xe1, 0x64, 0x3e,
  0xe9, 0x24, 0x0a, 0x3e, 0xa4, 0xa8, 0x5d, 0x3e, 0xcb, 0x41, 0xe2, 0x3d,
  0x35, 0x43, 0xec, 0x3d, 0x43, 0x80, 0x68, 0x3d, 0xdb, 0x57, 0x7d, 0x3e,
  0x9d, 0x06, 0x9f, 0x3e, 0xa7, 0x3b, 0x9b, 0x3d, 0xbc, 0x79, 0x96, 0x3e,
  0x42, 0x68, 0xde, 0xbb, 0xb8, 0x9e, 0x29, 0xbe, 0xaf, 0x48, 0x78, 0xbc,
  0x93, 0x9d, 0x04, 0x3d, 0x43, 0x01, 0x5f, 0xbd, 0x90, 0x6c, 0x40, 0xbc,
  0xaf, 0x4b, 0x9c, 0x3e, 0x63, 0x84, 0x94, 0x3e, 0x00, 0x9f, 0x88, 0x3d,
  0x33, 0x58, 0x59, 0xbe, 0xbf, 0xc7, 0xad, 0x3e, 0xc3, 0xd6, 0x75, 0xbe,
  0xdc, 0x49, 0x22, 0xbe, 0x35, 0x8c, 0x97, 0x3e, 0x45, 0xf7, 0x58, 0x3b,
  0x29, 0x83, 0x03, 0xbe, 0x08, 0x56, 0x1d, 0x3e, 0xd8, 0xee, 0x68, 0x3e,
  0xb6, 0xff, 0x70, 0xbd, 0x2f, 0xf1, 0x39, 0x3e, 0x35, 0xd8, 0xc0, 0xbb,
  0x5b, 0x5f, 0x93, 0xbd, 0x57, 0xc6, 0x6f, 0x3e, 0x68, 0xfa, 0x94, 0xbe,
  0x47, 0xe6, 0x7c, 0xbe, 0x92, 0xf3, 0xb9, 0x3d, 0xc8, 0x5c, 0x2c, 0xbd,
  0xb5, 0x6e, 0x5d, 0xbe, 0x19, 0x5b, 0x06, 0xbc, 0x7a, 0xde, 0x3b, 0x3d,
  0x7c, 0x3e, 0x8c, 0xbe, 0x02, 0x25, 0x49, 0x3d, 0xfe, 0x78, 0x35, 0xbd,
  0xcb, 0x83, 0x5e, 0x3e, 0x65, 0xee, 0x0d, 0x3d, 0xd9, 0x2f, 0x7e, 0xbe,
  0x8e, 0x1e, 0xf0, 0xbc, 0x71, 0x30, 0xd9, 0xbd, 0xaa, 0xde, 0x86, 0xbe,
  0xb1, 0xc7, 0x59, 0x3d, 0x2a, 0x91, 0x47, 0x3c, 0xd3, 0x7a, 0x8d, 0xbe,
  0x72, 0x79, 0x5f, 0xbd, 0xd4, 0x2c, 0x72, 0x3e, 0x86, 0x0c, 0x4c, 0x3e,
  0x51, 0xf0, 0x7b, 0x3e, 0xfb, 0xe4, 0x40, 0x3d, 0x0b, 0x35, 0x48, 0xbd,
  0xf7, 0x8f, 0x56, 0x3e, 0xfc, 0x0d, 0x84, 0x3b, 0x56, 0x46, 0x03, 0x3e,
  0xdd, 0x19, 0x8a, 0x3e, 0xa5, 0xe9, 0xda, 0xbc, 0x9f, 0xac, 0xad, 0x3e,
  0xba, 0x79, 0xf0, 0xbd, 0xd2, 0x7c, 0xae, 0xbc, 0x52, 0x13, 0x02, 0x3e,
  0xed, 0x3f, 0x3f, 0x3d, 0x6e, 0xa3, 0x85, 0x3d, 0xd0, 0x33, 0x07, 0x3e,
  0x14, 0x72, 0xc9, 0xbc, 0xe8, 0x61, 0x2b, 0x3e, 0xfe, 0x6e, 0xc9, 0x3d,
  0x8f, 0x58, 0xc5, 0xbd, 0xa6, 0xe3, 0xf6, 0x3c, 0x23, 0x4b, 0x95, 0x3e,
  0x46, 0x2e, 0x2f, 0xbd, 0xc3, 0x4b, 0x74, 0x3e, 0xf9, 0xa9, 0x9e, 0xbd,
  0xda, 0xea, 0xca, 0x3d, 0xc4, 0x75, 0xc6, 0xbc, 0x29, 0xeb, 0x6b, 0xbe,
  0xce, 0x1c, 0x55, 0xbe, 0xc7, 0x92, 0xb9, 0x3d, 0x7d, 0x6f, 0x45, 0x3e,
  0xba, 0xa2, 0x2a, 0x3e, 0x72, 0xf1, 0x86, 0xbd, 0x85, 0x51, 0x86, 0xbc,
  0xd2, 0x6a, 0xa1, 0x3d, 0x62, 0x0e, 0x75, 0x3e, 0x42, 0x25, 0xd8, 0x3c,
  0x9c, 0x70, 0x09, 0x3e, 0xae, 0x67, 0x49, 0xbc, 0x51, 0xb8, 0x9a, 0x3e,
  0x09, 0xe5, 0x9b, 0x3e, 0xf6, 0x02, 0x90, 0x3c, 0x1a, 0x89, 0xe2, 0xbc,
  0x12, 0x9f, 0xd0, 0x3e, 0xed, 0x9e, 0xed, 0xbd, 0x99, 0xd4, 0x94, 0x3e,
  0xca, 0x18, 0x03, 0xbe, 0x89, 0x93, 0xd4, 0xbd, 0x46, 0x31, 0x73, 0x3d,
  0xd5, 0x41, 0x49, 0xbe, 0x02, 0xe8, 0x71, 0x3e, 0x0b, 0xfa, 0xcc, 0xbc,
  0xd3, 0x38, 0x83, 0xbe, 0xb3, 0x22, 0x42, 0xbe, 0x3f, 0xf4, 0x1a, 0xbe,
  0x78, 0x38, 0xbc, 0x3d, 0x55, 0x94, 0x28, 0x3e, 0xbf, 0xaf, 0x8a, 0xbd,
  0xc5, 0x7c, 0xc9, 0x3d, 0x30, 0xb6, 0x23, 0x3e, 0x8b, 0x21, 0xc8, 0x3d,
  0xcc, 0xa4, 0x5b, 0x3d, 0xc0, 0x5b, 0x79, 0xbe, 0x5a, 0x57, 0x1a, 0xbd,
  0x8a, 0x27, 0x51, 0xbe, 0x91, 0x57, 0xe9, 0x3d, 0xc2, 0xd2, 0xa2, 0xbe,
  0x7f, 0x54, 0xe2, 0x3d, 0x04, 0x8d, 0x80, 0x3e, 0xa0, 0x2e, 0x99, 0xbd,
  0x2d, 0x1a, 0xc8, 0xbd, 0xfb, 0xc7, 0xf9, 0x3d, 0xd5, 0xe7, 0x02, 0xbe,
  0x8b, 0x9b, 0x17, 0x3e, 0xcc, 0xce, 0x2a, 0x3e, 0x4e, 0x29, 0x56, 0x3e,
  0x09, 0xad, 0x94, 0x3d, 0xc7, 0x34, 0xe0, 0xbc, 0xab, 0xad, 0x3e, 0x3c,
  0x91, 0x70, 0x31, 0xbc, 0x4c, 0x2b, 0x49, 0x3e, 0x25, 0xda, 0x46, 0x3b,
  0x95, 0xe6, 0x97, 0x3e, 0x1d, 0x24, 0x0c, 0x3d, 0x26, 0x16, 0x5a, 0x3d,
  0x20, 0x95, 0x2c, 0x3e, 0x02, 0x4a, 0x06, 0x3e, 0x13, 0xb3, 0x71, 0x3e,
  0xe7, 0x61, 0xdd, 0xbd, 0x29, 0xcb, 0x53, 0x3e, 0x8d, 0x10, 0x1a, 0x3e,
  0x9d, 0x76, 0xd1, 0xbd, 0x90, 0x0e, 0x8c, 0x3e, 0x9e, 0x37, 0x70, 0xbe,
  0x98, 0x5b, 0x39, 0xbd, 0xd9, 0xc3, 0x65, 0x3d, 0xa3, 0x7b, 0xf0, 0xbd,
  0x9d, 0xec, 0x5b, 0x3e, 0xc7, 0xb3, 0x1d, 0x3d, 0x56, 0x9a, 0x84, 0x3e,
  0x1d, 0xf0, 0xf9, 0x3b, 0x96, 0xd3, 0xb8, 0x3d, 0x14, 0xb0, 0x2c, 0x3d,
  0xeb, 0x20, 0x72, 0x3d, 0x0c, 0x37, 0x04, 0x3d, 0x16, 0xbf, 0x44, 0x3d,
  0xa6, 0x80, 0xda, 0xbd, 0x68, 0x93, 0x12, 0x3e, 0xf8, 0x4f, 0x08, 0x3e,
  0xf1, 0x37, 0x31, 0x3e, 0xd9, 0xdc, 0xb5, 0x3d, 0xf0, 0xd3, 0x03, 0xbe,
  0xa8, 0x5a, 0x49, 0xbe, 0xcc, 0x1a, 0xeb, 0x3b, 0x5d, 0xbb, 0xa1, 0x3e,
  0x84, 0xd2, 0xbd, 0x3e, 0x52, 0x3b, 0x04, 0xbe, 0xfb, 0x37, 0xaa, 0x3e,
  0x5f, 0xf5, 0x39, 0x3c, 0xdb, 0x34, 0x5b, 0x3e, 0xb5, 0xc3, 0x81, 0xbe,
  0xd5, 0x15, 0x5f, 0xbe, 0x9e, 0x51, 0x0f, 0x3e, 0xee, 0xbc, 0xe9, 0xbd,
  0x0d, 0x37, 0xe6, 0xbd, 0xd0, 0x3a, 0x72, 0x3e, 0x60, 0x78, 0x17, 0x3d,
  0xf3, 0x4f, 0x6d, 0x3e, 0x38, 0xd0, 0xfb, 0xbd, 0xce, 0xae, 0xc0, 0xbd,
  0x78, 0xf6, 0x68, 0xbc, 0x40, 0xf8, 0xf6, 0x3d, 0xd7, 0x68, 0xcd, 0xbd,
  0x49, 0xa5, 0xa4, 0x3d, 0xed, 0x7b, 0x03, 0xbe, 0xcb, 0x89, 0x49, 0xbe,
  0x01, 0x17, 0x81, 0x3e, 0x7e, 0x19, 0x82, 0x3d, 0x66, 0xd6, 0x6e, 0xbe,
  0xaa, 0xe2, 0xd4, 0x3d, 0x83, 0xaa, 0x90, 0x3e, 0x68, 0x8e, 0x6c, 0xbe,
  0x04, 0x5a, 0x02, 0xbe, 0x3a, 0xd6, 0x82, 0x3e, 0xe5, 0x4b, 0x89, 0x3e,
  0xc5, 0x4d, 0x2f, 0x3e, 0x93, 0xe1, 0x20, 0x3e, 0x14, 0xf2, 0x87, 0x3e,
  0x61, 0x3f, 0x8f, 0x3d, 0x86, 0x87, 0x64, 0x3e, 0x29, 0x1b, 0xdd, 0xbc,
  0x05, 0xe0, 0x68, 0xbe, 0xce, 0xc5, 0x56, 0xbe, 0x91, 0xe4, 0xe8, 0xbc,
  0x59, 0x93, 0x8d, 0x3d, 0xed, 0xff, 0x9a, 0xbd, 0x03, 0xdb, 0x7f, 0x3d,
  0x99, 0x9b, 0x3e, 0x3e, 0x52, 0x8c, 0xef, 0xbb, 0x44, 0xde, 0xe3, 0xbd,
  0x11, 0xd2, 0xd5, 0xbc, 0x3c, 0xbc, 0x0f, 0xb9, 0xc6, 0xb9, 0x07, 0xbe,
  0xc3, 0xc0, 0x61, 0xbe, 0xcd, 0x19, 0xc5, 0x3c, 0xc7, 0x90, 0x3a, 0xbc,
  0xb2, 0xab, 0xd5, 0xbd, 0x9c, 0xa6, 0x3b, 0x3e, 0x40, 0xef, 0x21, 0x3d,
  0xcc, 0x8a, 0x62, 0xbe, 0xc8, 0x7a, 0xde, 0x3d, 0x67, 0x84, 0xf1, 0x3d,
  0x62, 0xf7, 0x66, 0xbd, 0x49, 0xcd, 0x87, 0xbd, 0x09, 0x7f, 0x72, 0x3e,
  0x3f, 0xa3, 0x8c, 0x3e, 0x03, 0xd1, 0x07, 0x3d, 0xbf, 0x96, 0x9a, 0x3d,
  0x28, 0xbf, 0x3d, 0x3e, 0x18, 0xb0, 0xbf, 0x3d, 0x41, 0xa1, 0xe5, 0x3d,
  0xaa, 0x73, 0xb3, 0xbd, 0x6b, 0xc2, 0x98, 0x3d, 0x07, 0x40, 0x45, 0xbe,
  0xf0, 0x48, 0x84, 0xbb, 0x0b, 0x0b, 0xa7, 0x3d, 0x7d, 0x3b, 0x20, 0xbd,
  0x2b, 0x49, 0x2e, 0x3c, 0xb7, 0x3a, 0x00, 0x3e, 0x07, 0x1d, 0xad, 0xbe,
  0xb5, 0x3a, 0x11, 0x3e, 0xf6, 0xd7, 0x4b, 0x3e, 0xef, 0x4c, 0x89, 0x3d,
  0x5c, 0x0c, 0x55, 0x3e, 0xe2, 0x69, 0x0e, 0xbe, 0x9c, 0x5f, 0x9a, 0x3d,
  0x75, 0x7d, 0x0f, 0xbe, 0x2d, 0x22, 0x5e, 0x3e, 0xa7, 0xf0, 0xc8, 0x3d,
  0x0d, 0x19, 0x9f, 0xbd, 0xe4, 0x0c, 0x31, 0x3e, 0x50, 0x75, 0x60, 0xbe,
  0x62, 0xa5, 0x58, 0xbd, 0x61, 0xbc, 0x39, 0xbe, 0xa5, 0x01, 0x19, 0x3e,
  0xa1, 0x6b, 0x33, 0x3d, 0xc1, 0xfc, 0x5f, 0x3e, 0x0c, 0xc7, 0x04, 0x3e,
  0xb8, 0x5e, 0xb0, 0x3e, 0x7f, 0x94, 0xcb, 0xbd, 0x62, 0xea, 0xd5, 0xbb,
  0xac, 0x8f, 0x18, 0x3c, 0x5a, 0xb0, 0x28, 0xbe, 0x0e, 0xef, 0xa9, 0x3e,
  0xc7, 0x0b, 0x7c, 0x3e, 0x6c, 0x43, 0xb7, 0x3b, 0x86, 0xf7, 0xda, 0xba,
  0xa0, 0x3a, 0x89, 0xbe, 0xf7, 0x16, 0x33, 0x3d, 0x5e, 0xa4, 0x38, 0xbe,
  0x54, 0x1d, 0x36, 0x3b, 0x31, 0x0f, 0x88, 0xbb, 0x02, 0xba, 0xae, 0xbd,
  0x07, 0x07, 0xe7, 0x3d, 0x93, 0x1e, 0x89, 0xbe, 0x3f, 0xf0, 0xb0, 0xbb,
  0x14, 0x88, 0x68, 0xbe, 0xaf, 0x9c, 0x8a, 0xbc, 0x81, 0xd4, 0x88, 0xbd,
  0xe0, 0x43, 0x7c, 0xbd, 0x78, 0x04, 0x75, 0xbe, 0xf4, 0x02, 0x4f, 0xbd,
  0xcc, 0xbb, 0x39, 0xbe, 0xd6, 0x77, 0xd7, 0xbd, 0x9f, 0x6c, 0x5d, 0xbe,
  0xe5, 0x3c, 0x17, 0xbe, 0x4a, 0x3b, 0xd0, 0x3d, 0xff, 0x9c, 0x52, 0xbe,
  0xb0, 0x2e, 0x43, 0x3e, 0xe6, 0xb8, 0x1d, 0xbd, 0xd0, 0x1a, 0x67, 0xbe,
  0xff, 0xd7, 0xaa, 0xbc, 0x3f, 0x93, 0x4f, 0x3d, 0x32, 0x12, 0xb0, 0x3d,
  0x83, 0x61, 0x49, 0xbe, 0xad, 0x2d, 0x71, 0xbc, 0x69, 0xd8, 0x47, 0x3e,
  0xca, 0xb5, 0x18, 0xbe, 0xd3, 0xba, 0x84, 0xbe, 0xf3, 0xe8, 0x03, 0xbe,
  0x43, 0x8a, 0x6d, 0x3e, 0x10, 0x27, 0x06, 0x3e, 0x2c, 0x8f, 0x1e, 0x3e,
  0x45, 0xc5, 0x5c, 0x3d, 0x89, 0xc5, 0x6b, 0x3d, 0xcd, 0xbf, 0x32, 0x3e,
  0xfc, 0xcd, 0x8e, 0xbd, 0x48, 0x1a, 0xe7, 0xbd, 0x45, 0x41, 0x28, 0x3e,
  0x40, 0x6c, 0xd0, 0xbb, 0xb5, 0x59, 0x4d, 0xbe, 0x57, 0x32, 0x6b, 0x3e,
  0x2d, 0xa8, 0x52, 0x3e, 0xf7, 0x9a, 0x58, 0x3e, 0x08, 0x4c, 0xf3, 0xbd,
  0x30, 0xb3, 0x23, 0xbe, 0xe4, 0x5a, 0x1b, 0xbd, 0xaf, 0x2c, 0x0c, 0x3e,
  0xb6, 0x98, 0x8b, 0x3d, 0xd2, 0x3a, 0x28, 0xbe, 0x18, 0x30, 0xed, 0xbd,
  0x78, 0x2a, 0xaf, 0xbd, 0x34, 0xb5, 0x3d, 0xbe, 0x02, 0x70, 0x8a, 0x3d,
  0xac, 0xfd, 0x5b, 0x3d, 0x72, 0xdb, 0x78, 0xbe, 0xe4, 0x0d, 0x01, 0xbe,
  0x91, 0xe0, 0x4b, 0x3e, 0x60, 0x0b, 0xee, 0x3b, 0x98, 0xe6, 0xb7, 0xbc,
  0x88, 0x3a, 0x2a, 0xbe, 0x9b, 0x60, 0x65, 0xbe, 0x00, 0x98, 0x69, 0x3b,
  0x5b, 0xc9, 0x2a, 0x3e, 0x5f, 0x03, 0x23, 0x3e, 0x60, 0x1b, 0x24, 0xbd,
  0x00, 0x18, 0x62, 0xbc, 0xb0, 0x18, 0x9e, 0xbc, 0xc8, 0xe0, 0x96, 0xbd,
  0x02, 0x2c, 0x8a, 0xbd, 0xe7, 0xc4, 0x39, 0x3e, 0x3a, 0xdc, 0x13, 0xbe,
  0xf5, 0x3e, 0x08, 0x3e, 0xa8, 0xe7, 0xf4, 0x3c, 0xf0, 0xc5, 0x7c, 0xbd,
  0xb2, 0x08, 0x94, 0xbd, 0x3a, 0x27, 0x66, 0xbe, 0x3e, 0x61, 0xee, 0xbd,
  0x17, 0xb7, 0x65, 0x3e, 0xca, 0x05, 0x50, 0xbe, 0x6c, 0x78, 0x64, 0x3d,
  0x48, 0xb7, 0x1f, 0xbe, 0xa8, 0x04, 0xbf, 0x3c, 0xab, 0x34, 0x6c, 0x3e,
  0x8a, 0xc7, 0x1f, 0xbe, 0xed, 0x9f, 0x0e, 0xbe, 0xbe, 0x89, 0x72, 0xbe,
  0x8c, 0x0e, 0x2a, 0x3d, 0x30, 0x1f, 0x60, 0x3c, 0x2c, 0xd7, 0x70, 0x3d,
  0x0c, 0x30, 0x48, 0xbd, 0x1e, 0x8d, 0xf1, 0x3d, 0x1c, 0x24, 0x57, 0x3d,
  0x7a, 0xa2, 0xec, 0x3d, 0xa4, 0x25, 0x07, 0xbd, 0x06, 0x1f, 0x08, 0xbe,
  0x64, 0x89, 0x0e, 0xbe, 0xa2, 0x1e, 0xf7, 0xbd, 0x40, 0xee, 0xd9, 0xbd,
  0xa4, 0xe0, 0x03, 0xbe, 0x4e, 0xef, 0xac, 0x3d, 0x07, 0x44, 0x52, 0x3e,
  0xd3, 0x93, 0x2b, 0x3e, 0x2d, 0xfe, 0x5b, 0xbe, 0x28, 0x3e, 0xf2, 0xbd,
  0xcd, 0xc6, 0x12, 0x3e, 0x65, 0x69, 0x52, 0xbe, 0x3b, 0x0c, 0x4e, 0xbe,
  0xdc, 0x96, 0xa2, 0xbd, 0x5d, 0xfc, 0x0f, 0x3e, 0x01, 0x24, 0x37, 0xbe,
  0xbf, 0x15, 0x02, 0xbd, 0x85, 0xf0, 0x9a, 0x3c, 0x44, 0x82, 0xb1, 0xbd,
  0xba, 0xb2, 0x72, 0xbe, 0xd1, 0xa3, 0x08, 0x3e, 0xee, 0xc0, 0x60, 0xbd,
  0xbd, 0x19, 0x78, 0x3e, 0xb4, 0x44, 0x7d, 0xbc, 0x58, 0x29, 0xa3, 0xbd,
  0x3a, 0xe9, 0x4d, 0x3e, 0xdb, 0x21, 0xa9, 0xbd, 0xd7, 0x6e, 0xc2, 0x3d,
  0x1b, 0xeb, 0x08, 0xbe, 0xa0, 0xf9, 0xfe, 0xbd, 0xa3, 0x83, 0xdd, 0xbd,
  0xd5, 0x66, 0x10, 0x3d, 0xd3, 0xfc, 0xc8, 0x3d, 0x72, 0xbc, 0x5a, 0x3e,
  0x36, 0x82, 0x0f, 0xbe, 0xfb, 0x43, 0xcc, 0x3d, 0xb8, 0xc7, 0x65, 0xbe,
  0x7b, 0x54, 0x5a, 0xbe, 0x9b, 0x40, 0x18, 0x3d, 0x40, 0xca, 0xbf, 0xbd,
  0xff, 0x82, 0xde, 0x3c, 0x9e, 0xfb, 0x61, 0x3e, 0xe4, 0x63, 0x9d, 0xbd,
  0x07, 0x46, 0x93, 0xbd, 0x46, 0x7c, 0x1e, 0x3d, 0xa2, 0x12, 0x0a, 0xbd,
  0x6c, 0x32, 0x69, 0xbd, 0x1f, 0xf2, 0x78, 0xbe, 0x3f, 0x58, 0x39, 0xbe,
  0x10, 0x07, 0x05, 0x3e, 0x9c, 0x02, 0x17, 0xbe, 0xb3, 0xa6, 0xbb, 0xbe,
  0x06, 0xe5, 0x10, 0xbe, 0xfb, 0x07, 0xc6, 0x3c, 0xae, 0x53, 0x17, 0xbe,
  0x80, 0x32, 0x42, 0xbe, 0x7c, 0xd4, 0x3f, 0xbd, 0x7b, 0x8b, 0xa0, 0x3d,
  0x36, 0xef, 0x00, 0xbe, 0x4e, 0x77, 0x66, 0x3d, 0xd8, 0x4e, 0x08, 0x3e,
  0xd6, 0xc6, 0x26, 0x3e, 0x0d, 0x67, 0x24, 0x3e, 0xe5, 0x0f, 0xfe, 0x3c,
  0x9e, 0x76, 0xbd, 0x3d, 0xf1, 0x00, 0x85, 0x3d, 0x76, 0x20, 0x1c, 0x3e,
  0x60, 0x12, 0x8f, 0xbe, 0xd4, 0xdb, 0xd2, 0x3d, 0xe2, 0x07, 0x70, 0x3d,
  0x6b, 0x07, 0x9c, 0x3e, 0x3e, 0x48, 0xc0, 0xbd, 0x35, 0x0a, 0x82, 0x3e,
  0x12, 0xe4, 0x64, 0x3c, 0x6e, 0xfc, 0xac, 0xbd, 0x6c, 0xcb, 0xd0, 0xbd,
  0xe1, 0x16, 0xa0, 0x3d, 0x0a, 0x58, 0x5b, 0xbc, 0xfe, 0x24, 0x32, 0xbb,
  0x93, 0xcf, 0x03, 0x3d, 0x5a, 0x65, 0xe3, 0x3d, 0x6b, 0x5c, 0x81, 0xbe,
  0x25, 0x50, 0x63, 0xbd, 0x40, 0xe9, 0x7b, 0x3e, 0xea, 0xf1, 0x8a, 0xbe,
  0x1c, 0xac, 0x26, 0xbe, 0xf7, 0xf6, 0x27, 0x3d, 0x24, 0x6c, 0xc8, 0xbd,
  0xa0, 0x84, 0x6b, 0xbb, 0x78, 0x92, 0x02, 0x3e, 0x63, 0x1b, 0x52, 0x3d,
  0x18, 0x73, 0x72, 0x3e, 0x82, 0xfc, 0x1a, 0x3d, 0x4c, 0xd8, 0x83, 0x3e,
  0x59, 0xd4, 0x9e, 0x3e, 0xcd, 0x27, 0x23, 0x3e, 0xe2, 0x6c, 0x53, 0x3e,
  0xf6, 0x2e, 0x6e, 0xbc, 0x1e, 0x99, 0x1c, 0xbe, 0x5b, 0x60, 0xb7, 0xbe,
  0xe7, 0xbe, 0xd2, 0x3d, 0x74, 0xe8, 0xc9, 0xbb, 0x73, 0xb1, 0x3d, 0xbe,
  0x04, 0x2e, 0x80, 0x3e, 0xcd, 0xcc, 0xfd, 0xbd, 0x8b, 0xac, 0x29, 0xbe,
  0x20, 0x85, 0x69, 0x3c, 0x64, 0x19, 0xf8, 0x3d, 0x50, 0x38, 0xf0, 0xba,
  0x54, 0x63, 0xda, 0x3c, 0x16, 0x33, 0x01, 0x3c, 0x8d, 0xb4, 0x38, 0x3e,
  0x7f, 0x7e, 0x9e, 0x3e, 0x74, 0xb2, 0x1f, 0xbe, 0xfb, 0x96, 0x8a, 0x3e,
  0x1d, 0x54, 0xd5, 0x3c, 0x1f, 0x24, 0x0a, 0xbd, 0x24, 0xf6, 0x26, 0x3e,
  0x76, 0xbb, 0xe1, 0xbd, 0x0c, 0x64, 0xaa, 0xbe, 0x19, 0x8f, 0xf1, 0x3d,
  0xf1, 0x27, 0x32, 0xbe, 0xc0, 0xae, 0x5b, 0xbd, 0xab, 0xf3, 0x01, 0x3e,
  0xbc, 0x93, 0x1f, 0x3d, 0x92, 0x39, 0x86, 0x3d, 0xda, 0xa6, 0xb5, 0x3d,
  0xef, 0x8a, 0x36, 0x3e, 0x9c, 0xb1, 0xc6, 0xbd, 0x53, 0xcf, 0x60, 0x3e,
  0x77, 0xab, 0x28, 0x3e, 0x85, 0x3f, 0x01, 0x3e, 0x15, 0x14, 0x6f, 0xbe,
  0x55, 0x30, 0x35, 0x3e, 0xac, 0x3c, 0x2d, 0x3d, 0x19, 0x8d, 0x51, 0x3e,
  0x4c, 0xf6, 0x0d, 0x3d, 0x65, 0x82, 0x3e, 0xbe, 0x62, 0xbc, 0xcf, 0xbd,
  0xbb, 0xd1, 0x1f, 0x3e, 0x00, 0x7e, 0x7e, 0xbd, 0xe4, 0x66, 0x42, 0xbd,
  0x2e, 0xb0, 0x86, 0xbd, 0xc3, 0x47, 0xfa, 0xbd, 0xfe, 0xf3, 0xb8, 0xbd,
  0x00, 0xef, 0x54, 0xbb, 0x8c, 0x7d, 0x96, 0xbd, 0x7e, 0xcc, 0x36, 0xbe,
  0x96, 0x98, 0x8d, 0xbd, 0x63, 0x30, 0x26, 0x3e, 0xe1, 0x30, 0x75, 0xbe,
  0x84, 0xcb, 0x60, 0xbd, 0x90, 0x4c, 0x27, 0xbe, 0x2b, 0xf4, 0x22, 0x3e,
  0x3a, 0x1b, 0x73, 0xbe, 0xf0, 0x4d, 0xcd, 0xbd, 0x0e, 0x83, 0xe5, 0xbd,
  0xe9, 0x6c, 0x13, 0xbe, 0x56, 0x68, 0x83, 0x3d, 0xe7, 0x45, 0xc2, 0x3e,
  0xdf, 0xa2, 0x9d, 0xbd, 0x41, 0x7b, 0x05, 0x3e, 0x30, 0x29, 0xc3, 0x3e,
  0xea, 0xca, 0x21, 0x3d, 0x7c, 0xb9, 0xf5, 0xbd, 0x6a, 0x15, 0xe2, 0x3d,
  0x30, 0xb0, 0x4c, 0xbd, 0xe0, 0x1a, 0xa0, 0x3e, 0xa5, 0x9c, 0x28, 0x3e,
  0xae, 0x3b, 0x5b, 0x3d, 0x1f, 0xe1, 0x90, 0x3e, 0xca, 0x35, 0x40, 0x3d,
  0xf1, 0xf6, 0x43, 0xbd, 0x47, 0x47, 0xc1, 0xbc, 0xa2, 0x8f, 0x47, 0x3e,
  0xa7, 0xeb, 0x49, 0xbe, 0xc0, 0xcf, 0x5c, 0x3c, 0x61, 0xa0, 0x43, 0x3e,
  0xc5, 0x33, 0x61, 0xbb, 0xa0, 0x4b, 0x28, 0xbe, 0x28, 0xfd, 0x88, 0x3e,
  0x46, 0xe4, 0x8a, 0x3e, 0xdb, 0x8f, 0x70, 0x3e, 0x2e, 0x22, 0x94, 0x3d,
  0xbb, 0x26, 0xbf, 0x3d, 0x3d, 0x00, 0x90, 0xbd, 0xa2, 0x54, 0xfc, 0x3d,
  0x7a, 0xc7, 0x21, 0xbe, 0x37, 0x63, 0xd6, 0xbd, 0xe8, 0x7f, 0x92, 0x3e,
  0xd9, 0x3c, 0x00, 0x3e, 0x50, 0xa4, 0x86, 0x3e, 0x5c, 0x00, 0xdf, 0x3c,
  0xb9, 0x5d, 0x6c, 0x3e, 0xef, 0xca, 0x23, 0x3e, 0x86, 0xa3, 0x47, 0xbe,
  0xa7, 0x25, 0x63, 0xbd, 0x1d, 0x8a, 0x0b, 0x3e, 0xd3, 0x7a, 0xef, 0xbd,
  0x84, 0x50, 0x53, 0x3c, 0xdb, 0x62, 0xe8, 0xbd, 0xf7, 0xcc, 0xb1, 0x3e,
  0xcf, 0xb9, 0x3b, 0x3e, 0xe5, 0xf7, 0x13, 0x3e, 0xca, 0xcc, 0x42, 0x3e,
  0xd5, 0x43, 0xa8, 0x3e, 0x5e, 0xf0, 0x28, 0x3e, 0x65, 0xcf, 0x9e, 0xbd,
  0xe1, 0xbe, 0x2f, 0xbe, 0x54, 0x9f, 0x19, 0x3c, 0x04, 0xad, 0xa0, 0xbe,
  0xb3, 0x00, 0x5f, 0x3c, 0x8c, 0x8e, 0x37, 0xbe, 0xec, 0x66, 0x8f, 0x3e,
  0x1f, 0xe0, 0x18, 0x3e, 0x0c, 0xf8, 0xd7, 0xbd, 0xdc, 0x54, 0x8e, 0x3e,
  0xca, 0x28, 0x35, 0x3e, 0xcd, 0xb7, 0x84, 0x3e, 0x33, 0x42, 0xf5, 0x3c,
  0x4f, 0xad, 0xc9, 0xbd, 0x59, 0xd2, 0xa6, 0xbd, 0xb1, 0x61, 0x9a, 0x3e,
  0x9d, 0xaa, 0x84, 0x3e, 0xad, 0xca, 0x29, 0xbe, 0x9c, 0xd7, 0x6c, 0xbe,
  0x0b, 0x6b, 0x83, 0x3d, 0x89, 0xf4, 0xc6, 0xbd, 0xdc, 0xb4, 0x4c, 0x3e,
  0x70, 0xfd, 0x53, 0xbe, 0xc7, 0xb6, 0x86, 0x3d, 0x2b, 0xae, 0x6e, 0x3e,
  0x62, 0x5f, 0x84, 0x3c, 0x26, 0x15, 0x5c, 0x3e, 0x24, 0x4d, 0xb7, 0x3d,
  0x6b, 0x94, 0x86, 0x3e, 0xfc, 0xa7, 0x94, 0x3d, 0x2e, 0x60, 0x92, 0x3e,
  0x17, 0x17, 0xe3, 0xbd, 0x39, 0x75, 0x9a, 0xbd, 0xc5, 0xb0, 0x47, 0x3e,
  0xe8, 0x33, 0xf7, 0x3d, 0xc8, 0x1e, 0xe3, 0x3d, 0xa2, 0x5e, 0x6e, 0xbe,
  0x2e, 0xde, 0x9f, 0x3d, 0xe6, 0x74, 0xc3, 0x3d, 0x1c, 0x75, 0x54, 0x3e,
  0x1f, 0x5e, 0x54, 0xbc, 0xf2, 0x64, 0x51, 0xbd, 0xfc, 0xb7, 0xbd, 0x3d,
  0xfb, 0x17, 0xaa, 0xbe, 0x28, 0x3c, 0x2a, 0x3e, 0x7e, 0xa9, 0x1c, 0xbe,
  0xe2, 0xca, 0x7d, 0xbe, 0x77, 0xce, 0x2b, 0x3e, 0xe7, 0x08, 0x85, 0x3e,
  0xdd, 0xae, 0x6b, 0x3e, 0x40, 0x08, 0x5f, 0x3d, 0xc6, 0xa6, 0x18, 0x3e,
  0xd3, 0x96, 0xdf, 0x3c, 0xa8, 0x28, 0x37, 0xbe, 0x8b, 0xf9, 0x02, 0x3e,
  0xdb, 0xb6, 0x5c, 0x3e, 0x00, 0x66, 0x7a, 0x3c, 0xfe, 0xc2, 0xa7, 0xbd,
  0xe6, 0x48, 0x8a, 0x3e, 0xf1, 0x47, 0x04, 0x3e, 0x9c, 0x0b, 0x24, 0xbe,
  0x16, 0x05, 0xfa, 0x3d, 0xff, 0x46, 0x3c, 0xbd, 0xc0, 0x68, 0xb5, 0xbd,
  0xc2, 0xcc, 0x81, 0x3e, 0xf6, 0x89, 0x97, 0xbd, 0x94, 0xdd, 0x8b, 0xbd,
  0xd3, 0xa6, 0x84, 0xbd, 0x71, 0x42, 0x3e, 0xbe, 0xe7, 0x9f, 0x5c, 0xbe,
  0x72, 0xf6, 0xc1, 0xbd, 0x43, 0xde, 0x17, 0xbe, 0xa4, 0x7e, 0x52, 0xbe,
  0xa4, 0xa9, 0x2e, 0x3d, 0xb1, 0x27, 0x47, 0x3e, 0x20, 0x41, 0x3c, 0xbe,
  0x8c, 0xe9, 0xc2, 0x3c, 0x48, 0x39, 0xa8, 0x3d, 0x2c, 0x1a, 0x27, 0x3e,
  0x64, 0xfe, 0x6d, 0x3e, 0x0b, 0x0d, 0xa8, 0xbd, 0x83, 0xd3, 0xa3, 0xbd,
  0x7d, 0x77, 0x9a, 0xbd, 0x88, 0x3e, 0x4a, 0x3d, 0x45, 0x1a, 0xb1, 0xb9,
  0xda, 0x06, 0xad, 0x3e, 0xe6, 0x60, 0x07, 0xbe, 0x75, 0xb0, 0xda, 0xbd,
  0xa3, 0x16, 0xab, 0x3c, 0x4d, 0xa3, 0x85, 0x3e, 0xf3, 0x73, 0x54, 0x3e,
  0xde, 0xef, 0xa5, 0x3e, 0x92, 0x8a, 0xaa, 0xbd, 0x60, 0x8e, 0xab, 0x3c,
  0x1a, 0xc6, 0x4c, 0x3e, 0xf0, 0x55, 0xbc, 0xbd, 0xb0, 0x42, 0x1b, 0x3b,
  0xe0, 0x6a, 0x8b, 0x3d, 0xb8, 0xb3, 0x59, 0xbe, 0x39, 0x0f, 0xa4, 0xbe,
  0xcc, 0x10, 0x8f, 0xbc, 0x62, 0x7c, 0x5c, 0xbe, 0x64, 0xfa, 0x74, 0x3e,
  0xe7, 0xfa, 0x30, 0x3d, 0x26, 0xef, 0xee, 0xbd, 0xf5, 0x72, 0x9c, 0xbd,
  0xaf, 0xe7, 0x89, 0xbd, 0xc4, 0xab, 0x46, 0x3e, 0x61, 0x49, 0x54, 0xbe,
  0x2c, 0xc9, 0x77, 0xbd, 0x45, 0x3f, 0x51, 0x3d, 0x75, 0x62, 0xe3, 0x3c,
  0x13, 0xd5, 0x77, 0x3e, 0x74, 0xf2, 0x66, 0x3e, 0x63, 0x1e, 0x83, 0xbd,
  0xb4, 0xd2, 0x93, 0x3c, 0x86, 0x1d, 0xa1, 0x3e, 0xe2, 0xa2, 0x01, 0x3d,
  0x7c, 0x7d, 0xb7, 0xba, 0x68, 0xec, 0xa9, 0x3d, 0x25, 0xa9, 0xa4, 0x3e,
  0x61, 0x0e, 0xb0, 0x3d, 0x3d, 0x38, 0x5f, 0xbb, 0xce, 0xad, 0xa6, 0x3e,
  0x18, 0x2a, 0xa1, 0xbd, 0xca, 0xce, 0x91, 0x3e, 0xdd, 0x9e, 0x71, 0xbd,
  0xe2, 0xa6, 0xf5, 0xbb, 0x21, 0x84, 0xf6, 0x3c, 0x04, 0xdd, 0x51, 0x3c,
  0x2a, 0xb9, 0x6d, 0x3e, 0x55, 0xde, 0xc5, 0xbd, 0xfa, 0xd5, 0x82, 0xbe,
  0x9b, 0xe5, 0x82, 0x3d, 0x83, 0x0e, 0x80, 0x3e, 0x5f, 0xb9, 0x8f, 0xbe,
  0x7b, 0x56, 0x58, 0x3e, 0x05, 0xc2, 0x7f, 0x3e, 0xd5, 0xc3, 0x97, 0x3d,
  0x90, 0xbc, 0x2c, 0xbd, 0xca, 0x81, 0x93, 0x3e, 0x3a, 0x6c, 0x6b, 0x3d,
  0xc1, 0x44, 0x58, 0xbd, 0x50, 0x8b, 0xda, 0xbd, 0x18, 0xdb, 0xbb, 0x3d,
  0xc7, 0x83, 0x36, 0xbe, 0xd2, 0x07, 0xad, 0x3d, 0x91, 0xd4, 0x14, 0xbe,
  0x71, 0xd2, 0x90, 0xbd, 0x14, 0x8e, 0x2d, 0x3e, 0x53, 0x16, 0x29, 0x3d,
  0x97, 0x85, 0xba, 0xbd, 0x7e, 0xcf, 0x95, 0x3d, 0xa9, 0x95, 0x3f, 0xbd,
  0x34, 0xbf, 0x08, 0x3e, 0xa9, 0x74, 0x33, 0x3e, 0x66, 0xb6, 0x7e, 0x3e,
  0x13, 0x99, 0x36, 0x3e, 0xd4, 0x8d, 0x8d, 0x3c, 0x65, 0xcf, 0x5a, 0x3e,
  0xb6, 0xaa, 0x7d, 0x3e, 0x0b, 0x76, 0xe3, 0x3d, 0xaa, 0x20, 0xa3, 0x3d,
  0xed, 0xc6, 0x83, 0x3b, 0xe6, 0xb5, 0x82, 0x3d, 0xa7, 0xc4, 0xdf, 0x3d,
  0x78, 0x28, 0x30, 0x3c, 0x7d, 0xed, 0x43, 0xbe, 0x5a, 0xda, 0x4e, 0x3e,
  0xc4, 0x47, 0x81, 0x3d, 0x98, 0x14, 0x8b, 0xbd, 0x7a, 0x00, 0x80, 0x3e,
  0xfa, 0x54, 0xfd, 0x3d, 0x92, 0x60, 0x4b, 0xbe, 0x9f, 0x15, 0x6b, 0x3e,
  0x2d, 0x71, 0x51, 0x3e, 0x02, 0xf3, 0x0a, 0xbd, 0x60, 0x02, 0xb0, 0x3c,
  0x63, 0xb2, 0x2f, 0x3c, 0xf6, 0xae, 0xb1, 0xbc, 0x45, 0xda, 0x47, 0xbe,
  0xb9, 0xd2, 0xbd, 0x3d, 0xce, 0xa7, 0x8f, 0x3e, 0xd5, 0x68, 0x1e, 0x3e,
  0xca, 0x4d, 0x44, 0x3d, 0xca, 0xf6, 0x34, 0xbd, 0x01, 0x1f, 0x32, 0x3d,
  0x22, 0x44, 0x23, 0xbe, 0x59, 0xb4, 0x21, 0x3e, 0x7c, 0xb5, 0x1b, 0x3e,
  0xdc, 0x4c, 0x89, 0xbe, 0xd3, 0x1e, 0xb9, 0xbd, 0xf1, 0xca, 0x54, 0x3e,
  0xe4, 0x8d, 0xa8, 0x3e, 0x5b, 0xc0, 0x12, 0x3e, 0x8c, 0x93, 0xb1, 0x3e,
  0x0e, 0x43, 0x75, 0x3c, 0x31, 0x66, 0x07, 0x3e, 0x39, 0x7c, 0x91, 0x3e,
  0xc4, 0x9d, 0x80, 0x3d, 0x2d, 0x0a, 0xed, 0xbd, 0xa1, 0xc8, 0x60, 0xbd,
  0xab, 0xdd, 0x5a, 0x3e, 0x54, 0x95, 0xb3, 0x3d, 0x1b, 0x94, 0xb1, 0x3e,
  0xb6, 0x8b, 0x87, 0x3d, 0x64, 0xfd, 0x0a, 0x3e, 0x28, 0x42, 0xa8, 0x3d,
  0xa5, 0xa5, 0x51, 0x3d, 0x60, 0x63, 0xba, 0xbd, 0x05, 0xfd, 0x6a, 0xbe,
  0x3e, 0x59, 0xb3, 0xbe, 0xf3, 0xbd, 0x7c, 0x3e, 0x51, 0x83, 0xb7, 0xbe,
  0xa7, 0x4e, 0x29, 0xbe, 0x4f, 0x3e, 0x29, 0x3e, 0x64, 0xf9, 0x50, 0x3e,
  0xe0, 0x14, 0x45, 0x3e, 0xe8, 0xd0, 0x08, 0x3e, 0x6b, 0x7b, 0x79, 0x3e,
  0xa8, 0x2c, 0x6a, 0xbe, 0x43, 0xe5, 0xda, 0xbd, 0x70, 0x2e, 0x1e, 0xbe,
  0x37, 0x98, 0x04, 0xbe, 0xf3, 0x85, 0x96, 0xbd, 0x26, 0x8e, 0x1f, 0xbe,
  0x8e, 0x3a, 0x2f, 0xbe, 0x93, 0x57, 0x5f, 0x3e, 0xb5, 0x17, 0x95, 0xbe,
  0xca, 0x08, 0xb1, 0xbd, 0x33, 0xcc, 0x2e, 0x3d, 0x21, 0x6c, 0x2b, 0x3d,
  0x48, 0x44, 0x30, 0xbd, 0x23, 0x39, 0x3f, 0xbd, 0x9f, 0xa7, 0x43, 0x3e,
  0x2e, 0x98, 0xf0, 0xbd, 0xe9, 0x43, 0x39, 0x3d, 0x3a, 0xb7, 0x84, 0x3e,
  0x32, 0x02, 0xe3, 0x3d, 0xfc, 0x78, 0x09, 0xbe, 0xfe, 0x78, 0xb5, 0x3d,
  0xae, 0x7b, 0xcb, 0x3d, 0x78, 0x43, 0xd1, 0xbd, 0x1a, 0x47, 0xa4, 0xbd,
  0xe9, 0x61, 0x09, 0x3e, 0x12, 0x98, 0xd2, 0xbd, 0x7b, 0x3a, 0x76, 0x3e,
  0x6b, 0xc3, 0x2c, 0x3e, 0xac, 0x09, 0xe2, 0xbd, 0x00, 0xf9, 0x68, 0xbe,
  0xd8, 0x4c, 0x8c, 0x3c, 0x52, 0x4b, 0xc8, 0x3d, 0x48, 0x1d, 0xac, 0x3c,
  0x41, 0x9e, 0x51, 0x3e, 0x1b, 0x02, 0x17, 0xbe, 0xf0, 0x4b, 0x4d, 0xbd,
  0x91, 0x8f, 0x45, 0x3e, 0x8a, 0xef, 0x17, 0xbe, 0x40, 0x2a, 0xb9, 0xbd,
  0x92, 0xf8, 0x11, 0xbe, 0x00, 0x1c, 0x03, 0x3a, 0xe5, 0x5d, 0x1b, 0x3e,
  0x30, 0x5b, 0x4b, 0xbe, 0x9d, 0x4d, 0x1e, 0x3e, 0xcc, 0x2b, 0x3a, 0xbe,
  0x30, 0x6f, 0x51, 0x3c, 0xef, 0x9a, 0x51, 0xbe, 0x20, 0xa8, 0xe5, 0x3b,
  0x20, 0xd1, 0xd0, 0x3b, 0x56, 0x21, 0xc6, 0xbd, 0xbc, 0xeb, 0x4a, 0xbd,
  0xee, 0x84, 0x2d, 0xbe, 0x4f, 0x2a, 0x3a, 0x3e, 0x6d, 0x6e, 0x49, 0xbe,
  0xe8, 0x76, 0xf7, 0xbc, 0x2d, 0x7a, 0x40, 0xbe, 0xbb, 0x6c, 0x88, 0xbe,
  0x1b, 0x16, 0xb1, 0xbd, 0x0d, 0x00, 0x15, 0xbe, 0x63, 0xda, 0xd3, 0xbe,
  0xcb, 0x03, 0xc5, 0x3c, 0x64, 0x0f, 0x13, 0xbd, 0x6d, 0x42, 0x40, 0x3d,
  0xf0, 0xca, 0xef, 0x3d, 0x47, 0x75, 0x03, 0x3e, 0x35, 0x78, 0x95, 0x3d,
  0xe8, 0xc1, 0x00, 0x3d, 0xcf, 0xd1, 0x30, 0x3e, 0xbc, 0x5f, 0x27, 0xbe,
  0x86, 0x19, 0xa5, 0x3d, 0xe8, 0xac, 0x21, 0x3e, 0x17, 0x06, 0x4a, 0x3d,
  0x84, 0x8d, 0x3a, 0x3c, 0x24, 0x8d, 0x81, 0x3e, 0xe7, 0xba, 0xdc, 0x3c,
  0x27, 0x52, 0x7f, 0x3e, 0xb8, 0x77, 0x15, 0x3e, 0xd5, 0x66, 0x10, 0x3e,
  0x35, 0x00, 0x1c, 0x3e, 0x87, 0xc7, 0xa5, 0xbb, 0xe6, 0x7d, 0x3d, 0x3e,
  0xb3, 0xd9, 0x2b, 0xbc, 0xda, 0xf0, 0x00, 0x3e, 0x6a, 0xa8, 0x80, 0x3e,
  0x05, 0x67, 0x39, 0x3e, 0xab, 0x27, 0x35, 0x3e, 0xd8, 0xa8, 0x43, 0xbe,
  0x71, 0xce, 0x7b, 0xbd, 0xdb, 0x3b, 0xad, 0x3e, 0x31, 0x3d, 0x72, 0xbe,
  0xfe, 0x16, 0x73, 0xbe, 0xdc, 0x40, 0x44, 0x3e, 0xa8, 0xef, 0x95, 0xbd,
  0xef, 0x7d, 0xad, 0xbc, 0x42, 0x89, 0xb3, 0xbd, 0x57, 0x7a, 0x1e, 0xbe,
  0x31, 0xce, 0x16, 0x3e, 0xbb, 0x82, 0x68, 0xbd, 0xf6, 0x29, 0xa1, 0xbd,
  0xd1, 0x88, 0xb8, 0x3d, 0xa0, 0x78, 0x9e, 0x3d, 0xb5, 0xb9, 0x2e, 0x3e,
  0x63, 0xfd, 0xb2, 0x3c, 0x65, 0xd5, 0x5e, 0xbd, 0xbe, 0x55, 0x18, 0x3e,
  0xd5, 0xb7, 0x11, 0xbd, 0x1f, 0x00, 0x77, 0x3d, 0x9f, 0xfa, 0x35, 0xbe,
  0x5b, 0x10, 0x84, 0xbe, 0x9a, 0x90, 0x62, 0x3e, 0xf7, 0x9b, 0x21, 0x3e,
  0xbb, 0xe8, 0x89, 0x3d, 0x28, 0xf2, 0x4f, 0xbe, 0x0a, 0x0d, 0x19, 0x3e,
  0x3b, 0x10, 0x55, 0x3c, 0xba, 0xfe, 0x07, 0xbe, 0xcc, 0x65, 0x16, 0x3e,
  0xf8, 0x61, 0xb1, 0x3d, 0x9d, 0x02, 0x71, 0x3d, 0x53, 0xd0, 0x60, 0xbd,
  0x19, 0xed, 0xc8, 0xbb, 0xee, 0xcb, 0x34, 0x3d, 0x3d, 0x82, 0x6f, 0xbe,
  0x4e, 0xf3, 0x83, 0xbe, 0xd3, 0x37, 0x2d, 0x3e, 0xb3, 0x1a, 0x32, 0xbc,
  0x4d, 0xc7, 0xd5, 0xbd, 0xf2, 0x7b, 0x8c, 0xbb, 0x83, 0xb6, 0x4f, 0xbd,
  0x98, 0x91, 0x9f, 0xbd, 0x3e, 0x0a, 0x95, 0xbd, 0xf2, 0x4a, 0x77, 0xbe,
  0x38, 0x56, 0xee, 0xbd, 0x7f, 0x91, 0xa0, 0xbe, 0x37, 0x9c, 0x88, 0x3d,
  0x3b, 0xb2, 0x9d, 0x3d, 0x25, 0x41, 0x39, 0x3e, 0x86, 0x28, 0xdb, 0xbd,
  0x90, 0x20, 0x5c, 0x3e, 0x51, 0x83, 0x18, 0x3e, 0x32, 0x90, 0x4a, 0xbe,
  0xb9, 0xd4, 0x8c, 0xbd, 0x70, 0xc4, 0x15, 0x3e, 0x53, 0x56, 0x01, 0x3e,
  0xd3, 0xff, 0x0c, 0x3e, 0x6a, 0xe6, 0xed, 0x3a, 0x05, 0xf0, 0xfb, 0x3d,
  0xd4, 0x38, 0x8e, 0x3b, 0xc6, 0x91, 0x95, 0x3e, 0xbc, 0xb7, 0x99, 0x3d,
  0xde, 0xb1, 0xc7, 0xbd, 0x53, 0xd7, 0xd0, 0xbc, 0xe5, 0x8a, 0x8a, 0x3e,
  0x5a, 0xdf, 0x0a, 0xbb, 0x26, 0x6e, 0x17, 0xbe, 0xee, 0xc4, 0x95, 0x3e,
  0x50, 0xe3, 0x46, 0x3e, 0x8f, 0xeb, 0x8f, 0x3d, 0x3f, 0xbc, 0x5e, 0x3e,
  0xfe, 0xf1, 0x42, 0x3e, 0x28, 0x12, 0xa6, 0x3d, 0xba, 0x26, 0xa3, 0xbd,
  0xc4, 0xa7, 0x89, 0xbd, 0x42, 0xd4, 0xff, 0xff, 0x04, 0x00, 0x00, 0x00,
  0x00, 0x01, 0x00, 0x00, 0x34, 0x40, 0x28, 0xbd, 0x71, 0x3f, 0x83, 0x3c,
  0x9b, 0x12, 0x05, 0x3d, 0x2b, 0xa5, 0x7f, 0x3d, 0xf0, 0x2f, 0xaf, 0xbb,
  0x51, 0xa9, 0x1a, 0x3d, 0x08, 0x4d, 0x17, 0x3d, 0x30, 0xe7, 0x08, 0xbd,
  0x10, 0xd6, 0xd6, 0x3b, 0xda, 0x04, 0xca, 0x3d, 0xc5, 0x34, 0x83, 0x3d,
  0x00, 0x00, 0x00, 0x00, 0x91, 0x35, 0x05, 0xbd, 0x65, 0xad, 0x44, 0x3c,
  0x87, 0x05, 0xf0, 0xbb, 0x00, 0x00, 0x00, 0x00, 0x00, 0x00, 0x00, 0x00,
  0x00, 0x00, 0x00, 0x00, 0x64, 0xfc, 0x3e, 0x3d, 0x13, 0x80, 0x02, 0x3d,
  0x00, 0x00, 0x00, 0x00, 0x89, 0x02, 0x58, 0x3d, 0x00, 0x00, 0x00, 0x00,
  0x64, 0x84, 0xb6, 0x3c, 0x33, 0xfc, 0x03, 0x3d, 0x69, 0x3b, 0x89, 0x3d,
  0xfb, 0x4d, 0x00, 0x3d, 0xcb, 0x94, 0x1c, 0xbd, 0x09, 0xe5, 0x09, 0x3d,
  0x18, 0xab, 0x6e, 0x3d, 0xfd, 0x03, 0xa9, 0xbb, 0x99, 0xea, 0x1c, 0x3d,
  0xd5, 0xb6, 0x86, 0x3d, 0x60, 0x64, 0x2a, 0x3d, 0x00, 0x00, 0x00, 0x00,
  0x1d, 0xeb, 0x84, 0x3d, 0x23, 0x47, 0x5a, 0x3c, 0x72, 0xc4, 0x55, 0x3d,
  0x09, 0x07, 0x44, 0x3c, 0xdb, 0xdd, 0xe4, 0x3c, 0xd3, 0x00, 0xe1, 0x3c,
  0xf3, 0xee, 0x16, 0x3d, 0xc7, 0x9a, 0xae, 0x3d, 0x70, 0xb9, 0x73, 0xbc,
  0xe8, 0xfe, 0xe3, 0xba, 0x62, 0xfa, 0xcd, 0xbc, 0x00, 0x00, 0x00, 0x00,
  0x00, 0x00, 0x00, 0x00, 0xa8, 0xed, 0x8a, 0xbc, 0xad, 0x06, 0x8b, 0x3d,
  0x6a, 0x32, 0x40, 0x3c, 0x00, 0x00, 0x00, 0x00, 0x15, 0xea, 0xc8, 0x3d,
  0x39, 0x1a, 0xf2, 0x3c, 0xa8, 0x3d, 0x2a, 0x3d, 0x75, 0x35, 0x28, 0x3d,
  0x92, 0x42, 0x96, 0x3c, 0x16, 0x1d, 0x86, 0x3d, 0x63, 0x0c, 0x21, 0x3d,
  0x99, 0x8a, 0x22, 0x3d, 0x00, 0x00, 0x00, 0x00, 0xd3, 0x5d, 0xdb, 0xba,
  0xd4, 0x33, 0x49, 0x3d, 0x35, 0xeb, 0x51, 0x3d, 0x4e, 0xd5, 0xff, 0xff,
  0x04, 0x00, 0x00, 0x00, 0x80, 0x00, 0x00, 0x00, 0x00, 0x00, 0x00, 0x00,
  0xc1, 0x17, 0xd9, 0x3b, 0xcc, 0xf6, 0x88, 0xbc, 0x6b, 0xd4, 0xc2, 0x3d,
  0x99, 0x52, 0x75, 0x3d, 0xdb, 0x43, 0x3c, 0x3d, 0x22, 0x72, 0x93, 0xbc,
  0x54, 0xd9, 0x48, 0x3d, 0xad, 0x4d, 0x6b, 0x3d, 0x00, 0x00, 0x00, 0x00,
  0xa0, 0x2a, 0xe6, 0x3c, 0x1f, 0x05, 0x3a, 0x3d, 0x6c, 0x77, 0x20, 0x3d,
  0xc1, 0x74, 0x88, 0x3d, 0x00, 0x00, 0x00, 0x00, 0x23, 0xb8, 0x96, 0xbc,
  0x00, 0x00, 0x00, 0x00, 0xca, 0x6f, 0xa4, 0x3c, 0x15, 0xa3, 0xdb, 0x3a,
  0xd9, 0xb3, 0xe3, 0x3c, 0x80, 0x35, 0xef, 0xbb, 0x00, 0x00, 0x00, 0x00,
  0xfb, 0x01, 0x88, 0xbc, 0x8c, 0xe0, 0x77, 0x3d, 0xd7, 0xca, 0x44, 0xbc,
  0xd2, 0x41, 0x63, 0x3d, 0x38, 0x1a, 0x29, 0x3c, 0x25, 0x7e, 0x29, 0xbc,
  0x5e, 0x57, 0x06, 0x3e, 0xec, 0x8d, 0x92, 0x3d, 0xfa, 0x30, 0x87, 0x3b,
  0x07, 0xd3, 0x2d, 0x3d, 0xda, 0xd5, 0xff, 0xff, 0x04, 0x00, 0x00, 0x00,
  0x40, 0x00, 0x00, 0x00, 0x00, 0x00, 0x00, 0x00, 0x1d, 0xc2, 0xb6, 0x3d,
  0xa2, 0xc9, 0x6b, 0xbc, 0xe8, 0xb8, 0x8b, 0x3c, 0xfe, 0xa8, 0xaa, 0xbc,
  0x51, 0xc4, 0xfc, 0xbc, 0x7c, 0x55, 0x2f, 0x3c, 0x9b, 0x1e, 0xe7, 0x3c,
  0x8d, 0x9d, 0x12, 0xbd, 0xad, 0x48, 0x8b, 0x3c, 0xcd, 0x2b, 0x85, 0x3c,
  0xd9, 0x0f, 0x94, 0x3d, 0xaf, 0x83, 0xa5, 0x3c, 0x86, 0xa1, 0x10, 0xbd,
  0xa3, 0x55, 0x7b, 0xbc, 0x86, 0xfa, 0xe4, 0x3b, 0x26, 0xd6, 0xff, 0xff,
  0x04, 0x00, 0x00, 0x00, 0x10, 0x00, 0x00, 0x00, 0x69, 0x8c, 0x88, 0xbd,
  0xd2, 0x40, 0x90, 0xbd, 0x2d, 0x3f, 0xbc, 0x3d, 0xdd, 0x2c, 0xb4, 0xbc,
  0x42, 0xd6, 0xff, 0xff, 0x04, 0x00, 0x00, 0x00, 0x00, 0x20, 0x00, 0x00,
  0x50, 0x8d, 0x90, 0x3d, 0x50, 0x68, 0x12, 0x3d, 0x80, 0x6e, 0x97, 0x3c,
  0xd0, 0x1f, 0x39, 0xbe, 0x90, 0xce, 0x4b, 0xbd, 0x50, 0x85, 0x7c, 0x3e,
  0x60, 0x9d, 0x52, 0xbd, 0x4c, 0x7c, 0x63, 0x3e, 0xa0, 0xf7, 0xe3, 0xbc,
  0x98, 0x78, 0x39, 0x3e, 0x30, 0x6c, 0x55, 0xbe, 0xe4, 0x4a, 0x6a, 0x3e,
  0xc0, 0xc5, 0xe2, 0x3c, 0x00, 0xfc, 0x03, 0x3b, 0x88, 0xc0, 0xd8, 0x3d,
  0x00, 0xa9, 0xa5, 0xbc, 0x60, 0xa6, 0x0a, 0xbe, 0x60, 0x2a, 0xa0, 0x3c,
  0x70, 0xb1, 0x53, 0xbe, 0x00, 0xd9, 0x75, 0xbc, 0x64, 0x5d, 0x14, 0x3e,
  0x50, 0x5c, 0x5e, 0xbe, 0x20, 0x0f, 0xaa, 0xbc, 0x10, 0x68, 0x21, 0xbe,
  0x70, 0x0d, 0xb1, 0x3d, 0x58, 0x35, 0x85, 0xbd, 0xd8, 0x5f, 0xcf, 0x3d,
  0x04, 0x44, 0x44, 0x3e, 0x30, 0x7e, 0x39, 0x3d, 0xe8, 0x00, 0xd2, 0xbd,
  0xd4, 0x35, 0x57, 0xbe, 0x34, 0x61, 0x12, 0xbe, 0xb4, 0xef, 0x74, 0xbe,
  0x30, 0x09, 0xfe, 0x3d, 0xd4, 0xff, 0x4c, 0x3e, 0xb0, 0x96, 0xe1, 0x3d,
  0x70, 0xd0, 0x35, 0x3e, 0xb0, 0x4e, 0xcf, 0x3d, 0xa0, 0x39, 0xdf, 0xbc,
  0xa0, 0xb1, 0x6f, 0x3e, 0xe8, 0xfc, 0xcb, 0xbd, 0x38, 0x25, 0xf7, 0xbd,
  0x58, 0x61, 0x41, 0xbe, 0x60, 0x30, 0x4d, 0x3d, 0x18, 0xb7, 0x72, 0x3e,
  0xe0, 0x4f, 0xba, 0x3d, 0x68, 0x7e, 0xf0, 0xbd, 0x18, 0x9c, 0x06, 0x3e,
  0xf0, 0x03, 0x8a, 0x3d, 0xa8, 0x6b, 0x17, 0xbe, 0x60, 0x59, 0x74, 0xbe,
  0xc0, 0x93, 0xb7, 0xbc, 0xe8, 0x01, 0x31, 0xbe, 0xb0, 0x00, 0x41, 0x3d,
  0xe8, 0xf0, 0xce, 0x3d, 0xc4, 0x5f, 0x40, 0xbe, 0xf0, 0x65, 0x7f, 0xbe,
  0xcc, 0x53, 0x4e, 0xbe, 0x44, 0xa2, 0x03, 0x3e, 0x50, 0x2a, 0x13, 0x3d,
  0xd8, 0xdc, 0xfa, 0x3d, 0x68, 0xd8, 0xd0, 0xbd, 0x20, 0x3d, 0xee, 0xbc,
  0x20, 0x64, 0xe5, 0xbd, 0x1e, 0x24, 0x29, 0x3d, 0xfd, 0xca, 0x7d, 0x3e,
  0x38, 0x0f, 0xe9, 0x3d, 0xac, 0xd9, 0x5d, 0x3d, 0x36, 0x97, 0xc1, 0x3d,
  0x46, 0xeb, 0x89, 0xbd, 0x8e, 0x63, 0x49, 0xbe, 0xb3, 0xb6, 0x0f, 0xbe,
  0x76, 0x82, 0x74, 0x3e, 0x96, 0x9c, 0x97, 0x3d, 0x30, 0x34, 0x1a, 0xbe,
  0x5c, 0x33, 0x78, 0x3e, 0xf8, 0xf6, 0xad, 0x3d, 0xd6, 0x07, 0xb2, 0x3d,
  0xac, 0x89, 0xa1, 0x3e, 0x04, 0x45, 0x4d, 0x3e, 0x80, 0xfb, 0x3b, 0xbe,
  0x58, 0x02, 0x4a, 0x3e, 0xf4, 0x2c, 0xb8, 0x3e, 0x86, 0x7f, 0x94, 0xbe,
  0xc0, 0x7c, 0x43, 0x3d, 0x21, 0xe9, 0x21, 0xbe, 0xd4, 0x0d, 0x20, 0x3e,
  0x79, 0xc9, 0xea, 0x3d, 0x1f, 0x4a, 0x91, 0xbd, 0x9a, 0x09, 0x63, 0x3c,
  0xb1, 0xa8, 0x5c, 0xbc, 0x10, 0x1e, 0x21, 0xbe, 0xc5, 0x37, 0x72, 0x3e,
  0x3a, 0x2b, 0xb1, 0xbd, 0x35, 0x0d, 0x5c, 0xbe, 0xcc, 0xac, 0xa5, 0x3e,
  0xac, 0x15, 0xb6, 0x3d, 0xb9, 0xf3, 0x06, 0xbe, 0x00, 0x3e, 0xd0, 0x3c,
  0x38, 0xde, 0x2e, 0x3e, 0x7f, 0xc2, 0x18, 0x3e, 0x45, 0x3b, 0xfb, 0x3c,
  0x38, 0x44, 0xaf, 0xbd, 0x72, 0xb4, 0x50, 0x3e, 0xb7, 0x82, 0xf9, 0xbd,
  0x3a, 0xda, 0x51, 0x3e, 0xa4, 0xb6, 0x99, 0xbe, 0xef, 0xfa, 0x77, 0x3e,
  0x92, 0x94, 0x8d, 0x3e, 0x1a, 0xd5, 0x29, 0xbd, 0x60, 0xc8, 0x88, 0xbd,
  0x1c, 0xad, 0x70, 0x3e, 0x99, 0x97, 0x26, 0x3e, 0xc8, 0x57, 0xf9, 0x3d,
  0x1b, 0x6a, 0xe1, 0x3d, 0xd0, 0x2f, 0xc1, 0x3d, 0xd1, 0x06, 0x89, 0xbd,
  0x8b, 0xbf, 0x36, 0x3e, 0x23, 0x99, 0x83, 0x3e, 0xeb, 0xd7, 0x9a, 0xbd,
  0xf5, 0x43, 0xb3, 0xbd, 0x82, 0x0a, 0x62, 0x3e, 0xa2, 0x91, 0x61, 0x3d,
  0x58, 0x94, 0x45, 0xbd, 0x68, 0xb3, 0x2e, 0xbe, 0x23, 0x21, 0x6d, 0x3e,
  0x83, 0x59, 0x06, 0x3e, 0x8c, 0x1e, 0x11, 0x3e, 0xe2, 0xfd, 0x75, 0xbd,
  0x94, 0x37, 0x4a, 0xbd, 0x51, 0x38, 0x49, 0xbe, 0x4f, 0xa0, 0xf0, 0x3d,
  0xe0, 0x55, 0x12, 0x3d, 0x2b, 0xe9, 0x87, 0xbe, 0xcf, 0x0f, 0x2a, 0xbe,
  0xc8, 0xc9, 0x75, 0xbe, 0xa5, 0xec, 0xf7, 0xbc, 0x87, 0xf9, 0xb5, 0x3c,
  0x34, 0x39, 0x71, 0xbe, 0xe0, 0x96, 0x39, 0xbe, 0xa8, 0xda, 0x05, 0x3e,
  0x96, 0x41, 0x50, 0xbc, 0xf1, 0xd9, 0x3e, 0x3e, 0xc0, 0xc3, 0x46, 0x3d,
  0x80, 0x4a, 0x5d, 0xbc, 0x70, 0x97, 0x40, 0xbd, 0xcf, 0xb2, 0x4a, 0x3e,
  0x82, 0xdc, 0x3d, 0xbe, 0x74, 0x17, 0x2b, 0xbe, 0xc7, 0xfd, 0x7a, 0xbe,
  0x40, 0xb7, 0x73, 0x3e, 0xde, 0x51, 0x57, 0x3e, 0xbb, 0x0d, 0x1b, 0xbe,
  0x6e, 0x27, 0x34, 0xbe, 0x6c, 0x0a, 0x1a, 0x3e, 0x1f, 0xab, 0xc3, 0x3d,
  0x85, 0xd9, 0x41, 0x3e, 0x41, 0xaa, 0x15, 0x3a, 0xd6, 0x0b, 0x03, 0xbe,
  0x80, 0x0d, 0x43, 0xbd, 0x8a, 0x62, 0x93, 0x3d, 0x72, 0x2e, 0x0c, 0x3e,
  0x0c, 0xdd, 0x46, 0xbe, 0x0b, 0x82, 0xf0, 0x3d, 0x8f, 0x46, 0x2c, 0xbd,
  0x87, 0x5c, 0x01, 0x3e, 0x03, 0xd7, 0xe3, 0x3d, 0x4f, 0xf5, 0xe0, 0x3d,
  0x3c, 0x77, 0x4e, 0x3b, 0xc9, 0x45, 0x42, 0x3e, 0x1c, 0x09, 0xbb, 0x3d,
  0x2b, 0xf4, 0x5e, 0x3e, 0x8f, 0x4d, 0x32, 0xbe, 0x59, 0x9c, 0x6a, 0xbe,
  0x80, 0x96, 0x05, 0x3c, 0xc0, 0xdf, 0x65, 0x3e, 0x83, 0xfe, 0x4b, 0x3e,
  0xa0, 0xf8, 0x22, 0x3e, 0xc7, 0x8d, 0x52, 0xbe, 0x10, 0x4f, 0x4d, 0x3e,
  0x7e, 0x11, 0x4b, 0xbe, 0x47, 0xc5, 0x04, 0x3e, 0x70, 0x2c, 0x6b, 0xbe,
  0xb4, 0x04, 0x2e, 0x3d, 0x7b, 0x1b, 0x45, 0xbe, 0x3c, 0xff, 0x0e, 0xbe,
  0x26, 0x07, 0x93, 0x3a, 0x67, 0x13, 0x1b, 0xbd, 0x40, 0xe9, 0x3f, 0xbc,
  0x4e, 0x74, 0x48, 0x3e, 0xf0, 0xdf, 0x0c, 0xbc, 0x3f, 0x0c, 0x05, 0x3e,
  0x20, 0x6e, 0xf2, 0xbd, 0x9d, 0x10, 0x25, 0xbd, 0xfc, 0xf2, 0x26, 0x3e,
  0xaf, 0x3d, 0x89, 0x3e, 0x14, 0x27, 0x01, 0xbe, 0xc4, 0x53, 0x90, 0xbd,
  0xf4, 0x27, 0x58, 0x3d, 0xdf, 0x9c, 0x95, 0xbd, 0xf2, 0xb5, 0x0e, 0xbe,
  0xc7, 0xaa, 0x44, 0x3e, 0x43, 0xcb, 0x55, 0x3e, 0x60, 0xf4, 0x87, 0xbc,
  0x25, 0x19, 0x00, 0xbe, 0xe0, 0x93, 0x71, 0xbd, 0xa4, 0x29, 0x2c, 0x3e,
  0xf8, 0x92, 0x50, 0x3e, 0x54, 0xe2, 0x01, 0x3e, 0xbc, 0x07, 0x45, 0x3e,
  0xce, 0x65, 0x4e, 0x3e, 0x82, 0xe9, 0x14, 0xbe, 0xb8, 0xf3, 0x14, 0xbe,
  0xee, 0xd3, 0xbc, 0x3e, 0x98, 0x0b, 0x93, 0xbd, 0x7d, 0x2c, 0x36, 0x3e,
  0x62, 0x11, 0x07, 0x3e, 0x6a, 0xb8, 0xab, 0x3e, 0xfb, 0x77, 0xb4, 0xbe,
  0xbe, 0xf2, 0x49, 0xbe, 0xc6, 0x6c, 0xd5, 0x3c, 0xe0, 0xd6, 0xd6, 0x3e,
  0xe0, 0x23, 0xb3, 0xbd, 0x9f, 0x9b, 0xd5, 0xbd, 0x68, 0x7a, 0xad, 0x3e,
  0x6b, 0x85, 0x21, 0x3e, 0x54, 0x63, 0x2f, 0x3e, 0xd0, 0x0c, 0xb7, 0x3e,
  0xb8, 0x64, 0x33, 0xbd, 0x34, 0xdf, 0x13, 0xbe, 0x09, 0xab, 0x74, 0x3e,
  0x3b, 0x67, 0xe5, 0x3d, 0xf0, 0xd3, 0xe3, 0x3d, 0xb4, 0x25, 0x8f, 0x3e,
  0xfa, 0xd7, 0xcb, 0x3e, 0xb8, 0x27, 0x45, 0xbe, 0xaf, 0x3a, 0x52, 0xbe,
  0x68, 0x6f, 0xd3, 0x3d, 0x24, 0x06, 0x28, 0xbe, 0x7c, 0x57, 0x08, 0xbe,
  0x60, 0x56, 0xa1, 0xbd, 0x6a, 0xe1, 0x87, 0xbc, 0x48, 0x4b, 0x4b, 0x3e,
  0xa0, 0xdb, 0xc0, 0xbd, 0xf0, 0x03, 0x20, 0x3c, 0xdb, 0xe5, 0x6f, 0xbe,
  0x8a, 0xcb, 0xa6, 0x3b, 0x70, 0xd3, 0x79, 0x3e, 0xc8, 0x58, 0xe1, 0x3d,
  0x2e, 0x23, 0x1e, 0x3c, 0x35, 0x7d, 0x1c, 0x3e, 0xad, 0xa0, 0xc9, 0x3e,
  0x74, 0xad, 0x13, 0x3e, 0x29, 0x83, 0x70, 0xbe, 0xde, 0x73, 0xa9, 0xbd,
  0xc5, 0x09, 0x79, 0x3e, 0xb3, 0x06, 0xe1, 0x3d, 0x93, 0x53, 0x32, 0xbd,
  0xc3, 0xc9, 0x06, 0xbe, 0x98, 0x65, 0x0b, 0x3e, 0x01, 0xf4, 0x67, 0xbe,
  0xc1, 0x86, 0x4c, 0x3e, 0xf2, 0x84, 0x95, 0xbd, 0x44, 0x95, 0x32, 0xbd,
  0x0f, 0x44, 0x38, 0x3e, 0x5e, 0xc7, 0x94, 0x3e, 0x45, 0x9b, 0x3a, 0xbd,
  0x88, 0x7c, 0x40, 0xbe, 0x08, 0x5b, 0xb2, 0x3d, 0xbb, 0x2f, 0x2b, 0xbe,
  0x4b, 0x08, 0x91, 0xbd, 0xc8, 0xbd, 0xda, 0xbd, 0x14, 0xfc, 0x42, 0xbe,
  0x78, 0x40, 0xad, 0xbd, 0xc8, 0x57, 0x93, 0x3e, 0xf4, 0x04, 0x67, 0xbd,
  0x7c, 0xb3, 0x36, 0x3e, 0x89, 0x14, 0xac, 0x3e, 0xc0, 0xf5, 0x30, 0xbd,
  0xd1, 0x29, 0x88, 0xbe, 0x9a, 0x32, 0xbc, 0xbd, 0xdc, 0x85, 0xc3, 0xbd,
  0x81, 0xb9, 0x7f, 0xbe, 0x03, 0x7f, 0xc5, 0xbd, 0x31, 0x14, 0x9b, 0x3e,
  0x4c, 0x67, 0x9e, 0xbc, 0x00, 0xf7, 0xa3, 0x3b, 0xe0, 0x3f, 0xc4, 0x3d,
  0x8a, 0xc8, 0x57, 0x3e, 0x4d, 0x38, 0x4c, 0xbd, 0x10, 0xfb, 0xc5, 0xbd,
  0xdd, 0x7c, 0xc0, 0x3d, 0x00, 0xc3, 0xa4, 0x3e, 0x49, 0x6b, 0xb4, 0xbd,
  0xc2, 0x25, 0xa6, 0x3d, 0x5c, 0x81, 0x02, 0x3e, 0xae, 0x9d, 0x6d, 0x3e,
  0x80, 0x42, 0x25, 0x3e, 0x1b, 0xb4, 0x8c, 0x3e, 0x16, 0x4a, 0x88, 0xbe,
  0xcb, 0x0c, 0xac, 0xbe, 0x9a, 0x0c, 0x1f, 0xbe, 0x68, 0x59, 0x73, 0x3e,
  0xcc, 0x2d, 0x31, 0xbe, 0x29, 0x26, 0x1c, 0xbe, 0xa7, 0x52, 0xd1, 0xbc,
  0x73, 0x4f, 0x38, 0xbe, 0xf0, 0x57, 0x51, 0xbd, 0x6f, 0xe2, 0x6e, 0xbd,
  0x7f, 0x70, 0xbf, 0xbc, 0x5b, 0x13, 0x1e, 0x3e, 0x92, 0x4a, 0xcc, 0x3d,
  0x88, 0xb3, 0xb0, 0xbd, 0x08, 0xd7, 0x4b, 0xbc, 0x25, 0x8e, 0x64, 0x3d,
  0x25, 0xfb, 0xaa, 0x3d, 0x40, 0xc8, 0x90, 0xbc, 0xf3, 0xb2, 0xb0, 0xbe,
  0x78, 0x10, 0xfe, 0xbd, 0xa9, 0x0a, 0xfb, 0xbd, 0x4f, 0xdb, 0xa9, 0xbd,
  0x2b, 0x2a, 0xed, 0x3c, 0xd8, 0x2d, 0x1e, 0x3e, 0xa6, 0x7c, 0xdc, 0x3d,
  0x92, 0x52, 0x58, 0x3e, 0xe4, 0xf7, 0x11, 0x3e, 0xfd, 0xbf, 0x48, 0x3e,
  0x7a, 0x49, 0xe6, 0xbd, 0xa7, 0x93, 0x84, 0xbe, 0x26, 0x7e, 0x8b, 0x3b,
  0xb6, 0x67, 0x3d, 0x3e, 0x78, 0xe9, 0x1b, 0x3e, 0x2b, 0x27, 0x08, 0xbd,
  0x1b, 0xe8, 0x68, 0x3e, 0x35, 0xaa, 0x12, 0x3e, 0x00, 0x78, 0xcb, 0x3d,
  0x50, 0x05, 0x32, 0x3e, 0x38, 0x27, 0x7c, 0xbe, 0x9b, 0x4f, 0x09, 0x3e,
  0xae, 0x2f, 0xbd, 0xbd, 0xcc, 0x20, 0x47, 0xbe, 0x11, 0x2b, 0xc5, 0xbd,
  0x78, 0x4d, 0x1b, 0x3e, 0x61, 0xc0, 0x8a, 0x3e, 0x2e, 0x36, 0x9e, 0x3e,
  0xb7, 0x62, 0xad, 0xbd, 0xb5, 0x2e, 0xa3, 0xbb, 0x9a, 0x63, 0x48, 0xbe,
  0xc3, 0x1b, 0x23, 0xbe, 0xc4, 0x2a, 0x8d, 0x3c, 0x5a, 0x50, 0xf6, 0x3c,
  0x45, 0x35, 0x8b, 0x3e, 0x6d, 0xf4, 0x29, 0xbc, 0xbf, 0xde, 0x8d, 0x3e,
  0x10, 0x01, 0x4f, 0xbd, 0xf6, 0x3e, 0x8c, 0xbe, 0x72, 0x56, 0x68, 0x3e,
  0xcc, 0xff, 0x79, 0x3e, 0x6d, 0xf0, 0x8b, 0x3d, 0x66, 0x59, 0x57, 0xbe,
  0x75, 0x2c, 0x0d, 0x3e, 0x94, 0x3f, 0xb9, 0xbb, 0x05, 0x35, 0x4b, 0x3e,
  0x4f, 0x25, 0x94, 0xbe, 0x2e, 0xd2, 0xf6, 0xbb, 0xc8, 0x4d, 0x41, 0x3e,
  0xc0, 0x7e, 0x2e, 0xbe, 0xf0, 0x93, 0x44, 0x3d, 0x17, 0x91, 0x77, 0xbe,
  0x1a, 0x38, 0x7d, 0xbd, 0x54, 0xe1, 0x88, 0xbe, 0xf8, 0x0d, 0x19, 0xbe,
  0xd2, 0x3b, 0x90, 0x3e, 0xf8, 0x89, 0x20, 0x3e, 0xe6, 0xec, 0xf4, 0xbd,
  0x0d, 0xf6, 0x7b, 0xbe, 0xf8, 0x41, 0x80, 0xbe, 0x49, 0x7e, 0xfd, 0x3d,
  0x3b, 0x1f, 0x49, 0xbe, 0xe7, 0xbb, 0x60, 0x3e, 0x00, 0x94, 0x71, 0xbc,
  0x87, 0xbd, 0x02, 0x3d, 0x68, 0x07, 0xa2, 0x3e, 0xe0, 0x1b, 0x5d, 0xbd,
  0x36, 0x0b, 0x9a, 0xbd, 0xfe, 0x27, 0x87, 0xbe, 0x3b, 0x6f, 0xd7, 0xbd,
  0x0b, 0x78, 0xf8, 0x3a, 0x0a, 0x59, 0x31, 0xbe, 0xe7, 0x47, 0x6c, 0x3d,
  0x9c, 0xb6, 0x3a, 0x3e, 0x80, 0x9a, 0xe8, 0x3d, 0x2b, 0x51, 0x13, 0x3e,
  0x64, 0x9b, 0x5a, 0x3e, 0x05, 0x52, 0x7f, 0xbe, 0x58, 0x69, 0x30, 0xbe,
  0xf6, 0x6e, 0x50, 0x3e, 0x46, 0x65, 0x6b, 0x3c, 0xfd, 0x4f, 0x41, 0x3e,
  0x80, 0xbf, 0x47, 0xbe, 0x80, 0xc3, 0xd5, 0xbc, 0xc8, 0x0c, 0x59, 0x3e,
  0x87, 0x71, 0x9e, 0xbd, 0x01, 0x63, 0x1c, 0xbe, 0x10, 0xf3, 0x01, 0xbd,
  0x74, 0x6b, 0xfd, 0xbd, 0x04, 0xc9, 0x47, 0x3e, 0x51, 0xb7, 0x81, 0xbe,
  0xe7, 0xf9, 0x56, 0xbe, 0x48, 0xf4, 0x3d, 0x3e, 0xfd, 0x4b, 0x52, 0x3e,
  0x91, 0xe8, 0x3b, 0x3e, 0x3b, 0x44, 0x24, 0x3e, 0x2c, 0x01, 0x27, 0xbe,
  0x20, 0x33, 0x52, 0x3e, 0x2e, 0xc6, 0x0c, 0x3e, 0x5c, 0x77, 0x7b, 0x3d,
  0x9e, 0xa4, 0x83, 0xbe, 0xd8, 0x4d, 0x57, 0x3e, 0x76, 0xc7, 0x14, 0xbe,
  0xe1, 0xc3, 0x1e, 0x3e, 0x90, 0x32, 0x7b, 0x3d, 0xff, 0x48, 0x80, 0xbe,
  0x0f, 0x3d, 0xd6, 0xbb, 0x01, 0xb8, 0x16, 0xbe, 0x8a, 0x4a, 0x93, 0xbd,
  0x2b, 0x61, 0x08, 0xbe, 0xd3, 0xf6, 0x24, 0xbe, 0xc4, 0xd7, 0x08, 0xbd,
  0xef, 0xda, 0x2f, 0x3e, 0x30, 0x68, 0xc9, 0xbd, 0xc0, 0xf6, 0x10, 0x3c,
  0x06, 0x3e, 0x2b, 0xbe, 0x88, 0x67, 0xf9, 0x3d, 0xd6, 0xdd, 0x2f, 0x3e,
  0x18, 0xea, 0x34, 0x3e, 0x46, 0xb5, 0x07, 0xbd, 0x55, 0x8e, 0xce, 0x3d,
  0x9e, 0xc6, 0x42, 0xbe, 0xd8, 0x0f, 0x1e, 0xbe, 0x69, 0x2a, 0x84, 0xbe,
  0x29, 0x7c, 0xa4, 0x3d, 0xff, 0x79, 0x25, 0x3e, 0xd4, 0x8a, 0xd4, 0xbd,
  0xec, 0xdf, 0x73, 0x3e, 0x72, 0x1d, 0x27, 0xbe, 0x00, 0xd3, 0x1d, 0x3b,
  0x2e, 0x2f, 0x78, 0xbe, 0xde, 0x74, 0xcb, 0x3b, 0xc7, 0x74, 0x15, 0x3e,
  0xde, 0x94, 0x42, 0xbd, 0xa8, 0x9c, 0x6d, 0xbd, 0x56, 0xf2, 0x06, 0x3e,
  0x99, 0x16, 0x6e, 0x3d, 0x1c, 0xef, 0xfd, 0x3d, 0x3e, 0x0b, 0x85, 0x3e,
  0x1c, 0x88, 0x5b, 0xbc, 0x72, 0x03, 0x2d, 0x3e, 0xd5, 0xee, 0x98, 0x3e,
  0x48, 0xb0, 0xe3, 0xbd, 0x19, 0x7b, 0x1a, 0x3d, 0xbd, 0xbd, 0x84, 0xbd,
  0xd1, 0xc7, 0x1e, 0x3d, 0x60, 0x1d, 0x54, 0x3d, 0xe0, 0x9d, 0xce, 0xbc,
  0x40, 0xba, 0x74, 0xbd, 0x90, 0xf4, 0x4b, 0xbd, 0xf4, 0x28, 0x82, 0x3e,
  0x80, 0xb8, 0x8a, 0xbc, 0x59, 0xc3, 0xd5, 0xb9, 0x30, 0x5a, 0xaa, 0xbd,
  0xd0, 0xf4, 0x09, 0xbe, 0xd5, 0xae, 0xc5, 0xbd, 0x18, 0xcf, 0xc7, 0x3d,
  0x8d, 0x8c, 0x6e, 0x3e, 0xf1, 0x19, 0xb8, 0x3b, 0x6b, 0xb5, 0xe2, 0xbd,
  0xbb, 0x68, 0xce, 0x3d, 0xfb, 0x56, 0x13, 0xbe, 0x3c, 0xe3, 0x2b, 0x3e,
  0x7b, 0x81, 0x24, 0xbe, 0xa7, 0xa4, 0x7a, 0x3e, 0x90, 0x41, 0x47, 0x3e,
  0xff, 0xfe, 0xc2, 0x3d, 0x06, 0x13, 0x8e, 0x3d, 0xb1, 0xb9, 0xaf, 0x3e,
  0x8e, 0xa4, 0x40, 0xbd, 0x8b, 0xaf, 0x61, 0x3e, 0x29, 0x0f, 0x83, 0xbc,
  0xbe, 0xd0, 0xfc, 0xbd, 0x0c, 0x37, 0x8e, 0x3e, 0x57, 0xea, 0x09, 0xbe,
  0x12, 0xae, 0x59, 0x3e, 0xa8, 0x23, 0x9b, 0x3c, 0x3c, 0xa8, 0x3d, 0x3e,
  0xdc, 0x10, 0x22, 0xbe, 0x46, 0x2f, 0xde, 0xbd, 0xc3, 0x2f, 0x30, 0x3e,
  0xbb, 0x55, 0x3c, 0xbd, 0x6c, 0xed, 0x5f, 0xbe, 0xb0, 0x64, 0x2a, 0x3e,
  0x11, 0xde, 0x1f, 0x3e, 0x63, 0xcd, 0x4a, 0x3e, 0x12, 0xc9, 0xc0, 0x3d,
  0x89, 0x61, 0xbb, 0x3d, 0xc0, 0x0b, 0x2e, 0x3e, 0x53, 0x0b, 0x0b, 0x3e,
  0xc5, 0x78, 0x10, 0x3d, 0x64, 0xd9, 0x2e, 0xbe, 0x67, 0x51, 0x0e, 0x3e,
  0x59, 0x65, 0xda, 0xbd, 0x74, 0xef, 0x26, 0xbe, 0x36, 0x36, 0x17, 0xbb,
  0xa0, 0xf0, 0x02, 0xbd, 0x37, 0x29, 0x20, 0xbe, 0x32, 0xb5, 0x1e, 0xbd,
  0xfc, 0x29, 0x76, 0x3e, 0xd1, 0x9a, 0x8f, 0x3e, 0xa7, 0x99, 0x78, 0x3e,
  0x90, 0xe7, 0x30, 0x3d, 0x6e, 0xe6, 0x14, 0x3e, 0xb1, 0x41, 0x10, 0xbe,
  0xed, 0x2f, 0x1b, 0xbe, 0xd0, 0x95, 0x9c, 0xbd, 0x14, 0xba, 0xbb, 0x3d,
  0x98, 0x42, 0x64, 0xbd, 0x51, 0xc9, 0xc8, 0xbd, 0x24, 0x01, 0x1e, 0x3e,
  0xdc, 0xfc, 0x31, 0x3e, 0x18, 0xb5, 0x5d, 0xbe, 0x14, 0x8a, 0x9c, 0xbd,
  0x75, 0x6a, 0xb8, 0xbd, 0x60, 0xd6, 0x7f, 0xbd, 0x9c, 0x99, 0x20, 0xbf,
  0x80, 0x59, 0x8d, 0xbc, 0x23, 0x81, 0xdc, 0x3d, 0xa9, 0x24, 0xb4, 0x3d,
  0xbf, 0x46, 0xcc, 0xbd, 0xd9, 0x2a, 0x29, 0x3e, 0xf0, 0x42, 0x53, 0xbe,
  0xae, 0x29, 0x40, 0xbe, 0x55, 0x51, 0x33, 0x3e, 0x6d, 0x24, 0x24, 0xbe,
  0x1b, 0xdd, 0xd9, 0xbd, 0xb3, 0x99, 0xdf, 0xbc, 0xf1, 0xaf, 0x80, 0x3e,
  0xb8, 0xd4, 0xba, 0xbd, 0x3f, 0x1b, 0x5c, 0x3e, 0x55, 0xcb, 0x35, 0xbe,
  0xfe, 0x0a, 0x48, 0x3e, 0xd5, 0x88, 0xc5, 0xbd, 0x69, 0xe0, 0x08, 0xbe,
  0x92, 0xb0, 0x1d, 0xbe, 0x8e, 0x83, 0x05, 0x3e, 0xd7, 0xd9, 0x7b, 0xbd,
  0x99, 0xbe, 0x63, 0xbd, 0x25, 0xf5, 0xaf, 0x3d, 0xec, 0x7a, 0x02, 0xbe,
  0x00, 0x57, 0x3d, 0xbb, 0xf0, 0x20, 0xee, 0x3d, 0xd0, 0x0c, 0x92, 0x3d,
  0xcd, 0x72, 0xa2, 0x3e, 0x7a, 0xe7, 0x47, 0xbe, 0x20, 0x36, 0x5a, 0x3d,
  0x7c, 0x88, 0x53, 0x3e, 0x3a, 0x6d, 0x9e, 0x3e, 0x20, 0xb8, 0x52, 0xbe,
  0xf0, 0xe2, 0x7e, 0xbe, 0xa2, 0xa8, 0x6f, 0x3e, 0x47, 0x26, 0xa8, 0xbd,
  0x5a, 0x68, 0x6e, 0xbe, 0x0c, 0xca, 0x10, 0x3d, 0x64, 0x18, 0x15, 0x3e,
  0x9e, 0x6c, 0xaa, 0x3e, 0xba, 0x19, 0xab, 0x3e, 0xc1, 0x9f, 0xde, 0x3d,
  0x40, 0x16, 0x28, 0xbe, 0x88, 0x11, 0x11, 0xbe, 0x5c, 0xd5, 0x5c, 0xbe,
  0x60, 0xed, 0x63, 0xbd, 0x50, 0x88, 0x43, 0x3d, 0x5c, 0xda, 0x21, 0x3e,
  0x40, 0x82, 0x2e, 0xbd, 0x40, 0x70, 0xbf, 0xbc, 0xa8, 0xf5, 0xd6, 0xbd,
  0x90, 0xc2, 0x1e, 0x3e, 0xc0, 0x2e, 0xf4, 0xbc, 0x90, 0xdb, 0x3e, 0xbd,
  0xc0, 0xa3, 0x21, 0x3e, 0xb0, 0xe7, 0xac, 0xbd, 0x64, 0x86, 0x28, 0xbe,
  0x80, 0x2e, 0x60, 0x3e, 0x8c, 0x6e, 0x0a, 0xbe, 0x84, 0x78, 0x47, 0x3e,
  0x10, 0x2e, 0x50, 0xbe, 0xbc, 0x77, 0x5a, 0xbe, 0xd8, 0x0f, 0xa9, 0x3d,
  0xac, 0xe7, 0x2a, 0xbe, 0x40, 0x3d, 0x4c, 0xbc, 0xf8, 0xfd, 0xd1, 0xbd,
  0xc0, 0x9b, 0x67, 0xbe, 0x80, 0x8e, 0x84, 0xbb, 0x2c, 0x8d, 0x19, 0x3e,
  0xe8, 0xfa, 0x5f, 0xbe, 0x1c, 0x45, 0x2b, 0x3e, 0xc0, 0xfa, 0xce, 0xbc,
  0x00, 0xfb, 0xf6, 0xbd, 0x50, 0x1f, 0x1c, 0x3d, 0xc4, 0x02, 0x4e, 0xbe,
  0x00, 0x18, 0x06, 0xbb, 0xfc, 0x92, 0x55, 0x3e, 0x48, 0x67, 0x69, 0xbe,
  0x50, 0xf3, 0xc9, 0x3d, 0xdc, 0x3d, 0x21, 0xbe, 0x90, 0x92, 0xb9, 0xbd,
  0x9c, 0xc8, 0x56, 0xbe, 0x04, 0x07, 0x04, 0xbe, 0x60, 0x67, 0x75, 0xbe,
  0x30, 0xf8, 0x11, 0xbd, 0x80, 0x1b, 0x89, 0xbb, 0xd8, 0x6a, 0x00, 0x3e,
  0x00, 0x8e, 0x98, 0xbc, 0x00, 0xf0, 0x90, 0xbc, 0x68, 0x75, 0x20, 0xbe,
  0x88, 0x5d, 0xac, 0x3d, 0x9c, 0x47, 0x53, 0x3e, 0x30, 0x7d, 0xc2, 0xbd,
  0x58, 0x88, 0x59, 0x3e, 0x18, 0x89, 0xbe, 0xbd, 0xc0, 0xf7, 0x14, 0x3c,
  0xb0, 0x09, 0x60, 0xbe, 0x74, 0xeb, 0x69, 0x3e, 0x40, 0x28, 0x8e, 0xbc,
  0x90, 0x07, 0x58, 0xbe, 0x58, 0x42, 0xe1, 0xbd, 0x68, 0x07, 0x0a, 0x3e,
  0x80, 0x5e, 0x22, 0x3e, 0x40, 0x86, 0xc5, 0x3c, 0xa0, 0xa5, 0x2b, 0xbd,
  0x08, 0xb4, 0x8d, 0x3d, 0xf3, 0xaf, 0xd5, 0xbd, 0xea, 0x19, 0x0c, 0x3e,
  0xe0, 0xcb, 0xd9, 0x3d, 0x55, 0x93, 0x41, 0x3e, 0x77, 0xd1, 0x73, 0x3d,
  0x7a, 0x18, 0x5c, 0x3d, 0x98, 0xba, 0x86, 0x3e, 0xce, 0xec, 0x22, 0x3d,
  0x7b, 0x43, 0x8e, 0x3e, 0xc2, 0x8e, 0xaf, 0x3e, 0xac, 0x67, 0x36, 0x3e,
  0x18, 0xad, 0xf2, 0xbd, 0x69, 0xd2, 0x0b, 0xbe, 0xcf, 0x59, 0x8f, 0xbe,
  0x35, 0x54, 0x74, 0xbd, 0x40, 0xc0, 0xc0, 0x3c, 0x78, 0x17, 0x2e, 0x3e,
  0xa0, 0x0b, 0xb4, 0x3d, 0x73, 0x44, 0x4c, 0xbd, 0xfc, 0x92, 0xa6, 0x3d,
  0x28, 0x15, 0xe8, 0x3d, 0x1b, 0x3a, 0x28, 0x3e, 0xcc, 0xfd, 0x3f, 0x3e,
  0xad, 0xc7, 0xa0, 0xbd, 0x3b, 0xcb, 0x54, 0xbe, 0xf9, 0xa6, 0x22, 0x3e,
  0x14, 0xac, 0x0a, 0xbe, 0xf0, 0x47, 0x65, 0x3e, 0x96, 0x82, 0x10, 0xbe,
  0xb1, 0x62, 0x8f, 0xbc, 0xce, 0xf5, 0xf8, 0x3b, 0x25, 0x50, 0x31, 0x3d,
  0x02, 0x3f, 0x87, 0x3e, 0x76, 0x8c, 0x16, 0xbe, 0x54, 0x34, 0x2e, 0xbe,
  0x40, 0xc3, 0x91, 0x3e, 0x5b, 0x1e, 0x38, 0x3c, 0x3d, 0xd8, 0x8b, 0xbe,
  0x66, 0x26, 0x83, 0x3e, 0xab, 0xa0, 0x80, 0x3e, 0x67, 0x9f, 0x75, 0x3d,
  0x20, 0xc7, 0x65, 0x3e, 0x4c, 0x04, 0x95, 0x3e, 0xc3, 0xb2, 0xb2, 0xbe,
  0x09, 0xd1, 0x03, 0xbd, 0xba, 0x19, 0x4a, 0x3d, 0xd0, 0x5b, 0x6d, 0xbe,
  0x98, 0x29, 0x96, 0x3d, 0x6a, 0x71, 0x40, 0x3e, 0xab, 0x57, 0x99, 0xbe,
  0x04, 0xf2, 0x15, 0x3e, 0xa0, 0x0c, 0xa6, 0x3d, 0x21, 0x68, 0x6d, 0x3e,
  0x9e, 0xf0, 0x7d, 0xbe, 0xcf, 0xc7, 0x64, 0xbd, 0xef, 0xa3, 0x86, 0x3e,
  0x3e, 0x78, 0x04, 0x3d, 0x74, 0x0a, 0x45, 0xbe, 0xf6, 0xad, 0xfb, 0x3d,
  0x22, 0xa9, 0x88, 0x3e, 0x14, 0x08, 0x59, 0x3e, 0xb7, 0xd3, 0x70, 0xbc,
  0x60, 0x40, 0xac, 0xbe, 0x97, 0xb7, 0x73, 0x3e, 0x6f, 0x74, 0x2a, 0xbe,
  0xfd, 0x0c, 0x0f, 0xbc, 0x90, 0x2c, 0x0f, 0xbe, 0x59, 0xad, 0x4b, 0x3e,
  0x4b, 0x66, 0x03, 0x3e, 0x5f, 0xac, 0x74, 0xbd, 0x66, 0x77, 0xdf, 0x3d,
  0x2d, 0x61, 0x25, 0xbe, 0x32, 0x06, 0xab, 0x3d, 0xcb, 0xe9, 0x0a, 0xbd,
  0x76, 0x04, 0x39, 0xbe, 0x90, 0x06, 0xd3, 0xbd, 0xfd, 0xa2, 0xbb, 0xbc,
  0x79, 0xd4, 0x2a, 0xbd, 0x78, 0x02, 0xae, 0x3e, 0x90, 0x6a, 0xe5, 0xbd,
  0x14, 0x00, 0x16, 0x3e, 0x3c, 0x46, 0x1c, 0xbe, 0xc9, 0x21, 0xfb, 0x3d,
  0x91, 0x0f, 0x86, 0xbe, 0x6c, 0x93, 0x07, 0xbe, 0xfc, 0x51, 0xcc, 0xbd,
  0x20, 0xad, 0x27, 0x3d, 0x6c, 0x0f, 0xaa, 0xbe, 0x8d, 0x85, 0x1c, 0x3e,
  0x50, 0x9f, 0xe6, 0x3d, 0x47, 0x3e, 0xa2, 0xbc, 0xe6, 0x15, 0xca, 0xbc,
  0x13, 0x34, 0xea, 0x3d, 0x6a, 0x1c, 0x83, 0x3d, 0xb1, 0x74, 0x90, 0x3d,
  0x77, 0x73, 0x1a, 0xbe, 0xea, 0x99, 0x8e, 0x3e, 0x34, 0x24, 0x39, 0x3d,
  0xa0, 0xc9, 0xa2, 0x3d, 0x1b, 0x26, 0xfd, 0x3d, 0x0f, 0x2c, 0x9a, 0x3e,
  0x8f, 0x2a, 0x83, 0xbe, 0x7a, 0x9b, 0x8d, 0xbc, 0xaa, 0xe8, 0x09, 0xbe,
  0x4c, 0xb8, 0x89, 0xbd, 0xb4, 0x58, 0x37, 0x3e, 0x73, 0xbc, 0xa7, 0xbd,
  0x10, 0x3b, 0xed, 0x3d, 0x20, 0x6c, 0x48, 0x3e, 0xec, 0xa3, 0x51, 0x3d,
  0x90, 0xd5, 0x46, 0x3d, 0x84, 0xae, 0x3d, 0xbe, 0xb6, 0xb8, 0x8e, 0x3d,
  0x47, 0xa0, 0x40, 0xbd, 0x81, 0x9d, 0x86, 0x3c, 0x38, 0xc2, 0x33, 0xbe,
  0x35, 0xbb, 0x0b, 0x3e, 0xaa, 0xdf, 0x53, 0x3c, 0x01, 0x29, 0x3f, 0x3e,
  0xb1, 0x46, 0x3b, 0xbe, 0x1d, 0xd3, 0x3e, 0x3e, 0x50, 0x59, 0x4f, 0x3e,
  0x06, 0xaf, 0x59, 0x3e, 0xd0, 0x4e, 0xd8, 0x3d, 0x40, 0x49, 0x3f, 0x3d,
  0x8f, 0x4f, 0x0e, 0xbe, 0x03, 0xe5, 0xf1, 0xbd, 0x8b, 0xe2, 0x3b, 0x3e,
  0x6a, 0x08, 0x77, 0xbe, 0x75, 0xc4, 0x20, 0xbe, 0x6c, 0xa2, 0xfe, 0xbd,
  0x93, 0x1a, 0x66, 0x3c, 0xa8, 0xad, 0x8a, 0x3d, 0x90, 0x08, 0xab, 0xbe,
  0x42, 0x04, 0x5c, 0xbe, 0x08, 0x3a, 0x1b, 0xbe, 0x01, 0x72, 0xbd, 0x3b,
  0x45, 0xa0, 0xd1, 0xbd, 0x2b, 0x3b, 0x38, 0x3e, 0xc0, 0x96, 0x23, 0x3e,
  0x57, 0x50, 0x1a, 0x3e, 0xff, 0xf7, 0xe4, 0x3d, 0x78, 0xd3, 0x74, 0x3e,
  0x24, 0x32, 0x4f, 0xbe, 0xc0, 0x83, 0x85, 0x3d, 0x68, 0x7b, 0x3f, 0xbe,
  0x1a, 0xaf, 0x5f, 0x3e, 0xb8, 0x58, 0x13, 0x3d, 0x2c, 0xa7, 0x7c, 0x3e,
  0x99, 0x5c, 0x30, 0xbd, 0xb0, 0xa0, 0xa0, 0xbd, 0x82, 0xed, 0x0a, 0x3e,
  0xbc, 0xb7, 0x23, 0x3e, 0x63, 0xab, 0x84, 0x3d, 0x26, 0xf7, 0x1b, 0x3d,
  0x65, 0x20, 0x28, 0x3e, 0x43, 0x34, 0x84, 0x3e, 0x9d, 0x8e, 0xaa, 0x3e,
  0x10, 0x9e, 0x17, 0xbe, 0xb7, 0x65, 0xfc, 0xbd, 0x90, 0x87, 0x09, 0xbc,
  0x5e, 0x07, 0x22, 0xbe, 0x88, 0x85, 0x58, 0x3e, 0xf8, 0x4f, 0x6a, 0x3e,
  0xeb, 0x01, 0x80, 0x3e, 0xbb, 0xe6, 0x5b, 0xbe, 0xc3, 0x84, 0x01, 0x3e,
  0xf1, 0xa2, 0xff, 0xbd, 0x5c, 0x5d, 0x1a, 0x3e, 0xa1, 0x26, 0x37, 0xbe,
  0x74, 0xe1, 0x27, 0xbc, 0x94, 0x0e, 0xe2, 0xbd, 0xc0, 0x6c, 0x9f, 0xbe,
  0x9f, 0x2f, 0xcf, 0xbd, 0x78, 0xd2, 0xee, 0xbd, 0x40, 0x15, 0xf4, 0x3d,
  0x5d, 0x35, 0xca, 0x3b, 0x36, 0x72, 0xfa, 0xb9, 0x4f, 0x91, 0xab, 0x3e,
  0x04, 0x15, 0x1b, 0xbe, 0xd2, 0x4e, 0x3f, 0xbd, 0xea, 0x96, 0x81, 0xbe,
  0xb0, 0xbd, 0x48, 0x3e, 0x1e, 0x13, 0xc0, 0x3d, 0xab, 0x31, 0x54, 0xbd,
  0xb5, 0xa7, 0x3d, 0x3d, 0x80, 0x57, 0xeb, 0x3c, 0x97, 0x81, 0x42, 0xbd,
  0xe0, 0x3d, 0x58, 0x3d, 0x16, 0xa4, 0x4c, 0x3e, 0xc7, 0xa6, 0x5f, 0x3e,
  0x0a, 0x4f, 0x4a, 0x3e, 0x9d, 0xd4, 0x10, 0xbd, 0xf2, 0x21, 0xde, 0xbc,
  0xfa, 0xb6, 0x24, 0xbd, 0x52, 0xf5, 0x89, 0x3d, 0x80, 0x47, 0xc5, 0xbb,
  0x71, 0x53, 0x1a, 0x3e, 0xcb, 0xb0, 0xc4, 0x3e, 0xf8, 0xb4, 0x28, 0xbe,
  0x52, 0x04, 0xd0, 0x3d, 0x02, 0x17, 0x42, 0xbb, 0x78, 0x0d, 0xa6, 0x3e,
  0x70, 0x28, 0x15, 0xbe, 0xa9, 0xd3, 0x59, 0x3c, 0xbe, 0x6e, 0xa1, 0x3c,
  0x88, 0x3f, 0x43, 0xbe, 0x70, 0xba, 0x12, 0x3e, 0x20, 0xdd, 0x54, 0xbe,
  0x2c, 0xec, 0x0a, 0xbe, 0xe5, 0x24, 0xdf, 0xbe, 0x5c, 0xf2, 0x8d, 0x3e,
  0xbc, 0x06, 0x68, 0xbe, 0x5d, 0xf4, 0xd2, 0x3c, 0xb8, 0x53, 0x7e, 0xbe,
  0xf2, 0x62, 0x67, 0x3e, 0xc9, 0xa4, 0x93, 0x3e, 0x51, 0x1b, 0xb4, 0x3d,
  0xe1, 0x40, 0x91, 0x3e, 0xcc, 0xf2, 0x3b, 0xbe, 0x81, 0xb6, 0x43, 0x3d,
  0x24, 0x80, 0x92, 0xbe, 0x90, 0x52, 0x06, 0x3d, 0xab, 0xc1, 0x37, 0xbe,
  0xb4, 0x17, 0x44, 0x3e, 0x82, 0x9c, 0x87, 0xbc, 0xd0, 0xb6, 0x4a, 0x3d,
  0x14, 0xaf, 0xb4, 0x3d, 0x36, 0xa4, 0xa5, 0xbc, 0x20, 0x38, 0x2c, 0xbe,
  0x4d, 0x00, 0x35, 0xbb, 0xa3, 0x9f, 0x39, 0xbe, 0xff, 0x51, 0x54, 0x3d,
  0x2b, 0x7a, 0x61, 0xbd, 0x60, 0x26, 0xc6, 0x3c, 0x73, 0x09, 0xab, 0x3c,
  0x95, 0x6c, 0xfd, 0x3d, 0x6c, 0x33, 0x19, 0xbe, 0x20, 0x9c, 0x06, 0xbe,
  0xb0, 0x60, 0x32, 0xbd, 0x07, 0x97, 0x9a, 0xbc, 0x30, 0x5a, 0x08, 0x3d,
  0x9e, 0x5d, 0x89, 0x3d, 0x00, 0x13, 0x3b, 0xbc, 0xc1, 0xea, 0x2a, 0x3d,
  0x76, 0xf2, 0x3c, 0xbe, 0x7a, 0x88, 0x10, 0xbe, 0x8e, 0x81, 0x83, 0xbd,
  0xd3, 0xa6, 0x45, 0xbe, 0x83, 0xd0, 0xa5, 0x3b, 0x74, 0x50, 0x87, 0xbe,
  0x1f, 0x0a, 0x8f, 0xbd, 0x80, 0x10, 0x3a, 0x3c, 0xb7, 0x76, 0x40, 0xbe,
  0x28, 0x16, 0x16, 0x3e, 0x11, 0x4e, 0x8f, 0xbe, 0xb0, 0x2e, 0x2f, 0xbe,
  0xc0, 0xd1, 0x15, 0xbe, 0x10, 0xcb, 0x04, 0x3d, 0xc8, 0xc8, 0xd7, 0x3d,
  0xa0, 0x92, 0xd4, 0xbd, 0x78, 0xb6, 0x08, 0xbe, 0xb4, 0xdb, 0x53, 0xbe,
  0x00, 0xf9, 0x83, 0xbd, 0xc0, 0x95, 0x0a, 0x3e, 0xc8, 0xf4, 0x9b, 0xbd,
  0x20, 0x71, 0x74, 0xbe, 0xa8, 0xdd, 0xc0, 0x3d, 0x88, 0xdb, 0x56, 0x3e,
  0xe0, 0xf3, 0xac, 0xbc, 0x24, 0x7c, 0x54, 0x3e, 0x5c, 0xd1, 0x28, 0x3e,
  0x20, 0x0c, 0x01, 0x3e, 0x00, 0x55, 0x40, 0x3c, 0xf0, 0xc2, 0xd6, 0x3d,
  0x60, 0xff, 0x6e, 0xbd, 0x50, 0xd3, 0x3d, 0xbd, 0x54, 0xf5, 0x2a, 0xbe,
  0x00, 0xe2, 0xd3, 0x3b, 0x4c, 0x9f, 0x04, 0xbe, 0xe4, 0x14, 0x6f, 0xbe,
  0x30, 0x06, 0x03, 0xbd, 0x90, 0x9d, 0xb7, 0xbd, 0x88, 0xd3, 0x14, 0x3e,
  0xc0, 0xc7, 0x47, 0xbe, 0x60, 0x12, 0x53, 0xbe, 0x70, 0x47, 0x1b, 0xbd,
  0xf0, 0xf6, 0x1d, 0xbe, 0x80, 0x70, 0x4f, 0x3c, 0x90, 0x9b, 0x37, 0xbd,
  0x50, 0xd7, 0xdf, 0x3d, 0x5c, 0xa0, 0x4b, 0x3e, 0x0c, 0xe8, 0x13, 0xbe,
  0xf8, 0x28, 0x5e, 0xbe, 0x84, 0xb3, 0x3e, 0xbe, 0x08, 0xe2, 0x38, 0xbe,
  0x88, 0xd5, 0xe9, 0x3d, 0x38, 0x48, 0x65, 0x3e, 0x20, 0xbe, 0xfb, 0xbc,
  0xb0, 0xa3, 0x38, 0x3e, 0x20, 0x4c, 0x8d, 0xbd, 0xe8, 0x7b, 0xb4, 0x3d,
  0x68, 0xeb, 0x93, 0x3d, 0x80, 0x11, 0x9e, 0xbd, 0x58, 0x49, 0x22, 0xbe,
  0x24, 0x38, 0x55, 0x3e, 0x40, 0xf4, 0xb2, 0x3c, 0xf8, 0x7b, 0x53, 0xbe,
  0x40, 0x23, 0x38, 0xbd, 0x40, 0xfa, 0x07, 0x3d, 0x04, 0x37, 0x36, 0xbe,
  0xc0, 0x80, 0x65, 0xbd, 0x10, 0xdf, 0x41, 0xbe, 0x90, 0x33, 0xe7, 0x3d,
  0x80, 0x0b, 0x9f, 0x3b, 0x60, 0xe8, 0x7f, 0xbd, 0xbc, 0x47, 0x22, 0x3e,
  0x70, 0xb3, 0x49, 0xbe, 0x20, 0xae, 0x13, 0x3e, 0xd0, 0x82, 0x80, 0xbd,
  0xa0, 0x55, 0xfb, 0xbd, 0x52, 0x01, 0x8c, 0x3e, 0xdc, 0xa6, 0x87, 0x3e,
  0xed, 0xc6, 0x5c, 0xbd, 0xa3, 0x30, 0x1e, 0x3e, 0xfa, 0xb3, 0xf2, 0xbd,
  0x45, 0xe9, 0xfa, 0xbd, 0xd4, 0xdb, 0x17, 0x3e, 0x3d, 0x9e, 0x36, 0x3e,
  0x72, 0x1b, 0x29, 0x3c, 0xd8, 0xd9, 0x02, 0x3e, 0x48, 0x3f, 0xd6, 0x3d,
  0xa4, 0x60, 0x5f, 0x3e, 0x4d, 0xcc, 0x33, 0x3e, 0xb1, 0xe9, 0x3b, 0x3e,
  0xb0, 0x0b, 0x32, 0xbd, 0xa0, 0xe0, 0xac, 0x3c, 0xe0, 0xc1, 0x1d, 0x3e,
  0x24, 0x36, 0x13, 0xbe, 0x9d, 0xc3, 0x8f, 0x3c, 0x00, 0xb3, 0x6e, 0xbe,
  0x82, 0xef, 0x8e, 0xbd, 0xc8, 0xe0, 0x57, 0x3e, 0x9b, 0x86, 0x24, 0xbe,
  0xba, 0xab, 0x53, 0xbe, 0x56, 0x79, 0xe5, 0xbd, 0x9e, 0x56, 0x3f, 0x3e,
  0x8c, 0xf3, 0x00, 0x3e, 0xc8, 0x6f, 0xc0, 0x3d, 0xe0, 0x29, 0x84, 0xbe,
  0xe1, 0xd4, 0x68, 0xbe, 0x0e, 0xf9, 0x93, 0x3e, 0x33, 0xf4, 0x37, 0xbe,
  0xa3, 0xc5, 0xae, 0xbd, 0x9c, 0x30, 0x29, 0xbe, 0x5c, 0x24, 0xb5, 0xbc,
  0x3b, 0x96, 0xff, 0xbd, 0x33, 0x14, 0x75, 0x3e, 0x3d, 0x76, 0xfd, 0xbd,
  0x9a, 0x61, 0x50, 0xbe, 0xc3, 0x65, 0x92, 0xbd, 0x3f, 0x5e, 0x80, 0x3d,
  0x9f, 0x5e, 0xbd, 0x3c, 0x89, 0x8e, 0x89, 0x3e, 0x08, 0x54, 0xb0, 0x3e,
  0xb7, 0xc0, 0x18, 0x3e, 0xac, 0xe3, 0x0d, 0x3e, 0xf0, 0xd6, 0x1b, 0x3e,
  0xdf, 0x64, 0xb3, 0x3d, 0x53, 0xbf, 0xa9, 0xbe, 0x1f, 0x2b, 0x48, 0x3e,
  0xf8, 0x5b, 0x63, 0xbe, 0xde, 0x21, 0x08, 0xbd, 0xc9, 0x61, 0x49, 0x3e,
  0x41, 0x66, 0x9d, 0xb9, 0x31, 0x3c, 0x95, 0x3e, 0xd6, 0x50, 0x44, 0x3e,
  0x03, 0x03, 0x14, 0x3d, 0xf6, 0xf5, 0x93, 0x3e, 0xdc, 0x18, 0x96, 0xbe,
  0xb0, 0x4f, 0xa8, 0xbd, 0xf7, 0x9d, 0x39, 0x3e, 0x32, 0xeb, 0x3c, 0xbe,
  0x7a, 0xfc, 0x71, 0x3d, 0x10, 0x3f, 0x4f, 0xbe, 0x00, 0x03, 0xd9, 0x3b,
  0x40, 0x01, 0xab, 0x3d, 0xe0, 0x86, 0xb4, 0xbc, 0xc0, 0xb7, 0x21, 0xbe,
  0xa0, 0x17, 0x26, 0xbe, 0xc8, 0x97, 0x3f, 0xbe, 0x60, 0xce, 0x84, 0xbc,
  0xa4, 0x15, 0x75, 0xbe, 0x90, 0x02, 0xc0, 0xbd, 0x40, 0x0f, 0x4a, 0x3c,
  0x04, 0xa0, 0x32, 0x3e, 0x34, 0x27, 0x69, 0x3e, 0x30, 0xd5, 0x05, 0xbe,
  0x84, 0x4b, 0x55, 0xbe, 0xec, 0x89, 0x50, 0xbe, 0xc0, 0x30, 0x3e, 0xbc,
  0x58, 0xbe, 0xa1, 0xbd, 0x70, 0xc4, 0x61, 0x3e, 0x84, 0x34, 0x11, 0xbe,
  0x00, 0x49, 0x40, 0x3c, 0xb4, 0x7d, 0x72, 0x3e, 0x80, 0xd0, 0x1e, 0xbd,
  0xfc, 0x39, 0x66, 0xbe, 0xe0, 0x80, 0xf3, 0x3c, 0xe0, 0xa3, 0xf7, 0xbc,
  0xb8, 0xbd, 0x05, 0x3e, 0x40, 0x19, 0x2f, 0xbc, 0xa0, 0x32, 0x60, 0x3d,
  0xb0, 0x29, 0xc4, 0xbd, 0x48, 0xbf, 0x38, 0xbe, 0xf0, 0x64, 0x21, 0xbe,
  0xec, 0x82, 0x19, 0xbe, 0xbc, 0xef, 0x6b, 0x3e, 0xc0, 0x00, 0x03, 0x3d,
  0x80, 0x32, 0xc3, 0xbc, 0x00, 0xe4, 0xe1, 0x3c, 0x80, 0x3e, 0x30, 0x3c,
  0xa8, 0x98, 0x27, 0x3e, 0xa8, 0x8c, 0x55, 0xbe, 0x68, 0x32, 0x8d, 0xbd,
  0x88, 0xd2, 0xe4, 0xbd, 0xe0, 0x21, 0x67, 0xbd, 0xe0, 0x87, 0x49, 0x3d,
  0x80, 0x9e, 0xde, 0x3b, 0x80, 0x37, 0x18, 0x3e, 0xfc, 0x01, 0x5f, 0x3e,
  0xec, 0x83, 0x3e, 0x3e, 0x48, 0x7b, 0x05, 0x3e, 0x18, 0xc4, 0xc5, 0xbd,
  0x9c, 0x84, 0x65, 0x3e, 0x30, 0xbb, 0x88, 0x3d, 0x74, 0x42, 0x37, 0xbe,
  0x00, 0xd6, 0x84, 0x3b, 0x38, 0x13, 0x6e, 0x3e, 0x30, 0x59, 0xe8, 0xbd,
  0x18, 0x42, 0x30, 0x3e, 0x84, 0xdb, 0x2b, 0xbe, 0xf0, 0x6d, 0xa8, 0xbd,
  0x00, 0x9f, 0x47, 0x3b, 0x70, 0xf0, 0x19, 0xbd, 0x68, 0xee, 0x56, 0xbe,
  0x00, 0x0b, 0xc5, 0x3b, 0x50, 0xef, 0x33, 0x3d, 0x33, 0xe4, 0xd9, 0xbd,
  0xd4, 0x80, 0x9f, 0xbc, 0x96, 0x07, 0x46, 0x3e, 0x39, 0x06, 0xab, 0xbd,
  0x48, 0x4a, 0x0a, 0x3e, 0xde, 0x32, 0x05, 0x3e, 0x7f, 0x56, 0x52, 0xbe,
  0x97, 0x32, 0x7e, 0xbe, 0xdc, 0x01, 0xda, 0x3d, 0xfa, 0x7b, 0x76, 0xbe,
  0x9d, 0x26, 0x7f, 0x3c, 0xb0, 0x53, 0x17, 0xbe, 0x41, 0x45, 0x51, 0x3e,
  0x5c, 0xf7, 0xf5, 0xbc, 0x36, 0xe2, 0x49, 0x3d, 0xf0, 0x62, 0xe2, 0x3d,
  0x44, 0x65, 0x0a, 0xbe, 0xe0, 0x2f, 0xb5, 0xbc, 0x7b, 0x26, 0x9c, 0xbd,
  0x33, 0x15, 0xd1, 0xbb, 0x50, 0x57, 0x16, 0x3d, 0x82, 0x81, 0xd2, 0xbe,
  0xf8, 0xbf, 0x21, 0x3e, 0xb8, 0xf6, 0x59, 0x3e, 0x36, 0x84, 0x0f, 0x3e,
  0xe0, 0xbb, 0xa5, 0xbd, 0x96, 0xcd, 0x7a, 0x3c, 0x79, 0xaf, 0x46, 0x3e,
  0x48, 0x66, 0xa8, 0xbd, 0x4b, 0x2b, 0x4a, 0xbe, 0x60, 0x69, 0x9d, 0xbc,
  0xf3, 0x34, 0x42, 0xbd, 0xe6, 0x50, 0xb1, 0xbe, 0x00, 0xd8, 0x8a, 0x3e,
  0x50, 0x5f, 0xa2, 0x3d, 0x42, 0x34, 0x75, 0x3e, 0xde, 0x57, 0xa9, 0xbd,
  0x08, 0x36, 0x60, 0xbb, 0x52, 0x69, 0xbc, 0x3a, 0xcb, 0xdd, 0x2b, 0x3e,
  0x03, 0x72, 0xd0, 0xbd, 0x14, 0x53, 0x4c, 0x3e, 0x92, 0x62, 0x23, 0x3e,
  0x64, 0x2d, 0x8c, 0x3e, 0xba, 0x73, 0xd4, 0x3e, 0xe3, 0x0f, 0x48, 0x3d,
  0x40, 0x97, 0xb4, 0x3c, 0x80, 0xd6, 0x7f, 0x3d, 0xac, 0x97, 0x96, 0xbd,
  0xe4, 0xba, 0x16, 0x3e, 0xaa, 0x9c, 0xec, 0xbd, 0x70, 0x44, 0x52, 0x3e,
  0xbe, 0x96, 0x8e, 0x3c, 0xb7, 0xd8, 0xc2, 0x3e, 0x26, 0xfb, 0xfc, 0xbd,
  0x04, 0x60, 0x4e, 0x3c, 0xf3, 0x42, 0x81, 0x3d, 0x87, 0xef, 0x88, 0x3e,
  0xba, 0x59, 0x99, 0xbd, 0xd7, 0x91, 0x9a, 0xbe, 0x48, 0x02, 0x21, 0x3e,
  0x86, 0xaf, 0xe4, 0x3e, 0x76, 0x07, 0x04, 0x3e, 0xe7, 0xf5, 0xa5, 0x3e,
  0x37, 0x81, 0x01, 0x3e, 0xac, 0x27, 0x71, 0x3e, 0x86, 0x36, 0x75, 0xbd,
  0x29, 0xd6, 0x17, 0x3e, 0x96, 0x11, 0x9a, 0x3d, 0x2a, 0x9a, 0x54, 0x3e,
  0xfa, 0x99, 0xa1, 0x3c, 0x95, 0x77, 0x9d, 0x3a, 0xd3, 0xa5, 0xbd, 0x3d,
  0x7d, 0x67, 0x35, 0x3c, 0x73, 0x5d, 0x29, 0x3e, 0x74, 0x8a, 0x15, 0xbe,
  0x1a, 0xbf, 0xf3, 0xbd, 0x7c, 0xcd, 0x8c, 0x3d, 0x18, 0xef, 0x7a, 0x3d,
  0x00, 0xa3, 0xa0, 0x3c, 0x20, 0x5e, 0x69, 0x3e, 0x60, 0xf4, 0x3e, 0x3e,
  0x73, 0x78, 0x4a, 0xbe, 0x68, 0xd0, 0x49, 0xbc, 0xc8, 0xf5, 0xa5, 0xbd,
  0xf0, 0x1c, 0x3d, 0xbe, 0x88, 0xb6, 0xfe, 0xbd, 0x7c, 0xcb, 0x17, 0x3e,
  0xe6, 0x3e, 0xd7, 0xbd, 0x2b, 0x09, 0xb7, 0xbd, 0x89, 0x36, 0xc5, 0x3d,
  0x34, 0x66, 0x82, 0xbe, 0xf8, 0xe2, 0x40, 0x3e, 0xe3, 0xe3, 0xa9, 0xbe,
  0x3b, 0xbb, 0xf1, 0xbd, 0xc7, 0xf6, 0x63, 0x3d, 0xee, 0xa7, 0x7e, 0xbe,
  0x60, 0x38, 0x9f, 0x3e, 0x08, 0x71, 0x2c, 0x3e, 0xd2, 0x7c, 0x33, 0xbe,
  0x0c, 0xc3, 0x6c, 0xbe, 0xbb, 0xac, 0x63, 0x3e, 0xab, 0x59, 0x77, 0x3e,
  0xd1, 0xde, 0xed, 0xbc, 0xa0, 0xd6, 0x77, 0xbe, 0xc6, 0xf3, 0x07, 0xbd,
  0xd5, 0xb0, 0x64, 0x3e, 0x67, 0xb4, 0xcb, 0xbd, 0xa3, 0xc0, 0x78, 0x3e,
  0x58, 0xe7, 0x5b, 0x3e, 0xf4, 0x3a, 0x26, 0x3e, 0xf0, 0x9c, 0x17, 0xbd,
  0xf9, 0xf8, 0x60, 0x3d, 0x09, 0xea, 0x9e, 0xbd, 0x81, 0xa1, 0x04, 0xbe,
  0xa8, 0xcc, 0x28, 0xbe, 0xe9, 0xa6, 0xbd, 0xbc, 0x7f, 0x1e, 0x47, 0x3d,
  0x37, 0x2b, 0x51, 0x3e, 0xfb, 0x41, 0x33, 0xbe, 0x6e, 0x06, 0xb1, 0x3d,
  0xac, 0xbf, 0xd9, 0xbc, 0x25, 0x19, 0x82, 0xbe, 0xf0, 0x08, 0x71, 0xbe,
  0x94, 0xcf, 0x24, 0x3e, 0x5f, 0x66, 0x92, 0x3d, 0x52, 0x77, 0x98, 0x3e,
  0x20, 0x78, 0x2a, 0xbd, 0x54, 0xd6, 0x18, 0x3e, 0xcc, 0xc9, 0x46, 0x3e,
  0xaf, 0x73, 0xbf, 0x3d, 0x6f, 0xa0, 0x74, 0xbe, 0x80, 0xda, 0x0e, 0xbd,
  0xca, 0x21, 0xe3, 0xbd, 0xae, 0x23, 0x45, 0x3e, 0x0c, 0x9f, 0x5b, 0x3d,
  0x64, 0xe9, 0x4e, 0xbe, 0x46, 0x11, 0x2b, 0x3e, 0x2d, 0x00, 0x18, 0x3c,
  0xe0, 0xd2, 0x41, 0xbd, 0xe8, 0x29, 0xf9, 0xbc, 0x62, 0x7b, 0x5b, 0x3e,
  0xb5, 0xb0, 0x3f, 0xbe, 0x90, 0x02, 0x14, 0xbe, 0x38, 0x10, 0x0a, 0xbe,
  0x00, 0x68, 0xee, 0xbc, 0xf8, 0xff, 0xec, 0x3c, 0x7b, 0x33, 0x8f, 0x3e,
  0x40, 0x06, 0x1f, 0x3e, 0x47, 0xc8, 0x43, 0xbe, 0x48, 0x3f, 0x2e, 0xbe,
  0x72, 0xac, 0xf8, 0x3d, 0x7c, 0x5a, 0x9e, 0x3e, 0x40, 0xfa, 0x92, 0xbe,
  0x3e, 0x06, 0xbf, 0x3e, 0x71, 0x21, 0x7f, 0xbd, 0xd1, 0xcc, 0x27, 0xbe,
  0x10, 0xbf, 0x97, 0xbe, 0xd2, 0x09, 0x3b, 0x3d, 0xda, 0x3a, 0x46, 0x3e,
  0x76, 0xa1, 0x40, 0xbe, 0xb9, 0x04, 0x11, 0xbe, 0x20, 0x1d, 0xc0, 0x3c,
  0xd6, 0xff, 0x45, 0xbb, 0x72, 0x97, 0x9d, 0x3d, 0x3d, 0x57, 0x68, 0x3e,
  0xb1, 0x12, 0x56, 0x3e, 0xbf, 0x1e, 0x26, 0xbd, 0xf0, 0x07, 0x83, 0xbd,
  0xfa, 0xff, 0x02, 0x3e, 0x26, 0x33, 0x36, 0x3e, 0xa6, 0x8f, 0xbe, 0x3d,
  0x9a, 0x11, 0x9e, 0x3e, 0x68, 0x4d, 0x2e, 0x3d, 0x10, 0xc6, 0x63, 0x3d,
  0x20, 0xe3, 0x0e, 0x3e, 0xb7, 0xcf, 0xde, 0x3d, 0xe0, 0xb9, 0x81, 0x3e,
  0x9f, 0x48, 0x0f, 0x3e, 0x68, 0x08, 0x07, 0x3e, 0xbf, 0x8c, 0x6c, 0x3e,
  0x0e, 0x63, 0x3d, 0x3e, 0xf0, 0x9f, 0x57, 0xbe, 0x90, 0x8c, 0x04, 0xbd,
  0x2e, 0x01, 0xa8, 0x3d, 0x82, 0x1a, 0xe4, 0x3d, 0x25, 0x97, 0xe4, 0xbd,
  0x0d, 0x6d, 0x20, 0xbe, 0xc0, 0xa2, 0x0c, 0x3e, 0x60, 0xb6, 0x17, 0xbe,
  0x32, 0x66, 0x26, 0xbd, 0x04, 0x89, 0x8f, 0x3e, 0x4e, 0xd2, 0x18, 0x3c,
  0xeb, 0x6b, 0x89, 0x3e, 0xda, 0xae, 0x4d, 0x3e, 0xbb, 0x9b, 0x5c, 0x3e,
  0x21, 0xe9, 0x3e, 0xbe, 0x72, 0x24, 0x19, 0xbe, 0x32, 0x35, 0x82, 0xbd,
  0x68, 0x7a, 0xff, 0xbd, 0x66, 0x06, 0x8d, 0x3d, 0x69, 0xce, 0x07, 0x3e,
  0xf9, 0xf4, 0x89, 0x3d, 0x98, 0x5d, 0xb8, 0xbd, 0xd5, 0xb0, 0xae, 0xbd,
  0x67, 0x31, 0x9c, 0x3e, 0x5a, 0x87, 0xce, 0x3c, 0x98, 0x0e, 0x34, 0xbe,
  0xa0, 0x8e, 0x6c, 0x3d, 0x08, 0x92, 0x41, 0x3e, 0x69, 0x0d, 0x1e, 0x3e,
  0x8a, 0x9e, 0x30, 0xbe, 0xc8, 0x35, 0x5e, 0xbe, 0x79, 0xe6, 0x68, 0xbe,
  0x90, 0xd5, 0x44, 0x3d, 0x26, 0xfc, 0x2f, 0x3e, 0xf3, 0x32, 0x60, 0xbe,
  0xbd, 0x86, 0x0d, 0x3e, 0x6b, 0x88, 0xdf, 0xbd, 0xfb, 0x47, 0xa7, 0xbd,
  0x35, 0x7f, 0xba, 0xbd, 0x5f, 0x98, 0x86, 0xbd, 0xd1, 0x40, 0x7a, 0x3e,
  0x36, 0xf8, 0xa7, 0x3e, 0x10, 0x3c, 0x7d, 0x3e, 0x71, 0xd4, 0xb0, 0xbe,
  0x00, 0x62, 0x76, 0x3b, 0xe2, 0xd3, 0x6e, 0x3e, 0x22, 0x28, 0x69, 0x3e,
  0x41, 0xcf, 0x73, 0xbe, 0x1b, 0x65, 0x6c, 0xbe, 0xf0, 0x17, 0x16, 0xbd,
  0xd6, 0x55, 0x78, 0xbe, 0x63, 0x2d, 0xb1, 0x3d, 0x07, 0x19, 0x51, 0xbe,
  0x40, 0x3b, 0x08, 0x3e, 0x3d, 0x07, 0x55, 0x3e, 0x34, 0x68, 0x03, 0x3e,
  0xe0, 0x40, 0x46, 0xbe, 0x24, 0x9c, 0x7e, 0xbe, 0x83, 0x2b, 0x5e, 0x3e,
  0xde, 0x5f, 0x92, 0x3d, 0x4d, 0x0d, 0x22, 0xbd, 0xe0, 0xe0, 0x87, 0xbd,
  0x85, 0xff, 0xe6, 0x3d, 0x34, 0x0d, 0x8f, 0x3e, 0x0e, 0x8a, 0x5f, 0x3e,
  0x4b, 0xae, 0x47, 0xbe, 0x1f, 0xf1, 0x88, 0x3d, 0x0f, 0xc5, 0x0d, 0xbe,
  0x12, 0xf6, 0x41, 0x3d, 0x61, 0xb8, 0x69, 0xbe, 0xbc, 0x23, 0x59, 0x3e,
  0x54, 0x25, 0x37, 0x3e, 0x37, 0x24, 0x0f, 0xbe, 0x21, 0x96, 0xd1, 0x3e,
  0x60, 0x7e, 0x0a, 0xbd, 0x68, 0x0f, 0x19, 0x3e, 0xe8, 0x06, 0x83, 0xbd,
  0x00, 0xbb, 0xb6, 0xbd, 0x94, 0xb7, 0x79, 0xbe, 0x98, 0xcc, 0x0f, 0x3e,
  0x80, 0x72, 0xa2, 0x3c, 0x20, 0x78, 0x88, 0xbd, 0x98, 0xd7, 0xbb, 0xbd,
  0xd0, 0x2a, 0xa1, 0x3d, 0x58, 0x4f, 0x2c, 0xbe, 0xf0, 0x75, 0xb2, 0xbd,
  0x80, 0xad, 0xb5, 0x3c, 0x60, 0xa3, 0xf3, 0xbc, 0x48, 0xf9, 0xdc, 0x3d,
  0xc8, 0xd5, 0x2b, 0xbe, 0x40, 0xc1, 0x0c, 0xbe, 0x20, 0x9a, 0xab, 0x3c,
  0xf8, 0x20, 0x5e, 0xbe, 0x00, 0xf1, 0x3b, 0xbc, 0x90, 0x84, 0x26, 0xbd,
  0x10, 0x0f, 0x13, 0x3d, 0x34, 0xd1, 0x64, 0x3e, 0x54, 0x95, 0x6c, 0x3e,
  0xc0, 0x11, 0x70, 0xbd, 0x80, 0x93, 0xb5, 0xbd, 0x00, 0xf6, 0xf0, 0x3b,
  0xa8, 0x3e, 0x4c, 0xbe, 0x18, 0xe3, 0x5d, 0xbe, 0x00, 0xc1, 0x4e, 0x3e,
  0xc0, 0x46, 0xca, 0x3c, 0xc4, 0x5f, 0x4d, 0x3e, 0x24, 0xa0, 0x1e, 0xbe,
  0x6c, 0x13, 0x7b, 0xbe, 0x90, 0x81, 0x43, 0xbd, 0x28, 0x1a, 0xf2, 0xbd,
  0x08, 0x2a, 0xf5, 0x3d, 0x10, 0xd8, 0x66, 0x3e, 0xcc, 0xdf, 0x69, 0xbe,
  0x3c, 0xb8, 0x29, 0xbe, 0xd0, 0xb9, 0xd0, 0x3d, 0x38, 0x8c, 0x77, 0xbe,
  0x60, 0x2d, 0xf7, 0x3d, 0x14, 0x82, 0x55, 0xbe, 0x90, 0x61, 0xa0, 0xbd,
  0x20, 0x15, 0x33, 0xbe, 0x00, 0xbb, 0xb1, 0x3d, 0xbc, 0xc8, 0x4a, 0x3e,
  0x7c, 0x5e, 0x36, 0x3e, 0x10, 0xd7, 0x7d, 0x3d, 0xa0, 0x57, 0x82, 0x3c,
  0x20, 0xc6, 0xd4, 0xbc, 0xb8, 0xc3, 0xc3, 0xbd, 0x40, 0x99, 0x82, 0x3d,
  0x1c, 0x41, 0x60, 0xbe, 0x68, 0xf3, 0x00, 0x3e, 0xdc, 0x21, 0x62, 0xbe,
  0x28, 0xc5, 0xef, 0x3d, 0x64, 0x1c, 0x3a, 0xbe, 0x18, 0x89, 0xa2, 0xbd,
  0x50, 0x02, 0x3a, 0x3e, 0xd0, 0x85, 0xc1, 0xbd, 0xb8, 0x9e, 0x4f, 0x3e,
  0x7c, 0xb5, 0x03, 0xbe, 0x50, 0xec, 0x6a, 0x3e, 0x48, 0xa5, 0x4b, 0x3d,
  0x10, 0x28, 0xe2, 0x3d, 0x82, 0x05, 0xba, 0x3d, 0x20, 0xec, 0xa3, 0xbc,
  0x1b, 0x7d, 0x0b, 0x3e, 0x09, 0x65, 0x05, 0xbd, 0xc0, 0x42, 0xe1, 0x3c,
  0x46, 0x88, 0x0c, 0xbe, 0xe6, 0xab, 0xee, 0xbd, 0x92, 0x8c, 0x08, 0xbc,
  0xc0, 0x0c, 0x87, 0xbc, 0x7b, 0x71, 0x75, 0xbe, 0x25, 0x8d, 0x85, 0x3d,
  0xba, 0x34, 0x9c, 0x3d, 0x00, 0x49, 0x90, 0xbc, 0x20, 0x5c, 0x42, 0x3d,
  0x20, 0x2c, 0x1b, 0x3d, 0x80, 0x4d, 0x3b, 0x3c, 0x8e, 0x1d, 0x0b, 0x3d,
  0x7c, 0xe0, 0x7c, 0x3e, 0x68, 0xf6, 0x0b, 0xbe, 0xd0, 0x91, 0x7b, 0x3e,
  0x99, 0xde, 0xaa, 0x3d, 0x56, 0x36, 0x0e, 0x3e, 0xff, 0x1c, 0x9d, 0xbd,
  0x7b, 0x9b, 0xfb, 0x3c, 0x95, 0x8d, 0x61, 0xbe, 0x80, 0x29, 0xcc, 0xbc,
  0x50, 0x1f, 0xb1, 0xbd, 0x80, 0xb5, 0xd5, 0xbb, 0xd0, 0x09, 0x81, 0xbe,
  0x50, 0x47, 0x71, 0xbe, 0x3c, 0xb5, 0x16, 0x3e, 0x18, 0xbb, 0xb6, 0xbd,
  0xf9, 0xc6, 0x20, 0xbe, 0xb6, 0xd9, 0xc2, 0x39, 0x41, 0x26, 0x05, 0xbe,
  0x46, 0x76, 0x11, 0xbe, 0x1a, 0xa0, 0x46, 0xbe, 0xa7, 0xe8, 0x64, 0x3d,
  0x1a, 0xa9, 0xf8, 0xbd, 0x2f, 0x05, 0xd1, 0xbd, 0xec, 0x7b, 0x6f, 0xbe,
  0xc0, 0xf5, 0xfe, 0xbd, 0x64, 0xd6, 0x03, 0xbe, 0xcc, 0x06, 0x06, 0xbe,
  0x54, 0xdb, 0x61, 0xbe, 0x40, 0x71, 0x53, 0x3d, 0x0a, 0xd5, 0x2d, 0xbe,
  0x18, 0xd5, 0xfb, 0xbd, 0x28, 0xfe, 0x06, 0x3e, 0xae, 0xdf, 0x8d, 0x3d,
  0x00, 0xf8, 0x9f, 0xbd, 0xa5, 0xc8, 0x7f, 0xbc, 0xa4, 0x61, 0x14, 0xbe,
  0xf8, 0xed, 0x8c, 0x3d, 0xf2, 0xc0, 0x11, 0xbd, 0x37, 0x47, 0x28, 0x3d,
  0x44, 0x97, 0x18, 0xbe, 0x30, 0xbf, 0x49, 0x3e, 0x4a, 0xc8, 0xf7, 0xbc,
  0x4a, 0x2c, 0x21, 0xbe, 0x2c, 0x38, 0x5a, 0x3d, 0x7a, 0x9b, 0x39, 0xbc,
  0xf6, 0x82, 0xc2, 0x3d, 0x43, 0x4e, 0x35, 0xbe, 0x34, 0x06, 0xcf, 0x3d,
  0x5d, 0x76, 0x19, 0xbd, 0x31, 0x0a, 0x5d, 0xbe, 0x83, 0x8f, 0x7a, 0xbc,
  0x39, 0x40, 0x36, 0xbe, 0xf9, 0xce, 0x72, 0x3e, 0x55, 0x9a, 0x4e, 0x3d,
  0x47, 0xfa, 0xe3, 0x3c, 0x00, 0x7d, 0xd5, 0xbb, 0xbc, 0x8c, 0x8c, 0x3d,
