unsigned char model_heavy[] = {
  0x1c, 0x00, 0x00, 0x00, 0x54, 0x46, 0x4c, 0x33, 0x14, 0x00, 0x20, 0x00,
  0x1c, 0x00, 0x18, 0x00, 0x14, 0x00, 0x10, 0x00, 0x0c, 0x00, 0x00, 0x00,
  0x08, 0x00, 0x04, 0x00, 0x14, 0x00, 0x00, 0x00, 0x1c, 0x00, 0x00, 0x00,
  0x98, 0x00, 0x00, 0x00, 0xf0, 0x00, 0x00, 0x00, 0x08, 0x51, 0x00, 0x00,
  0x18, 0x51, 0x00, 0x00, 0x44, 0x58, 0x00, 0x00, 0x03, 0x00, 0x00, 0x00,
  0x01, 0x00, 0x00, 0x00, 0x10, 0x00, 0x00, 0x00, 0x00, 0x00, 0x0a, 0x00,
  0x10, 0x00, 0x0c, 0x00, 0x08, 0x00, 0x04, 0x00, 0x0a, 0x00, 0x00, 0x00,
  0x0c, 0x00, 0x00, 0x00, 0x1c, 0x00, 0x00, 0x00, 0x3c, 0x00, 0x00, 0x00,
  0x0f, 0x00, 0x00, 0x00, 0x73, 0x65, 0x72, 0x76, 0x69, 0x6e, 0x67, 0x5f,
  0x64, 0x65, 0x66, 0x61, 0x75, 0x6c, 0x74, 0x00, 0x01, 0x00, 0x00, 0x00,
  0x04, 0x00, 0x00, 0x00, 0x90, 0xff, 0xff, 0xff, 0x0d, 0x00, 0x00, 0x00,
  0x04, 0x00, 0x00, 0x00, 0x08, 0x00, 0x00, 0x00, 0x6f, 0x75, 0x74, 0x70,
  0x75, 0x74, 0x5f, 0x30, 0x00, 0x00, 0x00, 0x00, 0x01, 0x00, 0x00, 0x00,
  0x04, 0x00, 0x00, 0x00, 0xda, 0xae, 0xff, 0xff, 0x04, 0x00, 0x00, 0x00,
  0x0f, 0x00, 0x00, 0x00, 0x6b, 0x65, 0x72, 0x61, 0x73, 0x5f, 0x74, 0x65,
  0x6e, 0x73, 0x6f, 0x72, 0x5f, 0x32, 0x30, 0x00, 0x02, 0x00, 0x00, 0x00,
  0x34, 0x00, 0x00, 0x00, 0x04, 0x00, 0x00, 0x00, 0xdc, 0xff, 0xff, 0xff,
  0x10, 0x00, 0x00, 0x00, 0x04, 0x00, 0x00, 0x00, 0x13, 0x00, 0x00, 0x00,
  0x43, 0x4f, 0x4e, 0x56, 0x45, 0x52, 0x53, 0x49, 0x4f, 0x4e, 0x5f, 0x4d,
  0x45, 0x54, 0x41, 0x44, 0x41, 0x54, 0x41, 0x00, 0x08, 0x00, 0x0c, 0x00,
  0x08, 0x00, 0x04, 0x00, 0x08, 0x00, 0x00, 0x00, 0x0f, 0x00, 0x00, 0x00,
  0x04, 0x00, 0x00, 0x00, 0x13, 0x00, 0x00, 0x00, 0x6d, 0x69, 0x6e, 0x5f,
  0x72, 0x75, 0x6e, 0x74, 0x69, 0x6d, 0x65, 0x5f, 0x76, 0x65, 0x72, 0x73,
  0x69, 0x6f, 0x6e, 0x00, 0x11, 0x00, 0x00, 0x00, 0x14, 0x50, 0x00, 0x00,
  0x0c, 0x50, 0x00, 0x00, 0xfc, 0x4e, 0x00, 0x00, 0xec, 0x46, 0x00, 0x00,
  0xdc, 0x26, 0x00, 0x00, 0xbc, 0x26, 0x00, 0x00, 0x6c, 0x26, 0x00, 0x00,
  0xdc, 0x25, 0x00, 0x00, 0xcc, 0x24, 0x00, 0x00, 0xbc, 0x00, 0x00, 0x00,
  0xb4, 0x00, 0x00, 0x00, 0xac, 0x00, 0x00, 0x00, 0xa4, 0x00, 0x00, 0x00,
  0x9c, 0x00, 0x00, 0x00, 0x94, 0x00, 0x00, 0x00, 0x74, 0x00, 0x00, 0x00,
  0x04, 0x00, 0x00, 0x00, 0x9a, 0xaf, 0xff, 0xff, 0x04, 0x00, 0x00, 0x00,
  0x60, 0x00, 0x00, 0x00, 0x10, 0x00, 0x00, 0x00, 0x00, 0x00, 0x00, 0x00,
  0x08, 0x00, 0x0e, 0x00, 0x08, 0x00, 0x04, 0x00, 0x08, 0x00, 0x00, 0x00,
  0x10, 0x00, 0x00, 0x00, 0x24, 0x00, 0x00, 0x00, 0x00, 0x00, 0x06, 0x00,
  0x08, 0x00, 0x04, 0x00, 0x06, 0x00, 0x00, 0x00, 0x04, 0x00, 0x00, 0x00,
  0x00, 0x00, 0x00, 0x00, 0x0c, 0x00, 0x18, 0x00, 0x14, 0x00, 0x10, 0x00,
  0x0c, 0x00, 0x04, 0x00, 0x0c, 0x00, 0x00, 0x00, 0x19, 0x47, 0xc5, 0xcb,
  0xb2, 0x07, 0x1b, 0xc4, 0x02, 0x00, 0x00, 0x00, 0x02, 0x00, 0x00, 0x00,
  0x04, 0x00, 0x00, 0x00, 0x06, 0x00, 0x00, 0x00, 0x32, 0x2e, 0x31, 0x39,
  0x2e, 0x30, 0x00, 0x00, 0x06, 0xb0, 0xff, 0xff, 0x04, 0x00, 0x00, 0x00,
  0x10, 0x00, 0x00, 0x00, 0x31, 0x2e, 0x35, 0x2e, 0x30, 0x00, 0x00, 0x00,
  0x00, 0x00, 0x00, 0x00, 0x00, 0x00, 0x00, 0x00, 0xac, 0xa9, 0xff, 0xff,
  0xb0, 0xa9, 0xff, 0xff, 0xb4, 0xa9, 0xff, 0xff, 0xb8, 0xa9, 0xff, 0xff,
  0xbc, 0xa9, 0xff, 0xff, 0x36, 0xb0, 0xff, 0xff, 0x04, 0x00, 0x00, 0x00,
  0x00, 0x24, 0x00, 0x00, 0xb1, 0xc3, 0x00, 0x3e, 0xd6, 0x90, 0x7e, 0x3e,
  0xf5, 0xd3, 0xb0, 0x3e, 0x32, 0xe2, 0x79, 0xbd, 0x6c, 0x81, 0x88, 0x3e,
  0x5e, 0xd3, 0x9a, 0x3e, 0xe1, 0x47, 0x07, 0x3e, 0xef, 0x43, 0xbb, 0xbe,
  0x18, 0xc7, 0xc0, 0xbe, 0x5b, 0x68, 0x3e, 0x3e, 0x25, 0xc5, 0x6e, 0xbd,
  0x78, 0x11, 0x5d, 0xbe, 0x89, 0x85, 0x40, 0xbe, 0x3b, 0x8b, 0xc0, 0x3d,
  0x2b, 0x39, 0x57, 0x3e, 0xa3, 0x62, 0x57, 0x3e, 0x8e, 0xc4, 0xea, 0xbd,
  0x48, 0x7c, 0x4d, 0x3d, 0xe5, 0xd0, 0x25, 0xbe, 0x03, 0x0b, 0x6a, 0xbe,
  0xd2, 0x2c, 0xb6, 0xbe, 0x9a, 0x00, 0xa0, 0x3e, 0x7b, 0x09, 0xf5, 0x3d,
  0xa8, 0xe5, 0x8b, 0xbd, 0xf6, 0xc2, 0x28, 0x3e, 0xf0, 0x33, 0x03, 0x3e,
  0xbf, 0x32, 0x71, 0xbe, 0x5b, 0xc3, 0x89, 0x3e, 0xa1, 0xe5, 0x57, 0x3d,
  0x5b, 0x8a, 0x10, 0x3e, 0x47, 0xe9, 0x99, 0x3d, 0x6a, 0xd0, 0x92, 0x3e,
  0xdd, 0xb7, 0x80, 0xbd, 0xae, 0x04, 0x31, 0xbe, 0x73, 0x7b, 0x0b, 0x3e,
  0xde, 0x1e, 0x53, 0x3e, 0x8f, 0xb8, 0x1c, 0xbe, 0x60, 0x92, 0x3d, 0xbe,
  0x9d, 0x15, 0x62, 0x3e, 0x9c, 0xbf, 0x13, 0x3d, 0x60, 0x6d, 0xf3, 0x3b,
  0xb4, 0x29, 0x63, 0x3d, 0x1d, 0xb6, 0xfc, 0xbd, 0x70, 0x37, 0x01, 0xbe,
  0x84, 0xf3, 0xb0, 0xbd, 0x70, 0x38, 0x97, 0xbd, 0x8a, 0xd8, 0x21, 0xbe,
  0xf6, 0x99, 0xdc, 0x3d, 0xae, 0xb9, 0x4c, 0xbe, 0x4b, 0x09, 0x21, 0x3e,
  0xee, 0x8e, 0xba, 0x3d, 0x32, 0xc8, 0x11, 0xbe, 0xd4, 0x39, 0x01, 0xbd,
  0xce, 0xc0, 0xf2, 0x3d, 0x2a, 0xde, 0xaa, 0x3d, 0xcf, 0x43, 0x65, 0x3e,
  0xa5, 0xf1, 0x3c, 0xbe, 0xfc, 0x04, 0xc7, 0xbd, 0xf4, 0xb0, 0x39, 0xbe,
  0xb0, 0xbe, 0x90, 0xbd, 0x94, 0x5d, 0x1e, 0x3d, 0x00, 0xf2, 0xc7, 0xbc,
  0xf9, 0xa8, 0x29, 0xbe, 0x91, 0x50, 0x7a, 0x3e, 0xd6, 0x22, 0x81, 0x3d,
  0x9e, 0x1b, 0x26, 0xbe, 0x17, 0xa1, 0x07, 0x3e, 0xaa, 0xda, 0x21, 0xbe,
  0xac, 0x1b, 0x1e, 0xbe, 0x17, 0x3d, 0x60, 0x3e, 0x38, 0xea, 0x78, 0xbe,
  0x10, 0x1a, 0xd7, 0xbd, 0xd6, 0xaf, 0x9f, 0xbd, 0x98, 0x0a, 0x19, 0xbe,
  0x1d, 0xb6, 0x46, 0x3e, 0x62, 0xf6, 0xbc, 0x3d, 0x7c, 0x87, 0x12, 0x3d,
  0x8c, 0x4a, 0x7a, 0xbd, 0x73, 0xc3, 0x53, 0x3e, 0xcb, 0x28, 0x6e, 0xbe,
  0x3d, 0xcb, 0x54, 0x3e, 0x94, 0xa2, 0x74, 0xbe, 0x7d, 0xf5, 0x36, 0xbe,
  0x80, 0x45, 0xac, 0xbd, 0x24, 0x22, 0x23, 0x3d, 0x27, 0x4c, 0x2e, 0x3e,
  0xff, 0xe3, 0x03, 0x3e, 0xb2, 0x34, 0x42, 0xbe, 0x16, 0x15, 0x9b, 0x3d,
  0xfa, 0x40, 0x00, 0xbe, 0x6c, 0x88, 0x0f, 0x3d, 0xb6, 0x74, 0xd1, 0x3d,
  0x02, 0x75, 0x2e, 0xbe, 0xe4, 0x77, 0x4a, 0x3d, 0x93, 0x5c, 0x63, 0xbe,
  0x7b, 0xff, 0x62, 0xbe, 0x11, 0x19, 0x0f, 0x3e, 0x5c, 0xc7, 0x6b, 0x3d,
  0x40, 0xff, 0x60, 0x3b, 0xe5, 0xe5, 0x40, 0x3e, 0x41, 0xb7, 0x01, 0x3e,
  0x96, 0x86, 0x99, 0xbd, 0x70, 0xdc, 0x6b, 0x3c, 0x9c, 0xfa, 0x62, 0xbd,
  0x5e, 0x2c, 0x1a, 0xbe, 0x96, 0x0b, 0xa9, 0x3d, 0x22, 0x12, 0x0e, 0xbe,
  0xba, 0xbc, 0x04, 0xbe, 0x88, 0x59, 0x82, 0x3d, 0xd5, 0x07, 0xaf, 0x3c,
  0xbe, 0xe7, 0x98, 0x3d, 0x21, 0x73, 0x97, 0xbd, 0x5c, 0xe8, 0x69, 0x3e,
  0x70, 0xe6, 0x21, 0x3d, 0xcb, 0xc1, 0xe3, 0x3d, 0xe8, 0xa6, 0xc8, 0xbc,
  0xfb, 0x10, 0x14, 0xbe, 0xe8, 0x28, 0xed, 0x3d, 0x70, 0x82, 0x78, 0x3c,
  0x88, 0x96, 0xe5, 0xbc, 0xdf, 0x23, 0x46, 0x3d, 0x94, 0xfa, 0xef, 0x3d,
  0xb7, 0x1d, 0x0c, 0xbd, 0xf0, 0x0a, 0x41, 0xbe, 0xd0, 0x37, 0x1d, 0xbe,
  0x9e, 0x8b, 0x23, 0x3e, 0xb7, 0x12, 0x64, 0xbe, 0xaa, 0x77, 0x4b, 0xbe,
  0x71, 0x12, 0x39, 0x3e, 0x30, 0xa0, 0x6c, 0xbe, 0xbf, 0x6f, 0x5f, 0xbe,
  0x86, 0x7f, 0x2f, 0x3e, 0x6a, 0x9b, 0xd2, 0xbd, 0x1a, 0x72, 0xc3, 0xbc,
  0x86, 0x71, 0x0a, 0x3e, 0x82, 0x87, 0x1b, 0xbe, 0x28, 0x50, 0x65, 0xbd,
  0x87, 0xa5, 0x49, 0x3e, 0x83, 0xea, 0x29, 0xbe, 0x8f, 0x15, 0x2b, 0x3e,
  0xd6, 0x1f, 0x4f, 0xbe, 0x39, 0x82, 0xc0, 0xbd, 0x42, 0x8b, 0xf1, 0x3d,
  0x50, 0x56, 0x07, 0xbe, 0x80, 0xe4, 0x83, 0xbe, 0x9d, 0x8e, 0x16, 0xbd,
  0xa6, 0x4a, 0xce, 0xbe, 0x26, 0x55, 0xa6, 0x3d, 0xa6, 0x4d, 0x8d, 0xbe,
  0xe7, 0xb7, 0xa8, 0xbe, 0x33, 0xa3, 0x92, 0x3c, 0x6c, 0xe7, 0x83, 0x3e,
  0x32, 0xbf, 0x6f, 0x3e, 0xf5, 0x61, 0x08, 0x3e, 0x91, 0x9f, 0x0e, 0x3e,
  0xe2, 0xc1, 0x9d, 0x3e, 0x02, 0x62, 0x0d, 0x3e, 0x13, 0x8f, 0x5c, 0xbd,
  0x0c, 0x0f, 0x54, 0x3d, 0xbe, 0x2b, 0x7d, 0x3d, 0xd2, 0xf1, 0x6d, 0xbe,
  0x9f, 0x51, 0xff, 0xbc, 0x79, 0xc7, 0x2a, 0xbe, 0x63, 0xb7, 0x11, 0x3e,
  0xa3, 0x85, 0x7a, 0xbd, 0x42, 0xbf, 0x8e, 0x3e, 0xe7, 0x10, 0x43, 0x3e,
  0x3c, 0xd8, 0xb0, 0xbd, 0xcf, 0x7d, 0xaf, 0x3b, 0x63, 0x38, 0x32, 0xbd,
  0xd5, 0x91, 0x0d, 0x3e, 0xb5, 0xea, 0xb6, 0x3d, 0x72, 0x4c, 0x6a, 0x3e,
  0x90, 0xe6, 0x86, 0x3e, 0x18, 0x2c, 0x3e, 0x3e, 0x6c, 0xa6, 0xf8, 0x3d,
  0x39, 0x23, 0x11, 0xbe, 0xdf, 0x8b, 0x8c, 0xbe, 0x28, 0xe2, 0x8b, 0x3d,
  0x04, 0x2e, 0x62, 0xbd, 0xe3, 0x77, 0x9a, 0x3e, 0xe6, 0x6e, 0x93, 0xbd,
  0x25, 0xf4, 0xcf, 0xbe, 0x39, 0xbc, 0x31, 0xbe, 0x60, 0x59, 0xce, 0xbe,
  0x04, 0xa2, 0xa3, 0xbe, 0x4f, 0x74, 0x1f, 0xbe, 0x72, 0xd0, 0x8c, 0x3e,
  0xde, 0xb9, 0xd1, 0x3d, 0xc4, 0xfa, 0x0c, 0x3e, 0x22, 0x95, 0x8a, 0xbd,
  0x42, 0x7e, 0xe3, 0x3e, 0x07, 0xba, 0xbb, 0xbd, 0x1d, 0xfa, 0x09, 0xbe,
  0x4a, 0x0c, 0x10, 0xbe, 0xae, 0xbf, 0x86, 0x3d, 0xb4, 0xe0, 0x22, 0xbe,
  0xe5, 0x54, 0xef, 0xbd, 0xaa, 0x75, 0x8a, 0xbd, 0x6c, 0xb0, 0x54, 0xbc,
  0xd8, 0x7d, 0x9a, 0x3e, 0xd2, 0xaa, 0x8b, 0xbc, 0x54, 0x42, 0x89, 0x3e,
  0x94, 0x24, 0xc2, 0xbd, 0x79, 0xef, 0xfb, 0x3d, 0x59, 0x1f, 0x93, 0x3e,
  0xea, 0x07, 0x7b, 0x3e, 0xc4, 0x48, 0xe6, 0xbd, 0x66, 0x5f, 0xee, 0x3d,
  0x82, 0xa0, 0x27, 0x3e, 0x96, 0x76, 0x7f, 0x3e, 0x04, 0xc6, 0x30, 0xbe,
  0xb4, 0x0f, 0x1d, 0x3e, 0x30, 0x72, 0xb9, 0xbe, 0xe3, 0xd3, 0x59, 0xbe,
  0x4d, 0xb2, 0x08, 0xbe, 0xf2, 0x42, 0x33, 0xbe, 0x9e, 0xed, 0x57, 0xbe,
  0x32, 0x6d, 0xe5, 0x3d, 0x6f, 0x77, 0x45, 0x3e, 0xc2, 0xa7, 0x9d, 0x3d,
  0x1a, 0xd1, 0xe6, 0xbd, 0x03, 0x52, 0x20, 0xbe, 0x3c, 0x22, 0x35, 0x3d,
  0x34, 0x4f, 0x30, 0x3d, 0xec, 0xba, 0x7e, 0x3d, 0x0e, 0xa9, 0xe7, 0xbd,
  0xe8, 0x6c, 0x4e, 0xbe, 0xd4, 0x85, 0x71, 0xbd, 0xd4, 0x51, 0x31, 0x3d,
  0x68, 0xaa, 0xf6, 0xbd, 0x3a, 0xe1, 0x19, 0xbe, 0x60, 0xfb, 0x56, 0xbc,
  0x09, 0x3c, 0x38, 0x3e, 0x3c, 0x44, 0x0d, 0xbe, 0x33, 0xbd, 0x23, 0x3e,
  0x5b, 0xc3, 0x5a, 0xbe, 0x92, 0x71, 0xb1, 0x3d, 0x3d, 0x95, 0x73, 0x3e,
  0x58, 0x7b, 0xff, 0xbc, 0x46, 0xe5, 0xa1, 0x3d, 0x0c, 0xe7, 0x65, 0xbd,
  0x66, 0xe0, 0x67, 0xbe, 0xa4, 0x86, 0x11, 0xbe, 0x8e, 0x19, 0x5e, 0xbe,
  0xb7, 0x6d, 0x5a, 0x3e, 0x82, 0xbe, 0x69, 0xbe, 0x5d, 0xe2, 0x41, 0x3e,
  0xec, 0xf1, 0x23, 0x3d, 0x48, 0xc9, 0x00, 0xbd, 0x7c, 0xb6, 0x49, 0xbd,
  0xe0, 0x1f, 0x0e, 0xbe, 0xcd, 0x87, 0x09, 0xbe, 0x19, 0x57, 0x08, 0x3e,
  0x62, 0x0b, 0xee, 0xbd, 0x6c, 0xbc, 0xd5, 0xbd, 0xf6, 0xa8, 0x3f, 0xbe,
  0xf7, 0x7b, 0x7a, 0x3e, 0x20, 0x56, 0xb9, 0xbd, 0x52, 0x21, 0xbe, 0xbd,
  0xa2, 0xc4, 0x96, 0x3d, 0x84, 0xa5, 0x4e, 0x3d, 0xfd, 0x8a, 0x32, 0x3e,
  0xd5, 0x9c, 0x07, 0x3e, 0x68, 0x34, 0x15, 0xbe, 0xb1, 0x7b, 0x40, 0x3e,
  0xc0, 0x72, 0x4c, 0xbe, 0xa1, 0xbe, 0x47, 0xbe, 0x7e, 0xcb, 0x14, 0xbe,
  0xd3, 0x10, 0x00, 0x3e, 0xf3, 0x0a, 0x79, 0xbe, 0x00, 0xf8, 0x0b, 0xbb,
  0xc6, 0x2b, 0x8c, 0x3d, 0xa0, 0x08, 0x51, 0xbe, 0xa5, 0x0d, 0x50, 0x3e,
  0xf6, 0x02, 0x3d, 0xbe, 0xb4, 0xda, 0x05, 0xbd, 0xd4, 0xa1, 0xb0, 0xbd,
  0x5e, 0x24, 0xab, 0xbd, 0xfc, 0x1f, 0x1f, 0x3d, 0x64, 0x8b, 0x69, 0xbe,
  0x40, 0xdc, 0xdc, 0xbd, 0x84, 0x14, 0xff, 0xbd, 0x43, 0xcd, 0x40, 0x3e,
  0x6a, 0x51, 0xd8, 0x3d, 0x71, 0x90, 0x1e, 0x3e, 0x1c, 0xe9, 0x96, 0xbd,
  0x11, 0x96, 0x66, 0x3e, 0x3b, 0x89, 0xa3, 0x3e, 0xfb, 0xf0, 0x85, 0xbe,
  0xcd, 0xc1, 0xe8, 0xbe, 0x94, 0xd0, 0x40, 0x3e, 0x85, 0xbb, 0xf1, 0xbe,
  0xb4, 0x5a, 0x9a, 0xbd, 0x72, 0xaa, 0x49, 0x3e, 0x24, 0xa5, 0xae, 0x3e,
  0x67, 0xd3, 0x8e, 0x3e, 0x7a, 0xc6, 0xf8, 0xbd, 0x93, 0x63, 0xfc, 0x3d,
  0xc8, 0x74, 0x35, 0xbb, 0xdf, 0x69, 0xd9, 0xbd, 0x8e, 0x3b, 0xb5, 0x3e,
  0xfc, 0x50, 0x50, 0x3e, 0x39, 0xab, 0xf5, 0x3c, 0xc6, 0xa5, 0xa7, 0xbd,
  0x6f, 0x5b, 0x79, 0x3e, 0xdd, 0x43, 0xe3, 0x3d, 0xbc, 0x4e, 0x85, 0x3e,
  0x92, 0x6e, 0x63, 0x3e, 0xcd, 0xac, 0x34, 0xbe, 0xc2, 0xdb, 0x98, 0x3e,
  0xde, 0x76, 0x3d, 0x3c, 0x4c, 0x93, 0x14, 0x3e, 0x0f, 0x12, 0x16, 0x3e,
  0xe3, 0x9f, 0xbe, 0x3e, 0xcf, 0x89, 0x15, 0x3d, 0x3d, 0x0b, 0xb7, 0x3d,
  0xad, 0x82, 0x15, 0xbd, 0x4f, 0x75, 0x8a, 0xbc, 0x29, 0xc4, 0xc3, 0x3d,
  0xa7, 0xc4, 0x2c, 0xbe, 0xe8, 0xb2, 0x2f, 0x3e, 0x65, 0x9d, 0x55, 0xbe,
  0x19, 0x66, 0x43, 0xbe, 0x43, 0x2d, 0x52, 0xbe, 0x99, 0x5b, 0x71, 0xbe,
  0x53, 0x29, 0x13, 0xbe, 0xd0, 0x0b, 0x74, 0xbd, 0x84, 0x4d, 0x1a, 0x3e,
  0x31, 0x32, 0x15, 0x3e, 0x16, 0xd4, 0xf6, 0x3c, 0xb9, 0x40, 0x5e, 0xbc,
  0x25, 0x68, 0x05, 0x3e, 0x6f, 0xd8, 0x19, 0xbd, 0x74, 0x1f, 0xe7, 0xbd,
  0x65, 0x23, 0x80, 0xbd, 0xfd, 0x0c, 0x9e, 0xbd, 0x3e, 0xd1, 0x10, 0xbe,
  0xf1, 0x1a, 0x04, 0x3e, 0xcc, 0xf6, 0x81, 0x3c, 0xaa, 0x8d, 0x66, 0xbe,
  0x87, 0xdb, 0xac, 0x3d, 0xa3, 0x65, 0x5a, 0xbe, 0x67, 0x87, 0x29, 0xbe,
  0xc5, 0xd6, 0x97, 0x3c, 0x04, 0x75, 0x56, 0xbe, 0xdf, 0xb4, 0x82, 0xbc,
  0xb3, 0xd7, 0x91, 0xbc, 0x91, 0x99, 0x20, 0xbe, 0x35, 0xc7, 0x55, 0x3e,
  0xef, 0x58, 0x95, 0x3d, 0xf2, 0xa5, 0x81, 0xbd, 0x91, 0x70, 0x0a, 0x3e,
  0xca, 0xca, 0x7a, 0xbe, 0x01, 0x1d, 0x43, 0x3e, 0x1f, 0xdc, 0x33, 0x3e,
  0xcb, 0x14, 0xc1, 0x3d, 0x43, 0xbf, 0x55, 0x3d, 0x35, 0x7b, 0x4c, 0xbe,
  0x7a, 0x5b, 0x50, 0xbd, 0x43, 0xec, 0xa3, 0xbd, 0x31, 0xd3, 0x0d, 0x3f,
  0x15, 0xdd, 0xe9, 0x3e, 0x4c, 0x82, 0xa7, 0xbd, 0x92, 0x12, 0xaa, 0x3e,
  0x8a, 0xc1, 0x3c, 0x3e, 0x5e, 0x5f, 0x18, 0xbb, 0xb0, 0x1a, 0xc4, 0xbd,
  0x04, 0x9d, 0x95, 0xbe, 0x49, 0xbd, 0x20, 0x3e, 0xd4, 0x8d, 0x12, 0x3d,
  0x40, 0xc4, 0x1d, 0xbd, 0x4c, 0x71, 0x37, 0xbe, 0x85, 0x0d, 0x1f, 0xbe,
  0xe0, 0x19, 0xfa, 0x3c, 0xdf, 0xb6, 0xde, 0x3d, 0xf9, 0xe0, 0xcc, 0x3e,
  0xa4, 0x68, 0x15, 0x3e, 0xdf, 0xbe, 0x1a, 0x3d, 0x75, 0x0b, 0x3e, 0x3e,
  0x00, 0x0d, 0x87, 0xbe, 0xe5, 0x9c, 0x4f, 0xbd, 0xe9, 0xe2, 0x8f, 0xbe,
  0xc4, 0xee, 0x69, 0x3e, 0x2b, 0x39, 0x8b, 0x3e, 0xa2, 0x19, 0x2b, 0xbd,
  0x8c, 0xbf, 0x1e, 0xbe, 0xd3, 0xc2, 0x94, 0x3e, 0x33, 0x06, 0x17, 0xbe,
  0x5b, 0x93, 0xa7, 0x3d, 0x60, 0xe3, 0x3f, 0xbe, 0xec, 0x7d, 0x22, 0x3e,
  0x13, 0x33, 0x60, 0x3e, 0x06, 0x7d, 0xb3, 0x3d, 0x50, 0x11, 0x6a, 0x3e,
  0x62, 0x26, 0x39, 0x3e, 0xc5, 0x38, 0x8d, 0x3d, 0x4e, 0xcc, 0x80, 0x3e,
  0xfa, 0xd4, 0x0a, 0x3d, 0x1e, 0x00, 0xa0, 0x3e, 0x09, 0xc0, 0xfc, 0x3c,
  0x1c, 0x4c, 0xcc, 0xbd, 0xf3, 0xd5, 0xbe, 0xbd, 0x32, 0x4e, 0xec, 0x3d,
  0xd5, 0x4b, 0xb0, 0x3d, 0x86, 0x58, 0xde, 0x3d, 0x66, 0x8b, 0xe7, 0x3c,
  0x7c, 0x93, 0x3d, 0x3e, 0xb2, 0xf1, 0x79, 0xbd, 0xbe, 0x80, 0x41, 0x3d,
  0x38, 0x5e, 0xea, 0x3c, 0x7e, 0x0f, 0x58, 0x3e, 0xc0, 0x8e, 0xf5, 0xbd,
  0x01, 0xd8, 0xcc, 0x3d, 0xe0, 0x0d, 0x6d, 0xbd, 0xa7, 0x48, 0x59, 0x3c,
  0x3b, 0x75, 0x8d, 0x3e, 0x32, 0xca, 0x87, 0x3e, 0xc2, 0x38, 0x42, 0x3e,
  0x71, 0x86, 0x76, 0x3e, 0x6d, 0xad, 0x9c, 0x3e, 0x01, 0xa5, 0x00, 0x3e,
  0xbe, 0xe4, 0x65, 0x3e, 0xc6, 0x48, 0xcd, 0x3c, 0x1a, 0x60, 0xbd, 0x3d,
  0xcd, 0x75, 0xa3, 0xbd, 0x17, 0xc8, 0x2a, 0x3e, 0x2b, 0x6e, 0x25, 0x3c,
  0x36, 0xa5, 0xdc, 0xbd, 0xdd, 0xfb, 0xd5, 0x3d, 0x4a, 0x13, 0x48, 0xbe,
  0xd6, 0x3c, 0x55, 0x3e, 0x83, 0xa4, 0x22, 0x3d, 0x58, 0xf0, 0x64, 0x3e,
  0x66, 0x41, 0x59, 0xbe, 0x3b, 0xc0, 0x8d, 0x3e, 0x1c, 0xde, 0x26, 0x3e,
  0xe7, 0x02, 0x82, 0x3e, 0xd5, 0x09, 0x19, 0xbe, 0xc7, 0xf9, 0xd0, 0xbc,
  0xe0, 0x5c, 0x3d, 0x3e, 0xda, 0xc7, 0x8b, 0x3e, 0x27, 0x27, 0x5e, 0x3d,
  0xb9, 0xaf, 0x53, 0x3e, 0x5e, 0x52, 0x2d, 0x3e, 0x06, 0x0c, 0x06, 0xbe,
  0xee, 0x6e, 0x14, 0x3e, 0x4c, 0xe5, 0x71, 0x3e, 0x68, 0xce, 0x4a, 0x3a,
  0xb5, 0xc7, 0xb9, 0x3d, 0x95, 0x27, 0x96, 0x3e, 0x4b, 0xdb, 0xef, 0x3d,
  0xc9, 0x4a, 0x39, 0x3e, 0xd1, 0x95, 0x94, 0x3d, 0x70, 0x06, 0x83, 0x3e,
  0x77, 0xeb, 0x99, 0x3d, 0x24, 0x57, 0xe0, 0xbd, 0xc2, 0x1e, 0x50, 0xbe,
  0x42, 0x0b, 0x0f, 0xbe, 0x81, 0x9d, 0x05, 0x3e, 0x0c, 0x20, 0x52, 0x3e,
  0x75, 0x7d, 0x65, 0x3e, 0x0b, 0xc7, 0x1b, 0x3e, 0xac, 0x40, 0x09, 0xbe,
  0x6a, 0x3d, 0x94, 0x3c, 0xb0, 0x5f, 0x4e, 0x3e, 0x94, 0xe0, 0x12, 0x3d,
  0x64, 0x85, 0x98, 0x3d, 0x25, 0x8a, 0x93, 0x3d, 0x6d, 0x68, 0xa7, 0x3d,
  0x5c, 0xc1, 0xdc, 0x3e, 0x7a, 0x89, 0x4a, 0x3e, 0xe6, 0xd8, 0xce, 0x3e,
  0x25, 0x5f, 0xac, 0x3e, 0x7a, 0x9d, 0x97, 0xbe, 0x45, 0xc4, 0xe2, 0xbd,
  0x4e, 0x62, 0x2f, 0xbe, 0xb3, 0x93, 0x90, 0x3e, 0x24, 0x90, 0xb4, 0xbe,
  0xa8, 0xf1, 0xec, 0xbe, 0x32, 0xd7, 0xb0, 0xbd, 0xf1, 0xfe, 0xf2, 0xbe,
  0x64, 0x41, 0x48, 0x3e, 0xad, 0x79, 0x84, 0xbc, 0xd5, 0x55, 0x23, 0x3a,
  0x28, 0xe5, 0x0a, 0xbe, 0xe0, 0x31, 0x64, 0x3e, 0x35, 0x31, 0xd4, 0xbe,
  0x1b, 0xf3, 0x9a, 0xbe, 0xe5, 0x55, 0xf5, 0x3c, 0x6c, 0x93, 0xb5, 0xbe,
  0x91, 0x78, 0x51, 0xbe, 0x64, 0xb8, 0xd3, 0x3d, 0x0e, 0x16, 0xe3, 0xbd,
  0xb1, 0x1d, 0x92, 0xbe, 0xad, 0x5b, 0xcd, 0x3d, 0x3b, 0xf7, 0x5d, 0x3e,
  0x9d, 0x50, 0xc1, 0x3d, 0xf2, 0x3a, 0x07, 0xbe, 0x9f, 0x8e, 0x34, 0x3e,
  0x7d, 0xb7, 0x1d, 0x3e, 0xed, 0x45, 0xbd, 0xbd, 0x1b, 0x8f, 0xd0, 0x3d,
  0x39, 0x19, 0xba, 0x3d, 0x69, 0xcc, 0x30, 0xbe, 0x4e, 0xea, 0x8f, 0xbe,
  0x69, 0x89, 0xd2, 0xbe, 0xcc, 0x1d, 0x39, 0xbe, 0x43, 0x8a, 0x04, 0xbe,
  0xd3, 0xbe, 0xea, 0xbe, 0x4a, 0xad, 0x20, 0x3e, 0x5d, 0x29, 0xaf, 0x3e,
  0x1a, 0x03, 0x2f, 0x3e, 0x86, 0x5a, 0x46, 0xbe, 0x61, 0xa3, 0x25, 0x3e,
  0x11, 0xfd, 0x34, 0x3e, 0xdc, 0x6b, 0x61, 0x3e, 0x70, 0x0f, 0xe2, 0x3d,
  0x69, 0x56, 0xb5, 0xbd, 0x6b, 0xe9, 0x58, 0x3e, 0xde, 0xd6, 0x56, 0xbe,
  0x3d, 0x4c, 0x91, 0x3d, 0x87, 0x95, 0x05, 0x3e, 0x59, 0xd3, 0x13, 0x3e,
  0x85, 0xbc, 0x4d, 0x3e, 0xd0, 0x1a, 0xc3, 0x3d, 0xe1, 0x61, 0x40, 0x3e,
  0xd9, 0xa4, 0xa1, 0x3e, 0x6c, 0xa0, 0x14, 0xbd, 0x14, 0x95, 0xc8, 0x3d,
  0x61, 0x79, 0xce, 0x3d, 0x0a, 0x5d, 0x5d, 0xbe, 0x95, 0xc6, 0x79, 0xbd,
  0xc8, 0xb4, 0x9c, 0x3e, 0x8c, 0x67, 0x4d, 0xbd, 0xca, 0x75, 0xca, 0x3d,
  0x4e, 0x67, 0x92, 0xbe, 0x8b, 0x4b, 0x65, 0x3e, 0x1f, 0xb7, 0xf2, 0xbd,
  0x2b, 0xb2, 0xb8, 0x3d, 0x3f, 0x55, 0x78, 0xbe, 0x93, 0x00, 0xa1, 0x3e,
  0xcf, 0xda, 0x31, 0x3e, 0x54, 0xa5, 0x96, 0x3d, 0xe5, 0xf6, 0x8c, 0x3d,
  0xf0, 0xb6, 0x52, 0x3e, 0x00, 0x61, 0x60, 0x3c, 0xaa, 0x51, 0x22, 0xbe,
  0x46, 0xf8, 0x67, 0xbe, 0x8d, 0x0f, 0x5e, 0xbe, 0xd2, 0x20, 0xdd, 0xbd,
  0x40, 0xc4, 0xa9, 0xbe, 0xe7, 0xdc, 0x4d, 0x3e, 0xbc, 0x5a, 0x7f, 0xbc,
  0xab, 0xa2, 0xf9, 0xbd, 0xe0, 0xb3, 0xa2, 0x3b, 0x2c, 0xbf, 0x72, 0x3e,
  0x90, 0x87, 0x6f, 0xbe, 0x7f, 0xb6, 0xef, 0xbd, 0x34, 0x45, 0x81, 0x3d,
  0x55, 0x9f, 0xcc, 0x3d, 0xf0, 0x29, 0xec, 0x3d, 0x28, 0x7c, 0x37, 0xbd,
  0x80, 0x7a, 0x3c, 0x3e, 0x9f, 0x1f, 0x61, 0xbe, 0x91, 0xe4, 0x11, 0xbe,
  0x25, 0x6e, 0xc5, 0x3d, 0xbb, 0x53, 0x28, 0xbd, 0xd2, 0xc5, 0x8d, 0xbe,
  0x5b, 0xab, 0x1b, 0xbe, 0xcc, 0xa5, 0x1e, 0x3e, 0x0e, 0x67, 0x0a, 0xbd,
  0xa3, 0x24, 0x82, 0xbd, 0xf8, 0x2c, 0x9b, 0xbc, 0x88, 0xa3, 0x90, 0x3e,
  0x05, 0x73, 0x0c, 0x3e, 0x48, 0x03, 0x89, 0x3e, 0x8d, 0x76, 0xb1, 0x3e,
  0x8f, 0xca, 0x15, 0x3d, 0x66, 0x14, 0x7a, 0x3e, 0x89, 0x02, 0xa1, 0x3e,
  0x9c, 0x03, 0x97, 0x3d, 0xab, 0xfe, 0xfc, 0x3d, 0xe9, 0xba, 0x2d, 0xbe,
  0xe6, 0xe6, 0x98, 0xbe, 0xbd, 0xd5, 0x10, 0x3e, 0xc7, 0x0b, 0x1d, 0x3e,
  0xcd, 0x74, 0xb8, 0xbe, 0x2f, 0x14, 0x91, 0xbd, 0x85, 0x85, 0x85, 0xbd,
  0xdb, 0x54, 0xd5, 0xbc, 0x51, 0x72, 0x5f, 0x3e, 0xbf, 0x2c, 0x06, 0x3d,
  0x4c, 0x72, 0xb2, 0xbd, 0xd3, 0x19, 0xd5, 0xbd, 0xa5, 0x31, 0x12, 0x3e,
  0x49, 0x5d, 0xb8, 0x3d, 0xb7, 0xae, 0x15, 0xbe, 0x64, 0xfb, 0x40, 0xbd,
  0x04, 0x26, 0xa1, 0xbd, 0xba, 0x8c, 0xa0, 0x3e, 0xc8, 0x31, 0x9b, 0xbe,
  0x9a, 0x4d, 0xb5, 0xbd, 0x48, 0xa8, 0x98, 0x3e, 0x55, 0xee, 0x8e, 0x3d,
  0x12, 0x29, 0xe7, 0x3d, 0xd1, 0x82, 0x23, 0x3e, 0xa3, 0xc6, 0x4a, 0x3e,
  0xcb, 0xb4, 0xbe, 0xbc, 0x49, 0x30, 0xa5, 0xbc, 0xf7, 0x56, 0x85, 0x3e,
  0xc7, 0x3b, 0xc0, 0xbd, 0xe9, 0x66, 0xbd, 0xbd, 0x09, 0x83, 0xbb, 0x3e,
  0x15, 0xec, 0xe8, 0x3e, 0xcc, 0xdd, 0xb6, 0xbb, 0xce, 0xba, 0xc6, 0x3e,
  0xf9, 0xf7, 0xc5, 0x3e, 0x68, 0x71, 0x1e, 0xbe, 0xaa, 0x30, 0x70, 0xbe,
  0x4a, 0xeb, 0x37, 0xbe, 0x8c, 0x6d, 0xc4, 0xbd, 0xa6, 0xc6, 0x19, 0xbe,
  0xae, 0x59, 0xb6, 0xbe, 0xbd, 0x72, 0x9c, 0xbd, 0x48, 0x17, 0xc1, 0xbd,
  0x48, 0xac, 0xb0, 0x3e, 0x55, 0x87, 0x32, 0x3e, 0x08, 0xb3, 0x82, 0x3e,
  0x72, 0x07, 0x85, 0x3e, 0xfb, 0x37, 0x14, 0x3e, 0xac, 0xdd, 0x81, 0xbe,
  0x67, 0x38, 0x5e, 0x3d, 0x6a, 0x26, 0xf2, 0xbd, 0xb9, 0xc4, 0x4d, 0xbe,
  0x68, 0x01, 0x7e, 0x3e, 0x5c, 0x2b, 0xd8, 0xbd, 0xe1, 0xc6, 0xc2, 0xbc,
  0xa9, 0xe5, 0x94, 0x3b, 0xf4, 0x9b, 0x8c, 0xbe, 0x6e, 0xb7, 0xb7, 0xbd,
  0x7e, 0xf2, 0x9c, 0x3c, 0x20, 0xcf, 0xf6, 0x3d, 0x43, 0x9c, 0x68, 0x3e,
  0xff, 0x7a, 0x16, 0xbe, 0x85, 0xbe, 0x8a, 0x3e, 0xf3, 0x10, 0x96, 0x3d,
  0x15, 0x1f, 0x83, 0x3e, 0x39, 0x60, 0x18, 0x3e, 0x3a, 0xdc, 0x27, 0xbc,
  0xb1, 0xa8, 0xc3, 0x3e, 0x00, 0x10, 0x16, 0xbe, 0x68, 0xfd, 0xf0, 0x3e,
  0xe7, 0x48, 0x8c, 0x3e, 0x7f, 0x37, 0xab, 0x3e, 0x6b, 0x8c, 0x16, 0xbd,
  0x51, 0x02, 0x6b, 0xbe, 0x7d, 0x41, 0xf5, 0xbd, 0x84, 0x24, 0x8a, 0xbe,
  0x04, 0x21, 0xe3, 0xbe, 0xf1, 0x0d, 0x3d, 0x3e, 0x57, 0xc1, 0x2b, 0x3e,
  0x56, 0xef, 0xed, 0xbd, 0x61, 0xd7, 0x75, 0x3e, 0x73, 0x28, 0xad, 0x3e,
  0x25, 0x1a, 0x57, 0xbc, 0xce, 0x7a, 0x97, 0xbd, 0x3b, 0xe1, 0x30, 0x3e,
  0xd7, 0x32, 0x5e, 0x3e, 0x3f, 0xd7, 0x5f, 0xbe, 0xe0, 0xef, 0x86, 0xbe,
  0x0f, 0xf0, 0x47, 0x3e, 0x0e, 0xf0, 0x6f, 0xbc, 0xed, 0x9a, 0xa8, 0xbd,
  0xc4, 0x12, 0x7e, 0xbe, 0x83, 0x31, 0x20, 0xbd, 0x01, 0x46, 0xb4, 0xbe,
  0x1f, 0xaf, 0x4a, 0xbe, 0xd9, 0x73, 0xcf, 0x3d, 0x10, 0x9a, 0x4a, 0x3e,
  0x0a, 0x69, 0x7d, 0x3e, 0x5d, 0xd2, 0xa5, 0xbd, 0xd7, 0x79, 0xa9, 0x3e,
  0x8e, 0xfb, 0x02, 0x3d, 0x78, 0xa7, 0x4a, 0xbe, 0x51, 0x5c, 0xfe, 0x3e,
  0x75, 0x3b, 0xf1, 0x3d, 0xdf, 0x19, 0x92, 0x3e, 0x71, 0xfe, 0xf2, 0x3d,
  0xc0, 0x2f, 0x7e, 0x3e, 0x41, 0xb7, 0x41, 0xbe, 0x9d, 0x36, 0xd9, 0xbe,
  0x7e, 0x69, 0x9d, 0xbe, 0xbe, 0xf5, 0xe3, 0xbd, 0xa7, 0xce, 0x3c, 0xbe,
  0x19, 0x6a, 0x39, 0xbd, 0x5a, 0x77, 0x5b, 0x3d, 0xb0, 0xe6, 0x39, 0xbe,
  0xe7, 0x5d, 0x97, 0x3e, 0xb0, 0x62, 0x60, 0x3e, 0x1d, 0x33, 0xda, 0x3d,
  0x61, 0x73, 0xae, 0xbd, 0x6a, 0x10, 0x54, 0x3d, 0x3e, 0x9f, 0xa4, 0xbe,
  0x23, 0x74, 0xe7, 0xbd, 0xb8, 0x41, 0x72, 0x3d, 0xfe, 0x9b, 0x85, 0x3d,
  0xce, 0xe4, 0x78, 0xbe, 0xda, 0x8a, 0x48, 0x3e, 0x96, 0x18, 0x1b, 0xbe,
  0x3e, 0x9c, 0x81, 0xbc, 0xb0, 0x05, 0x50, 0x3e, 0x99, 0x73, 0x78, 0xbe,
  0xed, 0xd0, 0xad, 0x3d, 0xf7, 0xa3, 0x4a, 0x3c, 0xa7, 0x90, 0x83, 0xbd,
  0x66, 0xd1, 0x95, 0x3e, 0xfb, 0xdd, 0xe1, 0xbc, 0xbf, 0x8c, 0x24, 0x3e,
  0x2f, 0x74, 0x56, 0xbd, 0xf8, 0x0f, 0xd3, 0x3c, 0xed, 0x35, 0x3b, 0xbe,
  0xb9, 0x75, 0x53, 0x3e, 0xe5, 0xfd, 0x25, 0xbe, 0xea, 0x3b, 0x31, 0x3d,
  0x8c, 0x16, 0x1f, 0xbe, 0x54, 0xe4, 0x13, 0x3e, 0xcf, 0x4e, 0x39, 0x3e,
  0xd0, 0x4d, 0xf9, 0xbc, 0x35, 0x6f, 0xf9, 0xbd, 0x3e, 0x46, 0x79, 0xbe,
  0x88, 0x38, 0x33, 0xbd, 0x4d, 0x21, 0xe0, 0xbd, 0x4a, 0x94, 0x48, 0x3e,
  0x65, 0x7b, 0x6e, 0x3c, 0x25, 0xdb, 0x63, 0x3e, 0x10, 0x2a, 0x46, 0xbe,
  0x7d, 0xe0, 0x44, 0x3e, 0x63, 0x01, 0xe3, 0x3d, 0xba, 0x38, 0xa3, 0xbd,
  0x19, 0xb1, 0x1d, 0xbd, 0x14, 0x84, 0xb7, 0xbd, 0xc1, 0x7d, 0xc9, 0xbd,
  0xe0, 0x0a, 0x39, 0x3d, 0x3e, 0xce, 0xad, 0x3d, 0x56, 0xfe, 0x2c, 0xbe,
  0xaf, 0xde, 0x4a, 0xbe, 0x92, 0xb0, 0x33, 0xbd, 0x1f, 0x42, 0x91, 0x3d,
  0x20, 0xa2, 0x92, 0x3d, 0x89, 0xff, 0x1a, 0x3e, 0x8b, 0x96, 0xfc, 0xbd,
  0x52, 0xae, 0x15, 0x3d, 0xad, 0xb8, 0xbc, 0xbd, 0xe5, 0x18, 0x0f, 0x3e,
  0x73, 0xd1, 0x23, 0xbe, 0x05, 0xf0, 0x85, 0x3d, 0x4f, 0x55, 0xa9, 0xbd,
  0x0c, 0x49, 0xc6, 0xbe, 0xfb, 0x4f, 0x18, 0xbe, 0xac, 0x1f, 0x0f, 0xbe,
  0xee, 0x53, 0xed, 0xbe, 0x7c, 0xd3, 0xc3, 0x3e, 0x70, 0xd3, 0x0b, 0x3e,
  0x0f, 0xb1, 0x09, 0xbd, 0x16, 0x39, 0x6a, 0x3e, 0x0f, 0x76, 0x74, 0x3e,
  0xeb, 0x78, 0x07, 0x3e, 0xaa, 0x91, 0x38, 0x3e, 0x51, 0xd0, 0xa5, 0x3d,
  0xca, 0x34, 0xf1, 0x3d, 0x60, 0x60, 0x51, 0xbd, 0xf2, 0xbb, 0x44, 0xbe,
  0xd1, 0x4c, 0x98, 0x3e, 0xc6, 0x9b, 0xfc, 0xbc, 0x76, 0x95, 0xab, 0x3e,
  0x35, 0xa4, 0x76, 0x3e, 0x1d, 0x47, 0x04, 0x3e, 0xed, 0xe9, 0xb6, 0x3d,
  0x87, 0x77, 0xbd, 0x3e, 0xa3, 0x14, 0x9c, 0xbd, 0x1d, 0x4c, 0x9d, 0x3d,
  0x76, 0x45, 0x4d, 0x3d, 0x77, 0x9c, 0x31, 0x3e, 0x86, 0xcd, 0x97, 0xbd,
  0x59, 0x7d, 0x83, 0x3e, 0xdb, 0x98, 0x89, 0x3e, 0xd3, 0x86, 0xfd, 0xbd,
  0x26, 0x56, 0x80, 0x3e, 0xff, 0x04, 0x65, 0x3d, 0x68, 0xa6, 0x23, 0xbe,
  0x07, 0xd2, 0x75, 0x3e, 0x8d, 0x2a, 0xdc, 0x3c, 0xc4, 0xe8, 0xf3, 0x3c,
  0x13, 0x5a, 0x5b, 0x3d, 0x66, 0x3d, 0x12, 0xbe, 0xfa, 0xa6, 0xb9, 0x3d,
  0x89, 0xbe, 0xa5, 0x3d, 0x79, 0x38, 0x48, 0xbe, 0x4a, 0xbb, 0x2c, 0xbe,
  0x95, 0xc2, 0xb5, 0xbd, 0x1d, 0x48, 0x1b, 0x3d, 0x53, 0x57, 0xcc, 0x3d,
  0x21, 0xf2, 0x12, 0xbd, 0xad, 0x5a, 0x68, 0xbd, 0x1b, 0x65, 0xf5, 0xbd,
  0x29, 0xe5, 0xc7, 0xbd, 0x15, 0x8b, 0x9c, 0xbd, 0x7e, 0x05, 0x4e, 0x3e,
  0x43, 0xbd, 0x5a, 0x3e, 0xbc, 0x1d, 0xa3, 0x3d, 0x06, 0x8a, 0xa0, 0xbd,
  0x79, 0x83, 0x1d, 0x3d, 0x0f, 0x4f, 0x4d, 0x3d, 0x19, 0xce, 0x26, 0x3d,
  0xfc, 0x1b, 0x06, 0xbd, 0x5a, 0x17, 0x97, 0x3d, 0xc1, 0x93, 0x74, 0xbe,
  0xf4, 0xc3, 0x22, 0x3e, 0x8f, 0xbd, 0xf3, 0x3d, 0xba, 0xcd, 0xe9, 0xbc,
  0x36, 0x82, 0x83, 0xbe, 0xb1, 0x13, 0x1d, 0x3e, 0x96, 0x5a, 0x6b, 0xbe,
  0x23, 0x7a, 0x16, 0xbe, 0x70, 0xf7, 0x2c, 0x3e, 0x58, 0x85, 0x0b, 0x3e,
  0x2b, 0x6a, 0x3d, 0x3e, 0x4f, 0xd3, 0x31, 0xbe, 0x58, 0xfb, 0x8e, 0xbc,
  0xc3, 0xf4, 0x62, 0x3e, 0x49, 0x71, 0xe8, 0x3d, 0xa4, 0x46, 0x2c, 0xbd,
  0x06, 0x3f, 0x98, 0xbd, 0x25, 0x40, 0x3c, 0x3e, 0x03, 0xaf, 0xb4, 0xbd,
  0x68, 0xf6, 0xdb, 0xbd, 0x14, 0xf1, 0x41, 0x3d, 0xc0, 0xae, 0x09, 0xbe,
  0x2b, 0x15, 0xb1, 0xbc, 0x47, 0xa5, 0x21, 0x3d, 0xff, 0xd3, 0xe6, 0x3d,
  0x5d, 0xcc, 0xca, 0xbc, 0x93, 0x3a, 0x6c, 0xbe, 0x30, 0xd9, 0x5e, 0xbe,
  0xba, 0xcc, 0xb5, 0xbd, 0x1a, 0xe9, 0x3c, 0xbe, 0x70, 0x1a, 0x76, 0x3d,
  0x18, 0x53, 0x52, 0x3e, 0x30, 0x56, 0x2c, 0xbe, 0xfd, 0xd8, 0xb8, 0xbb,
  0x93, 0xf3, 0x3f, 0xbe, 0x27, 0xc3, 0x44, 0xbe, 0xbb, 0x31, 0x02, 0x3d,
  0x44, 0x8d, 0x07, 0xbe, 0x5c, 0xa6, 0x43, 0xbd, 0xa6, 0x6b, 0x44, 0xbe,
  0xed, 0xf4, 0xf8, 0xbc, 0x6d, 0x73, 0xb0, 0x3d, 0x00, 0xdd, 0x15, 0xbe,
  0x2e, 0x21, 0xb6, 0x3d, 0x31, 0x17, 0x38, 0x3e, 0x48, 0x4f, 0x73, 0xbd,
  0xb5, 0x05, 0x7a, 0xbe, 0x3c, 0x31, 0x7f, 0xbd, 0xb0, 0x06, 0xcd, 0xbc,
  0x28, 0xae, 0x7d, 0xbd, 0xc7, 0x9a, 0x55, 0x3e, 0x3a, 0x5b, 0xa7, 0xbd,
  0x53, 0xd0, 0x59, 0x3e, 0x74, 0xab, 0x0d, 0xbd, 0x1c, 0xc5, 0x75, 0xbd,
  0x8a, 0xb1, 0xf5, 0x3d, 0x41, 0xc0, 0x70, 0xbe, 0xf0, 0x24, 0x0d, 0xbc,
  0x80, 0x67, 0x9f, 0xbb, 0x10, 0x07, 0x38, 0x3c, 0x63, 0x82, 0x46, 0x3e,
  0xc6, 0xae, 0xbd, 0xbd, 0x10, 0x3a, 0x4d, 0xbe, 0xfe, 0x0b, 0x91, 0x3d,
  0x25, 0xbf, 0x51, 0x3e, 0x72, 0x38, 0xcc, 0x3d, 0x36, 0xc8, 0xfc, 0x3d,
  0x20, 0xf5, 0x84, 0xbc, 0x00, 0xe5, 0xdb, 0x3a, 0x58, 0x99, 0x22, 0xbe,
  0xcf, 0x77, 0x62, 0xbe, 0x7a, 0x8e, 0x6d, 0xbe, 0x9f, 0xf9, 0x1b, 0x3e,
  0x62, 0x4a, 0xe6, 0x3d, 0xb3, 0x0a, 0x69, 0x3e, 0x0a, 0x72, 0xb3, 0x3d,
  0x87, 0x44, 0x00, 0xbe, 0x10, 0xee, 0xef, 0xbc, 0xf9, 0x5d, 0x74, 0x3e,
  0x34, 0x47, 0x33, 0xbe, 0x9e, 0x40, 0x76, 0xbe, 0x50, 0xae, 0x4a, 0xbc,
  0x5c, 0x87, 0x2b, 0xbe, 0xf9, 0xfb, 0x41, 0x3e, 0xb4, 0xc3, 0x1c, 0xbd,
  0xd4, 0x2a, 0x78, 0x3d, 0x40, 0x09, 0x7c, 0xbc, 0x20, 0xba, 0x85, 0xbb,
  0x6c, 0xfe, 0x5d, 0x3d, 0xd0, 0x48, 0x8d, 0xbc, 0x9d, 0x6d, 0x55, 0xbe,
  0xb4, 0x29, 0xbb, 0xbd, 0x76, 0xa4, 0xbc, 0x3d, 0xb6, 0x66, 0x99, 0xbd,
  0xc8, 0xd6, 0xd3, 0xbd, 0x4d, 0xe3, 0x00, 0x3e, 0x40, 0x8b, 0x8d, 0xbb,
  0x8e, 0x9b, 0x70, 0xbe, 0x50, 0x9f, 0x50, 0xbe, 0x0c, 0x5b, 0x3f, 0x3d,
  0x90, 0x38, 0x8f, 0xbc, 0xf8, 0x9c, 0xaf, 0x3c, 0x41, 0x09, 0x59, 0x3e,
  0x20, 0xd4, 0x46, 0xbc, 0x0b, 0x9c, 0x0b, 0x3e, 0x5b, 0x30, 0x74, 0xbe,
  0x84, 0xfd, 0x2b, 0xbd, 0x78, 0x57, 0xe8, 0x3c, 0x28, 0xf8, 0x7e, 0xbd,
  0xec, 0x25, 0x0a, 0x3d, 0xc2, 0x4b, 0xe4, 0x3d, 0x12, 0x94, 0x76, 0xbe,
  0xb3, 0x8b, 0x78, 0xbe, 0x76, 0xff, 0x47, 0xbe, 0x7d, 0xfc, 0x5e, 0x3e,
  0x7c, 0x0a, 0x05, 0xbe, 0x30, 0x0a, 0x5f, 0xbe, 0x33, 0xac, 0x77, 0xbe,
  0x30, 0x47, 0x94, 0xbd, 0x84, 0xf3, 0xed, 0x3d, 0x66, 0xbf, 0xe3, 0xbe,
  0x83, 0xdc, 0x93, 0xbd, 0xb0, 0xa6, 0x5f, 0x3e, 0xf1, 0x70, 0xb7, 0xbe,
  0x78, 0x54, 0xe5, 0xbe, 0x7a, 0x4c, 0x93, 0x3d, 0x9a, 0xa0, 0x4e, 0x3d,
  0x50, 0xb5, 0x83, 0x3e, 0xc0, 0x8b, 0x6c, 0x3e, 0xe6, 0x1d, 0x12, 0x3e,
  0x7e, 0x32, 0xc0, 0x3e, 0x4f, 0x0f, 0x20, 0x3e, 0x64, 0xff, 0xed, 0xbd,
  0x4a, 0xfb, 0xbf, 0xbc, 0xbd, 0x97, 0x15, 0xbe, 0x50, 0x60, 0x90, 0xbe,
  0x66, 0x72, 0x9e, 0xbe, 0xca, 0x5b, 0x3f, 0xbd, 0xc6, 0x72, 0x87, 0x3e,
  0xe4, 0x70, 0x24, 0xbe, 0x0f, 0x7e, 0x34, 0x3e, 0x00, 0x69, 0x8e, 0x3e,
  0x46, 0x42, 0x21, 0x3e, 0xaa, 0xcc, 0x3b, 0x3e, 0xbf, 0x4f, 0x10, 0x3e,
  0x95, 0x62, 0xa0, 0x3e, 0x21, 0x25, 0x0b, 0x3e, 0x32, 0xc4, 0xb6, 0x3e,
  0xfb, 0x31, 0x01, 0x3e, 0x1a, 0xf0, 0xe5, 0x3d, 0xe2, 0x37, 0x52, 0x3d,
  0x79, 0x1c, 0x9a, 0x3e, 0xb9, 0x67, 0x26, 0xbe, 0x19, 0x81, 0xc8, 0x3c,
  0x37, 0x45, 0x9a, 0x3e, 0xbe, 0xf9, 0x1c, 0x3e, 0xc5, 0x00, 0x89, 0x3e,
  0x3a, 0x5e, 0x88, 0x3d, 0x0f, 0x4c, 0x88, 0xbd, 0x99, 0xc7, 0x72, 0x3e,
  0x4a, 0x0f, 0x5e, 0xbd, 0x78, 0x9c, 0xab, 0xbb, 0xdd, 0xe1, 0x44, 0x3d,
  0xdf, 0x0a, 0x38, 0x3d, 0xaf, 0xd5, 0xc7, 0x3d, 0x2f, 0x36, 0x9f, 0x3d,
  0x8e, 0xe3, 0x8b, 0xbe, 0xea, 0x83, 0xc5, 0xbd, 0xff, 0x86, 0x66, 0x3d,
  0xa0, 0x39, 0x31, 0x3e, 0x0e, 0xd0, 0x2d, 0x3e, 0x2d, 0xb2, 0xa3, 0xbd,
  0x76, 0x5d, 0x12, 0x3e, 0xee, 0xea, 0xfd, 0x3d, 0x2e, 0x7a, 0xf8, 0x3d,
  0x56, 0x9d, 0x50, 0xbe, 0xd1, 0xbb, 0x69, 0x3d, 0xa1, 0x3b, 0x66, 0x3d,
  0x79, 0x41, 0xc7, 0xbd, 0x4d, 0x2e, 0x2e, 0x3e, 0xca, 0xa1, 0xa7, 0x3d,
  0x11, 0x33, 0x80, 0xbd, 0x66, 0xa1, 0x0c, 0xbe, 0x3b, 0x6c, 0xb5, 0x3d,
  0x07, 0xe1, 0x0e, 0xbe, 0x95, 0xd9, 0x8c, 0x3e, 0x6f, 0x1c, 0x53, 0x3e,
  0x12, 0xcf, 0x97, 0x3e, 0x60, 0x29, 0x32, 0xbd, 0x11, 0x73, 0xb3, 0xbc,
  0xe0, 0x68, 0x80, 0x3e, 0x44, 0xa1, 0x80, 0x3e, 0xfb, 0xdd, 0xe1, 0x3d,
  0xa7, 0xb2, 0x81, 0xbd, 0x47, 0x67, 0x21, 0x3e, 0x7d, 0xfe, 0xcc, 0x3c,
  0x4a, 0x9a, 0x9c, 0x3e, 0x62, 0x85, 0xd7, 0x3c, 0xda, 0xd0, 0xa6, 0xbe,
  0x89, 0x02, 0x45, 0xbe, 0x87, 0x53, 0x28, 0x3e, 0x7e, 0xb3, 0x2f, 0x3e,
  0x82, 0x09, 0x9c, 0xbe, 0x9d, 0xb2, 0x82, 0x3e, 0x25, 0x56, 0xac, 0x3e,
  0x94, 0xfa, 0x33, 0x3d, 0xe4, 0xf4, 0xbe, 0x3d, 0xcf, 0xa8, 0xc2, 0x3e,
  0x1d, 0xdc, 0x0a, 0x3e, 0x67, 0x4f, 0x0e, 0x3e, 0x29, 0x93, 0x5e, 0x3e,
  0x02, 0xe6, 0x4a, 0x3e, 0x99, 0x78, 0xc9, 0xbe, 0x67, 0xed, 0xfc, 0xbd,
  0x16, 0x45, 0x04, 0x3e, 0xe9, 0x16, 0x82, 0xbe, 0x77, 0x15, 0x0f, 0xbd,
  0x56, 0x39, 0xed, 0xbc, 0xcc, 0xc5, 0xe7, 0xbd, 0x63, 0xf8, 0x94, 0xbe,
  0xd7, 0x95, 0xcf, 0xbd, 0x85, 0xf0, 0x35, 0xbe, 0x99, 0xca, 0x97, 0xbe,
  0xb2, 0x19, 0x01, 0xbd, 0x2d, 0x29, 0xb7, 0x3e, 0x81, 0x26, 0x00, 0x3e,
  0x8e, 0xbf, 0x52, 0x3d, 0x2a, 0x6c, 0xb2, 0x3d, 0x17, 0x47, 0x12, 0xbc,
  0x50, 0xc7, 0x15, 0x3e, 0xb5, 0x9b, 0x84, 0x3e, 0xc8, 0xb5, 0x35, 0x3e,
  0xde, 0x26, 0x86, 0xbe, 0x29, 0xb5, 0xc5, 0x3d, 0x83, 0x84, 0xb2, 0xbe,
  0x48, 0x5b, 0x7d, 0xbe, 0x29, 0xf2, 0x37, 0xbe, 0xfa, 0x1a, 0x58, 0x3e,
  0x60, 0xd6, 0xc0, 0xbe, 0xb9, 0xfb, 0xa9, 0x3c, 0xb5, 0xab, 0x9b, 0x3d,
  0x04, 0x80, 0x5b, 0xbe, 0x86, 0xab, 0x4e, 0x3e, 0x3b, 0x04, 0x43, 0x3e,
  0x02, 0x4f, 0x2d, 0x3d, 0x1f, 0xc6, 0x5b, 0xbc, 0x93, 0xc1, 0x9c, 0x3e,
  0xfd, 0x0f, 0x32, 0x3d, 0x2d, 0x89, 0xdb, 0xbe, 0x34, 0x90, 0x5e, 0xbc,
  0x92, 0x1f, 0x8c, 0x3d, 0x66, 0xf8, 0xf9, 0x3c, 0xae, 0x40, 0x69, 0x3c,
  0xd9, 0xf7, 0x92, 0xbe, 0x0c, 0xe6, 0x6e, 0x3d, 0x1b, 0xc9, 0x1b, 0xbe,
  0x24, 0x91, 0x28, 0x3d, 0xa0, 0x69, 0x09, 0x3e, 0x49, 0x79, 0x46, 0xbe,
  0x9d, 0xc6, 0x05, 0x3e, 0x98, 0x2e, 0x0f, 0x3e, 0x60, 0xf3, 0xa8, 0x3b,
  0x67, 0x15, 0xc5, 0xbd, 0x4d, 0x63, 0xc6, 0x3c, 0xa2, 0x23, 0x00, 0xbf,
  0xff, 0xe1, 0x03, 0xbf, 0x9a, 0x50, 0x3c, 0xbe, 0x17, 0x92, 0xec, 0xbe,
  0x32, 0x1c, 0xfc, 0xbe, 0xb2, 0x22, 0x88, 0x3d, 0x05, 0x08, 0x0a, 0x3f,
  0xe8, 0xc4, 0xfd, 0x3e, 0x40, 0x0f, 0xb9, 0x3b, 0x0d, 0x8e, 0x5e, 0x3e,
  0x45, 0xd6, 0x9d, 0x3e, 0xde, 0xb5, 0x3c, 0xbe, 0xc3, 0x3e, 0x65, 0x3e,
  0x32, 0xa4, 0x1c, 0x3e, 0xc0, 0x1a, 0xf5, 0xbc, 0xa2, 0xcc, 0xe3, 0xbe,
  0x9c, 0x64, 0x19, 0xbd, 0x87, 0xfe, 0xbb, 0x3d, 0x96, 0xe5, 0xbe, 0xbc,
  0x7b, 0xf8, 0x8d, 0x3e, 0x7b, 0x35, 0xe2, 0x3e, 0x4c, 0xd0, 0xbd, 0x3e,
  0x66, 0xa5, 0x7a, 0x3d, 0xe2, 0xaa, 0x24, 0x3e, 0xc3, 0x6b, 0x0c, 0x3d,
  0xca, 0x48, 0xc9, 0x3b, 0x12, 0x8c, 0x5b, 0xbe, 0xe2, 0xf6, 0xbd, 0x3e,
  0xd2, 0xde, 0x9e, 0x3e, 0x03, 0x99, 0x7e, 0x3e, 0x79, 0x78, 0x4b, 0xbe,
  0x17, 0xc8, 0x7f, 0x3c, 0x05, 0x22, 0xb8, 0xbc, 0xc4, 0xf9, 0xfd, 0x3d,
  0xe5, 0x43, 0x6f, 0xbe, 0x5d, 0xbe, 0x89, 0x3a, 0x61, 0xdc, 0xc5, 0x3e,
  0x72, 0xb5, 0xdf, 0x3e, 0x2b, 0xe8, 0x46, 0x3e, 0xd1, 0xcf, 0xc8, 0x3e,
  0xf9, 0x02, 0xd7, 0x3e, 0x2a, 0x37, 0x82, 0x3e, 0x9e, 0x12, 0xd5, 0xbe,
  0xd0, 0x18, 0x42, 0xbe, 0x7e, 0x8e, 0x2d, 0x3e, 0x3e, 0x49, 0x64, 0xbe,
  0x75, 0xf6, 0x41, 0xbe, 0x6a, 0xdb, 0x8c, 0x3e, 0x1e, 0x85, 0x13, 0x3e,
  0xd6, 0xdb, 0xb2, 0xbd, 0xe1, 0x7c, 0xb5, 0x3d, 0x5f, 0x4c, 0x65, 0x3c,
  0xe9, 0xea, 0xc3, 0xbc, 0x54, 0x92, 0x1c, 0xbe, 0x67, 0x6e, 0x8f, 0xbd,
  0x9a, 0x3e, 0x79, 0x3d, 0xf2, 0xe2, 0x58, 0xbe, 0x64, 0x51, 0xad, 0x3d,
  0xdb, 0xcb, 0x8d, 0xbd, 0x5b, 0x48, 0x2b, 0xbe, 0x4f, 0xbe, 0xe8, 0xbd,
  0xb1, 0xda, 0x9b, 0xbe, 0x24, 0x50, 0x20, 0xbd, 0x44, 0xbf, 0xb2, 0xbe,
  0x6c, 0xf4, 0x20, 0xbd, 0x2c, 0x27, 0x91, 0x3e, 0x95, 0x9b, 0x1e, 0x3e,
  0x25, 0x44, 0x50, 0x3e, 0x53, 0x99, 0xd3, 0x3d, 0x77, 0x1c, 0x22, 0x3b,
  0x33, 0x8d, 0xa2, 0x3c, 0x0e, 0xfe, 0xcf, 0xbd, 0x74, 0x50, 0x9b, 0xbd,
  0x0e, 0x33, 0x2c, 0xbe, 0xb1, 0xd3, 0x39, 0xbe, 0x16, 0x96, 0x16, 0xbe,
  0xec, 0x5f, 0x68, 0xbe, 0x13, 0xa0, 0x48, 0xbe, 0x26, 0xc0, 0xb5, 0x3d,
  0x2c, 0x8a, 0x14, 0x3d, 0xb1, 0x53, 0x5b, 0xbe, 0x4a, 0xb4, 0x8b, 0x3d,
  0x36, 0xf2, 0xc5, 0x3d, 0x18, 0xa1, 0xd7, 0x3c, 0xbb, 0x1a, 0x57, 0x3e,
  0x59, 0x6d, 0x1f, 0x3e, 0x8e, 0x10, 0x6d, 0xbe, 0x04, 0x03, 0x55, 0x3d,
  0xb2, 0xb2, 0xaf, 0xbd, 0x28, 0x75, 0xe7, 0xbc, 0x23, 0xcc, 0x5c, 0x3e,
  0x9a, 0x78, 0xaa, 0x3d, 0x88, 0x24, 0x06, 0xbe, 0xb4, 0xa0, 0x3c, 0x3d,
  0x00, 0x2d, 0xf7, 0x3a, 0xe0, 0xdd, 0xd2, 0x3b, 0xc0, 0xba, 0x79, 0x3b,
  0xce, 0x59, 0x20, 0xbe, 0x00, 0x05, 0x03, 0xbe, 0x68, 0x06, 0x9f, 0xbc,
  0x62, 0xfe, 0xd7, 0xbd, 0xaa, 0x28, 0xa0, 0x3d, 0x30, 0x9c, 0x5a, 0x3c,
  0x34, 0xf1, 0x56, 0x3d, 0x48, 0xe3, 0xf3, 0x3c, 0x73, 0x9b, 0x4d, 0x3e,
  0x4e, 0x17, 0xbd, 0x3d, 0xb0, 0x8c, 0x0b, 0x3e, 0x7a, 0x5d, 0x8c, 0xbb,
  0xec, 0xea, 0xa9, 0xbe, 0x7c, 0xf4, 0xad, 0xbd, 0x3d, 0x91, 0x44, 0xbe,
  0x8c, 0x5e, 0xaf, 0xbb, 0x01, 0xbb, 0x86, 0xbe, 0xf7, 0xef, 0xc1, 0x3d,
  0x98, 0x57, 0xf5, 0x3d, 0x6f, 0x94, 0xad, 0x3d, 0x72, 0x09, 0x13, 0x3e,
  0x8a, 0xda, 0x03, 0x3f, 0x79, 0xc4, 0x64, 0xbd, 0x6e, 0x4d, 0x75, 0x3d,
  0x37, 0xdd, 0xd8, 0x3d, 0x3f, 0x14, 0x1f, 0xbe, 0x08, 0xa6, 0xe8, 0xbe,
  0x3c, 0x40, 0xbc, 0xbe, 0x79, 0x33, 0x40, 0xbc, 0x6a, 0x8e, 0x13, 0xbe,
  0x3a, 0x57, 0xb5, 0x3d, 0xcc, 0x75, 0x41, 0x3e, 0x53, 0x87, 0x70, 0x3e,
  0x29, 0x22, 0xf4, 0xbd, 0xb7, 0x5a, 0x6e, 0x3e, 0x3a, 0x04, 0xf2, 0x3d,
  0x5a, 0x6e, 0xb5, 0xbb, 0x39, 0x28, 0xfb, 0xbd, 0x9d, 0xc4, 0xec, 0x3e,
  0x01, 0xb7, 0x34, 0x3e, 0x4c, 0x03, 0x7d, 0x3e, 0xdb, 0xd3, 0x56, 0xbe,
  0x25, 0xfa, 0x70, 0x3e, 0x14, 0xa7, 0x58, 0xbe, 0x0d, 0x21, 0x12, 0x3e,
  0xe2, 0x09, 0x82, 0xbd, 0x79, 0xe8, 0x22, 0x3e, 0x0d, 0x1d, 0x4c, 0xbe,
  0xbd, 0x2e, 0x77, 0xbe, 0x36, 0xf5, 0x27, 0xbe, 0x1d, 0xe9, 0x48, 0x3e,
  0x60, 0x2b, 0xb4, 0xbb, 0x90, 0xca, 0x37, 0x3c, 0xcd, 0xed, 0x5c, 0x3e,
  0xba, 0xec, 0xe8, 0x3d, 0x25, 0xdd, 0x28, 0x3e, 0x3c, 0x88, 0x0b, 0xbe,
  0x5e, 0x58, 0xfd, 0x3d, 0xd0, 0xde, 0x0d, 0x3c, 0xc8, 0xbd, 0xb3, 0xbc,
  0xf2, 0x4f, 0x14, 0xbe, 0x98, 0x78, 0x84, 0x3c, 0x7e, 0x79, 0xe3, 0x3d,
  0x90, 0xf1, 0x66, 0x3c, 0x29, 0x11, 0x62, 0x3e, 0x18, 0xc1, 0x8a, 0xbd,
  0x14, 0x37, 0x5b, 0xbe, 0x20, 0x86, 0x28, 0xbd, 0xec, 0x49, 0xcc, 0xbd,
  0xe0, 0x4e, 0x93, 0xbd, 0xe4, 0x07, 0x65, 0x3d, 0x34, 0x0b, 0x72, 0x3d,
  0xbc, 0x15, 0x61, 0xbe, 0x08, 0x40, 0xe5, 0xbd, 0x8e, 0x84, 0x97, 0x3d,
  0x20, 0xd1, 0x2f, 0xbd, 0xd8, 0x1f, 0x70, 0xbd, 0x2a, 0xc8, 0x1e, 0xbe,
  0x9d, 0xa0, 0x51, 0xbe, 0x50, 0x0e, 0x28, 0x3c, 0x60, 0xc3, 0xa1, 0xbd,
  0xac, 0x4f, 0x2f, 0x3d, 0x89, 0xe3, 0xeb, 0x3d, 0x82, 0x45, 0x3a, 0xbc,
  0xb9, 0xb1, 0xe4, 0xbd, 0xfb, 0x46, 0x9d, 0xbd, 0xe3, 0x3b, 0xa4, 0x3d,
  0x5b, 0xa5, 0x96, 0x3d, 0xcb, 0x2b, 0x39, 0xbd, 0x91, 0x3b, 0x41, 0xbe,
  0x40, 0xa6, 0x50, 0xbd, 0x51, 0xfd, 0x1d, 0xbd, 0xe6, 0xf4, 0x51, 0xbe,
  0xc7, 0xdd, 0x25, 0x3e, 0xea, 0x21, 0x86, 0xbc, 0x43, 0x7d, 0x75, 0xbe,
  0x0a, 0x84, 0xcd, 0x3c, 0x45, 0xf8, 0x18, 0xbe, 0xe1, 0x64, 0x72, 0xbe,
  0x03, 0x7d, 0x5c, 0xbd, 0x5a, 0x18, 0xd3, 0x3d, 0xc5, 0x91, 0x3a, 0xbd,
  0x97, 0x9e, 0x43, 0xbd, 0x10, 0x72, 0x1a, 0xbe, 0xa9, 0x46, 0x8c, 0xbd,
  0xe4, 0xdb, 0x65, 0xbe, 0x70, 0x41, 0x19, 0xbd, 0x42, 0xda, 0x50, 0x3e,
  0x98, 0xef, 0xfc, 0xbb, 0xac, 0xe5, 0xaa, 0x3d, 0x0c, 0xea, 0x4a, 0xbd,
  0xd7, 0x56, 0x4e, 0x3d, 0x98, 0x3d, 0x43, 0xbe, 0xa2, 0xa6, 0x4e, 0x3e,
  0x08, 0x2e, 0x3a, 0xbe, 0x2b, 0xdb, 0x3c, 0x3e, 0x30, 0xee, 0xee, 0x3d,
  0xdd, 0x82, 0xc8, 0x3d, 0x1a, 0x5e, 0x9f, 0xbd, 0x5f, 0xd6, 0x68, 0xbe,
  0xb9, 0x0b, 0x1a, 0xbe, 0xcf, 0xdf, 0xe6, 0x3d, 0xae, 0xe7, 0x03, 0xbe,
  0x0d, 0x24, 0x20, 0xbe, 0x29, 0x15, 0xf0, 0x3d, 0xe7, 0x0d, 0x4d, 0xbd,
  0xc5, 0xad, 0x3a, 0x3e, 0x35, 0xfe, 0xec, 0x3d, 0x19, 0xb2, 0xfe, 0x3a,
  0x47, 0x44, 0x4b, 0x3e, 0x3f, 0xb9, 0x37, 0x3e, 0x9a, 0x87, 0x28, 0x3d,
  0x41, 0x28, 0x3a, 0x3e, 0x14, 0x42, 0xf9, 0x3a, 0x77, 0x2f, 0xc6, 0xbd,
  0x35, 0xe3, 0xe0, 0x3c, 0x14, 0x04, 0xa1, 0x3e, 0xed, 0x43, 0x59, 0x3e,
  0xb6, 0x17, 0xc5, 0x3e, 0xfd, 0x00, 0xae, 0xbe, 0x4c, 0x26, 0xa8, 0x3c,
  0x04, 0xe8, 0xbf, 0x3e, 0x05, 0xd5, 0x14, 0xbd, 0xa0, 0x05, 0x0b, 0x3e,
  0xd4, 0xec, 0xa0, 0xbd, 0xf3, 0x02, 0xf5, 0xbd, 0x2f, 0x8f, 0xcc, 0xbd,
  0xdc, 0xb2, 0x86, 0x3e, 0x17, 0xe6, 0x44, 0x3e, 0xfc, 0xf9, 0x17, 0xbd,
  0x31, 0x6e, 0x6e, 0x3d, 0x3f, 0x29, 0xef, 0xbd, 0x94, 0xe9, 0x5b, 0xbd,
  0xc8, 0xdd, 0x89, 0x3e, 0xef, 0x10, 0x07, 0xbc, 0x25, 0xfe, 0x77, 0xbd,
  0x7d, 0x0f, 0x59, 0xbe, 0xe6, 0x9d, 0x07, 0x3e, 0x44, 0xe1, 0x8d, 0xbe,
  0xc0, 0xbc, 0x98, 0xbe, 0x9b, 0x99, 0xad, 0xbd, 0x0d, 0x24, 0xcb, 0x3e,
  0xe3, 0x86, 0xf4, 0x3e, 0x27, 0x15, 0x19, 0x3e, 0xaa, 0x08, 0x48, 0x3e,
  0xf8, 0xc0, 0x40, 0x3e, 0xfd, 0x0c, 0x37, 0x3e, 0x45, 0xd4, 0x3f, 0xbd,
  0x24, 0xc7, 0xb6, 0x3c, 0x14, 0xcc, 0xb5, 0x3d, 0x81, 0xd7, 0x83, 0xbd,
  0x74, 0x9e, 0xb6, 0xbd, 0xe4, 0x15, 0x6a, 0x3e, 0x2a, 0x03, 0xc0, 0x3d,
  0x6c, 0xed, 0xe3, 0x3d, 0x1d, 0xaa, 0x83, 0x3e, 0xf6, 0x39, 0x50, 0x3e,
  0x4a, 0x35, 0xde, 0xbd, 0x31, 0x22, 0x0c, 0xbe, 0xce, 0x76, 0xd1, 0x3e,
  0xad, 0x4c, 0xcd, 0x3d, 0x04, 0xd5, 0x3c, 0xbe, 0x7e, 0x67, 0xb1, 0x3e,
  0x76, 0x47, 0xa5, 0x3e, 0xb1, 0x19, 0x0f, 0x3c, 0x4b, 0xa1, 0x00, 0x3e,
  0x4e, 0xab, 0x6f, 0xbc, 0x7b, 0x42, 0x99, 0xbd, 0xcc, 0x16, 0x07, 0xbe,
  0xb4, 0x82, 0x26, 0xbe, 0x90, 0xae, 0xc1, 0xbd, 0x9b, 0x7e, 0x49, 0x3e,
  0x51, 0x74, 0x19, 0x3e, 0x31, 0xd1, 0x11, 0x3e, 0x13, 0xc5, 0x6e, 0x3e,
  0x66, 0xda, 0xc8, 0x3e, 0x59, 0xe3, 0xf3, 0xbc, 0x34, 0x83, 0xfb, 0xbd,
  0xea, 0xc1, 0xb6, 0xbe, 0xe6, 0x8a, 0xf5, 0xbd, 0x8a, 0x11, 0x99, 0xbe,
  0x76, 0x4f, 0x84, 0xbe, 0xed, 0xa4, 0x81, 0x3e, 0x1b, 0x05, 0x47, 0xbe,
  0xd5, 0x62, 0x8d, 0x3e, 0x90, 0x66, 0x55, 0x3e, 0x68, 0x5e, 0xf3, 0x3e,
  0x8e, 0x42, 0x9e, 0xbd, 0x43, 0x76, 0xf1, 0x3d, 0x3b, 0x52, 0xff, 0xbc,
  0x8c, 0x2d, 0x68, 0xbe, 0x84, 0x32, 0x9e, 0x3e, 0xd3, 0x3b, 0x31, 0xbe,
  0x3f, 0xff, 0x64, 0xbe, 0xba, 0xd9, 0x8b, 0x3e, 0x06, 0x62, 0x3e, 0xbe,
  0xee, 0x34, 0x34, 0x3c, 0xd9, 0xca, 0x16, 0x3d, 0xb9, 0x6e, 0x18, 0xbe,
  0x95, 0x40, 0x36, 0xbe, 0x6c, 0xbc, 0x06, 0x3e, 0x18, 0x6b, 0x6c, 0x3d,
  0x5c, 0xa8, 0x7b, 0x3e, 0x27, 0x7b, 0x8d, 0x3e, 0x7d, 0xf8, 0xa5, 0x3e,
  0xf1, 0xfe, 0xf4, 0xbd, 0x57, 0x26, 0xa8, 0xbd, 0x7a, 0xab, 0xb0, 0x3e,
  0x59, 0x1d, 0xcd, 0x3e, 0xa0, 0x63, 0xcc, 0x3d, 0xad, 0x64, 0xab, 0x3e,
  0x1a, 0xe7, 0xe9, 0x3d, 0x1a, 0xe6, 0x9d, 0x3e, 0x4b, 0x09, 0x24, 0xbe,
  0x27, 0x44, 0x49, 0xbe, 0x2c, 0xa0, 0xaa, 0x3e, 0x84, 0x1f, 0x82, 0xbe,
  0x6d, 0x37, 0xaf, 0xbe, 0xb1, 0x37, 0x6f, 0x3c, 0x52, 0x4c, 0x37, 0x3e,
  0xf9, 0xcf, 0xc5, 0x3e, 0x69, 0xb8, 0xe7, 0x3d, 0x63, 0x4e, 0x85, 0x3e,
  0xb2, 0x72, 0x9c, 0x3e, 0x10, 0x36, 0x8c, 0x3d, 0x35, 0x47, 0x64, 0x3e,
  0xbb, 0x1e, 0xab, 0xbd, 0x5b, 0x1e, 0xe6, 0x3d, 0xf6, 0xfa, 0x7f, 0xbe,
  0xff, 0xe7, 0x81, 0x3e, 0x30, 0x53, 0x43, 0x3d, 0xfa, 0x5e, 0x87, 0xbe,
  0xd7, 0x6d, 0xff, 0x3d, 0x46, 0x18, 0x9c, 0x3e, 0x5d, 0xe1, 0x89, 0xbe,
  0xc5, 0xfc, 0x32, 0xbe, 0x9b, 0xe5, 0xa6, 0x3e, 0x81, 0xfa, 0xb8, 0xbb,
  0xd4, 0x03, 0xc7, 0x3e, 0xf7, 0x35, 0x8e, 0xbd, 0x29, 0x9d, 0x26, 0x3e,
  0x28, 0xf6, 0x5b, 0x3e, 0x02, 0x09, 0xc5, 0xbd, 0x4d, 0x17, 0xd8, 0xbe,
  0x45, 0xc4, 0xdb, 0xbd, 0x07, 0x70, 0xa9, 0x3d, 0x78, 0x9e, 0x86, 0xbe,
  0x57, 0xd0, 0x97, 0xbe, 0x90, 0x25, 0x6b, 0xbd, 0x34, 0xeb, 0x85, 0x3e,
  0xf9, 0x7a, 0x41, 0x3e, 0x45, 0xbe, 0xb2, 0x3d, 0xda, 0x1f, 0x5a, 0x3e,
  0x63, 0x41, 0xeb, 0x3e, 0x50, 0x81, 0x1b, 0xbd, 0x36, 0xd7, 0x43, 0x3e,
  0x6e, 0x6b, 0x80, 0xbe, 0x91, 0xa4, 0xbc, 0xbd, 0x82, 0x1d, 0xcf, 0xbd,
  0xdc, 0x0d, 0x7c, 0xbe, 0xa3, 0x00, 0x17, 0x3e, 0xdb, 0xf8, 0x6a, 0x3e,
  0x2c, 0xa6, 0x4e, 0x3e, 0x06, 0x87, 0xd0, 0xbc, 0x85, 0x4b, 0x6d, 0x3e,
  0xf8, 0xeb, 0x1d, 0x3e, 0x78, 0x83, 0x68, 0x3d, 0x8d, 0x8e, 0xb9, 0xbc,
  0x41, 0xf7, 0x89, 0x3e, 0x3b, 0x7d, 0x49, 0xbe, 0x73, 0x07, 0xc0, 0x3e,
  0xe1, 0xb8, 0x8c, 0x3e, 0x2b, 0x6c, 0x0a, 0x3c, 0xf7, 0x78, 0x55, 0xbe,
  0xfc, 0xc6, 0xfa, 0x3d, 0x51, 0xa8, 0x8e, 0xbd, 0xae, 0xe1, 0x03, 0xbe,
  0xb9, 0x62, 0xeb, 0xbd, 0xf7, 0xfa, 0x55, 0x3e, 0x2b, 0xec, 0x46, 0xbe,
  0x43, 0xc1, 0xe0, 0xbb, 0x63, 0x8f, 0xb9, 0xbd, 0x61, 0x91, 0x33, 0x3e,
  0x7e, 0x6c, 0xe1, 0x3d, 0xc9, 0xde, 0x8d, 0x3b, 0x9e, 0xe1, 0x43, 0xbe,
  0x7e, 0x4d, 0x52, 0xbe, 0x25, 0xc1, 0x9d, 0xbd, 0xa5, 0x92, 0x42, 0x3e,
  0xcc, 0xc0, 0x65, 0xbd, 0x30, 0x33, 0x09, 0xbe, 0x6f, 0x8b, 0x3b, 0xbe,
  0x7f, 0x10, 0x42, 0xbe, 0x4f, 0xba, 0x44, 0x3e, 0x7c, 0x0f, 0x27, 0xbe,
  0x2d, 0x80, 0x76, 0xbd, 0x7f, 0xe0, 0x6e, 0xbe, 0x13, 0x4c, 0x86, 0xbe,
  0x4b, 0xb3, 0x1b, 0xbe, 0x7e, 0x2f, 0x0f, 0x3c, 0xc1, 0x89, 0xe3, 0xbd,
  0x85, 0xf1, 0x97, 0x3d, 0x18, 0x6e, 0x4b, 0xbe, 0x46, 0x6c, 0x19, 0xbe,
  0xd5, 0xdd, 0x65, 0x3e, 0x28, 0xa2, 0xf9, 0xbd, 0x29, 0x39, 0x35, 0x3e,
  0xb9, 0xbc, 0x34, 0xbe, 0xfb, 0x4b, 0x3a, 0x3e, 0x6d, 0x97, 0xb0, 0xbd,
  0x75, 0x52, 0x84, 0xbc, 0x70, 0xf4, 0x95, 0xbd, 0x7f, 0x4e, 0xf6, 0x3d,
  0xae, 0x94, 0x4d, 0xbe, 0x7e, 0xe0, 0x03, 0xbe, 0xb5, 0x02, 0x55, 0x3e,
  0x4d, 0x77, 0x6d, 0x3e, 0x79, 0x36, 0x5e, 0x3e, 0xb7, 0x98, 0x45, 0x3e,
  0xb6, 0x64, 0x31, 0xbe, 0x2d, 0xff, 0x79, 0x3e, 0x90, 0xe7, 0x32, 0xbc,
  0x34, 0xc2, 0x39, 0x3d, 0x25, 0x61, 0x31, 0xbe, 0xf6, 0x70, 0x6d, 0xbe,
  0x3e, 0x69, 0xbe, 0x3d, 0xea, 0x92, 0xf3, 0xbd, 0xa6, 0x6f, 0x2d, 0xbe,
  0x73, 0xc7, 0x4f, 0x3e, 0xce, 0x2b, 0x23, 0xbe, 0x9c, 0xa7, 0x29, 0xbe,
  0x00, 0xea, 0x1e, 0x3b, 0xae, 0x1a, 0x04, 0xbe, 0x10, 0x31, 0x68, 0xbe,
  0x8e, 0x57, 0x1b, 0xbe, 0x60, 0xf8, 0xa5, 0xbb, 0xa4, 0x33, 0x28, 0x3d,
  0xb3, 0xa0, 0x41, 0x3e, 0x39, 0xef, 0x77, 0x3e, 0x12, 0x56, 0x3b, 0xbe,
  0x4e, 0x47, 0x86, 0x3d, 0x77, 0xb7, 0x0a, 0x3e, 0x52, 0x93, 0x21, 0xbe,
  0xc0, 0x9a, 0x2f, 0xbe, 0x56, 0xf7, 0xe0, 0x3d, 0xb0, 0x73, 0xde, 0xbc,
  0x23, 0xf6, 0x17, 0xbe, 0x50, 0x46, 0x2c, 0xbe, 0xa0, 0xbe, 0xb5, 0xbb,
  0xac, 0x1d, 0x5e, 0x3d, 0x25, 0x62, 0x0d, 0xbe, 0x15, 0x4b, 0xdc, 0xbe,
  0x7f, 0x33, 0x81, 0xbd, 0xc9, 0x77, 0x79, 0xbe, 0x2f, 0x33, 0x5a, 0xbe,
  0x0e, 0xe4, 0x9c, 0xbe, 0xc4, 0x9a, 0x90, 0xbe, 0xea, 0x70, 0xd0, 0x3e,
  0x26, 0x6a, 0x4c, 0x3e, 0x90, 0x22, 0x69, 0xbe, 0x99, 0xb7, 0x83, 0x3e,
  0xb6, 0xbf, 0x9d, 0x3e, 0x8d, 0xb7, 0x49, 0x3e, 0x25, 0x34, 0x40, 0xbe,
  0xdd, 0x77, 0x3f, 0xbe, 0xfa, 0xb0, 0x00, 0x3e, 0xc4, 0xca, 0x9c, 0x3c,
  0x33, 0x1f, 0xe2, 0x3b, 0x0c, 0x7a, 0x2d, 0xbe, 0x7d, 0x00, 0x9a, 0x3d,
  0xde, 0xfe, 0x3e, 0xbe, 0x97, 0xbd, 0x75, 0x3e, 0x23, 0xbe, 0x27, 0x3e,
  0xe0, 0x51, 0xce, 0xbb, 0xe3, 0xe6, 0xa8, 0x3d, 0x53, 0x46, 0x7b, 0x3d,
  0x02, 0x5e, 0xaf, 0x3e, 0x28, 0xc1, 0x11, 0xbd, 0x40, 0x89, 0xe9, 0x3d,
  0xf1, 0xce, 0x00, 0x3e, 0xf2, 0x6e, 0x2f, 0x3e, 0x83, 0x49, 0x54, 0x3e,
  0xd1, 0x09, 0x56, 0x3e, 0xe7, 0xbe, 0x5e, 0xbe, 0xea, 0xfe, 0x4e, 0xbe,
  0xc3, 0x23, 0xe9, 0x3d, 0xb0, 0x16, 0xd3, 0xbc, 0x40, 0x4b, 0xe8, 0xbc,
  0x34, 0x29, 0x8f, 0xbd, 0x2d, 0xb6, 0x4d, 0xbe, 0x68, 0xf5, 0xfb, 0x3c,
  0x55, 0x29, 0x1f, 0xbe, 0x41, 0xa9, 0x0b, 0x3e, 0x46, 0x49, 0x2e, 0xbe,
  0xf4, 0x7e, 0x03, 0xbe, 0xc0, 0x1e, 0x3e, 0xbe, 0x52, 0xae, 0xf5, 0x3d,
  0x84, 0x83, 0x25, 0xbe, 0x16, 0x08, 0x28, 0xbe, 0xcc, 0xe9, 0x1a, 0x3d,
  0x08, 0x3f, 0xaa, 0xbd, 0x34, 0x36, 0x46, 0xbe, 0xcc, 0x94, 0x2d, 0x3d,
  0xdb, 0x8c, 0x6f, 0x3e, 0x84, 0x4b, 0xa5, 0xbd, 0x77, 0x4d, 0x19, 0x3e,
  0x26, 0xf0, 0xb0, 0xbd, 0xe7, 0x9e, 0x1d, 0xbe, 0xdf, 0xb1, 0x66, 0x3e,
  0x66, 0x6f, 0xa4, 0x3d, 0x7a, 0x37, 0xd2, 0x3d, 0x1b, 0x67, 0x5d, 0x3e,
  0x3c, 0xfb, 0x39, 0xbe, 0xb0, 0x15, 0x64, 0xbc, 0xf0, 0x4f, 0x90, 0xbc,
  0x0f, 0x9f, 0x2c, 0x3e, 0xc6, 0x16, 0x9f, 0xbd, 0x55, 0x83, 0x16, 0x3e,
  0x75, 0x15, 0x4c, 0xbe, 0xfc, 0x53, 0x1d, 0x3d, 0xea, 0xf9, 0x31, 0xbe,
  0xd0, 0xbd, 0x7c, 0xbc, 0xeb, 0xc7, 0x87, 0xbd, 0x96, 0xd2, 0x01, 0x3e,
  0xdf, 0xd9, 0xf0, 0x3e, 0x8e, 0x93, 0x86, 0x3d, 0x4c, 0x35, 0x8e, 0x3e,
  0xce, 0xd0, 0xc5, 0x3e, 0xdb, 0x68, 0x69, 0xbe, 0x97, 0xed, 0x57, 0xbd,
  0xb1, 0xb2, 0x4f, 0xbe, 0x29, 0x81, 0x0a, 0x3e, 0x8c, 0xd9, 0x90, 0x3b,
  0x95, 0x4f, 0x9f, 0xbe, 0x9c, 0x0a, 0x9b, 0x3d, 0x63, 0xea, 0xb8, 0xbd,
  0xc0, 0x60, 0xe5, 0x3c, 0x1a, 0xd3, 0x29, 0x3d, 0x3d, 0xc1, 0x28, 0x3e,
  0x19, 0x56, 0x32, 0xbd, 0x26, 0x3f, 0xb6, 0xbd, 0x5c, 0xfe, 0xb5, 0xbe,
  0x99, 0x9d, 0x8f, 0xbe, 0xe9, 0xc8, 0x91, 0x3e, 0xd2, 0x12, 0x37, 0xbd,
  0x01, 0x2e, 0x93, 0xbe, 0xfc, 0x3f, 0x4c, 0x3e, 0x70, 0x40, 0x49, 0xbe,
  0x59, 0xc9, 0xa1, 0x3d, 0x99, 0x3e, 0xa5, 0x3e, 0xf8, 0xb0, 0x05, 0xbe,
  0xd0, 0x4f, 0x12, 0xbd, 0xc9, 0xa0, 0x55, 0xbd, 0xe6, 0x58, 0xef, 0x3d,
  0x85, 0x63, 0xe6, 0xbd, 0x54, 0x6d, 0xf6, 0xbd, 0x42, 0xdb, 0x88, 0x3e,
  0xd1, 0x65, 0x29, 0x3e, 0xdd, 0xef, 0xf1, 0xbd, 0x3d, 0xc9, 0xcb, 0x3e,
  0x3b, 0xa4, 0xab, 0x3e, 0x0e, 0x20, 0x82, 0xbd, 0xb9, 0xab, 0x80, 0x3e,
  0x49, 0x38, 0xa2, 0x3e, 0xe6, 0x1a, 0x07, 0xbe, 0x32, 0x31, 0x32, 0xbe,
  0x7f, 0x44, 0x37, 0x3e, 0xd6, 0xed, 0xa6, 0x3e, 0x2c, 0xc6, 0x81, 0x3d,
  0xf9, 0xe7, 0x22, 0x3d, 0x97, 0x64, 0xb6, 0x3c, 0xb2, 0x37, 0x5d, 0xbe,
  0x6e, 0xc5, 0xf5, 0x3d, 0x02, 0xdb, 0x10, 0x3e, 0x48, 0x10, 0xf1, 0x3d,
  0x91, 0x45, 0x89, 0x3d, 0x60, 0x83, 0xc5, 0xbc, 0x02, 0xb0, 0xa3, 0xbd,
  0x5f, 0x83, 0x9d, 0xbe, 0x05, 0x8a, 0xc4, 0x3e, 0x59, 0x49, 0x2e, 0xbe,
  0xfe, 0xa8, 0x21, 0x3d, 0x82, 0xfb, 0xac, 0x3e, 0x11, 0x8e, 0xb5, 0xbd,
  0x45, 0x0c, 0xf8, 0x3d, 0xa5, 0x2e, 0xbe, 0x3d, 0x71, 0x29, 0xbc, 0x3d,
  0x35, 0x87, 0x42, 0x3e, 0xac, 0x8a, 0xf9, 0x3d, 0x49, 0x91, 0xf5, 0x3d,
  0xbb, 0x33, 0xac, 0x3e, 0x29, 0xdd, 0xb9, 0xbe, 0xc8, 0x71, 0xb9, 0x3e,
  0xe3, 0xf0, 0x97, 0x3d, 0xc3, 0xd4, 0x24, 0xbe, 0x9c, 0x1c, 0xc0, 0xbd,
  0xd1, 0x5b, 0x60, 0xbe, 0xd2, 0x69, 0xe2, 0x3d, 0x80, 0xd5, 0x7b, 0xbb,
  0x9a, 0xe5, 0x9e, 0x3d, 0xb4, 0xd2, 0x48, 0xbe, 0x68, 0xc1, 0xaa, 0xbd,
  0xec, 0x59, 0x1d, 0xbe, 0x8f, 0xb5, 0x52, 0xbe, 0xd0, 0x2c, 0x64, 0xbe,
  0xc0, 0x01, 0x25, 0xbd, 0xad, 0x2c, 0x5e, 0x3e, 0x1a, 0x0b, 0xc0, 0x3d,
  0xa2, 0x45, 0xca, 0x3d, 0x77, 0x5e, 0x45, 0xbe, 0xa2, 0x76, 0x8b, 0x3d,
  0xfd, 0xd7, 0x36, 0x3e, 0x3c, 0x17, 0x5b, 0xbe, 0x2a, 0x73, 0xdb, 0x3d,
  0x2e, 0xa8, 0xb5, 0x3d, 0xad, 0xd9, 0x31, 0xbe, 0x9f, 0xe3, 0x1c, 0x3e,
  0x55, 0xf8, 0x34, 0xbe, 0x0e, 0xfe, 0xbe, 0x3d, 0xa0, 0x69, 0xbb, 0x3b,
  0x18, 0x66, 0x9d, 0x3c, 0x74, 0x9a, 0x0e, 0x3d, 0x3c, 0xea, 0xc9, 0xbd,
  0x39, 0xd2, 0x68, 0xbe, 0xf8, 0x8e, 0x40, 0xbe, 0x52, 0x7f, 0x7a, 0xbe,
  0x16, 0xce, 0x4b, 0xbe, 0xc6, 0xf1, 0xca, 0x3d, 0xa0, 0x7d, 0xe1, 0xbb,
  0xb4, 0xb1, 0x3e, 0x3d, 0x00, 0x23, 0xaf, 0x3d, 0x80, 0x63, 0xc0, 0x3b,
  0x20, 0x2d, 0xb1, 0xbd, 0x49, 0x95, 0x2f, 0xbe, 0x22, 0x7c, 0x8f, 0x3d,
  0x33, 0xf5, 0xb6, 0xbd, 0xc5, 0xa9, 0xb4, 0x3e, 0x7c, 0x5e, 0x18, 0xbe,
  0x56, 0x2a, 0xc5, 0xbd, 0xd7, 0xf8, 0xe5, 0xbd, 0xee, 0x84, 0xb5, 0xbc,
  0xcb, 0xf1, 0x1b, 0x3e, 0xd9, 0x5d, 0x7e, 0x3d, 0x7c, 0x18, 0x38, 0xbe,
  0xce, 0x15, 0x35, 0xbd, 0x4a, 0x5c, 0x78, 0x3d, 0x77, 0xab, 0x0d, 0xbb,
  0xa0, 0xe9, 0xa5, 0xbd, 0xe1, 0x46, 0x7c, 0x3e, 0x09, 0xee, 0x80, 0x3e,
  0x3f, 0xdc, 0x1b, 0x3e, 0x06, 0x2f, 0x85, 0xbd, 0xc2, 0xf3, 0xb3, 0x3d,
  0xcc, 0x80, 0x0d, 0x3d, 0x0f, 0xc9, 0x30, 0xbe, 0x87, 0xd2, 0x6c, 0x3e,
  0x91, 0x69, 0xa6, 0x3e, 0x82, 0xc7, 0x88, 0x3a, 0xd9, 0x5a, 0x6d, 0x3e,
  0x01, 0x4d, 0x2d, 0x3d, 0xed, 0x82, 0x9a, 0x3e, 0xa9, 0xf2, 0xa5, 0x3e,
  0xf5, 0x23, 0x0b, 0x3e, 0xb2, 0xf8, 0x9c, 0xbe, 0x26, 0x01, 0x92, 0x3e,
  0x1d, 0x9a, 0xab, 0xbd, 0x5b, 0x5a, 0x80, 0x3e, 0xe8, 0xad, 0x23, 0x3e,
  0x88, 0x87, 0x46, 0x3e, 0x23, 0x3f, 0x2b, 0x3e, 0x5d, 0x3e, 0x32, 0x3d,
  0xbd, 0xc5, 0x9c, 0x3e, 0x70, 0x8d, 0x1d, 0x3e, 0xc3, 0xb7, 0x2e, 0x3d,
  0x8a, 0x01, 0x90, 0xbe, 0x75, 0xe3, 0xbf, 0xbc, 0x77, 0x15, 0x18, 0x3e,
  0x23, 0x1d, 0x32, 0x3e, 0xc0, 0x5b, 0x0b, 0xbd, 0x2f, 0x1e, 0xfc, 0xbd,
  0xdc, 0xcc, 0x1c, 0x3e, 0xd2, 0xa2, 0x61, 0x3e, 0x94, 0x6d, 0xa0, 0x3e,
  0xab, 0xf5, 0x84, 0xbc, 0x39, 0x68, 0x07, 0xbe, 0x66, 0xe6, 0xbc, 0x3c,
  0xbe, 0x6d, 0xc7, 0xbd, 0x3c, 0x66, 0x6d, 0x3e, 0x89, 0xaf, 0xc4, 0xbc,
  0x27, 0x1a, 0x0e, 0xbe, 0xf6, 0x79, 0xaf, 0xbd, 0x40, 0x51, 0x70, 0x3d,
  0x68, 0x42, 0x88, 0xbd, 0xfc, 0xf1, 0x01, 0x3e, 0x14, 0x08, 0xb6, 0x3c,
  0x73, 0x23, 0xe6, 0x3d, 0x9d, 0x2c, 0x83, 0x3e, 0xef, 0x2b, 0xc0, 0x3e,
  0x5e, 0xa0, 0xa8, 0x3e, 0xa5, 0x61, 0x69, 0xbe, 0xc2, 0x7e, 0x41, 0x3e,
  0xe0, 0x3f, 0xac, 0x3e, 0xf0, 0x69, 0xab, 0x3b, 0x6c, 0xe8, 0x4f, 0xbd,
  0xc1, 0x38, 0x46, 0x3e, 0x46, 0xd5, 0x3e, 0x3e, 0xa0, 0x2f, 0xc2, 0x3e,
  0xa4, 0x75, 0xb0, 0xbb, 0x20, 0x60, 0x36, 0xbe, 0x2a, 0xae, 0x15, 0xbc,
  0xda, 0x4a, 0x88, 0x3e, 0x84, 0x1c, 0x9f, 0x3d, 0xa4, 0x6f, 0x46, 0xbe,
  0x69, 0x6a, 0x52, 0x3e, 0xbe, 0x16, 0x60, 0xbe, 0x43, 0x21, 0xf8, 0xbd,
  0x49, 0xe5, 0x24, 0xbd, 0x7c, 0x70, 0x3a, 0xbc, 0x6e, 0x98, 0x19, 0x3e,
  0xd9, 0xe8, 0xc1, 0xbd, 0xc4, 0x37, 0x19, 0xbe, 0xe2, 0xb5, 0xab, 0xbe,
  0xc6, 0xf2, 0xb1, 0x3d, 0xae, 0x3f, 0xc5, 0x3e, 0x66, 0xc4, 0x5e, 0xbd,
  0x58, 0xf9, 0x78, 0xbe, 0x05, 0x8f, 0xcb, 0x3e, 0x94, 0x92, 0x48, 0x3b,
  0x75, 0x6f, 0x7d, 0x3e, 0x88, 0xd2, 0x2d, 0x3e, 0x0e, 0x27, 0x6c, 0x3e,
  0x98, 0xe7, 0x8b, 0x3e, 0xae, 0xda, 0x9d, 0xbe, 0x8d, 0x8b, 0x67, 0x3e,
  0x02, 0x01, 0xad, 0x3e, 0x0c, 0x86, 0x35, 0xbd, 0x97, 0xa1, 0xaa, 0x3d,
  0x96, 0x8b, 0x4b, 0x3e, 0x16, 0x16, 0x98, 0x3d, 0x92, 0x89, 0xe7, 0x3d,
  0x71, 0xa0, 0x4a, 0x3e, 0xe1, 0xfb, 0x03, 0x3e, 0x95, 0xb1, 0x17, 0xbe,
  0xbb, 0x37, 0x5e, 0x3e, 0x80, 0x27, 0x0c, 0xbe, 0x8f, 0x98, 0x79, 0x3e,
  0x94, 0xc6, 0xa6, 0xbd, 0xc7, 0x5e, 0x76, 0xbe, 0x64, 0x33, 0x7a, 0x3d,
  0x00, 0xcb, 0x68, 0x3a, 0x60, 0xb0, 0xb3, 0xbb, 0x18, 0x3d, 0x94, 0x3c,
  0x58, 0xc7, 0x64, 0xbe, 0x6c, 0xc6, 0x67, 0xbd, 0xab, 0xd5, 0x55, 0x3e,
  0x82, 0x51, 0xff, 0xbd, 0x2f, 0xb2, 0x25, 0x3e, 0x12, 0xc0, 0x63, 0xbe,
  0xbf, 0xc3, 0x30, 0x3e, 0x44, 0x57, 0x61, 0xbd, 0xe7, 0x36, 0x1b, 0x3e,
  0x21, 0x22, 0x7a, 0xbe, 0x66, 0x16, 0xd1, 0xbd, 0x80, 0x74, 0x7e, 0xbc,
  0x87, 0xc1, 0x71, 0xbe, 0x2e, 0x7b, 0xd5, 0xbd, 0x5f, 0xd1, 0x57, 0x3e,
  0x3a, 0xbc, 0x8c, 0xbd, 0x00, 0x94, 0xdf, 0xb9, 0x48, 0x01, 0xd7, 0x3c,
  0xf0, 0xdc, 0xb6, 0xbc, 0xa6, 0xdb, 0x58, 0xbe, 0xb6, 0x62, 0x0c, 0xbe,
  0x9e, 0xbe, 0xc2, 0x3d, 0xd6, 0xde, 0xee, 0x3d, 0x13, 0x49, 0x00, 0x3e,
  0xfd, 0xc2, 0x5b, 0x3e, 0xdb, 0x13, 0x3b, 0xbe, 0x56, 0x43, 0x96, 0x3d,
  0xe9, 0x5e, 0x29, 0x3e, 0x81, 0x8b, 0x0e, 0x3e, 0x2e, 0x7c, 0xd0, 0x3d,
  0x23, 0x48, 0x05, 0xbe, 0x9d, 0x63, 0x1d, 0x3e, 0x43, 0x5e, 0x4a, 0xbe,
  0xe2, 0xd8, 0xcc, 0x3d, 0x44, 0x01, 0x75, 0xbd, 0xf0, 0xa8, 0x19, 0xbe,
  0x80, 0xed, 0x9c, 0xbd, 0x5c, 0x14, 0x39, 0xbe, 0x7b, 0x33, 0x4c, 0x3e,
  0x94, 0x40, 0x29, 0xbe, 0x7a, 0x6f, 0xb8, 0xbd, 0x1b, 0x07, 0x50, 0xbe,
  0xde, 0x25, 0x74, 0xbe, 0x7a, 0x96, 0xe9, 0xbd, 0x7a, 0xa4, 0xf8, 0x3d,
  0xa8, 0x0f, 0xa1, 0x3c, 0x68, 0xb4, 0xc3, 0x3c, 0xf4, 0x24, 0x75, 0xbe,
  0x9a, 0xa0, 0x8b, 0x3d, 0x42, 0x64, 0x2d, 0xbe, 0xb3, 0xc7, 0x15, 0xbe,
  0xd6, 0x2a, 0x13, 0xbe, 0x99, 0x44, 0x26, 0xbe, 0x1b, 0x43, 0x5f, 0x3e,
  0x92, 0x91, 0x3f, 0xbe, 0x03, 0x6c, 0x73, 0xbe, 0x94, 0x25, 0x02, 0x3d,
  0x89, 0xa1, 0x03, 0x3e, 0xc0, 0x9b, 0x85, 0xbd, 0x76, 0x49, 0x73, 0x3e,
  0x86, 0x32, 0x36, 0x3d, 0x63, 0x7f, 0x83, 0x3e, 0x9c, 0x00, 0xad, 0x3e,
  0x89, 0x1c, 0xa2, 0x3e, 0x71, 0xd3, 0x89, 0x3e, 0x60, 0x9f, 0x30, 0xbe,
  0x44, 0xc4, 0x2b, 0xbc, 0xa9, 0x7a, 0x02, 0xbe, 0x26, 0x3d, 0x52, 0xbe,
  0x13, 0x06, 0xa8, 0xbd, 0x88, 0xca, 0xa0, 0xbd, 0xe8, 0x39, 0x90, 0xbd,
  0xe5, 0x76, 0xcb, 0x3b, 0xa0, 0xbd, 0xad, 0xbb, 0x68, 0xd7, 0xa2, 0xbc,
  0xe3, 0xb2, 0x1f, 0x3e, 0xb2, 0x7e, 0x55, 0x3e, 0xbc, 0x62, 0x99, 0x3d,
  0xfc, 0x35, 0x81, 0x3e, 0x07, 0xc4, 0x2d, 0x3c, 0x9c, 0xe9, 0x38, 0x3b,
  0x03, 0x75, 0x02, 0x3e, 0x91, 0x76, 0x73, 0xbe, 0x0e, 0x04, 0xfb, 0x3d,
  0x4e, 0x89, 0xa0, 0xbe, 0x6a, 0x09, 0xa0, 0x3e, 0x52, 0xe9, 0x2f, 0x3c,
  0x11, 0xb2, 0xd2, 0xbd, 0x24, 0x65, 0xb5, 0x3d, 0xdc, 0x4a, 0x26, 0xbe,
  0x2c, 0x51, 0x69, 0xba, 0x8d, 0xab, 0x16, 0x3e, 0xa5, 0x0f, 0x85, 0xbd,
  0x0c, 0x46, 0xb0, 0x3d, 0xd1, 0xe9, 0x40, 0x3e, 0xcd, 0x72, 0x2d, 0x3e,
  0x92, 0x09, 0x78, 0xbe, 0x02, 0x55, 0xf5, 0xbd, 0x79, 0xbf, 0x12, 0x3e,
  0x40, 0x55, 0xd9, 0xbb, 0x98, 0xe7, 0xc3, 0xbc, 0x0c, 0xcb, 0x34, 0xbe,
  0x78, 0xa6, 0x53, 0xbe, 0xa3, 0x58, 0x62, 0xbe, 0xb4, 0xa0, 0x35, 0xbd,
  0xbe, 0xf0, 0xb4, 0x3d, 0x78, 0xd2, 0x1e, 0xbe, 0x1c, 0x8a, 0x39, 0x3d,
  0x59, 0xdb, 0x6f, 0x3e, 0x50, 0xf7, 0x48, 0xbd, 0x38, 0x9b, 0xa7, 0xbc,
  0x5f, 0x78, 0x60, 0xbe, 0x7a, 0x36, 0x59, 0xbe, 0x8a, 0x65, 0xc9, 0x3d,
  0x35, 0x99, 0x58, 0x3e, 0x1a, 0x84, 0xce, 0x3d, 0x54, 0xde, 0x16, 0xbd,
  0x1d, 0xe6, 0x19, 0x3e, 0x64, 0x00, 0x9d, 0xbd, 0xf8, 0x36, 0xf3, 0xbc,
  0x24, 0xcb, 0x72, 0xbe, 0x80, 0x6f, 0x6c, 0xbd, 0x14, 0x54, 0x1f, 0xbe,
  0x7c, 0x21, 0x08, 0xbe, 0xa2, 0x82, 0x21, 0xbe, 0xeb, 0x30, 0x10, 0x3e,
  0xb6, 0x2a, 0xaa, 0x3d, 0x1a, 0xd8, 0x2d, 0xbe, 0x50, 0xc8, 0x31, 0x3c,
  0xa6, 0xa5, 0xd9, 0x3d, 0x90, 0x73, 0x0b, 0x3e, 0x88, 0x9b, 0xaa, 0xbd,
  0x40, 0x51, 0x0c, 0xbb, 0xcc, 0x5b, 0x00, 0xbe, 0xc0, 0x8b, 0x60, 0xbe,
  0xa7, 0x38, 0x6f, 0x3e, 0x00, 0xd1, 0x60, 0x3e, 0xf4, 0xdd, 0xb0, 0x3d,
  0x91, 0x55, 0x11, 0x3e, 0xc8, 0x92, 0x10, 0xbe, 0xd7, 0x09, 0x04, 0x3e,
  0x4a, 0x32, 0xa7, 0x3d, 0x48, 0x80, 0x76, 0xbe, 0x95, 0xcf, 0xff, 0xbd,
  0xa7, 0x4d, 0x4d, 0x3e, 0x31, 0xb2, 0x26, 0xbe, 0x3b, 0xee, 0x23, 0xbc,
  0x00, 0x7e, 0x38, 0xbe, 0x31, 0x4d, 0x3b, 0x3e, 0xf3, 0x19, 0x17, 0x3e,
  0x7a, 0xc2, 0xc4, 0xbd, 0xe1, 0x93, 0x1c, 0x3e, 0x0d, 0x4e, 0x50, 0x3e,
  0xcd, 0xb8, 0x52, 0xbe, 0xfe, 0xc3, 0x2b, 0xbe, 0x63, 0xb9, 0x85, 0xbe,
  0x0f, 0xc8, 0x4f, 0xbe, 0xbd, 0x8f, 0x7e, 0x3d, 0xf2, 0xd6, 0x23, 0x3e,
  0x97, 0x77, 0x68, 0x3e, 0xfc, 0x71, 0x6d, 0xbe, 0x47, 0xd0, 0xe3, 0xbd,
  0x5c, 0x36, 0x23, 0x3d, 0x7f, 0xc2, 0x67, 0x3e, 0xff, 0xcc, 0x84, 0xbe,
  0x77, 0x2b, 0x86, 0xbc, 0x3c, 0xbd, 0x0b, 0xbe, 0x02, 0xa6, 0x04, 0xbe,
  0x3d, 0x94, 0x34, 0x3e, 0x8e, 0x13, 0xd1, 0xbd, 0x7c, 0xaa, 0x7b, 0x3d,
  0x41, 0xa0, 0x5c, 0x3e, 0x54, 0xd2, 0x17, 0xbe, 0x49, 0x5d, 0x64, 0x3e,
  0x28, 0x03, 0x90, 0xbc, 0x62, 0x88, 0xa7, 0x3d, 0xa2, 0x0e, 0xd7, 0x3d,
  0x52, 0x9a, 0x78, 0xbe, 0xe2, 0x8d, 0x94, 0x3d, 0xfa, 0x6e, 0xc3, 0xbd,
  0xbc, 0xa2, 0x03, 0x3d, 0xb2, 0x4b, 0x31, 0xbe, 0x34, 0xf2, 0x98, 0xbd,
  0x9b, 0x55, 0x6e, 0xbe, 0xc8, 0xc8, 0x8d, 0x3c, 0x74, 0xdd, 0x37, 0x3d,
  0xb8, 0xbe, 0xa4, 0x3c, 0x3a, 0x7a, 0xef, 0x3d, 0x78, 0x46, 0xb3, 0x3c,
  0xff, 0x44, 0x1f, 0xbe, 0x84, 0xab, 0x38, 0xbd, 0x13, 0x7c, 0x46, 0x3e,
  0xe4, 0xb0, 0x6d, 0xbe, 0x8c, 0x0d, 0x12, 0x3d, 0x8a, 0x99, 0x1a, 0xbe,
  0x00, 0x0a, 0xde, 0xbd, 0xc6, 0xbd, 0x96, 0x3d, 0x7c, 0x65, 0x13, 0xbe,
  0x1b, 0x0d, 0x21, 0x3e, 0xc8, 0xe0, 0x75, 0xbd, 0x0e, 0x3f, 0x8a, 0x3d,
  0x00, 0xbd, 0xb3, 0x3a, 0xb3, 0xe5, 0x57, 0x3e, 0x0e, 0xe9, 0x8c, 0x3d,
  0x20, 0x64, 0x3a, 0xbd, 0x65, 0x45, 0x6a, 0xbe, 0x50, 0x48, 0x45, 0xbe,
  0xcc, 0xfd, 0x14, 0x3d, 0x27, 0x36, 0x45, 0xbe, 0x8a, 0x11, 0x80, 0x3c,
  0xeb, 0xa7, 0x4c, 0xbe, 0x71, 0x72, 0x0b, 0xbe, 0x8f, 0x1c, 0x17, 0xbe,
  0x39, 0x52, 0xb8, 0x3d, 0xbb, 0x1d, 0x3e, 0xbe, 0x89, 0x1e, 0xfc, 0xbd,
  0xbe, 0xb1, 0x53, 0x3e, 0x79, 0x18, 0x49, 0xbd, 0x04, 0xac, 0x11, 0x3e,
  0xfa, 0xcd, 0x19, 0x3e, 0x53, 0x60, 0x62, 0x3e, 0x8a, 0x2e, 0x1f, 0x3e,
  0x50, 0xb5, 0x42, 0x3d, 0x54, 0xbe, 0x06, 0xbd, 0xa8, 0x58, 0x11, 0x3e,
  0x23, 0x84, 0xfe, 0xbd, 0x3c, 0xd5, 0xa7, 0xbd, 0x44, 0xcb, 0xe4, 0xbd,
  0xa0, 0x43, 0x11, 0x3e, 0x36, 0xe8, 0x3a, 0xbe, 0x60, 0xa6, 0x58, 0xbe,
  0x35, 0x4a, 0x1b, 0xbd, 0xa5, 0x10, 0x08, 0x3e, 0xfa, 0x04, 0x43, 0xbe,
  0x2f, 0x21, 0xb4, 0xbc, 0x58, 0x7b, 0x63, 0x3e, 0x2a, 0x3c, 0x0c, 0x3e,
  0xc6, 0x29, 0x8d, 0x3d, 0xfb, 0x70, 0xfb, 0xbd, 0xb9, 0x9d, 0x17, 0x3e,
  0x2f, 0xf7, 0x62, 0x3e, 0xa5, 0x65, 0x94, 0x3d, 0x7e, 0xc9, 0x1d, 0xbe,
  0x1e, 0xd9, 0xf3, 0x3d, 0x6b, 0x9f, 0xa1, 0xbd, 0xd6, 0xd3, 0x95, 0x3d,
  0x94, 0x8d, 0xfe, 0xbc, 0xf7, 0xbb, 0x61, 0x3e, 0x6b, 0x94, 0x62, 0x3e,
  0x57, 0x14, 0x18, 0xbe, 0x31, 0xec, 0x67, 0xbe, 0x3e, 0x13, 0xfd, 0x3c,
  0x02, 0xbc, 0xd0, 0x3d, 0x3e, 0x99, 0xa9, 0x3d, 0xd3, 0x40, 0x44, 0x3e,
  0xd0, 0xd1, 0x09, 0xbd, 0x6c, 0x5a, 0x09, 0xbe, 0x94, 0x2e, 0xb9, 0x3d,
  0x09, 0x64, 0x69, 0x3e, 0xd8, 0x74, 0x60, 0xbe, 0x5d, 0xb9, 0x53, 0xbe,
  0x7d, 0xb6, 0x42, 0xbe, 0x7b, 0x13, 0x21, 0xbe, 0xbe, 0x7b, 0x20, 0x3e,
  0x27, 0xdf, 0x0d, 0x3d, 0x31, 0xa0, 0x6b, 0xbe, 0xa5, 0xe8, 0x10, 0x3c,
  0xcb, 0x73, 0x71, 0xbe, 0xf9, 0xb4, 0x0c, 0xbe, 0xd6, 0x3e, 0xc1, 0xbc,
  0x04, 0xfa, 0x01, 0x3d, 0x19, 0x39, 0x84, 0xbd, 0xd7, 0xf7, 0x4e, 0xbe,
  0xa0, 0x32, 0x18, 0x3e, 0x37, 0x7f, 0x81, 0x3e, 0x8e, 0x86, 0xc9, 0x3e,
  0x05, 0x5f, 0x3a, 0x3d, 0xa7, 0xc7, 0xe7, 0x3d, 0x43, 0xfe, 0x88, 0x3e,
  0xe5, 0x97, 0x63, 0x3e, 0x6c, 0x52, 0x80, 0x3e, 0x32, 0xb7, 0x2c, 0xbe,
  0xa3, 0x83, 0x7e, 0xbe, 0x66, 0x3c, 0x8f, 0x3e, 0xec, 0x2b, 0x83, 0x3e,
  0x0d, 0x35, 0x46, 0xbe, 0x31, 0x2f, 0xa2, 0x3d, 0xc9, 0x85, 0x52, 0x3d,
  0x1d, 0xa2, 0x92, 0x3d, 0xf9, 0x62, 0x14, 0xbe, 0x01, 0x95, 0xf1, 0x3d,
  0xf4, 0x60, 0x47, 0x3e, 0xf1, 0x7d, 0x7c, 0x3e, 0xae, 0xbc, 0x02, 0x3d,
  0x5a, 0x4d, 0x98, 0xbd, 0xa3, 0xe0, 0xda, 0xbe, 0x36, 0x21, 0x1b, 0x3e,
  0xb1, 0x89, 0xad, 0x3a, 0x78, 0x04, 0x5d, 0x3e, 0x05, 0x87, 0x5f, 0xbe,
  0x46, 0x76, 0x9b, 0xbd, 0x57, 0x87, 0x1a, 0x3d, 0x3a, 0xe2, 0x90, 0xbe,
  0x31, 0x7b, 0x12, 0x3e, 0x14, 0xb7, 0x66, 0x3d, 0xc0, 0x23, 0xd9, 0xbc,
  0x7b, 0x37, 0x8c, 0xbd, 0xe2, 0x73, 0x74, 0x3e, 0x0d, 0xeb, 0x48, 0xbd,
  0x7d, 0x13, 0xe4, 0x3d, 0xf4, 0x3a, 0x4e, 0xbe, 0x92, 0xb2, 0xb0, 0x3d,
  0xd3, 0xf5, 0x63, 0x3e, 0x74, 0x8b, 0xb5, 0xbd, 0x8d, 0xe2, 0x22, 0xbe,
  0xb0, 0xc2, 0x55, 0xbe, 0xf1, 0x16, 0x0a, 0x3e, 0x44, 0x4e, 0x7d, 0xbd,
  0x78, 0x8c, 0x77, 0xbd, 0x78, 0xa8, 0x08, 0xbe, 0xaa, 0x93, 0x8f, 0x3d,
  0xa7, 0x5e, 0x45, 0x3e, 0x00, 0xc5, 0x93, 0xbd, 0x2e, 0xf6, 0xbd, 0xbd,
  0xde, 0x51, 0xf0, 0x3d, 0x58, 0xac, 0x6d, 0xbe, 0x15, 0x52, 0x04, 0x3e,
  0xa1, 0xb3, 0x58, 0x3e, 0xfe, 0x3a, 0xe0, 0xbd, 0x3a, 0xcb, 0xc1, 0xbd,
  0x18, 0xe0, 0x87, 0xbc, 0xe0, 0x60, 0x92, 0xbd, 0xd5, 0x55, 0x1c, 0x3e,
  0x18, 0x8f, 0x5b, 0xbe, 0x2e, 0xa1, 0x88, 0xbd, 0x45, 0x11, 0x05, 0x3e,
  0x88, 0x6f, 0x6d, 0xbd, 0x28, 0x72, 0xe9, 0xbc, 0xcc, 0x2a, 0xa9, 0xbd,
  0xc9, 0x86, 0x35, 0xbe, 0x3e, 0xee, 0xd7, 0x3d, 0x68, 0x95, 0x0e, 0xbe,
  0x4a, 0x99, 0xde, 0x3d, 0xd2, 0x54, 0xa3, 0x3d, 0xf0, 0x4c, 0x44, 0xbd,
  0xf2, 0xd0, 0x37, 0xbe, 0xfc, 0xb2, 0x86, 0x3e, 0x6f, 0x54, 0x0b, 0xbd,
  0x2e, 0x69, 0x60, 0xbe, 0x76, 0xe8, 0x15, 0x3e, 0xdb, 0x30, 0x6f, 0xbd,
  0x8f, 0x7b, 0xe3, 0xbd, 0x11, 0xc6, 0x8b, 0x3e, 0x72, 0x20, 0xa9, 0xbe,
  0x73, 0x30, 0xbc, 0xbe, 0x15, 0xe7, 0x18, 0x3e, 0xfa, 0x01, 0x76, 0x3e,
  0x63, 0x22, 0xfd, 0xbc, 0x85, 0xa8, 0x04, 0xbd, 0xfb, 0xe6, 0xda, 0x3e,
  0x70, 0x83, 0x9b, 0xbd, 0xd1, 0x75, 0x9e, 0xbd, 0x06, 0x34, 0x5b, 0xbd,
  0x4c, 0xd2, 0x8f, 0xbc, 0xc9, 0xe7, 0xec, 0x3d, 0x45, 0x4b, 0x21, 0x3e,
  0xaa, 0xc0, 0x2e, 0x3e, 0x0f, 0xc7, 0xbd, 0xbe, 0xcc, 0xf1, 0x20, 0xbe,
  0x86, 0x4e, 0xbf, 0x3e, 0x93, 0x5b, 0x77, 0xbe, 0xb6, 0xe1, 0x25, 0xbd,
  0xa9, 0x92, 0x8b, 0xbe, 0x08, 0xba, 0x4c, 0x3a, 0xbb, 0xc6, 0x8b, 0xbe,
  0x42, 0x69, 0x81, 0x3c, 0xfe, 0xd6, 0x2a, 0x3e, 0x0d, 0x66, 0x6d, 0xbd,
  0x33, 0xbe, 0x99, 0xbd, 0x3d, 0xa1, 0xa7, 0x3e, 0x93, 0xcb, 0x01, 0x3e,
  0x9c, 0xb2, 0x4d, 0xbe, 0xee, 0x30, 0x4a, 0xbe, 0x98, 0x4c, 0x92, 0x3c,
  0xb0, 0xb3, 0x50, 0xbe, 0x58, 0x57, 0x42, 0xbd, 0xe3, 0x71, 0x3b, 0x3e,
  0xfa, 0xbf, 0x33, 0xbe, 0x5b, 0x2b, 0x78, 0x3e, 0x68, 0xc1, 0x97, 0x3c,
  0x7a, 0x7f, 0x99, 0x3d, 0xbe, 0x52, 0x40, 0xbe, 0x03, 0x80, 0x2d, 0x3e,
  0xdc, 0x33, 0x50, 0x3d, 0x44, 0xbd, 0xe9, 0xbd, 0x72, 0xc7, 0x62, 0xbe,
  0x8d, 0x17, 0x0f, 0x3e, 0x28, 0x5b, 0xc6, 0xbc, 0xbe, 0xbc, 0xf2, 0x3d,
  0xa8, 0x3d, 0xe4, 0x3c, 0xb8, 0x41, 0x84, 0x3c, 0xae, 0x7e, 0x09, 0xbe,
  0xd0, 0x0c, 0x6b, 0xbd, 0xee, 0x91, 0xd9, 0x3d, 0xc7, 0xb5, 0x67, 0xbe,
  0xc0, 0x9c, 0x43, 0xbd, 0xf0, 0x01, 0x7b, 0xbc, 0xcc, 0x48, 0x06, 0xbe,
  0x32, 0xeb, 0x8f, 0x3d, 0xed, 0x9c, 0x4a, 0x3e, 0xb3, 0x47, 0x23, 0xbe,
  0x72, 0xdc, 0xb4, 0x3d, 0x36, 0x63, 0x58, 0xbe, 0xc2, 0xc1, 0xc8, 0x3d,
  0xee, 0x54, 0xb6, 0x3d, 0x14, 0x8a, 0x22, 0xbe, 0x78, 0xa7, 0xc6, 0x3c,
  0x17, 0x92, 0x74, 0xbe, 0x7d, 0xec, 0x1c, 0x3e, 0xdb, 0xb4, 0xad, 0xbe,
  0x1e, 0x6b, 0xa9, 0x3c, 0x3c, 0x48, 0x89, 0x3e, 0x5e, 0x6b, 0x91, 0xbe,
  0xb6, 0x3f, 0x57, 0x3d, 0x4c, 0xcb, 0x61, 0x3d, 0x51, 0xf2, 0x9d, 0x3e,
  0x99, 0x69, 0xb0, 0x3d, 0xbe, 0x68, 0x8f, 0x3c, 0xc9, 0x0d, 0x1f, 0x3e,
  0x37, 0x44, 0xb0, 0x3e, 0xd3, 0x13, 0xa7, 0x3d, 0x4f, 0xc1, 0x11, 0xbe,
  0xe0, 0x79, 0x10, 0x3e, 0x5a, 0x38, 0x30, 0x3d, 0x8e, 0x34, 0xd4, 0xbd,
  0x65, 0xf8, 0x11, 0xbe, 0x21, 0x74, 0x78, 0x3e, 0x4f, 0x14, 0x99, 0xbc,
  0x41, 0x04, 0x10, 0xbd, 0x5e, 0xd6, 0x48, 0x3d, 0xaf, 0x4e, 0x67, 0x3e,
  0x97, 0xdf, 0x3d, 0x3e, 0xe8, 0x19, 0x1a, 0xbe, 0xc3, 0x16, 0x8d, 0xbc,
  0x1b, 0x57, 0x48, 0x3e, 0xc2, 0x29, 0x3f, 0xbe, 0xe2, 0xca, 0x98, 0x3c,
  0x4b, 0x2c, 0x4f, 0x3e, 0xf0, 0xa2, 0xbb, 0x3d, 0xd9, 0x55, 0xba, 0xbd,
  0x1c, 0x15, 0x4c, 0xbe, 0x30, 0x11, 0x4c, 0x3e, 0xc6, 0xcc, 0x8d, 0xbd,
  0xe9, 0xdd, 0x45, 0xbe, 0x42, 0xd4, 0xff, 0xff, 0x04, 0x00, 0x00, 0x00,
  0x00, 0x01, 0x00, 0x00, 0x06, 0xf9, 0x5f, 0x3c, 0x00, 0x00, 0x00, 0x00,
  0x00, 0x00, 0x00, 0x00, 0xc6, 0xff, 0x09, 0xbc, 0x97, 0xae, 0x86, 0xbc,
  0xfd, 0xc3, 0x79, 0x3b, 0x00, 0x00, 0x00, 0x00, 0x00, 0x00, 0x00, 0x00,
  0x5b, 0xc2, 0x6a, 0x3d, 0xfa, 0x80, 0x3a, 0xbc, 0x60, 0xde, 0x6f, 0x3d,
  0x95, 0x09, 0xb7, 0x3d, 0x9e, 0x5a, 0x5d, 0x3d, 0xea, 0x61, 0x99, 0x3d,
  0x71, 0xcd, 0x14, 0x3d, 0xdf, 0xaa, 0xf1, 0x3a, 0x3b, 0xaa, 0xce, 0x3d,
  0x45, 0x6d, 0x3f, 0x3d, 0x8b, 0x7c, 0x91, 0x3c, 0x11, 0xd5, 0x78, 0x3d,
  0x4d, 0xd8, 0x15, 0xbc, 0x42, 0x22, 0x9d, 0x3d, 0xce, 0xe0, 0xa9, 0xbc,
  0xde, 0x6c, 0x13, 0xbc, 0x00, 0x00, 0x00, 0x00, 0x00, 0x00, 0x00, 0x00,
  0x50, 0x01, 0x15, 0x3d, 0xe1, 0xa4, 0xa3, 0x3d, 0x69, 0xc6, 0xec, 0x3c,
  0x82, 0x10, 0x40, 0x3d, 0x99, 0x4d, 0xad, 0x3c, 0xc0, 0x0f, 0x44, 0x3d,
  0x00, 0x00, 0x00, 0x00, 0x0d, 0x16, 0xa9, 0x3c, 0x00, 0x00, 0x00, 0x00,
  0xf7, 0x27, 0x2a, 0xbc, 0x7e, 0x2a, 0xa1, 0x3d, 0x8a, 0xf7, 0xb5, 0x3d,
  0x79, 0xe9, 0xb6, 0x3d, 0x29, 0x4a, 0xd5, 0x3d, 0x33, 0xb9, 0x18, 0xbd,
  0x7e, 0x39, 0xa4, 0xbc, 0x00, 0x00, 0x00, 0x00, 0xb0, 0x42, 0x99, 0xbc,
  0x00, 0x00, 0x00, 0x00, 0x7d, 0x73, 0x7d, 0x3d, 0xd2, 0xaa, 0x08, 0x3e,
  0x00, 0x00, 0x00, 0x00, 0x5a, 0x46, 0x95, 0x3d, 0x7c, 0x9f, 0xa9, 0x3d,
  0x29, 0x23, 0x51, 0x3d, 0x00, 0x00, 0x00, 0x00, 0x00, 0x00, 0x00, 0x00,
  0x78, 0xa9, 0xb4, 0x3c, 0x00, 0x00, 0x00, 0x00, 0x72, 0x93, 0x8a, 0xbc,
  0x00, 0x00, 0x00, 0x00, 0x0d, 0x3c, 0x9e, 0xbb, 0xad, 0x31, 0x78, 0xbc,
  0xcd, 0x0b, 0xa3, 0x3d, 0x00, 0x00, 0x00, 0x00, 0x87, 0x29, 0x8a, 0x3d,
  0x00, 0x00, 0x00, 0x00, 0x18, 0xbb, 0x0f, 0x3d, 0x4e, 0xd5, 0xff, 0xff,
  0x04, 0x00, 0x00, 0x00, 0x80, 0x00, 0x00, 0x00, 0x96, 0xfa, 0x55, 0x3d,
  0xe3, 0xf7, 0xbd, 0x3d, 0x00, 0x00, 0x00, 0x00, 0x00, 0x00, 0x00, 0x00,
  0x0f, 0xb7, 0x51, 0x3d, 0x67, 0xf4, 0x09, 0x3d, 0x12, 0x73, 0x4e, 0x3d,
  0x00, 0x00, 0x00, 0x00, 0x00, 0x00, 0x00, 0x00, 0x28, 0x23, 0x90, 0x3d,
  0xf4, 0x56, 0xe9, 0x3c, 0x00, 0x00, 0x00, 0x00, 0x35, 0x07, 0x50, 0xbc,
  0xe0, 0xf4, 0x49, 0x3d, 0x58, 0x9d, 0x0a, 0x3c, 0xcd, 0x6f, 0x4c, 0x3d,
  0x00, 0x00, 0x00, 0x00, 0xac, 0x8f, 0xbd, 0x3d, 0x90, 0x9b, 0x12, 0xbc,
  0x0b, 0x97, 0x9e, 0x3c, 0x67, 0xa3, 0x33, 0x3d, 0xeb, 0x39, 0xf9, 0xbb,
  0xa5, 0x83, 0x0c, 0xbd, 0xba, 0x09, 0x16, 0xbc, 0x76, 0x14, 0x96, 0xbc,
  0xb9, 0x2d, 0x94, 0x3c, 0xd9, 0xd7, 0x41, 0xbc, 0x22, 0xf3, 0xe8, 0x3d,
  0xac, 0x40, 0xa5, 0x3d, 0x17, 0xbf, 0xcf, 0xbc, 0xf3, 0x5b, 0x08, 0x3d,
  0x00, 0x00, 0x00, 0x00, 0xda, 0xd5, 0xff, 0xff, 0x04, 0x00, 0x00, 0x00,
  0x40, 0x00, 0x00, 0x00, 0xce, 0x41, 0xdc, 0x3b, 0x2e, 0x45, 0xbb, 0xbc,
  0x12, 0x89, 0x9a, 0x3a, 0x2e, 0x6f, 0x2d, 0x3d, 0x7c, 0x02, 0x7d, 0x3d,
  0x00, 0x00, 0x00, 0x00, 0x32, 0x2c, 0x9d, 0x3c, 0x30, 0x1e, 0x0b, 0x3d,
  0xec, 0xae, 0x73, 0x3d, 0x00, 0x00, 0x00, 0x00, 0xf9, 0xdc, 0x03, 0x3e,
  0x72, 0xae, 0x57, 0x3d, 0xc3, 0xb8, 0xc4, 0x3c, 0xf4, 0x32, 0xad, 0x3d,
  0x00, 0x00, 0x00, 0x00, 0xd5, 0x36, 0xe7, 0xbc, 0x26, 0xd6, 0xff, 0xff,
  0x04, 0x00, 0x00, 0x00, 0x10, 0x00, 0x00, 0x00, 0x1e, 0x9a, 0x35, 0xbb,
  0xe6, 0x99, 0xe8, 0xbb, 0x30, 0x0f, 0xe4, 0x3c, 0x09, 0xd1, 0x0e, 0xbd,
  0x42, 0xd6, 0xff, 0xff, 0x04, 0x00, 0x00, 0x00, 0x00, 0x20, 0x00, 0x00,
  0x22, 0x66, 0xb3, 0x3d, 0x94, 0x87, 0x69, 0xbe, 0x24, 0xbf, 0x1a, 0x3e,
  0xb5, 0x94, 0x5b, 0x3e, 0xb4, 0xeb, 0x7a, 0x3e, 0xe0, 0x7d, 0xd3, 0x3e,
  0xa0, 0xc0, 0x3e, 0x3d, 0xa4, 0x8c, 0x7b, 0xbe, 0xeb, 0xe3, 0x29, 0x3e,
  0xdc, 0xcd, 0x77, 0x3e, 0xbc, 0xe5, 0xf0, 0xbd, 0xbd, 0x39, 0x92, 0x3e,
  0x17, 0xe5, 0x4e, 0x3e, 0xcd, 0x7c, 0x01, 0x3f, 0xf9, 0x0b, 0x39, 0x3e,
  0x5e, 0xc3, 0xdc, 0x3d, 0x08, 0x8a, 0xbe, 0xbd, 0xc8, 0x99, 0xfc, 0xbd,
  0x11, 0xdb, 0xb0, 0xbd, 0xb4, 0x26, 0x80, 0x3e, 0x2f, 0x9b, 0x17, 0x3e,
  0x6b, 0xa6, 0xc9, 0xbd, 0x60, 0x86, 0xd3, 0xbc, 0x5c, 0x25, 0x39, 0x3e,
  0x90, 0xfd, 0x0e, 0x3d, 0x00, 0x42, 0x9c, 0x3b, 0xb8, 0x12, 0xa2, 0xbc,
  0x9f, 0x45, 0xe6, 0xbd, 0x92, 0x36, 0xd7, 0xbd, 0x5c, 0x79, 0xf7, 0x3d,
  0x22, 0x9b, 0x78, 0x3e, 0x10, 0xa7, 0x45, 0x3b, 0x28, 0xb1, 0xdb, 0xbd,
  0x2a, 0x14, 0xc1, 0x3e, 0x28, 0x26, 0x26, 0x3e, 0xaf, 0xfb, 0x4c, 0x3e,
  0x42, 0xa2, 0x42, 0xbd, 0x2c, 0x6b, 0xb1, 0x3e, 0x1b, 0x13, 0xc3, 0x3e,
  0x71, 0xe3, 0x98, 0x3d, 0x54, 0xd6, 0xad, 0x3d, 0xbb, 0xe4, 0x17, 0xbe,
  0x50, 0x7f, 0x5a, 0x3d, 0xee, 0x69, 0x94, 0x3e, 0x10, 0x59, 0xdf, 0x3d,
  0x5d, 0x23, 0xe4, 0x3e, 0x90, 0x5a, 0x88, 0x3e, 0x7c, 0xef, 0x24, 0xbe,
  0x5c, 0x33, 0x42, 0xbd, 0x33, 0x95, 0x21, 0x3e, 0x5c, 0x78, 0xdd, 0x3e,
  0xf8, 0x6c, 0x71, 0x3e, 0xb4, 0xc0, 0x31, 0x3e, 0x4b, 0xb2, 0x2b, 0xbd,
  0x88, 0x35, 0x79, 0xbe, 0x04, 0xef, 0x54, 0x3e, 0x70, 0xeb, 0xa5, 0xbd,
  0x4c, 0xb4, 0x0a, 0x3e, 0x58, 0x53, 0x65, 0x3e, 0x76, 0xf8, 0x31, 0xbc,
  0x20, 0xd1, 0xa3, 0x3c, 0x4f, 0x07, 0x7b, 0xbe, 0xc8, 0x26, 0xf4, 0xbd,
  0x12, 0xd6, 0x33, 0x3e, 0x40, 0x78, 0x10, 0xbe, 0x40, 0xe3, 0x0f, 0x3c,
  0x48, 0x69, 0x82, 0x3d, 0x28, 0x64, 0x08, 0x3e, 0x46, 0x68, 0x09, 0xbe,
  0xda, 0x92, 0x6b, 0xbe, 0xa8, 0x3c, 0x7c, 0xbe, 0x5c, 0x7d, 0x55, 0xbe,
  0x78, 0x03, 0x69, 0x3e, 0x48, 0xb5, 0x7e, 0x3e, 0xdf, 0x50, 0x7b, 0x3d,
  0xd2, 0x87, 0x48, 0x3e, 0x2c, 0x7b, 0xa2, 0x3d, 0x58, 0x0c, 0x3c, 0xbd,
  0xba, 0x4b, 0x9e, 0x3c, 0xbe, 0xaf, 0x7c, 0xbd, 0xb3, 0xbc, 0xaa, 0x3e,
  0x25, 0x3b, 0x40, 0x3d, 0x7e, 0x6d, 0xfa, 0xbc, 0x44, 0x89, 0x4d, 0xbe,
  0xc0, 0xfc, 0x18, 0xbd, 0x0c, 0x4a, 0x0e, 0xbd, 0x9a, 0x81, 0x26, 0xbe,
  0x80, 0xfa, 0x6d, 0x3e, 0x48, 0x86, 0x34, 0xbe, 0xd0, 0x38, 0x2c, 0x3e,
  0x29, 0x7a, 0x20, 0xbe, 0xd9, 0x35, 0x2f, 0x3e, 0x02, 0x31, 0xa5, 0x3e,
  0x84, 0x25, 0xd1, 0x3e, 0x0f, 0x4a, 0x76, 0xbe, 0x99, 0x2b, 0x5d, 0x3e,
  0x80, 0xa1, 0x1c, 0x3d, 0x64, 0x9c, 0x33, 0xbe, 0x14, 0x0c, 0x71, 0x3e,
  0xc0, 0xe5, 0x3f, 0xbe, 0x94, 0x7e, 0xc0, 0x3e, 0x00, 0x4f, 0xe1, 0xbd,
  0x60, 0x71, 0xaa, 0x3d, 0x1a, 0x17, 0x55, 0xbd, 0xd4, 0x60, 0x21, 0x3e,
  0x00, 0x55, 0x5f, 0x3c, 0x90, 0xad, 0x32, 0xbd, 0x95, 0x08, 0xe7, 0xbe,
  0x4c, 0x2a, 0x26, 0xbe, 0x84, 0x9d, 0xea, 0xbd, 0x44, 0x84, 0x35, 0xbd,
  0xe0, 0x2f, 0xc9, 0x3d, 0x78, 0x70, 0x42, 0x3e, 0xc6, 0x38, 0x44, 0xbe,
  0x28, 0x16, 0xd7, 0xbe, 0x98, 0x13, 0x09, 0x3e, 0xe0, 0xea, 0x5b, 0x3e,
  0xc2, 0xf2, 0xd1, 0x3d, 0xf0, 0x67, 0x6b, 0x3e, 0x88, 0x42, 0x56, 0x3e,
  0x84, 0xb0, 0x70, 0xbe, 0x96, 0x73, 0x68, 0x3e, 0x35, 0x83, 0x6e, 0x3e,
  0x9b, 0x69, 0xc4, 0x3e, 0xb0, 0xe0, 0xdb, 0x3d, 0x9a, 0x7b, 0xf7, 0x3e,
  0x78, 0xf1, 0xd4, 0x3d, 0x67, 0x38, 0x64, 0xbd, 0x1c, 0x3a, 0x76, 0xbe,
  0x68, 0x0c, 0xcf, 0xbd, 0x18, 0x43, 0x05, 0xbe, 0x5c, 0x88, 0x42, 0x3e,
  0xf0, 0xf8, 0xef, 0xbd, 0xbc, 0xfe, 0x76, 0xbe, 0x90, 0x62, 0x61, 0x3e,
  0x30, 0xbb, 0x33, 0xbd, 0x00, 0x4a, 0x7f, 0xbe, 0xd4, 0x7c, 0x30, 0x3e,
  0xe0, 0x58, 0x24, 0xbd, 0xa8, 0x9e, 0x7b, 0xbe, 0x00, 0xec, 0x71, 0xbe,
  0x00, 0x30, 0xbb, 0xbb, 0x08, 0x49, 0xbe, 0xbd, 0x88, 0x31, 0xc1, 0x3d,
  0xd0, 0x40, 0x65, 0x3d, 0x20, 0xe8, 0x4c, 0xbe, 0x00, 0xf3, 0x04, 0x3c,
  0xa0, 0xb1, 0xd5, 0x3c, 0x40, 0x30, 0x5b, 0x3c, 0x20, 0xe0, 0x07, 0x3e,
  0xd8, 0xe5, 0xdd, 0xbd, 0x6c, 0x84, 0x77, 0x3e, 0xc0, 0x38, 0x73, 0x3c,
  0x10, 0x74, 0xd5, 0xbd, 0xf0, 0x5f, 0x38, 0x3d, 0x64, 0xed, 0x70, 0x3e,
  0x8c, 0x9e, 0x7c, 0x3e, 0xcc, 0x84, 0x30, 0x3e, 0xf8, 0x33, 0x51, 0x3e,
  0x00, 0xd6, 0xad, 0x3c, 0xc8, 0x68, 0xde, 0x3d, 0x40, 0x44, 0x3e, 0x3d,
  0xa0, 0xab, 0x4e, 0x3e, 0x48, 0x6c, 0x22, 0xbe, 0x60, 0x48, 0xc2, 0x3d,
  0xb4, 0xe7, 0x18, 0xbe, 0x88, 0xcf, 0xbd, 0x3d, 0xb0, 0x20, 0x31, 0xbd,
  0xf4, 0x57, 0x2c, 0x3e, 0x20, 0xe7, 0xee, 0x3d, 0x64, 0xe9, 0x7c, 0x3e,
  0xb8, 0x9d, 0x30, 0x3e, 0x8c, 0xf8, 0x06, 0x3e, 0xa8, 0x73, 0x6a, 0xbe,
  0x74, 0x7a, 0x27, 0x3e, 0x78, 0x68, 0xac, 0x3d, 0x34, 0x51, 0x09, 0xbe,
  0xe0, 0x36, 0xc7, 0xbd, 0x58, 0x14, 0x36, 0x3e, 0x20, 0x9d, 0x42, 0x3d,
  0x00, 0x5f, 0x57, 0xbc, 0xc0, 0x92, 0x3e, 0xbe, 0x70, 0x74, 0x41, 0xbd,
  0x00, 0x06, 0xb4, 0xbd, 0x18, 0x08, 0x42, 0xbe, 0x08, 0xd1, 0x4a, 0xbe,
  0xd0, 0xa7, 0xcb, 0x3d, 0x80, 0xf0, 0x2e, 0x3c, 0xe0, 0xd6, 0xd1, 0xbc,
  0xbc, 0x89, 0x25, 0xbe, 0x5c, 0xb5, 0x4b, 0xbe, 0x60, 0x53, 0xf7, 0xbd,
  0xe0, 0xf8, 0xfa, 0xbd, 0x20, 0xfa, 0x84, 0x3c, 0x90, 0xa6, 0x74, 0x3d,
  0xac, 0xca, 0x71, 0xbe, 0x10, 0xe0, 0xd6, 0xbd, 0x50, 0x2a, 0x36, 0x3e,
  0x10, 0xa4, 0x6c, 0xbd, 0xd0, 0xfb, 0xca, 0xbd, 0x80, 0xfc, 0xc7, 0x3b,
  0xac, 0xf6, 0x53, 0x3e, 0xac, 0xe8, 0x4d, 0xbe, 0xf0, 0x02, 0x84, 0xbd,
  0x10, 0x18, 0x17, 0xbe, 0x78, 0x0a, 0x14, 0x3e, 0x50, 0xe9, 0x60, 0x3e,
  0xf4, 0x13, 0x3a, 0x3e, 0x50, 0x02, 0x7c, 0xbd, 0xa0, 0xe4, 0x6b, 0xbe,
  0x34, 0xbd, 0x21, 0xbe, 0xc4, 0xf0, 0x53, 0x3e, 0x30, 0x52, 0x08, 0xbd,
  0x60, 0x78, 0xc7, 0x3d, 0xb0, 0x26, 0x7a, 0xbd, 0xa8, 0x16, 0xe7, 0x3d,
  0x38, 0x3b, 0xe8, 0xbd, 0xc0, 0x30, 0xb2, 0x3d, 0x58, 0x65, 0xc8, 0x3d,
  0x18, 0x79, 0x7b, 0xbe, 0x60, 0x4f, 0x3f, 0xbd, 0x04, 0x36, 0x17, 0xbe,
  0xc8, 0x5e, 0x7e, 0x3e, 0x20, 0x00, 0xfc, 0x3d, 0x88, 0x11, 0x16, 0xbe,
  0x40, 0xc9, 0x4b, 0xbc, 0x44, 0x1d, 0x2e, 0x3e, 0x3c, 0x42, 0x29, 0x3e,
  0x98, 0x3e, 0x18, 0xbe, 0x14, 0x74, 0x4e, 0xbe, 0xb8, 0x7f, 0xa1, 0xbd,
  0x68, 0x26, 0xc3, 0xbd, 0xc0, 0xd2, 0xa8, 0x3d, 0xe0, 0x90, 0x59, 0x3d,
  0xc8, 0xfd, 0x26, 0x3e, 0x20, 0x1e, 0x49, 0x3e, 0xb8, 0xe9, 0xd4, 0x3d,
  0x50, 0xec, 0x3a, 0xbd, 0x18, 0xd3, 0xe8, 0x3d, 0x60, 0x1e, 0x7b, 0x3d,
  0x00, 0x1f, 0x20, 0xbd, 0x08, 0x24, 0x74, 0x3e, 0x20, 0x3e, 0x7e, 0xbd,
  0xac, 0xa8, 0x7e, 0x3e, 0xc0, 0x05, 0x22, 0x3e, 0x70, 0x57, 0x57, 0xbd,
  0xe0, 0x8a, 0xf9, 0x3c, 0xe0, 0xea, 0x83, 0x3d, 0x58, 0x5d, 0xf8, 0x3d,
  0x00, 0x53, 0xd5, 0xbb, 0x84, 0x60, 0x51, 0xbe, 0x10, 0x87, 0x5f, 0xbd,
  0xf4, 0x9e, 0x15, 0x3e, 0x90, 0x87, 0xe0, 0x3d, 0x8c, 0x4d, 0x0e, 0xbe,
  0xc4, 0x6d, 0x7f, 0xbe, 0xf3, 0x9a, 0x96, 0x3e, 0xb0, 0x4f, 0x4f, 0x3d,
  0xa8, 0x59, 0x2a, 0xbe, 0x49, 0x23, 0xe0, 0xbd, 0x94, 0x0e, 0x0f, 0x3d,
  0x7d, 0xf5, 0x9d, 0xbe, 0x30, 0x8e, 0x33, 0x3d, 0x98, 0x1c, 0x05, 0xbe,
  0x15, 0xaf, 0x8d, 0xbe, 0xc1, 0xe5, 0xab, 0x3c, 0xe3, 0xb7, 0x78, 0x3e,
  0x7e, 0x4a, 0x89, 0xba, 0x47, 0x70, 0xb5, 0xbd, 0xe8, 0xa3, 0xd6, 0x3d,
  0xcc, 0x3b, 0x42, 0xbe, 0x00, 0x6f, 0x91, 0x3e, 0x39, 0xe6, 0x2c, 0x3e,
  0x8b, 0xb3, 0xf3, 0x3e, 0xa2, 0xac, 0x1c, 0x3d, 0x4f, 0xf9, 0xae, 0x3e,
  0xaa, 0x17, 0x7a, 0x3e, 0x76, 0x18, 0x8e, 0x3d, 0xdc, 0x07, 0x06, 0xbc,
  0x82, 0x50, 0x80, 0xbc, 0x78, 0x15, 0xe3, 0xbd, 0x1c, 0x83, 0x01, 0xbe,
  0xf8, 0xf1, 0xaf, 0x3d, 0xb8, 0xd9, 0x05, 0x3e, 0x2e, 0x78, 0x82, 0xbd,
  0x6a, 0x81, 0xd0, 0xbd, 0xa1, 0x0e, 0xe2, 0xbe, 0x09, 0x18, 0x06, 0x3e,
  0x30, 0x99, 0xb9, 0x3d, 0xf5, 0x83, 0xf4, 0x3d, 0x08, 0xac, 0x44, 0xbe,
  0xef, 0xad, 0xfb, 0xbc, 0x1e, 0x7a, 0x2b, 0x3d, 0x25, 0x00, 0xfe, 0xbc,
  0x6d, 0xe8, 0xd2, 0x3e, 0xe9, 0xef, 0x9e, 0x3e, 0xe2, 0xc3, 0x48, 0xbe,
  0x8e, 0xbb, 0x22, 0xbb, 0x90, 0x5e, 0x3a, 0x3e, 0x04, 0x46, 0x75, 0xbe,
  0xc8, 0x13, 0xb5, 0xbd, 0x31, 0x46, 0xc3, 0x3e, 0x23, 0x94, 0xca, 0x3e,
  0x40, 0x03, 0x09, 0x3c, 0x54, 0x46, 0x3c, 0x3e, 0xd4, 0x77, 0x9f, 0x3e,
  0xc5, 0x24, 0xbc, 0x3d, 0x50, 0x9b, 0x35, 0xbd, 0xa0, 0x12, 0x72, 0xbe,
  0x0f, 0xad, 0x27, 0x3e, 0xc0, 0x02, 0xf1, 0x3c, 0xa0, 0xf4, 0x5e, 0x3e,
  0x90, 0x93, 0xbd, 0xbd, 0xc5, 0xb5, 0x71, 0xbe, 0xec, 0xbd, 0x26, 0xbe,
  0x0e, 0x15, 0x52, 0x3e, 0x94, 0x38, 0x53, 0xbe, 0xad, 0xb5, 0x4b, 0xbe,
  0x10, 0x88, 0x7d, 0xbe, 0x71, 0x74, 0x86, 0x3d, 0xc0, 0x91, 0x1d, 0x3e,
  0x40, 0x12, 0x73, 0xbc, 0x78, 0xd8, 0x0a, 0xbe, 0xf8, 0xf0, 0xfe, 0x3d,
  0x15, 0x77, 0x69, 0xbe, 0xef, 0xfb, 0x48, 0xbe, 0xf4, 0x39, 0x7f, 0x3e,
  0xf0, 0x99, 0x28, 0xbd, 0xee, 0xc8, 0xea, 0xbd, 0xe4, 0x25, 0x01, 0xbe,
  0x7f, 0x2b, 0x57, 0x3e, 0xbb, 0x47, 0x4b, 0xbe, 0xc9, 0x9f, 0x99, 0xbd,
  0xf1, 0x6c, 0x55, 0xbe, 0x19, 0xf7, 0xea, 0x3d, 0xd5, 0xc1, 0x9d, 0x3e,
  0xee, 0x03, 0xbf, 0xbd, 0x64, 0x02, 0x54, 0xbd, 0x79, 0x2b, 0xa4, 0x3e,
  0xff, 0x7a, 0xa4, 0x3d, 0x60, 0x87, 0x02, 0x3e, 0x26, 0x41, 0xcb, 0x3d,
  0x54, 0x0b, 0x74, 0xbe, 0x8c, 0xd1, 0x59, 0x3e, 0x90, 0xd2, 0x9e, 0xbd,
  0x28, 0x73, 0x4c, 0x3e, 0x4b, 0x1f, 0x11, 0x3d, 0x80, 0xf9, 0xc4, 0xbd,
  0xbb, 0xef, 0xf2, 0x3c, 0x03, 0xd5, 0x0c, 0x3d, 0xdf, 0x82, 0xe8, 0xbe,
  0xc1, 0x99, 0xf5, 0x3d, 0xa0, 0x35, 0xae, 0x3c, 0x8e, 0x15, 0x2d, 0xbe,
  0x64, 0x85, 0x14, 0x3e, 0x88, 0x2c, 0x3e, 0x3e, 0x85, 0x39, 0x55, 0x3e,
  0xd1, 0x80, 0x17, 0xbc, 0xde, 0x45, 0x47, 0xbe, 0x2c, 0x24, 0x7b, 0xbd,
  0x0b, 0x02, 0x96, 0x3d, 0x86, 0x2b, 0x07, 0xbe, 0x0c, 0x0e, 0x7b, 0xbe,
  0x40, 0x16, 0x1b, 0xbe, 0xd0, 0xeb, 0x3d, 0x3e, 0xa1, 0xca, 0xaf, 0xbe,
  0x95, 0x17, 0x2b, 0xb9, 0x48, 0xd5, 0x48, 0xbe, 0xa4, 0x0e, 0x21, 0x3e,
  0xee, 0xa6, 0x8a, 0x3e, 0x5a, 0x15, 0x52, 0xbe, 0xa4, 0xc8, 0x0c, 0xbe,
  0xf8, 0x47, 0x92, 0x3d, 0xa9, 0x7b, 0xfe, 0xbd, 0x68, 0x8c, 0xf8, 0x3d,
  0xa0, 0xf7, 0x8f, 0xbd, 0x44, 0x55, 0x46, 0xbe, 0x00, 0x80, 0x15, 0x3d,
  0xff, 0x44, 0xe5, 0x3d, 0x7b, 0x32, 0x49, 0x3e, 0x58, 0x2d, 0x49, 0x3e,
  0xd0, 0x98, 0x18, 0x3e, 0x40, 0x9e, 0x72, 0x3d, 0xe0, 0x7f, 0xbb, 0xbd,
  0x2e, 0xfb, 0x62, 0xbe, 0xe0, 0x69, 0xf6, 0x3d, 0x68, 0xad, 0xed, 0xbd,
  0x37, 0x38, 0x72, 0x3e, 0x73, 0x30, 0x9b, 0xbd, 0x5b, 0xc5, 0x4d, 0xbe,
  0xfc, 0x75, 0x10, 0xbe, 0xe0, 0xed, 0x14, 0xbe, 0x2b, 0x4f, 0xb2, 0x3d,
  0x20, 0x05, 0x7e, 0x3d, 0x06, 0x56, 0x81, 0x3e, 0x6a, 0x38, 0x8d, 0x3e,
  0x44, 0x8a, 0x86, 0x3e, 0xf4, 0x13, 0xc5, 0xbd, 0xf5, 0xe3, 0xd9, 0x3d,
  0x61, 0x39, 0xb9, 0x3d, 0x32, 0xd4, 0x04, 0x3e, 0xd1, 0xf6, 0xaa, 0xbe,
  0xd2, 0xc6, 0x68, 0xbc, 0x7a, 0xaa, 0xa0, 0xbd, 0xf0, 0x02, 0x56, 0x3d,
  0x01, 0xff, 0x8f, 0xbd, 0xad, 0x18, 0x02, 0xbe, 0xdb, 0xcb, 0x37, 0x3c,
  0x40, 0x93, 0x23, 0xbd, 0x70, 0x65, 0x55, 0x3e, 0xad, 0x5f, 0x11, 0xbe,
  0x97, 0x1a, 0xaf, 0xbe, 0xae, 0xb0, 0x92, 0x3e, 0x1f, 0x75, 0x4f, 0x3d,
  0x7e, 0xd0, 0x35, 0x3d, 0xf3, 0x88, 0x49, 0xbd, 0x68, 0xfb, 0x2b, 0xbe,
  0x92, 0xb1, 0x15, 0x3e, 0xa0, 0x0d, 0x54, 0x3e, 0xdc, 0xa8, 0x26, 0xbe,
  0x90, 0x51, 0x86, 0x3e, 0xaa, 0x27, 0x16, 0x3e, 0x67, 0x4b, 0x87, 0xbe,
  0xd2, 0xa1, 0x61, 0xbe, 0xcb, 0x77, 0xf6, 0xbd, 0xa8, 0x5a, 0xa1, 0xbd,
  0x28, 0x73, 0x7e, 0xbe, 0xdb, 0x56, 0x2f, 0xbe, 0xac, 0x2b, 0x51, 0xbe,
  0xde, 0xe5, 0xa4, 0x3d, 0xf4, 0x62, 0x80, 0x3d, 0x40, 0x90, 0x23, 0xbe,
  0x03, 0xd5, 0xee, 0xbd, 0x3f, 0x99, 0xa1, 0xbe, 0x2a, 0x38, 0x7f, 0xbe,
  0xfc, 0x0b, 0x53, 0x3e, 0x40, 0x05, 0xa0, 0xbc, 0xe5, 0xec, 0x71, 0x3c,
  0x08, 0x48, 0x7c, 0xbe, 0xc7, 0x2d, 0x30, 0xbe, 0x90, 0x97, 0xad, 0xbd,
  0xa9, 0xad, 0x67, 0xbe, 0xc8, 0x15, 0x4a, 0x3e, 0x54, 0xce, 0x23, 0x3e,
  0xa0, 0x27, 0x87, 0xbd, 0x7b, 0xd5, 0x7a, 0x3e, 0x20, 0x97, 0x02, 0x3e,
  0x7d, 0xe9, 0x85, 0x3e, 0x38, 0xab, 0xef, 0xbd, 0x00, 0xff, 0x07, 0x3b,
  0xa0, 0xb1, 0xe2, 0x3d, 0x20, 0xc1, 0x3e, 0x3e, 0x20, 0x56, 0xd3, 0x3d,
  0x50, 0xdb, 0x69, 0xbd, 0x80, 0x0b, 0x6e, 0xbc, 0x30, 0xe8, 0x5d, 0xbd,
  0xa0, 0xc3, 0xbe, 0xbd, 0xb4, 0xa1, 0x27, 0x3e, 0xc0, 0xe1, 0x34, 0xbd,
  0x8c, 0x5d, 0x3d, 0xbe, 0x90, 0x81, 0xc8, 0xbd, 0xd8, 0x53, 0xc4, 0xbd,
  0x50, 0xf4, 0x10, 0xbe, 0xe8, 0x79, 0xd7, 0x3d, 0xc0, 0x85, 0x01, 0xbd,
  0x44, 0x70, 0x2c, 0xbe, 0xb8, 0x38, 0x34, 0xbe, 0x20, 0x44, 0x26, 0xbd,
  0x30, 0xd8, 0x17, 0x3e, 0xa4, 0x00, 0x5b, 0x3e, 0xd0, 0x83, 0x5e, 0x3e,
  0x30, 0xd5, 0x7c, 0x3e, 0xc0, 0x7e, 0x57, 0xbd, 0xb8, 0x97, 0xf3, 0x3d,
  0x88, 0xfe, 0xbf, 0x3d, 0x68, 0xe8, 0xaf, 0xbd, 0xc4, 0x43, 0x5a, 0xbe,
  0xec, 0xa3, 0x40, 0x3e, 0x00, 0x13, 0xa2, 0x3d, 0x38, 0xe1, 0xf9, 0x3d,
  0x64, 0x59, 0x07, 0xbe, 0xac, 0x38, 0x47, 0xbe, 0x54, 0x55, 0x34, 0xbe,
  0xcc, 0x28, 0x10, 0x3e, 0xd0, 0xc6, 0x83, 0xbd, 0xac, 0x65, 0x64, 0xbe,
  0xa8, 0x30, 0xf7, 0x3d, 0x50, 0x1f, 0x16, 0x3e, 0x30, 0xac, 0x62, 0xbe,
  0x98, 0xa5, 0x65, 0xbe, 0x78, 0x28, 0x31, 0x3e, 0x70, 0x5d, 0xfa, 0xbd,
  0xc0, 0x6d, 0x84, 0x3d, 0x7c, 0x83, 0x7f, 0xbe, 0xa0, 0xa6, 0x37, 0xbe,
  0x58, 0xaf, 0x17, 0x3e, 0xa0, 0x0c, 0x32, 0xbd, 0x98, 0x5e, 0x3f, 0xbe,
  0x34, 0xe9, 0x1f, 0xbe, 0xd0, 0xc8, 0x33, 0xbd, 0x74, 0x02, 0x17, 0xbe,
  0x84, 0x31, 0x59, 0x3e, 0x90, 0x32, 0x7a, 0xbe, 0xb8, 0xc2, 0x81, 0xbd,
  0x60, 0xc2, 0xc5, 0xbd, 0xf8, 0x56, 0x51, 0xbe, 0x54, 0x49, 0x3c, 0xbe,
  0xb4, 0x95, 0x23, 0xbe, 0xc0, 0x18, 0x57, 0x3d, 0xe0, 0x17, 0x68, 0x3e,
  0x74, 0x63, 0x41, 0xbe, 0x80, 0xb0, 0xa6, 0x3d, 0xf0, 0x92, 0x40, 0xbe,
  0xa0, 0xd5, 0xae, 0xbd, 0xb0, 0xd7, 0x58, 0xbe, 0xd0, 0x50, 0x1c, 0xbe,
  0x80, 0xc4, 0xfc, 0x3c, 0x4c, 0xe3, 0x5c, 0x3e, 0xf4, 0x9c, 0x04, 0x3e,
  0xf0, 0x3b, 0x1d, 0x3d, 0x00, 0x20, 0x71, 0x3a, 0xd8, 0xaa, 0x1d, 0x3e,
  0x00, 0x73, 0xc8, 0xbb, 0x80, 0x86, 0x4b, 0xbd, 0xc8, 0x7c, 0xc7, 0x3d,
  0xf0, 0x96, 0x7a, 0x3d, 0xa8, 0xa3, 0xe9, 0xbd, 0x30, 0x17, 0xaa, 0x3d,
  0x80, 0x6d, 0xdf, 0x3d, 0x08, 0xea, 0xab, 0xbd, 0x3c, 0xe1, 0x78, 0xbe,
  0xe8, 0xa9, 0xaf, 0x3d, 0x9c, 0xf4, 0x33, 0xbe, 0x58, 0xde, 0x32, 0xbe,
  0xe8, 0x11, 0x1c, 0xbe, 0x38, 0xa6, 0xe0, 0xbd, 0x00, 0x45, 0x42, 0x3e,
  0xa0, 0x42, 0x45, 0x3e, 0xb0, 0x66, 0x71, 0xbe, 0xb0, 0xe2, 0xd6, 0x3d,
  0x28, 0x94, 0x19, 0xbe, 0xe0, 0x4b, 0x55, 0x3e, 0x18, 0x9f, 0x43, 0xbe,
  0xe0, 0x1f, 0xd8, 0xbc, 0x90, 0xa1, 0x0b, 0x3d, 0x40, 0x99, 0x5d, 0x3e,
  0xb0, 0x7d, 0x79, 0x3e, 0x64, 0x77, 0x34, 0xbe, 0x80, 0x04, 0x4b, 0xbd,
  0x88, 0x44, 0xb4, 0x3d, 0xac, 0xd8, 0x05, 0x3e, 0x8c, 0xd9, 0x31, 0x3e,
  0x00, 0x56, 0xb1, 0xba, 0x64, 0xd6, 0x47, 0x3e, 0x08, 0x11, 0x4b, 0xbe,
  0xcc, 0xe8, 0x72, 0xbe, 0x48, 0x31, 0x8f, 0xbd, 0xe0, 0x7a, 0xcd, 0x3c,
  0x20, 0x89, 0xee, 0xbc, 0xf0, 0x42, 0x5e, 0xbd, 0xa0, 0xd9, 0xeb, 0xbd,
  0x40, 0x34, 0x09, 0xbe, 0x90, 0x7d, 0x1e, 0x3d, 0x10, 0xb7, 0x74, 0xbd,
  0x24, 0x16, 0x27, 0x3e, 0xb0, 0xee, 0x7e, 0xbd, 0x48, 0x33, 0xe7, 0xbd,
  0x24, 0xa9, 0x16, 0x3e, 0x18, 0x45, 0x6e, 0xbe, 0xb0, 0x35, 0x10, 0xbe,
  0xec, 0xa4, 0x12, 0xbe, 0x80, 0x24, 0x88, 0x3c, 0x00, 0xb8, 0x26, 0x3c,
  0x78, 0xea, 0x9f, 0x3d, 0xc4, 0x45, 0x6a, 0xbe, 0x00, 0x84, 0x2c, 0x3b,
  0x9b, 0x1e, 0x99, 0xbe, 0x00, 0x3a, 0x17, 0xbc, 0x90, 0x05, 0x9a, 0xbd,
  0xdc, 0xcf, 0x43, 0x3e, 0x53, 0x91, 0x65, 0x3d, 0x01, 0xa8, 0x4e, 0xbd,
  0x48, 0x5b, 0x67, 0xbe, 0x98, 0xe0, 0x86, 0x3d, 0xb0, 0x44, 0xd4, 0x3e,
  0xe4, 0x66, 0x2a, 0x3e, 0x34, 0xea, 0x51, 0xbd, 0x65, 0xb5, 0xb5, 0x3d,
  0x01, 0xdd, 0xd8, 0x3d, 0xcb, 0x97, 0x00, 0xbf, 0x98, 0xeb, 0x83, 0x3e,
  0x2e, 0xf9, 0x34, 0xbd, 0x64, 0x92, 0x5c, 0x3b, 0x8b, 0x4d, 0x41, 0x3d,
  0xf1, 0x2e, 0x19, 0x3a, 0x39, 0xea, 0x1b, 0x3c, 0x48, 0xeb, 0xb4, 0x3d,
  0x73, 0x00, 0xb3, 0x3e, 0xfd, 0x30, 0xd4, 0x3d, 0x59, 0x0e, 0xa1, 0xbd,
  0xf0, 0xb1, 0x58, 0xbd, 0x50, 0x62, 0xd2, 0xbd, 0x4d, 0x78, 0x88, 0x3e,
  0x88, 0x23, 0x40, 0xbc, 0xff, 0xdf, 0xc4, 0x3b, 0x99, 0xe9, 0x95, 0x3e,
  0xcf, 0x3c, 0x76, 0x3d, 0x7e, 0x4f, 0x70, 0x3e, 0x00, 0x6d, 0x50, 0x3d,
  0xfe, 0x79, 0x99, 0xbe, 0xa0, 0x3e, 0x30, 0xbd, 0xb9, 0x02, 0x67, 0x3e,
  0xa0, 0x8d, 0xb5, 0x3e, 0x8e, 0x01, 0x87, 0x3d, 0x9f, 0x1c, 0xec, 0xbd,
  0xcc, 0x0a, 0x7c, 0x3e, 0xde, 0x56, 0x21, 0x3e, 0x21, 0xd2, 0x05, 0xbe,
  0x8c, 0x5e, 0x6a, 0xbe, 0x58, 0x8c, 0x5a, 0xbe, 0xb0, 0x9d, 0x2a, 0x3e,
  0xef, 0xa7, 0x61, 0xbd, 0x2b, 0x05, 0xa3, 0xbe, 0xc0, 0x4b, 0x7a, 0xbc,
  0xb0, 0x69, 0xba, 0x3e, 0x82, 0xd1, 0x2c, 0xbe, 0x14, 0x5c, 0xcf, 0xbe,
  0xf0, 0x56, 0xd0, 0x3d, 0x38, 0xf6, 0xaa, 0xbd, 0x02, 0x2e, 0x4d, 0x3e,
  0x20, 0x40, 0x9b, 0x3c, 0x5a, 0xed, 0x20, 0x3e, 0x6c, 0x5e, 0x5e, 0xbe,
  0x38, 0x15, 0x4a, 0xbe, 0x6e, 0x9d, 0x6d, 0xbd, 0x20, 0x10, 0x27, 0x3e,
  0x90, 0x06, 0xd2, 0x3d, 0xfa, 0x36, 0xc6, 0x3e, 0x00, 0xa5, 0x10, 0x3e,
  0xfc, 0x4e, 0xdf, 0xbd, 0xea, 0x03, 0x94, 0x3e, 0x04, 0xe9, 0x4e, 0x3e,
  0x00, 0xa2, 0x8a, 0xbc, 0x91, 0xda, 0x42, 0x3e, 0xdf, 0x20, 0x3f, 0xbe,
  0xf3, 0x27, 0xd5, 0xbe, 0x28, 0x3f, 0xd1, 0xbd, 0x40, 0x31, 0xb7, 0x3d,
  0xfd, 0x37, 0xcd, 0xbe, 0xcd, 0x58, 0x60, 0xbe, 0xc7, 0xac, 0x78, 0x3e,
  0x52, 0x8d, 0x1b, 0x3e, 0x87, 0x01, 0x02, 0x3e, 0xca, 0x3d, 0xba, 0x3e,
  0x80, 0x96, 0xcb, 0xbc, 0xdd, 0x25, 0x38, 0x3e, 0xe5, 0xbd, 0x27, 0x3c,
  0xbd, 0x8e, 0xc8, 0x3e, 0xee, 0x3f, 0xfe, 0xbd, 0xbf, 0x8d, 0xc4, 0x3e,
  0x2a, 0xf0, 0x9b, 0xbd, 0xa2, 0x31, 0x61, 0x3d, 0x14, 0xfd, 0x91, 0xbd,
  0xea, 0xc1, 0x0a, 0x3e, 0x50, 0xa9, 0xa0, 0xbd, 0xf0, 0x7c, 0x11, 0x3e,
  0x6d, 0x01, 0x65, 0xbd, 0x24, 0xf3, 0xbf, 0xbd, 0x50, 0x30, 0x0c, 0xbd,
  0x46, 0x5e, 0xb5, 0xbe, 0xc2, 0x65, 0x92, 0xbc, 0x6f, 0x27, 0x45, 0x3e,
  0xbc, 0xe6, 0x09, 0xbe, 0x98, 0xe4, 0x76, 0x3b, 0xd0, 0xc7, 0x77, 0xbe,
  0x32, 0x06, 0xbb, 0xbd, 0x48, 0xb3, 0x69, 0xbe, 0xf8, 0x47, 0x2f, 0x3d,
  0xec, 0x2b, 0x97, 0x3e, 0x96, 0xeb, 0x5d, 0xbd, 0x22, 0x9d, 0xf9, 0x3c,
  0x95, 0xa5, 0x38, 0xbe, 0x38, 0x82, 0x8e, 0xbd, 0xcc, 0x5d, 0xcd, 0x3d,
  0x80, 0xa6, 0x9a, 0xbd, 0xeb, 0x26, 0xd3, 0x3e, 0x66, 0xb8, 0x85, 0x3e,
  0x10, 0x4f, 0x50, 0xbe, 0x4f, 0xb2, 0xea, 0xbd, 0x7b, 0xb0, 0x83, 0xbd,
  0xa0, 0x49, 0x91, 0x3e, 0x28, 0x58, 0x78, 0x3e, 0x44, 0x21, 0x74, 0x3e,
  0x9b, 0x95, 0x04, 0x3e, 0x98, 0x79, 0x87, 0xbd, 0xf4, 0x41, 0xeb, 0x3d,
  0x48, 0xc7, 0x7b, 0xbe, 0x19, 0x40, 0x21, 0x3c, 0xe4, 0x95, 0xd4, 0xbd,
  0x84, 0x01, 0x54, 0x3e, 0xa8, 0xe7, 0xe4, 0xbd, 0xdb, 0x5c, 0x0f, 0xbe,
  0x40, 0xb1, 0x9f, 0x3d, 0xc3, 0xa2, 0xab, 0xbe, 0x28, 0xb6, 0xe7, 0xbd,
  0x90, 0x43, 0x68, 0xbd, 0x18, 0xc1, 0xdd, 0x3d, 0x00, 0x41, 0xb3, 0x3b,
  0x80, 0xe4, 0x7d, 0x3c, 0xe0, 0xad, 0x0f, 0x3e, 0xc0, 0xc8, 0x3b, 0x3e,
  0x38, 0xb7, 0x0d, 0x3e, 0xd0, 0xff, 0xbe, 0x3d, 0x88, 0x71, 0xbb, 0xbd,
  0xe0, 0x6b, 0x9a, 0xbc, 0x88, 0x09, 0x42, 0x3e, 0x40, 0x70, 0x39, 0x3d,
  0xb8, 0x82, 0x6b, 0x3e, 0x60, 0x6a, 0x0d, 0x3e, 0x98, 0xf1, 0xdb, 0xbd,
  0xc4, 0xe2, 0x37, 0xbe, 0xc0, 0xe5, 0x11, 0x3d, 0xe0, 0x24, 0x62, 0xbe,
  0xe8, 0xea, 0x4d, 0xbe, 0xf8, 0x0c, 0xa7, 0x3d, 0xf4, 0xd3, 0x29, 0xbe,
  0x28, 0xdd, 0xf1, 0xbd, 0xdc, 0x53, 0x06, 0x3e, 0x30, 0xfc, 0xad, 0xbd,
  0xb0, 0xbd, 0x66, 0x3d, 0x38, 0x6d, 0x02, 0xbe, 0x80, 0xc2, 0x05, 0xbd,
  0xac, 0xbe, 0x0d, 0xbe, 0xa8, 0xb9, 0x77, 0xbe, 0x18, 0xac, 0xb1, 0x3d,
  0x90, 0x33, 0x24, 0x3d, 0x10, 0x64, 0x12, 0xbd, 0x68, 0x7d, 0xce, 0x3d,
  0x90, 0x3e, 0x37, 0xbd, 0x00, 0x7a, 0xc0, 0x3b, 0x40, 0xd8, 0xe6, 0x3c,
  0x60, 0x5f, 0x6d, 0xbe, 0xa8, 0xbd, 0xfe, 0x3d, 0xac, 0x95, 0x1e, 0x3e,
  0x54, 0xd8, 0x41, 0xbe, 0x6c, 0x80, 0x49, 0x3e, 0xa8, 0x14, 0x48, 0xbe,
  0x58, 0xab, 0x25, 0x3e, 0x88, 0xff, 0xa0, 0x3d, 0x1c, 0x02, 0x03, 0xbe,
  0x20, 0x2c, 0x01, 0x3d, 0x00, 0xc1, 0x24, 0x3d, 0x1c, 0x06, 0x27, 0x3e,
  0xb0, 0xfc, 0x6d, 0xbd, 0x50, 0x10, 0x6e, 0xbe, 0x40, 0xc2, 0x4a, 0xbc,
  0x60, 0x23, 0x6d, 0x3e, 0x38, 0xa4, 0x6a, 0xbe, 0x50, 0xe1, 0x23, 0xbe,
  0x80, 0x21, 0x09, 0xbe, 0x34, 0x21, 0x63, 0xbe, 0xf0, 0x00, 0x67, 0xbd,
  0x60, 0x78, 0x9a, 0x3d, 0x08, 0xe2, 0x35, 0xbe, 0x2c, 0x5b, 0x34, 0xbe,
  0xa0, 0xce, 0x12, 0x3d, 0xf8, 0x85, 0xde, 0x3d, 0x78, 0xa7, 0x44, 0x3e,
  0x60, 0xeb, 0x7a, 0xbe, 0xc0, 0xef, 0x73, 0x3e, 0xbc, 0xfa, 0x20, 0xbe,
  0x40, 0xf3, 0x5b, 0xbd, 0x4e, 0x54, 0x47, 0xbe, 0xef, 0x01, 0x28, 0xbe,
  0x50, 0x18, 0xd0, 0xbd, 0x80, 0xff, 0x55, 0xbd, 0x1a, 0x64, 0x82, 0xbe,
  0x10, 0xad, 0x37, 0xbe, 0x4f, 0x3a, 0xe2, 0x3d, 0x7d, 0x58, 0x34, 0x3e,
  0xaa, 0x56, 0x71, 0xbe, 0xb0, 0x14, 0x0d, 0x3d, 0x67, 0x2c, 0x47, 0x3e,
  0x40, 0x3a, 0x37, 0xbe, 0x7c, 0xc9, 0x45, 0x3e, 0xd0, 0x39, 0xa7, 0x3d,
  0xc0, 0xcf, 0x6f, 0xbe, 0x50, 0x02, 0x01, 0x3e, 0x60, 0xbe, 0x8b, 0xbd,
  0xeb, 0xdb, 0xa8, 0x3d, 0xb4, 0xfd, 0x43, 0x3e, 0xa4, 0x26, 0x69, 0x3e,
  0xac, 0x60, 0x01, 0xbe, 0x60, 0xeb, 0xe5, 0xbc, 0x98, 0x00, 0xf1, 0xbd,
  0x21, 0x55, 0x19, 0x3e, 0x5e, 0x68, 0x9f, 0xbd, 0x03, 0x73, 0xfa, 0x3d,
  0x36, 0x03, 0x2f, 0x3e, 0x2b, 0x23, 0x42, 0xbe, 0x30, 0xf9, 0x3e, 0xbd,
  0xb0, 0xd6, 0x40, 0xbe, 0xc0, 0x9c, 0x74, 0xbe, 0x80, 0xcb, 0x2c, 0xbd,
  0xa7, 0x44, 0x00, 0xbd, 0x95, 0x88, 0x64, 0x3e, 0xac, 0xdb, 0xfd, 0xbd,
  0x82, 0x9a, 0x1b, 0x3e, 0x97, 0x2c, 0x12, 0xbe, 0xa0, 0x93, 0xb1, 0xbd,
  0x88, 0x0c, 0x7f, 0xbe, 0x90, 0x36, 0x04, 0xbe, 0xec, 0xe0, 0x6a, 0xbe,
  0x6c, 0x04, 0x2d, 0xbe, 0x34, 0xe0, 0xdb, 0xbd, 0x30, 0x96, 0x58, 0xbd,
  0x52, 0x4f, 0x81, 0xbe, 0xfc, 0x1d, 0xe7, 0x3d, 0x92, 0x31, 0x82, 0xbe,
  0x00, 0x81, 0x29, 0x3b, 0x94, 0x61, 0x72, 0x3e, 0xe4, 0x92, 0x10, 0xbe,
  0xd8, 0x39, 0xd4, 0x3d, 0x00, 0xf9, 0x3d, 0xbd, 0x00, 0x61, 0x7a, 0x3d,
  0x30, 0xd9, 0x6e, 0xbd, 0xe0, 0xcb, 0x67, 0xbe, 0x59, 0x02, 0x61, 0x3e,
  0xa0, 0x0a, 0x2b, 0xbe, 0x6b, 0x92, 0xa0, 0xbb, 0x44, 0xc4, 0x78, 0xbe,
  0x51, 0x80, 0x7b, 0x3d, 0x14, 0x4b, 0x3a, 0x3e, 0x10, 0x3d, 0x91, 0xbd,
  0x90, 0x20, 0x09, 0xbd, 0x58, 0x40, 0xc4, 0x3d, 0xfd, 0xc7, 0x7c, 0xbe,
  0x2d, 0x68, 0x5a, 0x3d, 0xf0, 0x37, 0x04, 0x3e, 0xc8, 0x84, 0x3d, 0x3e,
  0x41, 0x4e, 0x99, 0x3d, 0x50, 0xc0, 0x3f, 0x3d, 0xab, 0xdd, 0x34, 0xbe,
  0x89, 0x01, 0x68, 0x3c, 0x7d, 0xb3, 0xe8, 0x3d, 0xcf, 0x1d, 0x28, 0xbe,
  0x7c, 0x31, 0x97, 0x3e, 0xbd, 0xdc, 0x20, 0xbe, 0xed, 0x01, 0x77, 0x3e,
  0x1c, 0xd3, 0x5b, 0x3e, 0x9e, 0x22, 0xff, 0x3d, 0xae, 0xd2, 0xa3, 0xbd,
  0x67, 0x60, 0x42, 0x3e, 0xb5, 0x4e, 0x33, 0x3e, 0xc7, 0x11, 0xf1, 0xbd,
  0x68, 0x07, 0x01, 0xbd, 0xe0, 0x89, 0xd7, 0xbc, 0x80, 0x80, 0xeb, 0x3c,
  0x0e, 0x79, 0x0d, 0xbd, 0x12, 0x55, 0xd4, 0xbb, 0xff, 0x06, 0xc2, 0xbd,
  0xb1, 0xb8, 0xce, 0x3e, 0x7c, 0x00, 0x33, 0xbd, 0xc5, 0xc6, 0x79, 0xbc,
  0x64, 0xf8, 0x27, 0xbe, 0x88, 0x2a, 0x33, 0xbe, 0x40, 0xd2, 0xb7, 0x3c,
  0x4c, 0x85, 0x4b, 0xbe, 0xd6, 0x41, 0x62, 0x3c, 0x49, 0x5d, 0x35, 0x3d,
  0x88, 0x1e, 0x42, 0x3c, 0x96, 0x9b, 0x7b, 0x3e, 0x67, 0xce, 0x06, 0xbe,
  0x2c, 0x97, 0x76, 0x3e, 0x70, 0xd4, 0xaa, 0x3d, 0xd5, 0xf3, 0x5e, 0xbe,
  0xa0, 0x93, 0x54, 0xbd, 0x6b, 0x03, 0x9c, 0xbe, 0x2a, 0x33, 0x8c, 0xbe,
  0x60, 0x63, 0x4e, 0x3e, 0xbe, 0x4f, 0x7f, 0xbe, 0xf9, 0x2a, 0x82, 0xbe,
  0xcb, 0xe3, 0x45, 0xbe, 0xc8, 0xf7, 0xbc, 0xbd, 0xe0, 0x40, 0x52, 0xbe,
  0x4a, 0xbd, 0x9f, 0x3e, 0x00, 0x95, 0xea, 0x3b, 0xb1, 0x73, 0xa0, 0xbd,
  0xa0, 0xbb, 0x3a, 0x3e, 0x0f, 0x16, 0x99, 0x3d, 0xa5, 0x4f, 0x0f, 0xbe,
  0x1c, 0xad, 0xc2, 0x3e, 0xa0, 0x06, 0x26, 0x3e, 0x40, 0xf3, 0xf0, 0x3d,
  0x80, 0x2d, 0xd6, 0xbb, 0x1a, 0x5d, 0x11, 0x3e, 0x28, 0x65, 0x58, 0xba,
  0x20, 0x6f, 0xd1, 0x3c, 0x68, 0x5c, 0xfd, 0xbd, 0x48, 0xd0, 0xd4, 0xbd,
  0x75, 0x87, 0x06, 0x3e, 0x4c, 0x79, 0x67, 0x3e, 0xb0, 0x91, 0xc1, 0x3d,
  0x34, 0x48, 0x3c, 0x3e, 0x33, 0xf2, 0x2b, 0x3e, 0x32, 0xbf, 0x22, 0xbe,
  0x17, 0xa9, 0x74, 0x3d, 0x13, 0x09, 0x3d, 0xbd, 0x84, 0xe7, 0xef, 0xbd,
  0x85, 0x8e, 0xf2, 0xbd, 0xac, 0x40, 0x8f, 0x3e, 0xdd, 0x54, 0x39, 0xbe,
  0xd4, 0xdb, 0x44, 0x3d, 0x40, 0x4a, 0xa1, 0xbe, 0x8a, 0x2a, 0x54, 0xbe,
  0x0e, 0x83, 0xa8, 0xbe, 0xec, 0x6f, 0x13, 0x3e, 0x5c, 0x89, 0x76, 0x3e,
  0xed, 0x1d, 0xd4, 0x3d, 0x20, 0xd9, 0xa6, 0x3d, 0xb0, 0x34, 0xd0, 0x3d,
  0x50, 0x91, 0x59, 0x3d, 0x80, 0x0e, 0x86, 0x3e, 0x72, 0x03, 0x6c, 0x3d,
  0x52, 0xec, 0x92, 0xbe, 0x0a, 0xe9, 0x93, 0xbe, 0x92, 0x4c, 0x48, 0x3e,
  0xb0, 0x8c, 0x82, 0xbe, 0xec, 0x1b, 0x22, 0xbe, 0xa4, 0x8c, 0x2b, 0x3e,
  0x18, 0x5e, 0xd9, 0x3d, 0xf5, 0x18, 0x22, 0x3c, 0xa6, 0xb0, 0xff, 0x3d,
  0xd5, 0xa8, 0x8d, 0x3e, 0x5d, 0x84, 0xae, 0xbe, 0x28, 0x6f, 0x30, 0xbd,
  0x11, 0x32, 0x4b, 0x3e, 0x99, 0xcd, 0x16, 0x3e, 0x38, 0x07, 0x83, 0xbd,
  0x6f, 0xd6, 0x42, 0xbc, 0x14, 0x38, 0x59, 0xbe, 0x76, 0x75, 0xc2, 0xbe,
  0x0c, 0x1e, 0x31, 0x3e, 0xe0, 0x4b, 0x06, 0x3e, 0x20, 0x9f, 0xb2, 0x3e,
  0x50, 0xd8, 0x69, 0x3e, 0xb5, 0x53, 0x42, 0x3e, 0xb0, 0x6d, 0x88, 0xbd,
  0xc0, 0x86, 0xf4, 0x3c, 0xb0, 0xe9, 0x1b, 0xbe, 0x68, 0xc0, 0x5b, 0xbe,
  0x4b, 0x41, 0x94, 0xbc, 0x78, 0x57, 0x2f, 0xbe, 0xfc, 0x1d, 0x4f, 0x3e,
  0xc3, 0xb2, 0x64, 0xbd, 0xda, 0x5f, 0xc0, 0xbe, 0x60, 0x38, 0xe8, 0xbc,
  0xdf, 0x8c, 0xb3, 0xbe, 0x80, 0x27, 0x24, 0xbe, 0x24, 0x32, 0x33, 0x3e,
  0x14, 0x85, 0x3c, 0xbe, 0x50, 0xac, 0x69, 0xbe, 0x20, 0x27, 0xf3, 0x3c,
  0x80, 0x4c, 0xa1, 0x3b, 0x33, 0x14, 0x5a, 0xbe, 0xc5, 0x30, 0x5e, 0x3e,
  0xd4, 0x1f, 0x19, 0x3e, 0x60, 0xe0, 0x89, 0xbc, 0xf0, 0x3d, 0x03, 0x3e,
  0x9c, 0xcd, 0x18, 0x3e, 0xbf, 0xbc, 0x16, 0x3d, 0x2e, 0xf5, 0x29, 0x3e,
  0xcd, 0xc7, 0xa3, 0xbd, 0x84, 0x0e, 0xb4, 0xbd, 0xa0, 0x4a, 0x08, 0x3d,
  0xbe, 0xfb, 0xa2, 0x3e, 0xfd, 0x2e, 0x89, 0x3e, 0xf5, 0x08, 0xfb, 0x3d,
  0x67, 0x53, 0xb5, 0x3d, 0x23, 0x9a, 0xc9, 0xbe, 0x1c, 0x01, 0x0d, 0x3e,
  0x30, 0x95, 0xe1, 0x3d, 0xe0, 0xa1, 0x47, 0xbd, 0xa8, 0x3d, 0x47, 0x3e,
  0x00, 0xc7, 0xf9, 0xbc, 0x38, 0x8e, 0x33, 0x3e, 0x7f, 0x76, 0x26, 0xbd,
  0xac, 0x6c, 0xc3, 0x3d, 0x68, 0x5b, 0x8a, 0x3e, 0x61, 0x87, 0x54, 0x3e,
  0x67, 0x36, 0x47, 0xbe, 0x18, 0x48, 0xca, 0x3e, 0x80, 0xb4, 0xfa, 0xbb,
  0x7f, 0xb1, 0x3b, 0x3e, 0x68, 0x63, 0xe8, 0xbd, 0x10, 0x4e, 0x35, 0xbe,
  0x84, 0xeb, 0x85, 0x3e, 0xbe, 0x2c, 0xde, 0x3c, 0xb1, 0xf1, 0x32, 0x3e,
  0x73, 0xc9, 0xeb, 0x3c, 0x7a, 0xc3, 0x26, 0x3e, 0xb0, 0x39, 0x01, 0xbd,
  0xc4, 0x81, 0x35, 0xbe, 0x17, 0xec, 0x9c, 0xbc, 0x20, 0x27, 0x2c, 0x3d,
  0x00, 0x13, 0x76, 0xbe, 0x23, 0x6e, 0x06, 0xbe, 0xbc, 0xab, 0x4a, 0xbe,
  0x22, 0x73, 0x9f, 0x3e, 0x5c, 0xf8, 0x81, 0x3e, 0xa8, 0xb0, 0xdd, 0xbd,
  0x84, 0x57, 0x2a, 0xbe, 0xbc, 0xc3, 0x45, 0x3e, 0xeb, 0x70, 0x0e, 0xbe,
  0xf8, 0x97, 0x20, 0xbe, 0x00, 0x18, 0x0c, 0xbd, 0xbc, 0x20, 0x54, 0x3e,
  0xc0, 0x09, 0x5c, 0xbe, 0x40, 0x87, 0x4d, 0xbc, 0xc6, 0x47, 0x66, 0x3e,
  0x00, 0x19, 0x59, 0xbe, 0xe7, 0x76, 0x95, 0x3e, 0xb8, 0x4d, 0x88, 0xbd,
  0x4d, 0x7c, 0x54, 0x3d, 0x00, 0x22, 0x7c, 0x3b, 0x30, 0xd7, 0xdc, 0xbd,
  0x84, 0x37, 0x27, 0x3e, 0x80, 0x1e, 0xe9, 0x3d, 0x90, 0x37, 0xc8, 0x3d,
  0x20, 0xb6, 0xd8, 0x3d, 0x00, 0x0f, 0x7c, 0x3d, 0x28, 0x86, 0x3b, 0xbe,
  0xd8, 0xa6, 0xc1, 0x3d, 0x08, 0x82, 0x11, 0x3e, 0xbc, 0xbf, 0x22, 0x3e,
  0x40, 0x8a, 0x03, 0xbd, 0x40, 0xf0, 0xf0, 0xbc, 0xa0, 0x23, 0x5e, 0x3d,
  0x10, 0x45, 0x20, 0x3e, 0xe0, 0x53, 0x70, 0x3e, 0x80, 0x7a, 0x44, 0xbe,
  0x00, 0xf9, 0xd9, 0xbd, 0xc0, 0xc9, 0x7b, 0xbc, 0x80, 0x4b, 0xb7, 0x3c,
  0xac, 0xd9, 0x71, 0xbe, 0x30, 0x42, 0x88, 0x3d, 0xb8, 0x6b, 0x40, 0xbe,
  0x00, 0x58, 0x85, 0x3d, 0x7c, 0x46, 0x29, 0xbe, 0xa4, 0x62, 0x7c, 0xbe,
  0x38, 0xdd, 0xa4, 0xbd, 0x3c, 0x78, 0x6a, 0xbe, 0x68, 0xa0, 0x16, 0xbe,
  0x0c, 0xed, 0x7a, 0xbe, 0x9c, 0x7f, 0x5e, 0x3e, 0x60, 0x5f, 0x1a, 0xbd,
  0x80, 0x3d, 0x99, 0x3c, 0x78, 0x0f, 0x27, 0x3e, 0xd0, 0x2c, 0x5c, 0x3e,
  0x98, 0xc0, 0x46, 0xbe, 0x80, 0x5a, 0x13, 0x3e, 0x44, 0x08, 0x4f, 0xbe,
  0x04, 0x09, 0x48, 0xbe, 0xe0, 0x5a, 0xee, 0xbc, 0xa8, 0x26, 0xae, 0xbd,
  0x6c, 0x9d, 0x3b, 0x3e, 0xb0, 0x97, 0x32, 0x3d, 0xdc, 0x40, 0x21, 0xbe,
  0x70, 0xbe, 0x2d, 0xbd, 0xc8, 0x54, 0xcd, 0xbd, 0x14, 0xd1, 0x28, 0xbe,
  0x20, 0xd8, 0x4c, 0x3e, 0x70, 0x05, 0xdb, 0xbd, 0x68, 0xee, 0xeb, 0x3d,
  0x00, 0xd3, 0x19, 0xbb, 0xb0, 0x3c, 0xa3, 0xbd, 0x54, 0x71, 0x5e, 0x3e,
  0x60, 0x38, 0x7f, 0xbe, 0xf0, 0xe1, 0x0f, 0x3e, 0x24, 0x63, 0x5b, 0xbe,
  0x58, 0xbd, 0x7b, 0x3e, 0x14, 0xba, 0x37, 0x3e, 0x10, 0x52, 0x17, 0xbd,
  0x34, 0x1f, 0x63, 0x3e, 0xe0, 0x9d, 0x98, 0xbc, 0x68, 0x50, 0x89, 0x3d,
  0xa8, 0xee, 0x3f, 0x3e, 0x90, 0x28, 0x02, 0xbd, 0x91, 0xe1, 0xfe, 0xbd,
  0xc0, 0x6d, 0x5b, 0x3d, 0x78, 0x78, 0x9a, 0x3d, 0xd8, 0xb2, 0x4c, 0x3e,
  0x6f, 0x96, 0x50, 0x3d, 0x18, 0x2b, 0xb1, 0x3e, 0x14, 0xbc, 0x6f, 0x3e,
  0x68, 0x40, 0x2c, 0x3e, 0xe1, 0x8a, 0x70, 0x3e, 0xcb, 0x39, 0x96, 0x3c,
  0x8b, 0x60, 0x8a, 0xbc, 0x40, 0x4e, 0x72, 0x3e, 0xcf, 0x00, 0xa7, 0x3d,
  0x1d, 0xf5, 0x84, 0x3d, 0xa0, 0xc1, 0x94, 0x3d, 0x8c, 0x37, 0xbc, 0x3d,
  0x6e, 0x2c, 0x38, 0x3e, 0x68, 0x9a, 0xac, 0x3c, 0xd6, 0x86, 0x34, 0x3e,
  0x9f, 0xdf, 0x51, 0x3e, 0x82, 0xcb, 0x68, 0xbe, 0xb2, 0xb3, 0x90, 0x3e,
  0xec, 0x36, 0xff, 0xbd, 0x87, 0xa3, 0xc0, 0x3d, 0x50, 0xa6, 0x79, 0xbe,
  0x40, 0x12, 0x9c, 0x3c, 0xca, 0x83, 0xb1, 0x3e, 0xac, 0x0d, 0xb8, 0x3e,
  0xc6, 0x75, 0x91, 0x3d, 0x63, 0xef, 0xdf, 0x3d, 0x02, 0x7b, 0x9e, 0x3e,
  0x56, 0x1e, 0xae, 0x3e, 0x30, 0xb7, 0x4c, 0xbe, 0xb3, 0xe7, 0x15, 0x3d,
  0xb0, 0xfd, 0x30, 0x3d, 0x32, 0x78, 0x25, 0xbc, 0x82, 0xc4, 0x8b, 0x3e,
  0x51, 0xff, 0xd2, 0x3e, 0xff, 0x2a, 0x89, 0x3e, 0x46, 0x20, 0x77, 0x3e,
  0x20, 0xa1, 0x39, 0x3e, 0x6b, 0x37, 0x81, 0xbe, 0x68, 0xb0, 0xe4, 0xbd,
  0xcb, 0x0c, 0xf2, 0x3c, 0x88, 0x08, 0x82, 0x3d, 0xa7, 0x12, 0x83, 0xbd,
  0x75, 0x7a, 0x5c, 0x3e, 0xd0, 0x05, 0x71, 0x3d, 0xa0, 0x01, 0x67, 0x3e,
  0x88, 0x0a, 0xb2, 0x3e, 0xdc, 0x05, 0x87, 0xbd, 0xb8, 0xa7, 0x60, 0xbe,
  0x24, 0xa9, 0x00, 0x3e, 0x0c, 0x0c, 0x7a, 0x3d, 0x20, 0x91, 0xdb, 0x3d,
  0x03, 0x4e, 0x7a, 0x3e, 0x50, 0x97, 0x15, 0x3e, 0x5a, 0xcb, 0xd2, 0x3d,
  0x9e, 0x3a, 0x47, 0x3e, 0xd4, 0x63, 0x71, 0x3e, 0x10, 0x48, 0x06, 0x3d,
  0xaa, 0xf9, 0x34, 0x3e, 0xc0, 0xb7, 0x0f, 0x3e, 0x76, 0x05, 0x3c, 0xbd,
  0xc7, 0x54, 0x12, 0x3e, 0x94, 0x83, 0x0c, 0x3e, 0xc8, 0xf7, 0x45, 0xbe,
  0xa8, 0x55, 0x45, 0x3e, 0x3d, 0x84, 0xe7, 0xbd, 0xf0, 0xde, 0x68, 0x3e,
  0x18, 0xae, 0x41, 0x3e, 0xc0, 0x19, 0x93, 0x3d, 0x74, 0xd7, 0x51, 0xbe,
  0x80, 0x04, 0x0c, 0x3d, 0xe0, 0x53, 0x4c, 0xbe, 0xcb, 0x40, 0x72, 0x3e,
  0x04, 0x1c, 0x1a, 0xbe, 0x56, 0xe7, 0xac, 0xbd, 0xd0, 0x38, 0x1d, 0xbd,
  0x78, 0x01, 0xd9, 0xbd, 0xd9, 0x29, 0x8a, 0xbd, 0x84, 0xa9, 0x59, 0xbe,
  0x04, 0xdb, 0x11, 0x3e, 0xf9, 0xb9, 0x36, 0x3d, 0x30, 0x58, 0x96, 0xbd,
  0x15, 0xf6, 0x7d, 0xbc, 0xa0, 0xb0, 0xf0, 0xbc, 0x08, 0xb6, 0x1a, 0x3e,
  0x10, 0xa0, 0x40, 0x3d, 0x00, 0xb4, 0xe9, 0xba, 0xf3, 0xba, 0x72, 0xbd,
  0x93, 0xd9, 0x35, 0xbd, 0x96, 0xcf, 0x12, 0x3e, 0x5b, 0x05, 0x32, 0xbe,
  0x68, 0xcd, 0x36, 0xbe, 0x4d, 0x2a, 0x5a, 0xbe, 0x00, 0x36, 0xf8, 0x3b,
  0x4e, 0xa7, 0xe8, 0x3d, 0xa0, 0x22, 0xac, 0x3c, 0xf8, 0x9e, 0xa3, 0xbd,
  0xd2, 0x75, 0xb3, 0xbd, 0x00, 0x0c, 0xb0, 0x3a, 0x73, 0x9e, 0x71, 0xbd,
  0xbb, 0x89, 0x0a, 0xbe, 0x43, 0x4d, 0x2f, 0xbe, 0x00, 0xae, 0xd7, 0xbd,
  0xa8, 0x57, 0x06, 0xbe, 0xd3, 0x32, 0x05, 0xbe, 0x24, 0x44, 0x1c, 0x3e,
  0x50, 0x2e, 0x86, 0x3a, 0x7d, 0x51, 0x9d, 0xbd, 0xc0, 0xdd, 0x63, 0xbc,
  0x33, 0x43, 0x73, 0x3d, 0xdd, 0x3c, 0x6a, 0x3d, 0x01, 0x81, 0x9f, 0x3d,
  0xd8, 0xa9, 0x89, 0x3d, 0x98, 0xb9, 0x33, 0x3e, 0x0e, 0x88, 0xb7, 0x3b,
  0xb0, 0xdc, 0x6e, 0xbd, 0xe0, 0x22, 0x01, 0xbe, 0xcc, 0xdf, 0x1c, 0xbe,
  0x88, 0xd4, 0x77, 0x3e, 0x70, 0xc7, 0x3e, 0xbd, 0xf5, 0x80, 0x6e, 0x3d,
  0x84, 0x7d, 0x24, 0x3e, 0x04, 0xb9, 0x0a, 0xbe, 0xb8, 0x60, 0x57, 0xbe,
  0xba, 0xc8, 0x80, 0xbe, 0x55, 0xfd, 0x06, 0x3e, 0x80, 0xc9, 0x68, 0x3e,
  0x24, 0xfb, 0x61, 0xbe, 0x2f, 0x73, 0x36, 0xbe, 0x13, 0x51, 0x56, 0xbe,
  0x04, 0x71, 0x5e, 0xbd, 0x80, 0xc0, 0x93, 0xbb, 0x20, 0x90, 0xe1, 0x3d,
  0xb7, 0x7f, 0xde, 0xbd, 0x97, 0xbb, 0x66, 0x3e, 0x3e, 0xeb, 0xad, 0xbc,
  0x4c, 0x4b, 0x20, 0xbe, 0xa9, 0xf9, 0xb3, 0x3d, 0xba, 0x5d, 0x81, 0x3e,
  0x48, 0x38, 0x97, 0x3d, 0x44, 0x28, 0x94, 0xbd, 0x54, 0xed, 0xf5, 0x3d,
  0x27, 0x32, 0xda, 0x3e, 0x43, 0x0d, 0x96, 0x3e, 0x24, 0xb8, 0xa3, 0x3e,
  0x08, 0x7f, 0x17, 0x3e, 0x51, 0x7f, 0x6d, 0x3e, 0xd5, 0x0f, 0xc3, 0xbd,
  0xe0, 0x0c, 0xf1, 0x3d, 0xc0, 0xf8, 0x55, 0x3d, 0xb8, 0x1d, 0x77, 0x3e,
  0xad, 0x26, 0x4d, 0xbe, 0x07, 0x83, 0x56, 0x3e, 0x6b, 0x70, 0xa0, 0x3e,
  0xc4, 0xf4, 0xdd, 0x3c, 0x71, 0x63, 0x52, 0xbd, 0x55, 0x95, 0x5d, 0x3d,
  0x60, 0xe4, 0x49, 0xbd, 0x87, 0xa6, 0xea, 0xbe, 0xd0, 0xd4, 0x79, 0x3d,
  0xfe, 0xad, 0x77, 0x3d, 0x5e, 0x4f, 0x64, 0x3e, 0xf9, 0x5e, 0x39, 0xbe,
  0xf7, 0xb6, 0x37, 0x3e, 0x5c, 0x10, 0x8f, 0x3e, 0x8e, 0x14, 0x8b, 0xbe,
  0x8d, 0x09, 0x54, 0x3e, 0x00, 0x08, 0x17, 0x3d, 0x0e, 0xb1, 0x93, 0xbe,
  0xb0, 0x9c, 0x5b, 0xbe, 0x94, 0xde, 0x1f, 0x3e, 0x2a, 0x59, 0x8b, 0x3d,
  0xb8, 0xbd, 0xd2, 0xbd, 0xc7, 0xc8, 0x6a, 0x3e, 0x88, 0xb9, 0x5a, 0x3e,
  0xa3, 0x9a, 0x8c, 0xbe, 0xf8, 0x85, 0x7d, 0x3e, 0x40, 0xe4, 0x42, 0xbc,
  0x8d, 0x45, 0x2d, 0xbe, 0x18, 0x0f, 0x01, 0xbe, 0xa9, 0x5b, 0xe4, 0xbd,
  0xb0, 0xa0, 0x6f, 0xbe, 0x67, 0xa3, 0x07, 0xbe, 0x17, 0xa4, 0xd8, 0x3d,
  0x1f, 0x39, 0x24, 0x3e, 0xc4, 0x3b, 0x1e, 0x3e, 0x5b, 0x7c, 0xb2, 0xbd,
  0x10, 0x74, 0x75, 0xbd, 0xb3, 0x87, 0x47, 0xbe, 0xe1, 0x93, 0x98, 0x3c,
  0x00, 0xa4, 0xd5, 0xba, 0xf0, 0x1e, 0x99, 0xbd, 0x8e, 0xf7, 0xf1, 0xbd,
  0xe3, 0x15, 0x48, 0x3e, 0x9d, 0x9e, 0xda, 0x3e, 0x30, 0x2f, 0x1c, 0xbd,
  0x18, 0x6c, 0xc0, 0xbd, 0xe3, 0x81, 0x87, 0x3e, 0xc0, 0x1b, 0x4b, 0x3e,
  0x4b, 0x74, 0xfd, 0xbd, 0x19, 0xd8, 0xf2, 0x3d, 0x06, 0x4b, 0xf1, 0xbd,
  0xa6, 0x89, 0x33, 0xbe, 0x99, 0x86, 0xa3, 0xbd, 0xcd, 0x83, 0x0f, 0x3e,
  0xd6, 0xeb, 0x2f, 0xbd, 0x35, 0xaf, 0x33, 0xbe, 0xae, 0xbd, 0x4e, 0x3e,
  0xd4, 0x6e, 0x9a, 0xbe, 0xdf, 0xdd, 0x71, 0xbe, 0x9d, 0x61, 0x8c, 0x3e,
  0x2a, 0xbf, 0x42, 0xbd, 0x77, 0x21, 0xb1, 0x3d, 0x28, 0x39, 0xe1, 0xbd,
  0xc0, 0x06, 0x14, 0xbc, 0xc5, 0x2b, 0x75, 0x3d, 0x30, 0x84, 0x4e, 0xbe,
  0x7a, 0x85, 0x0c, 0xbc, 0x4e, 0x00, 0x9a, 0xbd, 0xec, 0xc0, 0xe7, 0x3e,
  0x17, 0x64, 0xb2, 0x3d, 0x60, 0xe3, 0xea, 0x3d, 0xd4, 0x97, 0xed, 0x3d,
  0xd0, 0x36, 0x6b, 0xbd, 0x8c, 0xd2, 0x3c, 0x3e, 0xfa, 0xb7, 0x39, 0x3e,
  0x89, 0x98, 0x85, 0x3d, 0x82, 0xc0, 0x65, 0xbe, 0x5f, 0xa9, 0x6b, 0x3e,
  0x55, 0x92, 0x1a, 0x3e, 0x31, 0x6c, 0x9b, 0x3d, 0xb8, 0xdb, 0x9b, 0x3d,
  0x09, 0xa7, 0x1c, 0xbe, 0x14, 0xac, 0x1f, 0x3e, 0x60, 0xb7, 0x35, 0xbe,
  0xbf, 0xfc, 0x88, 0xbe, 0x88, 0x23, 0xcb, 0xbd, 0x37, 0xe9, 0x50, 0x3e,
  0xf0, 0xab, 0x25, 0x3e, 0x34, 0x09, 0x06, 0x3e, 0xc0, 0x6a, 0x73, 0x3d,
  0xb0, 0x50, 0xb2, 0x3d, 0xb5, 0xfb, 0x05, 0x3e, 0x48, 0x1c, 0x20, 0x3e,
  0x6f, 0x72, 0x28, 0xbe, 0x40, 0x60, 0xc7, 0x3d, 0xeb, 0x95, 0x77, 0xbe,
  0x92, 0xca, 0x53, 0xbe, 0x4e, 0xf2, 0x9d, 0x3e, 0x24, 0xbb, 0x3f, 0xbe,
  0xa7, 0x74, 0xcc, 0x3e, 0x9c, 0xe6, 0x12, 0xbe, 0xa2, 0x07, 0x8a, 0x3e,
  0xf5, 0xdb, 0x0b, 0x3e, 0xe0, 0xd2, 0x11, 0x3d, 0xa8, 0xa5, 0x97, 0x3d,
  0x60, 0xdc, 0x2d, 0xbd, 0xf6, 0x05, 0x32, 0x3e, 0xc0, 0x42, 0xdf, 0xbc,
  0x10, 0xcf, 0x9a, 0xbd, 0x88, 0x9f, 0x30, 0x3e, 0x60, 0xbd, 0xfa, 0x3d,
  0xa8, 0x2e, 0x65, 0x3e, 0xfe, 0x6c, 0x0e, 0xbe, 0x33, 0x00, 0x76, 0xbe,
  0xec, 0x4a, 0x57, 0xbe, 0xe7, 0x8a, 0xb6, 0xbd, 0x8c, 0xc5, 0x04, 0xbe,
  0xf4, 0xd9, 0x07, 0xbd, 0x77, 0x79, 0xed, 0x3a, 0xc0, 0x2f, 0x65, 0xbe,
  0xc2, 0x35, 0x0d, 0xbe, 0xb7, 0x12, 0x5d, 0x3e, 0x44, 0x25, 0x7a, 0x3e,
  0x03, 0xf6, 0x76, 0x3d, 0x5d, 0x93, 0x68, 0x3e, 0x44, 0x14, 0x13, 0x3e,
  0x70, 0x6b, 0x8a, 0x3d, 0xd0, 0x10, 0xd1, 0xbd, 0x9c, 0xd0, 0xcf, 0xbd,
  0xea, 0x71, 0xc9, 0x3d, 0xe1, 0x24, 0x11, 0x3d, 0x26, 0x74, 0x6f, 0xbd,
  0x60, 0x48, 0x53, 0xbe, 0xbc, 0xb2, 0x5b, 0x3e, 0xe0, 0xce, 0xf7, 0xbc,
  0x48, 0xa5, 0x63, 0x3e, 0xc8, 0x75, 0x11, 0x3e, 0xfc, 0x57, 0x6e, 0xbe,
  0x53, 0x9c, 0x83, 0xbe, 0x90, 0xb6, 0x5f, 0x3d, 0x3a, 0xef, 0x08, 0xbe,
  0xe1, 0xb5, 0x83, 0x3d, 0x79, 0xb6, 0x1b, 0xbe, 0x58, 0x9c, 0xd1, 0xbd,
  0x00, 0x69, 0xb6, 0x3b, 0x68, 0xb8, 0x64, 0x3d, 0x98, 0xa8, 0xec, 0x3d,
  0xf8, 0x7e, 0xe6, 0x3d, 0xe7, 0xdb, 0x49, 0xbe, 0x00, 0x85, 0xf6, 0xbd,
  0x60, 0xdc, 0xf7, 0x3d, 0x39, 0xe2, 0x76, 0x3e, 0x33, 0xc4, 0xcc, 0xbd,
  0xec, 0xa7, 0x7b, 0xbe, 0xbc, 0x5d, 0x3f, 0xbe, 0x8a, 0x6c, 0x48, 0xbe,
  0xec, 0x8a, 0x52, 0x3e, 0x20, 0xd8, 0x71, 0xbe, 0x18, 0x52, 0x02, 0xbe,
  0xa8, 0x87, 0xfd, 0x3d, 0x78, 0xeb, 0x8b, 0x3d, 0x60, 0x10, 0x6c, 0x3e,
  0xe4, 0x41, 0x48, 0x3e, 0xd0, 0x5f, 0x51, 0x3d, 0xfc, 0x8b, 0x63, 0xbe,
  0x3e, 0xfc, 0xfa, 0x3d, 0xd1, 0xfe, 0x2b, 0xbe, 0x20, 0x81, 0x9a, 0xbd,
  0x98, 0xfc, 0x6c, 0x3e, 0x70, 0x4b, 0x6b, 0x3e, 0x9f, 0x63, 0xe4, 0xbd,
  0x51, 0xa3, 0x95, 0xbe, 0x60, 0xb3, 0x2e, 0xbd, 0x48, 0x22, 0xa9, 0x3d,
  0x9a, 0x2d, 0x4c, 0x3e, 0xc0, 0x34, 0x0c, 0xbe, 0x71, 0xee, 0xb5, 0x3c,
  0x6e, 0x4c, 0xe9, 0x3d, 0x39, 0x01, 0x7c, 0xbe, 0xe6, 0x36, 0xc7, 0xbd,
  0x1d, 0xe5, 0xc1, 0xbd, 0x1a, 0x14, 0xda, 0xbb, 0xb1, 0xcc, 0x44, 0x3e,
  0xee, 0xac, 0x47, 0xbe, 0xb4, 0x0b, 0x1c, 0xbd, 0xbd, 0x37, 0x22, 0xbe,
  0xc0, 0xf8, 0x90, 0xbd, 0xd8, 0x73, 0x8e, 0xbc, 0x90, 0x6f, 0x53, 0x3e,
  0xeb, 0x58, 0x75, 0x3e, 0x50, 0x6e, 0x74, 0xbe, 0x90, 0x53, 0x73, 0x3e,
  0xd7, 0x48, 0x03, 0x3d, 0x2d, 0xcc, 0xb8, 0x3d, 0x7e, 0x8d, 0x07, 0x3e,
  0x8d, 0x57, 0x16, 0xbe, 0x77, 0xdb, 0x0c, 0xbe, 0x26, 0xb3, 0x01, 0x3e,
  0x88, 0x10, 0x21, 0xbe, 0x45, 0xab, 0x6c, 0x3e, 0xec, 0x54, 0x6e, 0x3e,
  0x94, 0xdb, 0x22, 0xbe, 0x4e, 0xca, 0xa9, 0x3d, 0x31, 0x5d, 0xad, 0x3b,
  0x38, 0xbc, 0x9c, 0xbd, 0x64, 0x90, 0xfe, 0x3d, 0x3a, 0xe8, 0xe1, 0xbc,
  0xdc, 0x78, 0x5d, 0x3e, 0xc8, 0xe2, 0x4f, 0xbe, 0xb9, 0x0e, 0x06, 0x3e,
  0x14, 0x9f, 0x1e, 0x3e, 0x87, 0xb1, 0x27, 0xbe, 0xab, 0x8a, 0xfe, 0xbc,
  0x88, 0x56, 0x9f, 0xbd, 0x5e, 0x9f, 0x49, 0xbe, 0x12, 0xc8, 0x08, 0xbe,
  0x0e, 0xd0, 0x43, 0x3e, 0x68, 0xdf, 0x42, 0x3e, 0x30, 0x66, 0x2d, 0x3d,
  0xd8, 0x21, 0x2c, 0x3e, 0x78, 0x43, 0x9f, 0x3d, 0xf5, 0xf9, 0xa1, 0x3d,
  0x60, 0x7d, 0xca, 0x3c, 0x0f, 0xde, 0x7f, 0xbe, 0xed, 0xd7, 0x57, 0x3d,
  0x9d, 0x88, 0xed, 0xbd, 0xb0, 0xbb, 0x58, 0x3d, 0x83, 0x51, 0x17, 0x3e,
  0x90, 0xa1, 0xb7, 0x3d, 0x5a, 0x00, 0x55, 0xbe, 0x0e, 0x5b, 0xf7, 0xbd,
  0x00, 0xe0, 0x94, 0x3d, 0x08, 0x6a, 0x6b, 0xbe, 0xf4, 0x31, 0x42, 0xbe,
  0xd3, 0x3b, 0xbd, 0x3d, 0x90, 0xf6, 0x20, 0xbe, 0xc0, 0xd8, 0x90, 0x3d,
  0x78, 0xa6, 0xfa, 0xbd, 0x7e, 0x74, 0xb3, 0x3d, 0x60, 0x5d, 0x11, 0xbe,
  0x77, 0xc8, 0x01, 0xbe, 0xd1, 0x69, 0x00, 0xbd, 0xed, 0x5a, 0x83, 0xbe,
