unsigned char model_range[] = {
  0x20, 0x00, 0x00, 0x00, 0x54, 0x46, 0x4c, 0x33, 0x00, 0x00, 0x00, 0x00,
  0x14, 0x00, 0x20, 0x00, 0x1c, 0x00, 0x18, 0x00, 0x14, 0x00, 0x10, 0x00,
  0x0c, 0x00, 0x00, 0x00, 0x08, 0x00, 0x04, 0x00, 0x14, 0x00, 0x00, 0x00,
  0x1c, 0x00, 0x00, 0x00, 0x98, 0x00, 0x00, 0x00, 0xf0, 0x00, 0x00, 0x00,
  0x08, 0x1e, 0x00, 0x00, 0x18, 0x1e, 0x00, 0x00, 0x00, 0x2a, 0x00, 0x00,
  0x03, 0x00, 0x00, 0x00, 0x01, 0x00, 0x00, 0x00, 0x10, 0x00, 0x00, 0x00,
  0x00, 0x00, 0x0a, 0x00, 0x10, 0x00, 0x0c, 0x00, 0x08, 0x00, 0x04, 0x00,
  0x0a, 0x00, 0x00, 0x00, 0x0c, 0x00, 0x00, 0x00, 0x1c, 0x00, 0x00, 0x00,
  0x3c, 0x00, 0x00, 0x00, 0x0f, 0x00, 0x00, 0x00, 0x73, 0x65, 0x72, 0x76,
  0x69, 0x6e, 0x67, 0x5f, 0x64, 0x65, 0x66, 0x61, 0x75, 0x6c, 0x74, 0x00,
  0x01, 0x00, 0x00, 0x00, 0x04, 0x00, 0x00, 0x00, 0x90, 0xff, 0xff, 0xff,
  0x0d, 0x00, 0x00, 0x00, 0x04, 0x00, 0x00, 0x00, 0x08, 0x00, 0x00, 0x00,
  0x6f, 0x75, 0x74, 0x70, 0x75, 0x74, 0x5f, 0x30, 0x00, 0x00, 0x00, 0x00,
  0x01, 0x00, 0x00, 0x00, 0x04, 0x00, 0x00, 0x00, 0xda, 0xe1, 0xff, 0xff,
  0x04, 0x00, 0x00, 0x00, 0x0f, 0x00, 0x00, 0x00, 0x6b, 0x65, 0x72, 0x61,
  0x73, 0x5f, 0x74, 0x65, 0x6e, 0x73, 0x6f, 0x72, 0x5f, 0x31, 0x35, 0x00,
  0x02, 0x00, 0x00, 0x00, 0x34, 0x00, 0x00, 0x00, 0x04, 0x00, 0x00, 0x00,
  0xdc, 0xff, 0xff, 0xff, 0x10, 0x00, 0x00, 0x00, 0x04, 0x00, 0x00, 0x00,
  0x13, 0x00, 0x00, 0x00, 0x43, 0x4f, 0x4e, 0x56, 0x45, 0x52, 0x53, 0x49,
  0x4f, 0x4e, 0x5f, 0x4d, 0x45, 0x54, 0x41, 0x44, 0x41, 0x54, 0x41, 0x00,
  0x08, 0x00, 0x0c, 0x00, 0x08, 0x00, 0x04, 0x00, 0x08, 0x00, 0x00, 0x00,
  0x0f, 0x00, 0x00, 0x00, 0x04, 0x00, 0x00, 0x00, 0x13, 0x00, 0x00, 0x00,
  0x6d, 0x69, 0x6e, 0x5f, 0x72, 0x75, 0x6e, 0x74, 0x69, 0x6d, 0x65, 0x5f,
  0x76, 0x65, 0x72, 0x73, 0x69, 0x6f, 0x6e, 0x00, 0x11, 0x00, 0x00, 0x00,
  0x14, 0x1d, 0x00, 0x00, 0x0c, 0x1d, 0x00, 0x00, 0xfc, 0x1b, 0x00, 0x00,
  0x6c, 0x1b, 0x00, 0x00, 0x1c, 0x1b, 0x00, 0x00, 0xfc, 0x1a, 0x00, 0x00,
  0xec, 0x19, 0x00, 0x00, 0xdc, 0x11, 0x00, 0x00, 0xcc, 0x09, 0x00, 0x00,
  0xbc, 0x00, 0x00, 0x00, 0xb4, 0x00, 0x00, 0x00, 0xac, 0x00, 0x00, 0x00,
  0xa4, 0x00, 0x00, 0x00, 0x9c, 0x00, 0x00, 0x00, 0x94, 0x00, 0x00, 0x00,
  0x74, 0x00, 0x00, 0x00, 0x04, 0x00, 0x00, 0x00, 0x9a, 0xe2, 0xff, 0xff,
  0x04, 0x00, 0x00, 0x00, 0x60, 0x00, 0x00, 0x00, 0x0c, 0x00, 0x00, 0x00,
  0x08, 0x00, 0x0e, 0x00, 0x08, 0x00, 0x04, 0x00, 0x08, 0x00, 0x00, 0x00,
  0x10, 0x00, 0x00, 0x00, 0x28, 0x00, 0x00, 0x00, 0x00, 0x00, 0x06, 0x00,
  0x08, 0x00, 0x04, 0x00, 0x06, 0x00, 0x00, 0x00, 0x04, 0x00, 0x00, 0x00,
  0x01, 0x00, 0x00, 0x00, 0xea, 0x03, 0x00, 0x00, 0x0c, 0x00, 0x18, 0x00,
  0x14, 0x00, 0x10, 0x00, 0x0c, 0x00, 0x04, 0x00, 0x0c, 0x00, 0x00, 0x00,
  0x7d, 0x12, 0x2e, 0xfe, 0xb4, 0x13, 0x43, 0x88, 0x02, 0x00, 0x00, 0x00,
  0x02, 0x00, 0x00, 0x00, 0x04, 0x00, 0x00, 0x00, 0x06, 0x00, 0x00, 0x00,
  0x32, 0x2e, 0x31, 0x39, 0x2e, 0x30, 0x00, 0x00, 0x06, 0xe3, 0xff, 0xff,
  0x04, 0x00, 0x00, 0x00, 0x10, 0x00, 0x00, 0x00, 0x32, 0x2e, 0x31, 0x37,
  0x2e, 0x30, 0x00, 0x00, 0x00, 0x00, 0x00, 0x00, 0x00, 0x00, 0x00, 0x00,
  0xf0, 0xd7, 0xff, 0xff, 0xf4, 0xd7, 0xff, 0xff, 0xf8, 0xd7, 0xff, 0xff,
  0xfc, 0xd7, 0xff, 0xff, 0x00, 0xd8, 0xff, 0xff, 0x36, 0xe3, 0xff, 0xff,
  0x04, 0x00, 0x00, 0x00, 0x00, 0x09, 0x00, 0x00, 0x49, 0x31, 0x33, 0xd9,
  0xcd, 0x31, 0xcd, 0x00, 0x82, 0xfc, 0x1c, 0x3d, 0x51, 0xe9, 0xaf, 0xfc,
  0x30, 0x01, 0xa4, 0xe2, 0xf0, 0x8f, 0x0a, 0xd8, 0x18, 0xa7, 0x53, 0x9d,
  0xa3, 0x81, 0x22, 0xff, 0xca, 0x62, 0x4a, 0x46, 0x37, 0x26, 0x14, 0x38,
  0xcb, 0xfe, 0xea, 0x0b, 0x0c, 0x46, 0xf6, 0xf6, 0x3a, 0xf8, 0x5e, 0x68,
  0x06, 0xb2, 0x4d, 0xd3, 0xf5, 0x26, 0x47, 0xb2, 0x09, 0x7f, 0x21, 0xd7,
  0x71, 0x0e, 0x0d, 0x5d, 0x1d, 0x0c, 0x65, 0x53, 0xdc, 0x0f, 0x16, 0xc7,
  0x55, 0xf4, 0x1d, 0xa3, 0xc0, 0xcd, 0xa7, 0x0d, 0x4a, 0xc6, 0x16, 0x3f,
  0x23, 0x2f, 0xe7, 0x81, 0xf1, 0x53, 0xfc, 0xf4, 0x3c, 0x0e, 0xe5, 0x5c,
  0xd1, 0xd7, 0xdd, 0x63, 0x3b, 0xf1, 0x14, 0x3d, 0xd0, 0x23, 0x24, 0xd9,
  0xf5, 0x28, 0xc2, 0xf0, 0x01, 0x13, 0xdd, 0x49, 0xfc, 0xbd, 0x5d, 0x2c,
  0xbe, 0x26, 0x29, 0xf9, 0xd4, 0x7f, 0x36, 0x37, 0x72, 0x38, 0xee, 0x34,
  0x29, 0x0b, 0xfd, 0xf7, 0x38, 0xca, 0xbe, 0x00, 0xe2, 0x81, 0xfb, 0xca,
  0x97, 0xdf, 0x48, 0x75, 0x34, 0x4a, 0xea, 0x69, 0xcc, 0x13, 0xf8, 0xff,
  0xd1, 0xfc, 0x4b, 0x64, 0x32, 0x0c, 0x77, 0x1a, 0x1a, 0x05, 0x55, 0xe7,
  0xef, 0x51, 0xe8, 0xc5, 0xdb, 0x14, 0xb1, 0x37, 0xd7, 0xc9, 0xfa, 0x47,
  0xe6, 0x21, 0x67, 0x9b, 0x58, 0xa4, 0x8e, 0x4e, 0x2a, 0x56, 0x0b, 0xc3,
  0xd5, 0x7f, 0xde, 0xa4, 0xb8, 0xc1, 0x86, 0xa5, 0x0a, 0x38, 0x95, 0x58,
  0x39, 0x8a, 0xfa, 0xd1, 0x23, 0x6a, 0x94, 0x5c, 0x8c, 0x10, 0x65, 0xe1,
  0xa4, 0xf4, 0xa4, 0x2f, 0x14, 0xac, 0xd5, 0xfb, 0x73, 0x70, 0xf9, 0x93,
  0x93, 0x44, 0xe9, 0xd0, 0xa8, 0x98, 0x1f, 0x10, 0x58, 0xbf, 0x57, 0x7f,
  0xe9, 0xc5, 0x6f, 0x9d, 0x43, 0x97, 0x19, 0x42, 0x12, 0x90, 0xf1, 0x1d,
  0x21, 0xd5, 0x1c, 0x57, 0x36, 0x63, 0x20, 0xae, 0x1e, 0x23, 0x71, 0xbc,
  0xab, 0x94, 0xde, 0x81, 0xde, 0x09, 0xae, 0x11, 0x33, 0x91, 0xed, 0xff,
  0x0d, 0x84, 0xf3, 0x91, 0x81, 0x04, 0x85, 0x9d, 0xc7, 0xfa, 0x63, 0x26,
  0x55, 0x3a, 0x21, 0x91, 0x81, 0x4e, 0xf0, 0x87, 0x14, 0x45, 0x43, 0xe3,
  0x58, 0x47, 0x1d, 0xc5, 0xe2, 0xc9, 0xfe, 0x27, 0x18, 0x20, 0xef, 0x60,
  0x9c, 0xd6, 0x0c, 0x28, 0x04, 0x5b, 0xf7, 0x31, 0x76, 0x7f, 0xc6, 0x11,
  0xd2, 0x2e, 0x8b, 0x83, 0x0f, 0xc0, 0xfd, 0x95, 0x5a, 0xf8, 0x04, 0xea,
  0xe0, 0xa0, 0x3a, 0xd8, 0x37, 0x01, 0xcc, 0x84, 0x9c, 0x08, 0x36, 0xaa,
  0xbb, 0x9a, 0xe8, 0x25, 0xc7, 0x7a, 0x14, 0xc3, 0x11, 0x81, 0x81, 0xeb,
  0xe3, 0xd3, 0xe6, 0x6e, 0x13, 0x0d, 0x67, 0x3a, 0x03, 0x41, 0xd1, 0x50,
  0xa2, 0x00, 0x06, 0x40, 0x06, 0x4a, 0x51, 0x0b, 0xee, 0x14, 0x1b, 0x20,
  0x6e, 0x3f, 0x36, 0xe0, 0x23, 0xeb, 0xcb, 0x0c, 0xa7, 0x6e, 0x9c, 0x0c,
  0x66, 0xbc, 0xa9, 0xbc, 0x6d, 0xfd, 0x7f, 0x25, 0x04, 0x0e, 0xe8, 0xaf,
  0x57, 0x64, 0xef, 0x29, 0x0f, 0xd7, 0xfd, 0x70, 0x8c, 0x35, 0x39, 0xf3,
  0xd5, 0x99, 0x56, 0xba, 0x1e, 0xa1, 0x09, 0x1f, 0x27, 0x15, 0x81, 0xbb,
  0xd0, 0x2d, 0x33, 0x13, 0x94, 0xd3, 0xbc, 0xb5, 0xb1, 0x71, 0x1a, 0xc9,
  0x33, 0x56, 0x4f, 0x2e, 0xa9, 0xf1, 0x85, 0xac, 0xb7, 0xb6, 0xb9, 0x5d,
  0x1a, 0x84, 0x58, 0x1f, 0xf4, 0x31, 0x16, 0x51, 0xe1, 0x99, 0x98, 0x1d,
  0xf8, 0x71, 0x09, 0x1b, 0x18, 0xe9, 0x28, 0xb6, 0x09, 0xcc, 0x5c, 0x81,
  0x54, 0x41, 0xf7, 0x2b, 0x16, 0x49, 0x91, 0x56, 0xff, 0x3b, 0x81, 0xe3,
  0x32, 0xb9, 0x0f, 0x16, 0xea, 0x46, 0xf6, 0x0c, 0x21, 0xf9, 0x41, 0x2f,
  0x7f, 0x0f, 0x4c, 0xc4, 0xaa, 0x51, 0x16, 0xf5, 0x2d, 0xbf, 0xd6, 0xdc,
  0x7a, 0x2c, 0x4e, 0x9a, 0xc9, 0xc1, 0xbf, 0x0d, 0x50, 0xcf, 0x9a, 0x39,
  0x0f, 0xf3, 0x4d, 0xe8, 0x5d, 0x9a, 0xfb, 0x59, 0x8b, 0x97, 0x5a, 0x19,
  0x3a, 0x10, 0x12, 0xbd, 0xc1, 0xb4, 0xf5, 0xa8, 0x43, 0x3a, 0x0b, 0xce,
  0xe4, 0x9a, 0xad, 0x0e, 0x2d, 0xdb, 0x04, 0xd3, 0x5d, 0xc5, 0x7f, 0xef,
  0x98, 0xe4, 0x8f, 0x01, 0xb1, 0xf0, 0x9a, 0x9a, 0xf1, 0x16, 0x93, 0xee,
  0xd8, 0x90, 0x5d, 0xdc, 0x5c, 0xf3, 0x0c, 0xfc, 0x1a, 0x7f, 0xe0, 0x51,
  0x91, 0x0e, 0x05, 0x05, 0x24, 0xc8, 0x66, 0x59, 0xc2, 0xcf, 0x4e, 0xbd,
  0xf3, 0x50, 0x5d, 0xcb, 0x0c, 0xd2, 0x44, 0xab, 0xcd, 0x7f, 0x74, 0x3d,
  0x19, 0xfc, 0x15, 0xe0, 0xff, 0xe8, 0xa8, 0xa2, 0x00, 0xfd, 0x59, 0x42,
  0xf6, 0x89, 0xbc, 0xb3, 0xc2, 0x65, 0x21, 0x25, 0xce, 0xf3, 0x07, 0x6e,
  0xdb, 0x9e, 0x1d, 0x6a, 0x1d, 0xe2, 0x41, 0x2b, 0x00, 0xef, 0x41, 0xb0,
  0x39, 0x92, 0x96, 0xdd, 0x25, 0x53, 0xcf, 0x41, 0xb4, 0xa6, 0xdf, 0x38,
  0xd3, 0x16, 0xb3, 0x2c, 0x5f, 0x49, 0x56, 0xd1, 0xd6, 0x3f, 0x91, 0x38,
  0x99, 0x81, 0x62, 0x8e, 0xa4, 0xae, 0xfd, 0x9b, 0x0c, 0x0b, 0x7f, 0x1c,
  0x34, 0x45, 0xc8, 0xbf, 0xbe, 0xf6, 0xe7, 0x14, 0xdb, 0x1f, 0xd3, 0x44,
  0x68, 0x3b, 0xf0, 0xbb, 0x95, 0x25, 0xf2, 0xdf, 0x04, 0xe8, 0xdb, 0x58,
  0xb9, 0xf0, 0x08, 0x0f, 0x17, 0x7f, 0x61, 0x41, 0xde, 0xc1, 0xf8, 0xc5,
  0x85, 0xb9, 0x42, 0x7d, 0x14, 0x28, 0x37, 0x40, 0x1b, 0x3e, 0x3a, 0x11,
  0x81, 0xa6, 0x20, 0x01, 0x3f, 0x17, 0x54, 0xc8, 0x20, 0x31, 0x08, 0x15,
  0x6d, 0x5b, 0x19, 0xc2, 0x07, 0x96, 0xb6, 0x38, 0xb2, 0xc6, 0xbe, 0xbe,
  0x44, 0xab, 0x03, 0x65, 0x42, 0x91, 0x7e, 0x00, 0xa4, 0xea, 0xec, 0x14,
  0xce, 0x62, 0x20, 0x06, 0x02, 0x54, 0xb2, 0x81, 0x11, 0xa0, 0xf2, 0x78,
  0xa9, 0xf9, 0xce, 0x9a, 0x39, 0x93, 0xb6, 0xf1, 0xec, 0x42, 0x2c, 0x76,
  0x76, 0x9e, 0x5f, 0x84, 0xf2, 0xa0, 0x5d, 0x9e, 0x9c, 0x85, 0x48, 0xe6,
  0x82, 0xc0, 0xfd, 0xc7, 0x34, 0xc1, 0xa6, 0x98, 0xb7, 0x0a, 0x02, 0xa4,
  0x62, 0xe7, 0x07, 0x14, 0x38, 0x97, 0x81, 0xa0, 0x2d, 0x7f, 0x63, 0x35,
  0x15, 0x2d, 0x08, 0xd9, 0x05, 0x21, 0xf0, 0x9e, 0xf8, 0x1a, 0xeb, 0x3b,
  0x68, 0x7e, 0x1b, 0x09, 0x08, 0xaf, 0xe4, 0x31, 0xf4, 0xe0, 0x1e, 0x43,
  0x13, 0xd7, 0xbc, 0xc5, 0xd4, 0x76, 0x0a, 0xcf, 0xb6, 0xb1, 0x0a, 0xdf,
  0x97, 0x94, 0xf4, 0x81, 0x2a, 0x45, 0x4f, 0x8a, 0x52, 0xb8, 0x8e, 0x9e,
  0x31, 0xf9, 0x2c, 0xc1, 0x5c, 0x2b, 0x09, 0x9e, 0x13, 0xf2, 0x47, 0xc2,
  0x2d, 0x5f, 0xc7, 0x24, 0xcc, 0xc5, 0xa1, 0x9b, 0x5f, 0x9e, 0x59, 0xcd,
  0xda, 0xbb, 0x6f, 0x81, 0xed, 0x91, 0x81, 0x92, 0x0a, 0xbe, 0x6b, 0x63,
  0xe9, 0x42, 0xff, 0x90, 0xd3, 0xc2, 0xd3, 0x07, 0x4f, 0x4b, 0xdf, 0x8c,
  0x29, 0xff, 0x91, 0x15, 0xb6, 0x85, 0xe2, 0x21, 0x2b, 0x81, 0xf5, 0x1c,
  0x8a, 0x8e, 0x0a, 0xda, 0xe3, 0xf8, 0x1b, 0x41, 0x39, 0x67, 0x0a, 0xe7,
  0xf0, 0x10, 0x5b, 0x00, 0x43, 0x89, 0x4d, 0x6e, 0x04, 0xef, 0x51, 0x02,
  0x3b, 0x1f, 0x47, 0xb0, 0x98, 0x35, 0x3b, 0xf2, 0x2d, 0x02, 0x92, 0x45,
  0xbf, 0xd3, 0xfd, 0xf6, 0xe8, 0x52, 0x28, 0xf9, 0x6f, 0x26, 0x1d, 0xe7,
  0xf8, 0x7f, 0xc8, 0x5e, 0xf8, 0xda, 0x1d, 0x41, 0xe5, 0x0a, 0x3a, 0x38,
  0xc0, 0xf4, 0x21, 0x2f, 0xea, 0x2e, 0x9a, 0xd0, 0x46, 0x21, 0xfe, 0x47,
  0x5c, 0x22, 0x0e, 0x81, 0xcf, 0x06, 0x41, 0x25, 0xf4, 0x49, 0xdc, 0x34,
  0x5d, 0xd8, 0xdc, 0xbb, 0x41, 0x35, 0x3d, 0x01, 0x43, 0xe3, 0xef, 0x66,
  0xd5, 0xe1, 0xc4, 0xb5, 0xcc, 0x07, 0x5b, 0x52, 0x08, 0x9e, 0x9d, 0x1c,
  0x99, 0xe9, 0x1b, 0x7b, 0x68, 0x36, 0xfd, 0x7f, 0x4d, 0x42, 0xe8, 0x0d,
  0xfc, 0x40, 0x28, 0x37, 0xef, 0x21, 0x62, 0x0d, 0x3d, 0x2f, 0x5c, 0x11,
  0x13, 0xe6, 0xd2, 0x00, 0xb9, 0x3d, 0xaa, 0xcd, 0x94, 0x67, 0x0e, 0x29,
  0x81, 0xa2, 0x3b, 0x0f, 0x1c, 0x0e, 0x96, 0xf3, 0xa9, 0x2a, 0xa3, 0x29,
  0x1b, 0xfd, 0x2c, 0x11, 0x9b, 0x68, 0x43, 0x96, 0x5f, 0x5b, 0xe3, 0x9e,
  0x50, 0xcd, 0xf4, 0xcd, 0xb7, 0xa1, 0xb2, 0x0d, 0xa6, 0x1b, 0x0c, 0xf2,
  0xee, 0x07, 0x42, 0xd0, 0x18, 0xc8, 0xe8, 0xf3, 0xd6, 0x91, 0x9d, 0xfb,
  0x92, 0xb6, 0xae, 0xa6, 0xd5, 0x8f, 0x82, 0xf2, 0xc1, 0x7f, 0x48, 0x61,
  0xa3, 0x20, 0x76, 0x3f, 0x1e, 0x23, 0xb3, 0x14, 0x52, 0x68, 0x43, 0xdb,
  0x59, 0x38, 0x45, 0xfe, 0xd6, 0x5a, 0x43, 0x13, 0xb9, 0x1a, 0x4d, 0xe2,
  0x3f, 0x15, 0x21, 0x0d, 0xc6, 0x48, 0x61, 0x56, 0x60, 0x09, 0x39, 0x26,
  0x6a, 0x07, 0xb0, 0x28, 0x17, 0x7f, 0x4a, 0x52, 0xb8, 0x7f, 0x3f, 0x46,
  0x14, 0x7d, 0x26, 0xbb, 0xe9, 0xd7, 0x04, 0xc6, 0x05, 0x0c, 0xff, 0x2d,
  0x49, 0xfd, 0xd0, 0xad, 0xf3, 0xf6, 0x1d, 0x0c, 0x11, 0xbf, 0xcc, 0x2b,
  0xe7, 0x39, 0xf5, 0x14, 0x4c, 0xf0, 0x4b, 0xf0, 0x44, 0xda, 0x02, 0x43,
  0xbf, 0xc2, 0x6c, 0x7e, 0x5d, 0xe7, 0xed, 0x42, 0x05, 0xfd, 0x2b, 0x2b,
  0xcf, 0x38, 0x05, 0x53, 0x53, 0xf0, 0x34, 0xd5, 0xed, 0xea, 0x7f, 0xd1,
  0x28, 0xfd, 0xf1, 0xf6, 0x34, 0xe3, 0x40, 0x31, 0x15, 0xf4, 0x86, 0xdd,
  0x81, 0xea, 0xa9, 0x28, 0x55, 0x26, 0x06, 0x32, 0xe4, 0xf3, 0x35, 0xe1,
  0x02, 0xd5, 0x1c, 0x17, 0x34, 0x13, 0x56, 0xfd, 0x1a, 0x67, 0x4c, 0xe6,
  0x2a, 0x39, 0xd4, 0xee, 0x1e, 0x0c, 0x12, 0xe0, 0x18, 0x25, 0x10, 0x5c,
  0x4c, 0xee, 0xc9, 0xf0, 0x7f, 0xf8, 0x17, 0x56, 0x11, 0xd6, 0x55, 0xef,
  0xdf, 0x86, 0x1a, 0xd4, 0xc6, 0x20, 0x3f, 0xae, 0xec, 0x4a, 0x69, 0xee,
  0x3b, 0x19, 0x62, 0x41, 0x04, 0x9d, 0x48, 0x25, 0x1a, 0x69, 0xa6, 0xc2,
  0xfb, 0x98, 0xfe, 0x44, 0xd0, 0xb8, 0x04, 0x60, 0x7f, 0x66, 0x52, 0xd9,
  0x22, 0xab, 0x13, 0x27, 0x96, 0xd5, 0x84, 0xc4, 0x8c, 0x95, 0xff, 0x2c,
  0xf9, 0x10, 0x9d, 0xcf, 0x74, 0x4a, 0xda, 0x02, 0xd3, 0x58, 0xd3, 0x3c,
  0x2c, 0x45, 0x27, 0xde, 0x3f, 0x10, 0x43, 0x43, 0xb2, 0x44, 0x33, 0x7f,
  0x10, 0x34, 0x48, 0xd4, 0x39, 0x42, 0x3a, 0x74, 0xda, 0x35, 0xd2, 0xe7,
  0x13, 0xb0, 0xe2, 0x8e, 0xca, 0x2d, 0xa4, 0x07, 0xfb, 0xff, 0x3f, 0x6d,
  0x6c, 0xe5, 0x25, 0xe9, 0x81, 0x3d, 0x1b, 0x20, 0x52, 0x51, 0xeb, 0x5f,
  0x51, 0x12, 0x4c, 0xf5, 0x0f, 0xd3, 0xf2, 0x3f, 0x4f, 0xc6, 0x39, 0xcc,
  0x4f, 0xca, 0xc3, 0x39, 0x75, 0xe3, 0x47, 0x69, 0xd7, 0x01, 0x72, 0xfa,
  0x06, 0x7b, 0x41, 0x00, 0xeb, 0x35, 0x83, 0x81, 0xd2, 0xe9, 0xe2, 0xc7,
  0x08, 0x6d, 0x39, 0xf3, 0xf3, 0xf5, 0xde, 0x30, 0xbe, 0x12, 0xfd, 0x20,
  0x86, 0x14, 0x35, 0x40, 0x2d, 0xec, 0xe3, 0xfd, 0x40, 0x40, 0xfd, 0x17,
  0x38, 0x09, 0x15, 0x24, 0x3c, 0xd4, 0x95, 0xe8, 0x30, 0xde, 0x6f, 0xdb,
  0x43, 0xf5, 0xc0, 0x28, 0x37, 0x51, 0xf7, 0xde, 0x40, 0x70, 0xf6, 0x03,
  0x02, 0x10, 0x12, 0x5e, 0x30, 0x81, 0x4b, 0x7a, 0x29, 0xb7, 0x03, 0xe6,
  0xd5, 0xba, 0x5e, 0xf3, 0x40, 0xe2, 0xec, 0x32, 0xe3, 0xe8, 0x51, 0x4a,
  0x81, 0x5a, 0x3e, 0x65, 0x4d, 0x48, 0x77, 0x5a, 0xeb, 0x46, 0x4e, 0x34,
  0xf5, 0xed, 0xf3, 0xd4, 0xd8, 0x36, 0x4c, 0x32, 0x25, 0x83, 0x2b, 0x9e,
  0xe9, 0x09, 0x66, 0x5e, 0x12, 0x9b, 0x1f, 0x53, 0x4c, 0x78, 0x05, 0x45,
  0xf7, 0x6f, 0xb3, 0xfd, 0x1b, 0x84, 0x59, 0x16, 0x37, 0xca, 0x2e, 0x45,
  0x26, 0x17, 0x7f, 0x4c, 0x48, 0x1b, 0xc2, 0x16, 0x70, 0xf0, 0x41, 0x37,
  0xf3, 0x03, 0x04, 0x89, 0xef, 0x36, 0x3d, 0x0d, 0x00, 0x05, 0xb8, 0xdb,
  0x6c, 0x26, 0xf0, 0x41, 0x22, 0x81, 0x23, 0x44, 0xca, 0xe3, 0xea, 0xc5,
  0xdf, 0x33, 0x2c, 0x38, 0x39, 0x2a, 0x4b, 0xdc, 0xef, 0x7f, 0x10, 0xde,
  0x33, 0x75, 0x1a, 0xa7, 0xca, 0x48, 0x09, 0xbb, 0x46, 0x4f, 0x32, 0x25,
  0x2d, 0x0d, 0x2f, 0x0a, 0x00, 0x15, 0xd4, 0xeb, 0x19, 0xac, 0xea, 0x53,
  0xb8, 0x11, 0x24, 0xd6, 0x3a, 0xf1, 0x08, 0xd5, 0x30, 0xb2, 0xbd, 0x50,
  0xc6, 0xb4, 0xa0, 0x03, 0x7f, 0xe5, 0x2f, 0x73, 0xb5, 0xdb, 0x0d, 0x22,
  0xd5, 0xf9, 0x42, 0x3a, 0x2f, 0x0c, 0x11, 0xa0, 0xad, 0x67, 0x26, 0xa9,
  0xf3, 0x64, 0x58, 0x41, 0x33, 0xdd, 0x0b, 0x52, 0xeb, 0x33, 0xe0, 0x46,
  0x2c, 0x0d, 0x82, 0x0a, 0xeb, 0x43, 0xc7, 0x0f, 0xdc, 0xed, 0x34, 0x24,
  0xb5, 0x34, 0x51, 0xad, 0x3b, 0x3b, 0xcf, 0x97, 0x7f, 0x3f, 0x36, 0xf5,
  0x2b, 0x66, 0xfa, 0xe1, 0xce, 0x05, 0xe4, 0x55, 0x3f, 0x0d, 0xf9, 0x2d,
  0x7a, 0x58, 0x00, 0xfe, 0xd5, 0xd0, 0xf0, 0xba, 0x06, 0xf3, 0xfd, 0xc5,
  0x78, 0x24, 0xfd, 0x31, 0xf0, 0xb9, 0xdc, 0x4c, 0xfc, 0x09, 0xa8, 0x1c,
  0x81, 0x1d, 0x0c, 0x45, 0x34, 0x05, 0x3f, 0xfc, 0x03, 0x7f, 0x1a, 0x49,
  0x64, 0x7b, 0x2a, 0xf2, 0x19, 0xd5, 0x38, 0xd3, 0x2e, 0x55, 0xee, 0x5b,
  0x65, 0xe5, 0x25, 0x2c, 0x33, 0x0a, 0x10, 0x18, 0x43, 0xe7, 0xb9, 0x39,
  0x21, 0x4b, 0x04, 0xfd, 0x39, 0x32, 0xf2, 0x4c, 0xcd, 0x09, 0x30, 0x3c,
  0x3e, 0x10, 0x12, 0x90, 0x81, 0xf3, 0xd7, 0xcb, 0x0f, 0x03, 0x0c, 0x0c,
  0x4b, 0x05, 0x08, 0x08, 0xc8, 0x18, 0xc4, 0x17, 0x1c, 0xc9, 0xcc, 0x3c,
  0xbe, 0xed, 0x1d, 0x34, 0x33, 0x2e, 0x09, 0xef, 0x71, 0x42, 0x32, 0xae,
  0x4b, 0x81, 0xce, 0xf7, 0xf9, 0x13, 0xea, 0x14, 0x3b, 0xd1, 0xcd, 0x28,
  0xc1, 0x38, 0x18, 0xd8, 0x06, 0xcc, 0xbc, 0x9c, 0xb3, 0xe3, 0xf2, 0x16,
  0x54, 0x01, 0xd5, 0xef, 0x1c, 0x98, 0x95, 0x8a, 0x1a, 0xa3, 0x87, 0x1e,
  0xd4, 0x9e, 0x5c, 0x25, 0x65, 0x36, 0x7f, 0x2f, 0xb5, 0xd4, 0xf9, 0x39,
  0x0a, 0x3a, 0xd4, 0x62, 0x41, 0xc2, 0x3a, 0x16, 0xa2, 0xdd, 0x32, 0xf2,
  0xf6, 0x2a, 0x2a, 0x42, 0xf9, 0x44, 0xa6, 0x19, 0x9d, 0x30, 0xfe, 0x94,
  0xaa, 0x0d, 0x11, 0x77, 0x7f, 0xfc, 0xb2, 0x0e, 0x35, 0x1f, 0x34, 0x4c,
  0x57, 0x1b, 0xa5, 0xec, 0x85, 0x02, 0xf5, 0x77, 0x5b, 0xd6, 0x2d, 0x1a,
  0xc0, 0x95, 0x1b, 0x97, 0x5c, 0x78, 0x4e, 0xb1, 0xa3, 0x43, 0xcd, 0x48,
  0x34, 0xfc, 0x81, 0x17, 0x65, 0xf2, 0x2a, 0x32, 0xd9, 0x91, 0x0f, 0x19,
  0xec, 0xba, 0xd1, 0x21, 0xef, 0x39, 0xfa, 0x38, 0x00, 0x14, 0x07, 0xd3,
  0x4c, 0x02, 0xf3, 0x36, 0xc9, 0x91, 0x39, 0x53, 0x2b, 0xf0, 0x77, 0x55,
  0x79, 0x1a, 0xf6, 0x10, 0x0a, 0x24, 0xc0, 0xc3, 0xd0, 0xda, 0xa3, 0x25,
  0xa3, 0x57, 0xd4, 0x4b, 0xc9, 0xb9, 0x5e, 0x9c, 0x11, 0xda, 0x90, 0x9b,
  0x8e, 0xa6, 0x0b, 0x8a, 0x7f, 0xd4, 0x85, 0x5f, 0x84, 0xd2, 0xa9, 0xb9,
  0xf6, 0x18, 0x23, 0x0f, 0x7f, 0x2a, 0x52, 0xff, 0xf5, 0x95, 0xb4, 0xf0,
  0x18, 0xd3, 0x98, 0x6d, 0xba, 0x7a, 0xbb, 0xe1, 0x2c, 0xaf, 0xc4, 0xef,
  0x2a, 0x59, 0xb4, 0xd2, 0x7e, 0x9f, 0xad, 0x9c, 0xdd, 0x2b, 0x3d, 0xfd,
  0x12, 0x4e, 0x66, 0xc5, 0xb3, 0x4a, 0xcd, 0x81, 0x0f, 0x77, 0xe0, 0x3e,
  0x2e, 0x11, 0x61, 0xf2, 0x05, 0x97, 0x18, 0x0f, 0x3d, 0xad, 0xf9, 0xec,
  0xa9, 0xcc, 0x44, 0xff, 0x2c, 0x19, 0xe0, 0xf6, 0x3b, 0x23, 0xf3, 0x14,
  0xe6, 0xf2, 0x48, 0xb0, 0xe2, 0x3d, 0x2d, 0xb2, 0x4e, 0x56, 0xc7, 0xf5,
  0x21, 0x28, 0x33, 0x4a, 0x24, 0x81, 0x0a, 0x39, 0xab, 0x98, 0x18, 0xf2,
  0xfe, 0xb3, 0x1f, 0x29, 0xea, 0x76, 0xed, 0xa9, 0x88, 0xa6, 0xed, 0xd8,
  0xd6, 0x4f, 0x90, 0xf4, 0x48, 0xe7, 0xb4, 0x72, 0x72, 0x03, 0xcd, 0xec,
  0xb3, 0xa3, 0x88, 0xbb, 0x6c, 0xcf, 0x31, 0x2b, 0xbc, 0x40, 0xa3, 0xe1,
  0x42, 0x81, 0xcc, 0x79, 0x38, 0xf2, 0xd2, 0xba, 0x7f, 0xc0, 0x13, 0x35,
  0x0d, 0xb3, 0xb4, 0x12, 0x7a, 0x16, 0xc6, 0x23, 0x07, 0x2f, 0xbf, 0x44,
  0x00, 0xcc, 0x0f, 0x5f, 0x77, 0x43, 0xe8, 0x16, 0x01, 0x1a, 0x65, 0x30,
  0x53, 0x5e, 0x53, 0x6f, 0x2c, 0x88, 0x6c, 0xcf, 0x0a, 0xb7, 0x4e, 0x67,
  0x76, 0x3d, 0x74, 0xf8, 0x1c, 0x49, 0x73, 0x27, 0xb8, 0x11, 0x00, 0x8c,
  0x92, 0x98, 0x81, 0x31, 0xd8, 0x9a, 0x16, 0xa7, 0x20, 0xf5, 0x9f, 0x4b,
  0x3a, 0xcf, 0xe6, 0x1b, 0xc1, 0x13, 0xb3, 0x84, 0x8a, 0xf3, 0x03, 0xa1,
  0xe4, 0xa3, 0xc7, 0x69, 0x2f, 0x38, 0x1b, 0x7f, 0x2b, 0xc2, 0x85, 0xad,
  0xcb, 0xbf, 0xe6, 0x17, 0xa9, 0xfc, 0x51, 0x5e, 0xfc, 0xa2, 0x92, 0x2e,
  0xe4, 0xf8, 0xb7, 0xda, 0xd8, 0x73, 0xc8, 0xeb, 0x2b, 0x4a, 0x8d, 0xc2,
  0x96, 0x5f, 0x05, 0x61, 0xcb, 0xe7, 0xce, 0xaa, 0x57, 0x1c, 0xea, 0x66,
  0x3d, 0x0c, 0xd8, 0x15, 0xd6, 0xd6, 0x91, 0x9d, 0xe8, 0x1f, 0x4a, 0x9f,
  0x81, 0xcf, 0xf7, 0x17, 0x8c, 0xdf, 0x5b, 0xe8, 0x42, 0xec, 0xff, 0xff,
  0x04, 0x00, 0x00, 0x00, 0x00, 0x08, 0x00, 0x00, 0xe5, 0x61, 0xcd, 0xf4,
  0x18, 0x55, 0x48, 0x57, 0xea, 0xad, 0x4c, 0x1c, 0x2e, 0xc5, 0x72, 0xfe,
  0xeb, 0x0a, 0x2f, 0xc2, 0x48, 0x13, 0xe9, 0x08, 0x2f, 0x1d, 0xd5, 0x0f,
  0x6a, 0x5e, 0x14, 0xf3, 0x54, 0xe9, 0x46, 0x34, 0x25, 0xfe, 0x11, 0x32,
  0xd1, 0x76, 0x50, 0x46, 0x74, 0xfb, 0xb7, 0xd8, 0x06, 0xd9, 0xd2, 0x3f,
  0x7f, 0xff, 0xbd, 0xcf, 0x10, 0x5b, 0x6d, 0xae, 0x12, 0x06, 0xdf, 0xe7,
  0xf1, 0xd9, 0xbb, 0xdb, 0x3d, 0x18, 0x2d, 0x38, 0x02, 0xdd, 0x32, 0x38,
  0xcc, 0xde, 0xf9, 0xfb, 0x32, 0xa4, 0xca, 0xda, 0xc6, 0xec, 0xef, 0x3f,
  0x15, 0x20, 0x4e, 0x1d, 0x02, 0x62, 0x2e, 0x20, 0xd4, 0xaf, 0xcd, 0x3c,
  0xa0, 0xd1, 0x7f, 0xe5, 0xe1, 0xbb, 0x01, 0x10, 0xed, 0x2d, 0xad, 0x05,
  0x2a, 0x39, 0xf1, 0x13, 0x56, 0x19, 0xae, 0x28, 0x35, 0x41, 0x2a, 0xd8,
  0x23, 0x05, 0x25, 0x0e, 0x4f, 0xd3, 0xda, 0x0c, 0xe4, 0x81, 0x2b, 0x16,
  0x70, 0xbc, 0x8e, 0x56, 0x16, 0xcb, 0xa2, 0xcb, 0x7f, 0x1b, 0xee, 0x41,
  0xd8, 0x8f, 0x02, 0x59, 0x4a, 0x13, 0xc3, 0x29, 0xf7, 0x10, 0x42, 0x39,
  0xc2, 0xd0, 0x0d, 0x68, 0xe6, 0x39, 0x23, 0xb2, 0xb3, 0xbf, 0xd3, 0x48,
  0x1b, 0x6e, 0x24, 0x17, 0x8e, 0x4e, 0x9a, 0x97, 0x88, 0xa9, 0x25, 0x46,
  0x90, 0x20, 0xe0, 0xe0, 0xbb, 0xbf, 0xfe, 0xc8, 0x89, 0x81, 0x46, 0xf7,
  0x49, 0xa4, 0xc9, 0xd4, 0xdd, 0xe3, 0x05, 0xe7, 0x8f, 0xcf, 0x44, 0x92,
  0x4c, 0x2f, 0x8c, 0xa9, 0xbf, 0x29, 0x7e, 0x68, 0x00, 0x07, 0x4a, 0x4d,
  0x05, 0xf0, 0xfb, 0x5c, 0xef, 0xff, 0x6a, 0xa9, 0xb5, 0x03, 0xd6, 0x2d,
  0x60, 0x3f, 0x89, 0xdb, 0x15, 0x4f, 0x97, 0xcc, 0xda, 0xd1, 0x9c, 0x4b,
  0xed, 0xcc, 0x97, 0x09, 0xa9, 0xbe, 0xa8, 0x0e, 0xdd, 0x72, 0xd2, 0x1e,
  0x07, 0x20, 0x14, 0x0c, 0xbc, 0xe5, 0xd2, 0x32, 0x15, 0x22, 0x61, 0xcb,
  0xe0, 0xee, 0x03, 0x3e, 0x27, 0x4b, 0xdc, 0x5a, 0xff, 0xca, 0xff, 0xe2,
  0x22, 0xc8, 0xbc, 0xcc, 0x12, 0xdb, 0xe0, 0xc4, 0x19, 0x55, 0xd4, 0x2f,
  0x07, 0xcf, 0x2b, 0xd1, 0xc5, 0x30, 0xee, 0xc1, 0xf0, 0x27, 0x1a, 0x6b,
  0xbe, 0xeb, 0x4a, 0xf6, 0x2f, 0xc3, 0x7f, 0xc3, 0x15, 0xdc, 0xb3, 0x09,
  0x2c, 0x35, 0xf2, 0xc6, 0xd1, 0xdc, 0x34, 0x1c, 0x3f, 0xdf, 0xe6, 0x60,
  0x44, 0xba, 0x86, 0x9a, 0x70, 0x7f, 0xff, 0xb1, 0xde, 0xd7, 0x30, 0x9c,
  0x5c, 0xfd, 0x2e, 0x70, 0x9c, 0x12, 0xed, 0x8a, 0xd8, 0xcc, 0x4e, 0xa9,
  0x48, 0x9f, 0x9f, 0x85, 0xcf, 0xbf, 0xe8, 0xc5, 0xbb, 0xf2, 0x82, 0x04,
  0x56, 0xf3, 0x63, 0xe7, 0x75, 0xf0, 0x33, 0xa3, 0x14, 0xd9, 0xc7, 0xcf,
  0x0f, 0x31, 0xb8, 0x53, 0x02, 0x6d, 0x10, 0x1b, 0xb4, 0x9d, 0x59, 0x2f,
  0x3a, 0x77, 0x41, 0x6d, 0x7f, 0x6a, 0x38, 0x02, 0x15, 0x50, 0x2e, 0x8b,
  0xb3, 0x3e, 0x22, 0x43, 0xeb, 0x5a, 0x8f, 0x3c, 0x65, 0xdb, 0x05, 0xcd,
  0x93, 0xb6, 0xec, 0x62, 0xbc, 0x98, 0xd9, 0x88, 0xbf, 0xef, 0x9c, 0xa8,
  0xb9, 0x88, 0xc1, 0x9e, 0xe0, 0xee, 0xb0, 0xbd, 0x73, 0x7a, 0xc9, 0xe9,
  0xf5, 0x83, 0x9e, 0xb5, 0x96, 0x5d, 0x32, 0x98, 0xac, 0xd6, 0x89, 0xdc,
  0x25, 0xa0, 0xa6, 0xb2, 0x09, 0x6d, 0xe1, 0x24, 0xb7, 0x17, 0x5c, 0xaa,
  0x08, 0xcd, 0x96, 0xcb, 0xae, 0xb6, 0x19, 0xd5, 0xa8, 0xb6, 0xd4, 0x83,
  0xcb, 0xf8, 0x48, 0x16, 0x53, 0x93, 0x79, 0xd9, 0xfa, 0xd0, 0x90, 0x37,
  0xdb, 0x98, 0x27, 0x4a, 0x96, 0x7f, 0xbb, 0xf6, 0xbb, 0x02, 0xc6, 0x88,
  0xe5, 0x08, 0xbc, 0x4e, 0x76, 0x6b, 0x2e, 0xe1, 0xc2, 0x95, 0x2e, 0xc1,
  0x6b, 0x3d, 0x76, 0x02, 0x06, 0x8d, 0x4b, 0xa2, 0x93, 0xeb, 0x14, 0x95,
  0x46, 0xe1, 0x43, 0x6f, 0x34, 0x29, 0x81, 0x8e, 0xa2, 0x84, 0xef, 0x61,
  0x61, 0x4c, 0x76, 0x5d, 0x55, 0x43, 0x16, 0xa2, 0xa8, 0xfa, 0xd1, 0x16,
  0xbb, 0xda, 0x8c, 0xc3, 0xa5, 0x9b, 0xd3, 0x34, 0xbf, 0x28, 0x23, 0x64,
  0x35, 0xd8, 0xc0, 0x58, 0xdd, 0x7a, 0xb2, 0x8b, 0x49, 0x7b, 0x91, 0xc4,
  0x50, 0xe3, 0xae, 0x55, 0x10, 0x58, 0xc7, 0xb8, 0x10, 0xd5, 0x5d, 0xe2,
  0xc6, 0xec, 0xfd, 0x22, 0x4e, 0xcb, 0x03, 0x0e, 0xdf, 0x02, 0x7f, 0xb6,
  0xcd, 0x34, 0x0d, 0x55, 0xb9, 0xd7, 0x4d, 0x21, 0xad, 0xb4, 0xed, 0x4b,
  0xd9, 0xe6, 0x1b, 0xf7, 0xe9, 0x56, 0x33, 0xa1, 0x63, 0xac, 0xfb, 0x2e,
  0xf0, 0xec, 0xf2, 0xa6, 0x52, 0x46, 0x35, 0xd8, 0x69, 0x5d, 0xe6, 0x23,
  0xcf, 0xb2, 0x47, 0x2b, 0x54, 0x37, 0x9c, 0x3f, 0x2d, 0x04, 0x40, 0xf3,
  0x20, 0x07, 0x56, 0x1b, 0x36, 0xaf, 0xc6, 0x44, 0xaf, 0x20, 0x45, 0xda,
  0x0f, 0x17, 0xec, 0x1e, 0x16, 0xc0, 0xe5, 0x41, 0x72, 0xc4, 0x2e, 0xc2,
  0x2d, 0x08, 0xf4, 0x38, 0x39, 0x55, 0xdc, 0xce, 0xf4, 0xb1, 0x1d, 0x7f,
  0x3f, 0x18, 0x10, 0xdf, 0xe4, 0xe0, 0x52, 0x0b, 0xe7, 0x05, 0xfd, 0x33,
  0xb1, 0x50, 0xba, 0x4b, 0xc9, 0xd5, 0x2d, 0x27, 0xb7, 0xfe, 0xa6, 0x40,
  0x37, 0xc8, 0x17, 0x45, 0x41, 0x0e, 0x88, 0x97, 0xf1, 0x18, 0xf3, 0x3e,
  0xf0, 0x3a, 0x52, 0x54, 0x4d, 0xcc, 0x92, 0xda, 0x7f, 0x87, 0xb8, 0x0c,
  0x22, 0x23, 0xde, 0xf3, 0xde, 0xf5, 0x62, 0x7f, 0x00, 0xf2, 0xee, 0x17,
  0x2b, 0xe0, 0x7b, 0x4c, 0xde, 0xf4, 0x68, 0x49, 0xde, 0xf6, 0x47, 0x37,
  0x0e, 0x08, 0x32, 0xd1, 0x1d, 0x65, 0xc2, 0xb5, 0x40, 0x05, 0x22, 0xcc,
  0x42, 0x0e, 0x4a, 0xbf, 0x5d, 0xf1, 0x3a, 0x3d, 0xcc, 0x0e, 0x1c, 0x3b,
  0x29, 0xe9, 0x12, 0xf6, 0x22, 0x22, 0xe8, 0x2d, 0x0c, 0x2f, 0xf1, 0xcb,
  0x07, 0x9d, 0xe5, 0x27, 0xf2, 0x45, 0x44, 0x7f, 0xf0, 0x03, 0x43, 0x15,
  0x52, 0x6a, 0x0f, 0x39, 0x37, 0xb7, 0xdb, 0xec, 0x9c, 0xde, 0x74, 0xd5,
  0x2f, 0xbd, 0x58, 0xc4, 0x36, 0x33, 0xcc, 0xca, 0x26, 0x53, 0x68, 0x3f,
  0xde, 0xd3, 0xe3, 0xba, 0x48, 0x20, 0x79, 0x41, 0xcc, 0xd5, 0x32, 0x44,
  0xba, 0x48, 0x10, 0x6e, 0x13, 0x0d, 0xfa, 0x05, 0xfa, 0x38, 0x41, 0xe0,
  0x12, 0x26, 0xdf, 0xfe, 0xc3, 0x40, 0xc2, 0x22, 0x56, 0x1e, 0x2d, 0xd3,
  0xff, 0x35, 0x09, 0xd4, 0x0b, 0x61, 0xe1, 0x05, 0x14, 0xf9, 0x21, 0x7a,
  0x59, 0x14, 0xed, 0x44, 0x96, 0xe5, 0xb9, 0xbd, 0xcc, 0x88, 0x28, 0xec,
  0xbd, 0xee, 0x81, 0xbf, 0xed, 0xd0, 0x6b, 0xd2, 0x30, 0xf8, 0x91, 0xc6,
  0xfb, 0x17, 0xc9, 0x32, 0xb8, 0x3a, 0x4b, 0x7f, 0xe1, 0xb2, 0x11, 0x2b,
  0x09, 0x02, 0xf3, 0x41, 0x2c, 0xff, 0x14, 0xba, 0x15, 0x67, 0xda, 0x1d,
  0xc6, 0x48, 0xd6, 0x9b, 0x00, 0x3d, 0xf8, 0xde, 0x35, 0xb9, 0xed, 0xf4,
  0x40, 0x26, 0xd7, 0xfd, 0xfd, 0x1f, 0x32, 0x03, 0xc5, 0xf9, 0x25, 0x2e,
  0xaa, 0xc0, 0x06, 0x3a, 0x0a, 0xdb, 0xda, 0xda, 0xce, 0xb5, 0x2e, 0xae,
  0xcd, 0xd6, 0x12, 0xbf, 0x06, 0x4c, 0xbc, 0xba, 0x2b, 0x0e, 0x2f, 0xde,
  0x3e, 0x1a, 0xc1, 0x18, 0x48, 0x37, 0x32, 0x35, 0x2e, 0xc5, 0x3e, 0x3f,
  0xf0, 0xf8, 0xd3, 0x37, 0xcd, 0xfb, 0x36, 0x29, 0xf5, 0xe7, 0x17, 0x38,
  0x06, 0x52, 0xea, 0xf7, 0x15, 0xe3, 0x23, 0x31, 0xc1, 0x20, 0xf0, 0xf0,
  0x30, 0xfd, 0x21, 0x3c, 0x47, 0x64, 0xcd, 0x31, 0xeb, 0x4f, 0x05, 0xf3,
  0xdb, 0xcb, 0xbf, 0x1a, 0xdc, 0x7f, 0x4e, 0x12, 0x4a, 0xf0, 0x1c, 0xde,
  0xc7, 0xcc, 0xbe, 0xfb, 0xdf, 0x53, 0xe0, 0x32, 0x83, 0x06, 0x96, 0x23,
  0x1a, 0xcd, 0x0a, 0x20, 0x87, 0xfe, 0x26, 0x27, 0x81, 0xa9, 0x00, 0x12,
  0x93, 0x6c, 0xae, 0xbb, 0x3c, 0xe1, 0xa8, 0xf2, 0x3e, 0xbc, 0x49, 0xca,
  0x88, 0xb5, 0x6b, 0x13, 0x30, 0x32, 0x05, 0x1e, 0xc4, 0x51, 0xf8, 0xea,
  0xc1, 0xe0, 0x60, 0xe1, 0x12, 0xf4, 0x61, 0x19, 0x30, 0x01, 0x09, 0x35,
  0x51, 0x62, 0xb9, 0x3f, 0xff, 0xd2, 0xbf, 0xcc, 0x43, 0xcd, 0x23, 0x0b,
  0x68, 0xd4, 0x04, 0x2a, 0xea, 0xcd, 0x27, 0xd6, 0x0b, 0x21, 0x20, 0x53,
  0xc5, 0x04, 0x16, 0x5c, 0xff, 0xc7, 0xf6, 0xfa, 0x0c, 0x09, 0x00, 0xc8,
  0xd3, 0xff, 0x18, 0x13, 0xc9, 0xcc, 0x51, 0x0b, 0xed, 0xeb, 0x1e, 0x0b,
  0x2b, 0x46, 0x1d, 0xf2, 0x22, 0xe6, 0x7f, 0x2f, 0x02, 0x21, 0xe7, 0x39,
  0x00, 0x74, 0x4a, 0xdf, 0x09, 0xe2, 0x2f, 0x07, 0x0c, 0x97, 0xd5, 0x3b,
  0x21, 0x36, 0x28, 0xc2, 0x36, 0x2f, 0x35, 0xe1, 0xc9, 0x46, 0xf3, 0x15,
  0xed, 0x41, 0xc8, 0x7f, 0x9d, 0x57, 0x55, 0x2a, 0xe4, 0xbe, 0x36, 0xdc,
  0xc8, 0x50, 0xfd, 0x42, 0x41, 0x64, 0x2f, 0xa1, 0xc8, 0x11, 0x77, 0x37,
  0xa7, 0x18, 0x35, 0xad, 0xb9, 0x6f, 0x8a, 0x3f, 0xb2, 0x40, 0xfd, 0xd7,
  0xad, 0xec, 0x10, 0xea, 0xc3, 0x00, 0xd4, 0x49, 0x3d, 0x3a, 0x00, 0xa7,
  0x73, 0xf4, 0xa3, 0x38, 0x9a, 0x9b, 0xa2, 0x38, 0xd2, 0x91, 0xca, 0xa1,
  0x54, 0xef, 0xca, 0xd9, 0x20, 0x87, 0x89, 0x60, 0xcb, 0x81, 0x57, 0x87,
  0x83, 0x17, 0x40, 0x6e, 0x8c, 0x28, 0xbb, 0xf2, 0x0b, 0xb9, 0x27, 0x98,
  0xa2, 0xb8, 0x4f, 0x17, 0x58, 0x53, 0xab, 0xff, 0x4e, 0x0b, 0x85, 0xc5,
  0xb0, 0x82, 0xe9, 0x19, 0x34, 0x7d, 0x0d, 0xbc, 0xcc, 0x41, 0x24, 0x97,
  0x09, 0x85, 0x9d, 0x0f, 0x41, 0x3e, 0x36, 0x66, 0x48, 0xf6, 0x26, 0xbc,
  0x29, 0xfe, 0x14, 0x05, 0x39, 0x2c, 0xba, 0xc8, 0xd3, 0xd0, 0xe7, 0xf9,
  0x4e, 0xf7, 0x2b, 0xe8, 0xe8, 0x3e, 0xf5, 0xce, 0x30, 0x67, 0x2f, 0x04,
  0x15, 0x16, 0x11, 0x26, 0x36, 0x06, 0x7f, 0x1d, 0xce, 0x0a, 0x02, 0xff,
  0xe7, 0xd9, 0xe6, 0x7d, 0x90, 0xeb, 0x0c, 0x0b, 0x1b, 0xd4, 0x63, 0x38,
  0xfe, 0xad, 0xea, 0xc0, 0xc8, 0x27, 0xfe, 0x2a, 0x29, 0x2b, 0xe2, 0xf1,
  0x35, 0xef, 0x21, 0x0f, 0xad, 0x27, 0x42, 0xfb, 0x1c, 0x30, 0xfe, 0x30,
  0xfa, 0xda, 0x2e, 0xa6, 0x27, 0x06, 0xd1, 0x91, 0xc4, 0x28, 0xdd, 0xfb,
  0xcd, 0x0f, 0xc6, 0x3f, 0x28, 0x0f, 0x60, 0x17, 0x40, 0x0d, 0xa8, 0x06,
  0xe9, 0x59, 0x37, 0xe2, 0x13, 0xc2, 0x25, 0xf9, 0xb8, 0x1f, 0x81, 0x41,
  0x16, 0x04, 0xf5, 0x22, 0x3b, 0x96, 0xa7, 0x07, 0x54, 0xd0, 0x27, 0x0e,
  0xfa, 0x0b, 0xfe, 0x34, 0xd9, 0x21, 0xef, 0xb1, 0x2f, 0xf6, 0xfd, 0x32,
  0x4b, 0x12, 0x39, 0xd7, 0x98, 0xa4, 0x35, 0x1a, 0xe7, 0xf6, 0xde, 0x3d,
  0x3c, 0xbc, 0xf0, 0x58, 0x6b, 0x7f, 0x44, 0x1b, 0x3d, 0x33, 0x07, 0x1f,
  0xd7, 0x57, 0x76, 0x31, 0x81, 0xcf, 0xf2, 0xa8, 0xf4, 0xba, 0xad, 0xf8,
  0xe7, 0x3e, 0x07, 0xf8, 0x23, 0xe3, 0xab, 0x0d, 0x0d, 0x03, 0xd5, 0xf2,
  0xca, 0xf6, 0xb3, 0xa7, 0x3b, 0x34, 0x49, 0x79, 0x82, 0x3b, 0xfc, 0x3a,
  0x5e, 0x1e, 0xd6, 0xc4, 0xb1, 0xd0, 0x17, 0xfd, 0x96, 0x3e, 0xd7, 0x5f,
  0x01, 0xef, 0x12, 0x46, 0x16, 0x24, 0x81, 0xd9, 0x49, 0xaf, 0xdb, 0xc5,
  0x50, 0x5f, 0xc5, 0x0b, 0x53, 0xe7, 0x46, 0x51, 0x6c, 0x3d, 0xb6, 0xb8,
  0x9b, 0x50, 0xe4, 0x5b, 0xa7, 0x11, 0x55, 0xbc, 0x8d, 0x3f, 0x09, 0x0b,
  0xed, 0xc9, 0xbc, 0x26, 0xfb, 0xbb, 0xb8, 0x5a, 0x30, 0x0a, 0x33, 0x12,
  0x14, 0xdc, 0x1d, 0xca, 0x4f, 0x32, 0xaa, 0x17, 0x17, 0x37, 0x39, 0x13,
  0x2e, 0x46, 0xef, 0x4c, 0x07, 0xd3, 0x30, 0xc5, 0x0e, 0x3c, 0x31, 0xee,
  0x2a, 0xa3, 0xe1, 0xde, 0xc1, 0xfd, 0x51, 0xfc, 0x17, 0x3c, 0xb0, 0x51,
  0x7c, 0x23, 0xd6, 0xcd, 0xf4, 0x00, 0x30, 0xde, 0x7f, 0x37, 0x47, 0xdf,
  0xc5, 0xfe, 0xf0, 0xf2, 0x1c, 0x4e, 0x2c, 0xe0, 0x07, 0x00, 0xd3, 0x19,
  0xbf, 0x5d, 0x2e, 0x2e, 0xa1, 0xf5, 0xfb, 0xd0, 0x03, 0x0e, 0xf6, 0xf1,
  0x1a, 0x41, 0x71, 0xf7, 0xeb, 0x60, 0x35, 0x16, 0xd4, 0x21, 0x3b, 0xaa,
  0xfa, 0xbc, 0x16, 0xd0, 0x31, 0xf0, 0xe0, 0xeb, 0x06, 0x0a, 0x26, 0xee,
  0x7f, 0x18, 0xb1, 0xe9, 0x5a, 0x72, 0x48, 0x60, 0x22, 0x45, 0xed, 0x10,
  0x40, 0x39, 0x24, 0xf5, 0xb8, 0xbe, 0xed, 0xf2, 0xb9, 0xbf, 0x02, 0xf0,
  0x5b, 0x04, 0xd6, 0xea, 0xf4, 0xf9, 0x3a, 0x95, 0x99, 0xbe, 0xd6, 0x48,
  0x6c, 0x03, 0xe5, 0x4c, 0x1b, 0x17, 0x37, 0xfc, 0xfc, 0x21, 0xf2, 0x67,
  0xf4, 0xc4, 0x33, 0xbd, 0xfd, 0xfa, 0xb8, 0xec, 0x5a, 0xe9, 0xb6, 0x15,
  0x47, 0x7f, 0x30, 0xa0, 0xf0, 0xbe, 0xbc, 0x1f, 0x32, 0x0d, 0xef, 0x42,
  0x10, 0x17, 0xe9, 0xb9, 0x64, 0x48, 0x3b, 0x36, 0xc6, 0x19, 0xd6, 0xcf,
  0xf9, 0x71, 0x2c, 0x3f, 0xea, 0x36, 0xd9, 0x33, 0xdb, 0xbc, 0x30, 0x0c,
  0x24, 0xe6, 0x50, 0x23, 0x9a, 0x78, 0x81, 0x45, 0x1b, 0xda, 0xab, 0x35,
  0xae, 0xa8, 0xf3, 0xb7, 0xa8, 0x18, 0x78, 0x51, 0xb1, 0x52, 0xce, 0x60,
  0xdf, 0xc6, 0xd5, 0x60, 0xa3, 0x0f, 0x3c, 0x5b, 0x9d, 0xdd, 0x8c, 0x93,
  0xf1, 0x27, 0x06, 0xb4, 0x35, 0x37, 0x0c, 0x78, 0xf2, 0x4e, 0x0b, 0xe7,
  0xbb, 0xf4, 0xae, 0x05, 0x61, 0x4c, 0x76, 0x7d, 0x36, 0x62, 0xb5, 0x48,
  0xe1, 0x59, 0xff, 0x25, 0x53, 0x2d, 0x0f, 0xf9, 0x2a, 0x43, 0x7f, 0x34,
  0xd8, 0x41, 0xd2, 0x00, 0xeb, 0xc9, 0xf6, 0xf2, 0x61, 0xd8, 0xe5, 0xe7,
  0xcb, 0xcb, 0x1f, 0x4a, 0x15, 0x65, 0xdd, 0xcf, 0x43, 0xd3, 0x62, 0x03,
  0x0b, 0x23, 0x04, 0x5b, 0xcd, 0xdf, 0x6f, 0x46, 0x18, 0xe1, 0x23, 0xf0,
  0xfb, 0x61, 0xf4, 0xc0, 0x1e, 0xe0, 0x0d, 0x3e, 0xfe, 0xf7, 0x47, 0xbf,
  0x38, 0x2d, 0x0c, 0xf7, 0xe7, 0x4b, 0xb6, 0x5d, 0x44, 0x35, 0xce, 0x9c,
  0x4b, 0xd8, 0x8f, 0x08, 0x88, 0x94, 0x16, 0x38, 0x8b, 0x39, 0x5f, 0xe0,
  0xb9, 0x4d, 0x6a, 0xf6, 0x7c, 0x79, 0xfb, 0xa5, 0x2b, 0x33, 0x67, 0x0a,
  0x8a, 0x31, 0xb3, 0xcc, 0x81, 0xd0, 0xcb, 0xe7, 0x46, 0x84, 0x76, 0x3d,
  0x97, 0xc1, 0xd7, 0x25, 0x83, 0xcb, 0x2a, 0xcb, 0xbb, 0x5b, 0xf4, 0xaa,
  0x85, 0xa6, 0xe3, 0xc7, 0x9a, 0x68, 0x6c, 0x0e, 0x8e, 0x32, 0x6b, 0xec,
  0xea, 0x48, 0x64, 0x95, 0xad, 0xb6, 0xb0, 0xb5, 0xdb, 0x4a, 0xc1, 0xa9,
  0x28, 0x54, 0x9d, 0xa2, 0xe0, 0x01, 0x33, 0x3f, 0xb1, 0xc2, 0x50, 0x84,
  0xe7, 0xcd, 0xbd, 0x90, 0x89, 0x9d, 0x7f, 0xd1, 0x60, 0x14, 0x62, 0x2b,
  0xc8, 0x8b, 0xd0, 0xd3, 0xa0, 0x05, 0x9e, 0x55, 0x8f, 0xa0, 0x88, 0xf5,
  0xcf, 0x87, 0xa0, 0xf0, 0xa4, 0x7a, 0x51, 0x0c, 0x9d, 0x99, 0xd1, 0x9b,
  0xc1, 0x3d, 0x65, 0x28, 0x9d, 0xf0, 0xf0, 0xfd, 0x7f, 0xdf, 0xec, 0xdb,
  0x1a, 0xeb, 0x4c, 0xcf, 0xea, 0x65, 0xed, 0x45, 0xdb, 0x43, 0x19, 0x53,
  0x11, 0xf1, 0x24, 0xe9, 0xdf, 0xb5, 0x23, 0x2b, 0xbe, 0x1f, 0x0d, 0xe7,
  0xc4, 0x2a, 0xf4, 0x41, 0x3f, 0xd2, 0xc7, 0xd2, 0x31, 0x40, 0x07, 0x15,
  0x42, 0x34, 0x78, 0xef, 0xf2, 0x13, 0x02, 0x44, 0xc6, 0x60, 0xc4, 0xdf,
  0xdf, 0xf8, 0xe4, 0xf9, 0x4e, 0xf4, 0xff, 0xff, 0x04, 0x00, 0x00, 0x00,
  0x00, 0x08, 0x00, 0x00, 0x07, 0xa8, 0xea, 0x3c, 0xec, 0x75, 0x99, 0xbe,
  0xd8, 0xab, 0x65, 0xbd, 0x64, 0x56, 0x92, 0xbd, 0x03, 0xec, 0x5c, 0xbe,
  0xa4, 0x8f, 0x37, 0x3e, 0x70, 0xe9, 0xc8, 0x3d, 0xec, 0x51, 0x89, 0xbe,
  0x5e, 0xb8, 0x61, 0xbe, 0x3c, 0xcd, 0xd9, 0xbd, 0x66, 0xa1, 0x09, 0x3d,
  0xbf, 0x3a, 0x06, 0x3e, 0x76, 0x33, 0x8e, 0x3e, 0xf8, 0x38, 0xae, 0xbe,
  0x48, 0x71, 0xba, 0xbe, 0x80, 0x83, 0x8f, 0x3e, 0x96, 0xdf, 0x54, 0x3e,
  0xb4, 0x8e, 0xc4, 0xbe, 0xf7, 0x27, 0xe5, 0xbd, 0x60, 0x63, 0x37, 0x3d,
  0x00, 0xdc, 0x04, 0xbe, 0x19, 0x59, 0x9b, 0xbe, 0xb5, 0xf4, 0x23, 0xbe,
  0xc7, 0x4b, 0x49, 0xbe, 0xf1, 0xa7, 0x10, 0xbd, 0x73, 0x7b, 0xd1, 0xbd,
  0xf7, 0x05, 0x8d, 0xbe, 0x59, 0xc7, 0x2f, 0xbe, 0x07, 0x49, 0x65, 0xbe,
  0xc0, 0xd9, 0x5f, 0xbc, 0x74, 0x88, 0x12, 0x3e, 0xfa, 0x0d, 0xbe, 0x3d,
  0x3a, 0x16, 0x62, 0x3d, 0x9d, 0xae, 0x33, 0xbf, 0xbe, 0x3b, 0x3b, 0xbe,
  0x2e, 0xbf, 0x14, 0xbe, 0x07, 0xd9, 0x12, 0x3f, 0x40, 0xcf, 0x85, 0xbe,
  0x16, 0x04, 0x18, 0x3e, 0x77, 0x9c, 0x9c, 0x3e, 0x2f, 0x42, 0x97, 0xbe,
  0x6d, 0x24, 0x08, 0x3e, 0x8c, 0xa8, 0x0b, 0x3f, 0xd7, 0x41, 0xf0, 0x3d,
  0xeb, 0x99, 0xfd, 0xbe, 0xac, 0xe9, 0xc7, 0x3e, 0x6f, 0x28, 0xc6, 0xbc,
  0x27, 0x07, 0x00, 0x3e, 0x92, 0x2a, 0x9a, 0xbe, 0x3d, 0x61, 0x11, 0xbf,
  0x1d, 0xba, 0x2a, 0xbe, 0x24, 0x65, 0xbe, 0x3d, 0x4d, 0x30, 0x51, 0x3e,
  0x6f, 0xd9, 0x07, 0x3f, 0x29, 0x3e, 0x73, 0x3e, 0x2e, 0x43, 0x57, 0x3e,
  0xbc, 0x7c, 0x44, 0x3d, 0xc1, 0x21, 0xae, 0x3e, 0xe8, 0x6a, 0xbf, 0xbe,
  0xef, 0x1a, 0xe8, 0x3c, 0x08, 0x7a, 0xe4, 0x3e, 0xe6, 0xf1, 0x4a, 0x3e,
  0xca, 0xde, 0xa1, 0xbe, 0x06, 0x12, 0xcf, 0xbe, 0xec, 0xb6, 0x26, 0x3e,
  0x85, 0xc8, 0x57, 0xbe, 0x98, 0x67, 0x8e, 0xbd, 0x20, 0x00, 0xd9, 0x3d,
  0xc4, 0xd5, 0x00, 0xbf, 0x61, 0xd6, 0xa4, 0xbd, 0xa0, 0x86, 0x2e, 0x3d,
  0x27, 0x2c, 0x81, 0xbe, 0x77, 0x5c, 0x33, 0xbe, 0xd8, 0xb9, 0x48, 0xbe,
  0x35, 0x2b, 0x11, 0xbd, 0x51, 0x09, 0xaf, 0x3e, 0x19, 0xf1, 0x53, 0x3d,
  0x8d, 0xc6, 0x3f, 0x3e, 0x6d, 0xfb, 0xa0, 0xbe, 0x6e, 0xfd, 0x9e, 0x3d,
  0xe1, 0xf4, 0x6d, 0xbe, 0xa5, 0x74, 0xb2, 0x3e, 0xdf, 0x0d, 0xb6, 0x3d,
  0xff, 0xf2, 0xa7, 0xbe, 0xe7, 0xed, 0x7a, 0xbd, 0x0d, 0x74, 0xb2, 0x3e,
  0x5a, 0x39, 0xf1, 0xbe, 0xa8, 0xcb, 0xb2, 0xbe, 0x53, 0xcc, 0x7a, 0xbe,
  0x58, 0x55, 0xbc, 0x3e, 0x00, 0xad, 0xb1, 0xbe, 0x76, 0x86, 0xe7, 0x3c,
  0x12, 0xcf, 0xa4, 0x3e, 0x00, 0xf2, 0x7e, 0xbc, 0xf2, 0x49, 0x51, 0xbe,
  0x97, 0x34, 0x2f, 0xbe, 0xd9, 0xf3, 0x77, 0xbe, 0x78, 0x69, 0x17, 0xbd,
  0x02, 0xdb, 0x72, 0x3e, 0x6c, 0x7b, 0xac, 0xbd, 0xb0, 0x86, 0x4b, 0x3e,
  0x86, 0x24, 0xfd, 0x3d, 0x56, 0x2d, 0x04, 0xbe, 0x00, 0x1e, 0xf7, 0x3b,
  0x20, 0x23, 0x10, 0xbd, 0xe0, 0x76, 0xae, 0x3d, 0x77, 0x0c, 0x9f, 0xbc,
  0xed, 0xd2, 0x41, 0xbe, 0x7f, 0xb0, 0xcc, 0xbd, 0x3c, 0xd7, 0x97, 0xbe,
  0x36, 0x72, 0x89, 0x3e, 0x5d, 0xfb, 0x70, 0x3d, 0x20, 0xd0, 0x5d, 0x3e,
  0x88, 0xa6, 0x70, 0xbd, 0x3b, 0xca, 0x37, 0x3e, 0x40, 0x3b, 0x0a, 0x3d,
  0x28, 0xe9, 0x98, 0x3e, 0x6e, 0xa1, 0x9c, 0x3d, 0x0a, 0x1c, 0x21, 0x3e,
  0xf6, 0x70, 0x76, 0x3e, 0x15, 0xcd, 0x9b, 0x3e, 0x62, 0xba, 0x2c, 0xbd,
  0xb1, 0xb3, 0xd2, 0x3c, 0xc3, 0xef, 0x9c, 0x3e, 0xfa, 0x8e, 0xac, 0xbe,
  0x10, 0x37, 0xb1, 0xbe, 0x30, 0x44, 0xa5, 0xbe, 0x91, 0x37, 0x65, 0xbe,
  0x95, 0xba, 0xa7, 0x3e, 0xaa, 0x69, 0x8b, 0xbe, 0x6a, 0x17, 0x11, 0x3e,
  0xaa, 0x3a, 0x71, 0xbe, 0x71, 0xc6, 0xfb, 0xbe, 0x6a, 0x11, 0xf5, 0xbd,
  0xa3, 0xe9, 0x81, 0x3e, 0x4e, 0x59, 0x9f, 0xbd, 0x3c, 0x79, 0xd5, 0x3d,
  0x3d, 0x3f, 0xa0, 0x3e, 0x22, 0x0c, 0x65, 0xbe, 0xb7, 0xf2, 0x25, 0x3d,
  0x26, 0xa3, 0xac, 0xbc, 0x83, 0x28, 0x0d, 0xbf, 0xd2, 0xb5, 0xdc, 0xbe,
  0xe1, 0x86, 0xad, 0x3d, 0x42, 0x34, 0x25, 0xbe, 0x39, 0x38, 0xed, 0x3d,
  0x3d, 0x52, 0x82, 0xbe, 0xe4, 0x3a, 0x74, 0xbe, 0x38, 0x9f, 0x7a, 0xbe,
  0x0a, 0x7f, 0x84, 0xbe, 0x8c, 0xf1, 0x9d, 0xbe, 0x61, 0x48, 0x99, 0xbe,
  0xc8, 0x27, 0xe6, 0x3e, 0xce, 0x0a, 0x95, 0xbd, 0x16, 0x6b, 0xed, 0x3e,
  0x04, 0x7d, 0x94, 0x3e, 0x3f, 0xa8, 0xb7, 0x3d, 0x07, 0x29, 0x84, 0x3e,
  0xf6, 0x39, 0x41, 0x3e, 0x4d, 0x11, 0x32, 0x3d, 0x89, 0xd5, 0xa5, 0x3c,
  0x03, 0xb6, 0xa0, 0x3c, 0xf8, 0x6d, 0x01, 0xbd, 0x5e, 0xeb, 0x5a, 0x3e,
  0xfe, 0x9c, 0x14, 0x3f, 0xa1, 0x7a, 0x87, 0xbe, 0x75, 0x85, 0x8c, 0x3e,
  0xb9, 0x37, 0x5a, 0xbe, 0x0a, 0xfd, 0x6f, 0xbe, 0x79, 0xc4, 0xa8, 0x3c,
  0xa5, 0xb7, 0x33, 0x3e, 0x76, 0x8f, 0xf2, 0xbd, 0x5b, 0x45, 0xbb, 0x3e,
  0x43, 0xda, 0x62, 0x3e, 0x86, 0xb0, 0xb9, 0x3e, 0x78, 0x71, 0x81, 0x3e,
  0x53, 0x21, 0xd0, 0xbd, 0xe9, 0x4d, 0x2a, 0x3e, 0x40, 0xe1, 0xaf, 0x3d,
  0x40, 0x1a, 0xd8, 0xbc, 0x6d, 0xc7, 0xcd, 0x3e, 0x0b, 0xaa, 0x14, 0xbe,
  0x4f, 0xe2, 0x30, 0x3d, 0x55, 0x93, 0xef, 0x3e, 0xb8, 0x18, 0x13, 0x3d,
  0xd3, 0x52, 0x23, 0xbe, 0x60, 0xfb, 0x83, 0xbe, 0xd2, 0x8c, 0x0b, 0x3e,
  0xf2, 0x75, 0xab, 0xbd, 0x75, 0xaa, 0x93, 0x3e, 0x23, 0x17, 0xb0, 0x3e,
  0x50, 0x83, 0xb7, 0x3d, 0x86, 0xae, 0x85, 0x3b, 0x67, 0xb2, 0x83, 0x3e,
  0x50, 0xd6, 0x26, 0x3d, 0x58, 0x7f, 0xa9, 0xbe, 0x76, 0x32, 0x93, 0x3e,
  0xb8, 0xce, 0x71, 0xbe, 0xee, 0xfd, 0xf6, 0xbd, 0x59, 0x7d, 0x7d, 0xbe,
  0xe4, 0xb7, 0x98, 0xbd, 0x2a, 0x4f, 0x94, 0x3e, 0x48, 0xa1, 0x95, 0x3e,
  0x5d, 0x09, 0xcc, 0x3d, 0x48, 0xe4, 0x72, 0xbe, 0x20, 0xe3, 0x90, 0x3e,
  0x92, 0x4f, 0x19, 0xbe, 0xa5, 0x43, 0x7e, 0xbe, 0x00, 0x3d, 0x2e, 0x3e,
  0x92, 0x76, 0xb4, 0x3c, 0x87, 0x3c, 0x84, 0x3e, 0x08, 0xc6, 0x1a, 0xbd,
  0x0e, 0x71, 0x09, 0xbc, 0x42, 0x8b, 0x4d, 0x3e, 0x66, 0x3a, 0x19, 0x3e,
  0x72, 0x89, 0x27, 0x3d, 0x2d, 0x1e, 0xea, 0x3d, 0x63, 0x19, 0xb1, 0xbe,
  0x11, 0x69, 0x5d, 0x3e, 0xc0, 0xfb, 0xd1, 0x3b, 0xca, 0xde, 0x96, 0xbe,
  0x62, 0x13, 0x23, 0x3e, 0x30, 0x65, 0x60, 0xbd, 0x27, 0xff, 0x68, 0xbe,
  0xbb, 0x3c, 0xed, 0xbd, 0x28, 0x64, 0xec, 0x3e, 0x2c, 0xb2, 0x17, 0xbe,
  0x9c, 0xa0, 0x86, 0xbd, 0xb6, 0xdb, 0x26, 0x3e, 0x07, 0xde, 0xc9, 0x3d,
  0x3c, 0xa9, 0x10, 0x3e, 0xb2, 0xe4, 0x9b, 0xbe, 0xe8, 0x8d, 0x71, 0xbd,
  0x49, 0xee, 0x5e, 0xbe, 0x76, 0x4b, 0x78, 0x3e, 0xc1, 0x94, 0x76, 0x3d,
  0x70, 0x5b, 0x10, 0x3e, 0xd4, 0x1b, 0x22, 0xbd, 0x66, 0xf9, 0x18, 0xbe,
  0x89, 0x43, 0x89, 0xbe, 0x18, 0x2f, 0x10, 0x3c, 0xfd, 0x18, 0x2b, 0x3e,
  0xd6, 0xa6, 0x8b, 0x3e, 0x12, 0xe5, 0x51, 0x3e, 0xd3, 0xf8, 0xa3, 0x3e,
  0xb7, 0x4b, 0xbc, 0xbe, 0xfd, 0xe8, 0xb2, 0x3e, 0x4d, 0x9a, 0xe6, 0x3e,
  0x30, 0x6e, 0xbd, 0x3d, 0x99, 0xd6, 0x9d, 0x3d, 0x27, 0xa6, 0xfd, 0xbd,
  0x78, 0xf4, 0x05, 0x3d, 0x70, 0x0a, 0x75, 0x3e, 0xbc, 0xa9, 0xc1, 0x3d,
  0xa4, 0x06, 0x84, 0xbd, 0xae, 0x60, 0x9e, 0x3d, 0x10, 0xa9, 0xc6, 0x3c,
  0x89, 0x06, 0x95, 0x3e, 0xb2, 0x5c, 0x3e, 0xbe, 0xd2, 0xaa, 0xb1, 0xbe,
  0xe6, 0x96, 0xb3, 0x3d, 0x08, 0xf5, 0xd6, 0xbd, 0x10, 0x2b, 0xbe, 0xbd,
  0x2e, 0x77, 0x71, 0x3e, 0xf1, 0x3a, 0x87, 0xbe, 0xd3, 0x2c, 0x8b, 0xbe,
  0xf2, 0x8b, 0xbb, 0xbd, 0x9e, 0x3a, 0x7c, 0xbd, 0x3a, 0xba, 0xc8, 0xbd,
  0x49, 0x17, 0x51, 0xbe, 0x0f, 0x39, 0xb5, 0xbe, 0x13, 0xac, 0xa0, 0xbe,
  0x68, 0x06, 0x9c, 0x3e, 0xc4, 0xa2, 0x86, 0x3d, 0x64, 0x37, 0x25, 0xbe,
  0xb1, 0xcb, 0x8d, 0xbe, 0x6e, 0x51, 0xa8, 0xbe, 0xe0, 0x80, 0x3b, 0xbe,
  0xb0, 0x70, 0xdd, 0x3d, 0xc4, 0xb4, 0x60, 0x3d, 0xb0, 0x73, 0x99, 0xbe,
  0x31, 0x6f, 0xcc, 0x3d, 0xa7, 0xc2, 0x89, 0x3e, 0x96, 0x6b, 0x9f, 0xbe,
  0x69, 0xc5, 0xc8, 0x3d, 0x8a, 0x71, 0x70, 0x3e, 0x66, 0xbc, 0x52, 0x3e,
  0xf9, 0xa7, 0xe2, 0xbc, 0xc2, 0xaf, 0x81, 0x3e, 0x82, 0xb0, 0x21, 0x3e,
  0x28, 0x5d, 0x6f, 0x3d, 0xe8, 0x8e, 0x56, 0xbd, 0x3a, 0x6d, 0x1f, 0x3e,
  0xd8, 0x15, 0x9d, 0x3e, 0xbe, 0xfb, 0x5e, 0x3e, 0x2f, 0x0b, 0x66, 0x3e,
  0xf9, 0x00, 0xa4, 0x3e, 0xb1, 0xfc, 0x00, 0x3f, 0xbe, 0xee, 0xf4, 0xbd,
  0x96, 0xc9, 0xd1, 0xbe, 0xdd, 0x9f, 0x99, 0xbd, 0x36, 0x83, 0x44, 0xbe,
  0xd0, 0x51, 0x74, 0x3e, 0xf6, 0xc4, 0x2d, 0x3e, 0x58, 0xf7, 0x7e, 0xbc,
  0x35, 0x4f, 0x3d, 0xbe, 0x76, 0xf7, 0x11, 0x3d, 0xd0, 0x8d, 0x0a, 0x3d,
  0x25, 0x31, 0x3e, 0xbe, 0x47, 0x90, 0x6e, 0xbe, 0xc4, 0x6e, 0x47, 0xbd,
  0x88, 0x76, 0xb5, 0x3e, 0xc7, 0xba, 0x68, 0xbc, 0x15, 0x44, 0x5f, 0x3e,
  0xd4, 0x89, 0xe5, 0x3e, 0x26, 0xcd, 0xe4, 0xbd, 0x9c, 0xd6, 0xdc, 0x3d,
  0xc4, 0x09, 0x87, 0xbe, 0x2e, 0x4d, 0xe8, 0xbd, 0x39, 0xb8, 0xe1, 0x3e,
  0xe0, 0xcd, 0x93, 0xbe, 0x69, 0x59, 0x81, 0x3e, 0x74, 0x1b, 0x89, 0xbd,
  0xa8, 0xbc, 0x4d, 0x3d, 0x97, 0xc9, 0x88, 0xbd, 0x31, 0xe9, 0x70, 0xbe,
  0xbc, 0x9f, 0xd3, 0x3d, 0x0d, 0x2c, 0xd1, 0x3d, 0x08, 0xa4, 0xf8, 0x3d,
  0xd1, 0xbf, 0xb8, 0x3e, 0xb7, 0x28, 0x3c, 0xbd, 0xb0, 0xfa, 0xaa, 0x3e,
  0xdf, 0xce, 0x9c, 0x3e, 0x62, 0x50, 0x8e, 0x3d, 0x52, 0x91, 0x2d, 0xbe,
  0x84, 0xd9, 0x73, 0x3c, 0xfb, 0xa6, 0x9f, 0xbe, 0x05, 0x42, 0xef, 0x3e,
  0xaf, 0x7d, 0x97, 0x3e, 0xed, 0xaa, 0x90, 0xbe, 0xef, 0xd7, 0x73, 0xbe,
  0xb9, 0x00, 0x16, 0xbe, 0x2c, 0x06, 0xcb, 0x3e, 0xd8, 0xe0, 0x89, 0x3e,
  0x21, 0xb8, 0x9c, 0x3e, 0x26, 0xc6, 0x93, 0x3e, 0x96, 0x54, 0xd4, 0x3e,
  0xa4, 0x38, 0x9b, 0x3e, 0x4f, 0xcc, 0x20, 0xbe, 0x47, 0xc7, 0x8e, 0x3e,
  0x06, 0x14, 0x1b, 0x3e, 0x3a, 0xe5, 0x1b, 0x3e, 0x14, 0x28, 0x8c, 0x3d,
  0x62, 0x01, 0x2b, 0x3e, 0x48, 0x98, 0x8b, 0xbe, 0x85, 0x80, 0x84, 0xbe,
  0x1a, 0xc0, 0xe2, 0xbe, 0x61, 0xd5, 0xa7, 0xbe, 0x31, 0xe2, 0x0e, 0xbe,
  0x87, 0xb6, 0x6f, 0x3d, 0x14, 0xfd, 0x0f, 0x3e, 0xf2, 0x15, 0x68, 0xbe,
  0x1a, 0x77, 0x5a, 0x3e, 0x22, 0x0b, 0x85, 0x3e, 0xd6, 0x22, 0xe6, 0x3e,
  0x0d, 0x98, 0xb5, 0x3d, 0xb1, 0xbf, 0xc0, 0xbe, 0x44, 0xff, 0xc2, 0x3e,
  0x1c, 0xd4, 0x75, 0xbd, 0xbd, 0x38, 0xe8, 0x3c, 0x4c, 0x5a, 0x0a, 0xbe,
  0x50, 0x8d, 0x99, 0xbe, 0x4d, 0xb8, 0xa3, 0x3d, 0x02, 0xa8, 0xcf, 0xbe,
  0xf4, 0x86, 0x9e, 0x3e, 0x9d, 0xa1, 0x8f, 0xbe, 0x3f, 0x4a, 0xa3, 0xbe,
  0xb0, 0xe8, 0xeb, 0xbe, 0xa1, 0xea, 0xec, 0xbe, 0x11, 0x73, 0xb3, 0xbe,
  0x94, 0x89, 0x60, 0x3e, 0x96, 0x87, 0x87, 0xbe, 0x0d, 0xfa, 0x13, 0xbe,
  0x99, 0xb6, 0x4f, 0xbe, 0x49, 0x47, 0xfb, 0x3d, 0xcc, 0xfb, 0x45, 0x3e,
  0xe7, 0x93, 0x81, 0x3e, 0x36, 0x69, 0x6a, 0x3e, 0x1f, 0x52, 0xfc, 0xbe,
  0x58, 0x2d, 0x3e, 0x3d, 0xa2, 0xb6, 0x4e, 0xbe, 0x6a, 0xef, 0x39, 0x3e,
  0xb0, 0x00, 0x56, 0xbe, 0x35, 0xf3, 0x9b, 0xbe, 0xeb, 0xd2, 0x74, 0x3e,
  0x1f, 0xea, 0xc0, 0x3e, 0x51, 0x83, 0x88, 0x3e, 0x08, 0x1b, 0xdc, 0xbe,
  0x4b, 0xa8, 0x87, 0xbe, 0xed, 0xfa, 0x68, 0x3e, 0x68, 0x1b, 0xb3, 0xbd,
  0xf6, 0x10, 0x87, 0xbd, 0x7b, 0xb8, 0xca, 0xbe, 0x06, 0xf4, 0x40, 0x3e,
  0x2c, 0xe9, 0x23, 0xbd, 0x9b, 0xce, 0x14, 0xbe, 0x66, 0x02, 0x2e, 0x3c,
  0x6f, 0xf8, 0xcf, 0xbe, 0xa8, 0x30, 0x8e, 0x3e, 0x56, 0x1b, 0x2a, 0xbd,
  0x64, 0x2b, 0xc7, 0xbd, 0xea, 0x4c, 0xdd, 0xbd, 0xa7, 0x60, 0xcf, 0x3e,
  0x90, 0xc1, 0xbb, 0xbc, 0xc3, 0x14, 0x82, 0xbe, 0x94, 0x31, 0xf1, 0x3d,
  0x69, 0x91, 0x00, 0xbe, 0x42, 0x77, 0x0f, 0xbe, 0x40, 0xad, 0xa7, 0xbc,
  0xf8, 0x8f, 0x79, 0xbd, 0xfa, 0xdf, 0x71, 0x3e, 0xd2, 0xeb, 0x68, 0x3e,
  0x80, 0x87, 0xa2, 0xbb, 0x9e, 0xc4, 0x3d, 0x3e, 0xce, 0xce, 0x29, 0x3e,
  0x9c, 0xba, 0xa0, 0xbe, 0x6e, 0x5a, 0x0e, 0x3e, 0x4a, 0xd4, 0x67, 0xbe,
  0xc6, 0x56, 0x0b, 0x3e, 0x8e, 0xea, 0xb4, 0xbe, 0xa2, 0xdb, 0x1e, 0xbe,
  0xe0, 0x4c, 0xa4, 0xbd, 0x94, 0xee, 0xa4, 0xbd, 0x2b, 0xe1, 0xab, 0x3e,
  0xe3, 0xa0, 0x07, 0xbe, 0x18, 0xfb, 0xeb, 0xbd, 0x18, 0x2b, 0xda, 0xbd,
  0xe4, 0xa7, 0x3a, 0xbe, 0x28, 0xae, 0x8b, 0xbe, 0x14, 0x76, 0xaa, 0x3d,
  0x2d, 0x43, 0x13, 0xbe, 0xfa, 0x7d, 0x17, 0xbe, 0x7a, 0x27, 0x53, 0x3e,
  0x2a, 0x75, 0xb4, 0xbe, 0x7a, 0x02, 0x80, 0xbe, 0x8b, 0xac, 0x8f, 0x3e,
  0xb4, 0xef, 0xd7, 0x3d, 0x29, 0x5b, 0xa8, 0x3e, 0x1e, 0x6f, 0x2e, 0x3e,
  0x5f, 0xc5, 0x1a, 0x3f, 0x0a, 0x30, 0x62, 0x3e, 0x10, 0xbd, 0x78, 0xbe,
  0x00, 0x39, 0x07, 0xbe, 0xe2, 0xe4, 0xa0, 0xbd, 0x1a, 0xa7, 0xb0, 0xbe,
  0x24, 0xc9, 0x90, 0xbe, 0xbe, 0x03, 0x09, 0x3e, 0x9f, 0x95, 0x53, 0xbe,
  0x99, 0xda, 0x2c, 0xbe, 0xed, 0x4b, 0xe7, 0x3b, 0x91, 0x33, 0x98, 0x3e,
  0x68, 0x32, 0x85, 0xbe, 0x29, 0xfa, 0xbb, 0xbd, 0x64, 0xc6, 0xb6, 0x3e,
  0x38, 0x4d, 0xb2, 0xbe, 0xb7, 0x58, 0x1c, 0x3e, 0xd2, 0x5b, 0x9d, 0x3e,
  0x60, 0xf4, 0x3f, 0x3d, 0xf5, 0x54, 0x0e, 0xbd, 0xf9, 0x7a, 0x5b, 0x3c,
  0x5e, 0x2b, 0xcb, 0xbc, 0xb3, 0x80, 0xb0, 0xbd, 0xa9, 0xad, 0xc8, 0xbe,
  0x9d, 0xf9, 0x99, 0xbe, 0x48, 0xba, 0x65, 0xbd, 0xa4, 0x57, 0xeb, 0xbd,
  0x5c, 0xb1, 0x10, 0x3e, 0x51, 0x6e, 0xa9, 0xbe, 0x80, 0x65, 0xc7, 0xbd,
  0x73, 0x1f, 0x1a, 0x3e, 0x8f, 0xa3, 0x6d, 0xbe, 0x92, 0xf1, 0xd5, 0x3e,
  0xb6, 0x25, 0xa8, 0xbe, 0xc0, 0xd7, 0xd0, 0x3b, 0x7a, 0xcf, 0x33, 0x3e,
  0x58, 0xaf, 0x26, 0x3d, 0x60, 0x3e, 0x3c, 0x3d, 0xb4, 0x43, 0xaa, 0xbd,
  0x93, 0xe1, 0x87, 0x3e, 0x12, 0x3c, 0x5d, 0xbd, 0x69, 0x66, 0x3b, 0x3e,
  0x66, 0x2f, 0xc9, 0xbe, 0xf8, 0x2e, 0xb9, 0xbd, 0x2a, 0x20, 0x98, 0xbe,
  0x86, 0x66, 0xb7, 0x3e, 0xca, 0x65, 0x22, 0xbd, 0x5c, 0x44, 0x2e, 0xbe,
  0xb7, 0x34, 0x00, 0x3f, 0xf1, 0x7c, 0xac, 0x3c, 0x0d, 0xf6, 0x5f, 0xbe,
  0xb2, 0x38, 0x3e, 0xbe, 0xc6, 0x83, 0x63, 0x3e, 0xe0, 0x3d, 0x36, 0xbe,
  0xc1, 0x6d, 0x96, 0x3e, 0x28, 0x08, 0x5d, 0xbd, 0xf4, 0xf4, 0xbb, 0x3e,
  0x6b, 0x0a, 0x04, 0x3e, 0x13, 0x29, 0x8e, 0x3e, 0x6b, 0x68, 0x8d, 0x3d,
  0xf4, 0x01, 0xc0, 0x3d, 0xa8, 0xa1, 0xd7, 0x3d, 0xbf, 0x4a, 0x28, 0x3f,
  0x5a, 0xfc, 0xff, 0xff, 0x04, 0x00, 0x00, 0x00, 0x00, 0x01, 0x00, 0x00,
  0x89, 0x29, 0x5e, 0x3e, 0xaf, 0xf6, 0x1b, 0x3f, 0x9c, 0x6c, 0x2d, 0x3e,
  0x32, 0x7e, 0xb8, 0x3e, 0xc9, 0x92, 0x1a, 0xbf, 0xad, 0x95, 0xef, 0xbd,
  0xe2, 0xeb, 0xd4, 0xbe, 0x90, 0xb4, 0x78, 0xbe, 0x0f, 0x53, 0xde, 0xb9,
  0x1a, 0xb9, 0x01, 0xbf, 0x77, 0x32, 0x3f, 0xbf, 0x44, 0x06, 0xe8, 0xbe,
  0xbe, 0x4b, 0x90, 0x3e, 0x4f, 0x08, 0xff, 0xbe, 0x9d, 0x12, 0x33, 0xbf,
  0x9d, 0xea, 0x47, 0xbf, 0xd7, 0xec, 0x7c, 0xbd, 0x0f, 0x46, 0x97, 0xbe,
  0x2d, 0x90, 0x9d, 0xbe, 0x0a, 0x21, 0x7f, 0x3e, 0x8b, 0xc9, 0x93, 0xbe,
  0xc8, 0xd5, 0x5d, 0x3e, 0xec, 0xc3, 0x55, 0x3e, 0x32, 0x2e, 0x58, 0x3e,
  0xd8, 0x33, 0x01, 0x3e, 0x21, 0x30, 0x0d, 0xbf, 0x0e, 0x89, 0x40, 0x3e,
  0x7b, 0x1c, 0x61, 0x3e, 0x65, 0xde, 0xd0, 0x3e, 0x76, 0x09, 0xf4, 0xbe,
  0x29, 0x9b, 0x13, 0x3f, 0xa9, 0x5e, 0x3f, 0xbf, 0xf6, 0xc5, 0xc5, 0x3e,
  0xe1, 0x43, 0x72, 0x3d, 0x89, 0x8a, 0x3b, 0xbf, 0x7c, 0xe7, 0x51, 0xbe,
  0xd8, 0xb7, 0x1a, 0xbf, 0x82, 0x7f, 0x06, 0x3f, 0x32, 0xd9, 0x0f, 0xbe,
  0x15, 0x29, 0x86, 0x3e, 0xea, 0x2b, 0xa9, 0xbe, 0xbb, 0xa0, 0x15, 0x3f,
  0xfb, 0x60, 0xce, 0x3e, 0x2e, 0x2c, 0x95, 0xbe, 0xba, 0x82, 0x87, 0xbe,
  0xb4, 0x43, 0xe6, 0xbe, 0x89, 0x97, 0x5d, 0xbe, 0xf2, 0x93, 0x12, 0x3e,
  0x81, 0x65, 0x90, 0xbb, 0x87, 0x88, 0x85, 0xbe, 0x56, 0xb0, 0xb9, 0x3c,
  0x9c, 0x29, 0xcd, 0x3d, 0x98, 0xcc, 0x1f, 0x3f, 0x13, 0x80, 0x23, 0xbf,
  0x96, 0x88, 0x89, 0x3e, 0x08, 0x1c, 0x0c, 0xbf, 0xd5, 0x39, 0x04, 0x3f,
  0x8b, 0x7e, 0x18, 0x3d, 0x03, 0x06, 0xec, 0x3e, 0x2e, 0xfd, 0x1a, 0xbf,
  0x0a, 0x09, 0x0e, 0x3f, 0x60, 0xae, 0x50, 0x3d, 0xec, 0xb0, 0x30, 0xbd,
  0x7e, 0x0c, 0x88, 0xbe, 0x66, 0xfd, 0xff, 0xff, 0x04, 0x00, 0x00, 0x00,
  0x10, 0x00, 0x00, 0x00, 0x18, 0xdf, 0x3e, 0x3d, 0x84, 0xc3, 0xfe, 0xba,
  0xac, 0xc6, 0xbb, 0xbc, 0x70, 0xf6, 0x51, 0xbc, 0x82, 0xfd, 0xff, 0xff,
  0x04, 0x00, 0x00, 0x00, 0x40, 0x00, 0x00, 0x00, 0x5f, 0x17, 0x0d, 0xbd,
  0x94, 0x48, 0x6f, 0x3d, 0xb4, 0x5a, 0x0e, 0x3d, 0x05, 0x07, 0x19, 0xbc,
  0xf8, 0xdf, 0xdc, 0x3c, 0xf3, 0x21, 0xa2, 0x3c, 0x5c, 0x4a, 0x97, 0xbc,
  0xd4, 0xb9, 0x68, 0xbc, 0xad, 0x31, 0x24, 0xbc, 0x48, 0xeb, 0xa6, 0x3c,
  0x21, 0x3d, 0xcc, 0x3c, 0x67, 0xeb, 0xae, 0x3c, 0x4b, 0x14, 0x88, 0x3d,
  0x00, 0x00, 0x00, 0x00, 0x3f, 0x00, 0x0e, 0x3d, 0x7b, 0x35, 0x76, 0x3d,
  0xce, 0xfd, 0xff, 0xff, 0x04, 0x00, 0x00, 0x00, 0x80, 0x00, 0x00, 0x00,
  0x97, 0xae, 0x58, 0x3d, 0xaf, 0x37, 0x97, 0x3d, 0x00, 0x00, 0x00, 0x00,
  0x00, 0x00, 0x00, 0x00, 0xe9, 0x2f, 0x22, 0x3d, 0x81, 0x60, 0x8d, 0xbc,
  0x00, 0x00, 0x00, 0x00, 0xd0, 0x20, 0xd2, 0xbb, 0x00, 0x00, 0x00, 0x00,
  0x72, 0x20, 0x15, 0x3d, 0xe0, 0xd7, 0xab, 0x3c, 0xa3, 0x3f, 0xfa, 0x3c,
  0x42, 0x11, 0x34, 0x3d, 0xfa, 0xf8, 0xc1, 0x3c, 0xa2, 0x54, 0xb8, 0x3c,
  0xa8, 0x9f, 0xae, 0x3d, 0xdc, 0xd7, 0xb3, 0xbc, 0xf4, 0x61, 0x4a, 0x3d,
  0x2d, 0x5c, 0xd0, 0xbb, 0x00, 0x00, 0x00, 0x00, 0xad, 0x5e, 0x10, 0x3d,
  0xce, 0xe1, 0x32, 0x3c, 0xb2, 0x07, 0xce, 0x3c, 0xb8, 0x0a, 0xa7, 0x3c,
  0x66, 0x44, 0xc8, 0x3c, 0x4a, 0x93, 0x2a, 0x3d, 0xc1, 0x43, 0x13, 0x3d,
  0x03, 0x73, 0x3f, 0xbc, 0xc7, 0xc2, 0xbf, 0x3d, 0x00, 0x00, 0x00, 0x00,
  0x00, 0x00, 0x00, 0x00, 0xc7, 0x1d, 0x46, 0x3d, 0x5a, 0xfe, 0xff, 0xff,
  0x04, 0x00, 0x00, 0x00, 0x00, 0x01, 0x00, 0x00, 0xb2, 0x35, 0x64, 0xbc,
  0x48, 0x28, 0xe9, 0x3d, 0xb3, 0xe9, 0x4f, 0x3d, 0xdf, 0x5b, 0x28, 0x3d,
  0xfd, 0x4a, 0x0c, 0xbb, 0x00, 0x00, 0x00, 0x00, 0x00, 0x00, 0x00, 0x00,
  0x00, 0x00, 0x00, 0x00, 0xe5, 0x21, 0x63, 0x3d, 0x00, 0x00, 0x00, 0x00,
  0x59, 0xc6, 0x8a, 0x3d, 0x00, 0x00, 0x00, 0x00, 0x9b, 0x17, 0xb2, 0xbc,
  0x00, 0x00, 0x00, 0x00, 0xb0, 0x59, 0x40, 0x3d, 0x00, 0x00, 0x00, 0x00,
  0xe4, 0xb5, 0xeb, 0xbc, 0x02, 0x2f, 0x4d, 0x3d, 0x46, 0x05, 0x06, 0xbd,
  0xa6, 0xc5, 0x4d, 0x3d, 0xc2, 0x54, 0xc5, 0x3a, 0x00, 0x00, 0x00, 0x00,
  0x00, 0x00, 0x00, 0x00, 0x92, 0xa1, 0x54, 0x3d, 0x99, 0x20, 0x9f, 0xbc,
  0x00, 0x00, 0x00, 0x00, 0x30, 0x41, 0xc7, 0xba, 0x68, 0x4f, 0x65, 0x3c,
  0xa2, 0x48, 0x61, 0x3d, 0x94, 0xa2, 0x88, 0x3d, 0x77, 0x12, 0x02, 0xbd,
  0x00, 0x00, 0x00, 0x00, 0x64, 0xf1, 0x5b, 0x3d, 0x41, 0xcc, 0x55, 0x3d,
  0x22, 0x13, 0x7d, 0x3d, 0xfd, 0xeb, 0x4e, 0x3c, 0x93, 0xc4, 0x44, 0x3d,
  0x00, 0x00, 0x00, 0x00, 0xb8, 0xdb, 0x6f, 0x3d, 0xf6, 0xdf, 0xa0, 0x3d,
  0x1e, 0x77, 0xcf, 0x3c, 0xd6, 0xec, 0x82, 0x3d, 0x8a, 0xf3, 0x3e, 0x3d,
  0xbf, 0x15, 0xfd, 0xbb, 0xf4, 0x04, 0x5d, 0x3d, 0x3b, 0x43, 0x80, 0x3d,
  0xc9, 0xd7, 0xdf, 0xbc, 0xd5, 0xa6, 0x48, 0x3d, 0xae, 0xa0, 0xd2, 0x3c,
  0x57, 0xe6, 0xbd, 0x3d, 0x87, 0x8d, 0x5b, 0x3d, 0x00, 0x00, 0x00, 0x00,
  0xf3, 0xc7, 0xe5, 0xbc, 0x00, 0x00, 0x00, 0x00, 0x1f, 0x09, 0x26, 0x3d,
  0x00, 0x00, 0x00, 0x00, 0x00, 0x00, 0x00, 0x00, 0x66, 0x7e, 0x90, 0x3d,
  0x8a, 0xf7, 0x5e, 0x3d, 0x00, 0x00, 0x00, 0x00, 0xc2, 0x7b, 0x34, 0x3d,
  0x2b, 0x35, 0x4a, 0xbc, 0x00, 0x00, 0x00, 0x00, 0x00, 0x00, 0x00, 0x00,
  0x34, 0xf4, 0xff, 0xff, 0x38, 0xf4, 0xff, 0xff, 0x0f, 0x00, 0x00, 0x00,
  0x4d, 0x4c, 0x49, 0x52, 0x20, 0x43, 0x6f, 0x6e, 0x76, 0x65, 0x72, 0x74,
  0x65, 0x64, 0x2e, 0x00, 0x01, 0x00, 0x00, 0x00, 0x14, 0x00, 0x00, 0x00,
  0x00, 0x00, 0x0e, 0x00, 0x18, 0x00, 0x14, 0x00, 0x10, 0x00, 0x0c, 0x00,
  0x08, 0x00, 0x04, 0x00, 0x0e, 0x00, 0x00, 0x00, 0x14, 0x00, 0x00, 0x00,
  0x1c, 0x00, 0x00, 0x00, 0x78, 0x01, 0x00, 0x00, 0x7c, 0x01, 0x00, 0x00,
  0x80, 0x01, 0x00, 0x00, 0x04, 0x00, 0x00, 0x00, 0x6d, 0x61, 0x69, 0x6e,
  0x00, 0x00, 0x00, 0x00, 0x05, 0x00, 0x00, 0x00, 0x1c, 0x01, 0x00, 0x00,
  0xd4, 0x00, 0x00, 0x00, 0x94, 0x00, 0x00, 0x00, 0x50, 0x00, 0x00, 0x00,
  0x14, 0x00, 0x00, 0x00, 0x00, 0x00, 0x0e, 0x00, 0x1a, 0x00, 0x14, 0x00,
  0x10, 0x00, 0x0c, 0x00, 0x0b, 0x00, 0x04, 0x00, 0x0e, 0x00, 0x00, 0x00,
  0x1c, 0x00, 0x00, 0x00, 0x00, 0x00, 0x00, 0x09, 0x1c, 0x00, 0x00, 0x00,
  0x20, 0x00, 0x00, 0x00, 0x01, 0x00, 0x00, 0x00, 0x00, 0x00, 0x06, 0x00,
  0x08, 0x00, 0x04, 0x00, 0x06, 0x00, 0x00, 0x00, 0x00, 0x00, 0x80, 0x3f,
  0x01, 0x00, 0x00, 0x00, 0x0d, 0x00, 0x00, 0x00, 0x01, 0x00, 0x00, 0x00,
  0x0c, 0x00, 0x00, 0x00, 0x4e, 0xff, 0xff, 0xff, 0x10, 0x00, 0x00, 0x00,
  0x00, 0x00, 0x00, 0x08, 0x0c, 0x00, 0x00, 0x00, 0x10, 0x00, 0x00, 0x00,
  0x00, 0xf5, 0xff, 0xff, 0x01, 0x00, 0x00, 0x00, 0x0c, 0x00, 0x00, 0x00,
  0x03, 0x00, 0x00, 0x00, 0x0b, 0x00, 0x00, 0x00, 0x05, 0x00, 0x00, 0x00,
  0x04, 0x00, 0x00, 0x00, 0x00, 0x00, 0x0e, 0x00, 0x16, 0x00, 0x00, 0x00,
  0x10, 0x00, 0x0c, 0x00, 0x0b, 0x00, 0x04, 0x00, 0x0e, 0x00, 0x00, 0x00,
  0x18, 0x00, 0x00, 0x00, 0x00, 0x00, 0x00, 0x08, 0x18, 0x00, 0x00, 0x00,
  0x1c, 0x00, 0x00, 0x00, 0x00, 0x00, 0x06, 0x00, 0x08, 0x00, 0x07, 0x00,
  0x06, 0x00, 0x00, 0x00, 0x00, 0x00, 0x00, 0x01, 0x01, 0x00, 0x00, 0x00,
  0x0b, 0x00, 0x00, 0x00, 0x03, 0x00, 0x00, 0x00, 0x0a, 0x00, 0x00, 0x00,
  0x06, 0x00, 0x00, 0x00, 0x03, 0x00, 0x00, 0x00, 0xca, 0xff, 0xff, 0xff,
  0x10, 0x00, 0x00, 0x00, 0x00, 0x00, 0x00, 0x08, 0x10, 0x00, 0x00, 0x00,
  0x14, 0x00, 0x00, 0x00, 0xbc, 0xff, 0xff, 0xff, 0x00, 0x00, 0x01, 0x01,
  0x01, 0x00, 0x00, 0x00, 0x0a, 0x00, 0x00, 0x00, 0x03, 0x00, 0x00, 0x00,
  0x09, 0x00, 0x00, 0x00, 0x07, 0x00, 0x00, 0x00, 0x02, 0x00, 0x00, 0x00,
  0x00, 0x00, 0x0e, 0x00, 0x14, 0x00, 0x00, 0x00, 0x10, 0x00, 0x0c, 0x00,
  0x0b, 0x00, 0x04, 0x00, 0x0e, 0x00, 0x00, 0x00, 0x1c, 0x00, 0x00, 0x00,
  0x00, 0x00, 0x00, 0x08, 0x1c, 0x00, 0x00, 0x00, 0x20, 0x00, 0x00, 0x00,
  0x0c, 0x00, 0x08, 0x00, 0x07, 0x00, 0x00, 0x00, 0x00, 0x00, 0x06, 0x00,
  0x0c, 0x00, 0x00, 0x00, 0x00, 0x00, 0x01, 0x01, 0x01, 0x00, 0x00, 0x00,
  0x09, 0x00, 0x00, 0x00, 0x03, 0x00, 0x00, 0x00, 0x00, 0x00, 0x00, 0x00,
  0x08, 0x00, 0x00, 0x00, 0x01, 0x00, 0x00, 0x00, 0x01, 0x00, 0x00, 0x00,
  0x0d, 0x00, 0x00, 0x00, 0x01, 0x00, 0x00, 0x00, 0x00, 0x00, 0x00, 0x00,
  0x0e, 0x00, 0x00, 0x00, 0xd8, 0x09, 0x00, 0x00, 0x84, 0x09, 0x00, 0x00,
  0x30, 0x09, 0x00, 0x00, 0xf4, 0x08, 0x00, 0x00, 0xb8, 0x08, 0x00, 0x00,
  0x78, 0x08, 0x00, 0x00, 0x38, 0x08, 0x00, 0x00, 0x50, 0x06, 0x00, 0x00,
  0xd0, 0x02, 0x00, 0x00, 0x2c, 0x02, 0x00, 0x00, 0x88, 0x01, 0x00, 0x00,
  0xe4, 0x00, 0x00, 0x00, 0x60, 0x00, 0x00, 0x00, 0x04, 0x00, 0x00, 0x00,
  0x76, 0xf6, 0xff, 0xff, 0x00, 0x00, 0x00, 0x01, 0x14, 0x00, 0x00, 0x00,
  0x1c, 0x00, 0x00, 0x00, 0x1c, 0x00, 0x00, 0x00, 0x0e, 0x00, 0x00, 0x00,
  0x34, 0x00, 0x00, 0x00, 0x02, 0x00, 0x00, 0x00, 0xff, 0xff, 0xff, 0xff,
  0x04, 0x00, 0x00, 0x00, 0x60, 0xf6, 0xff, 0xff, 0x1b, 0x00, 0x00, 0x00,
  0x53, 0x74, 0x61, 0x74, 0x65, 0x66, 0x75, 0x6c, 0x50, 0x61, 0x72, 0x74,
  0x69, 0x74, 0x69, 0x6f, 0x6e, 0x65, 0x64, 0x43, 0x61, 0x6c, 0x6c, 0x5f,
  0x31, 0x3a, 0x30, 0x00, 0x02, 0x00, 0x00, 0x00, 0x01, 0x00, 0x00, 0x00,
  0x04, 0x00, 0x00, 0x00, 0xce, 0xf6, 0xff, 0xff, 0x00, 0x00, 0x00, 0x01,
  0x14, 0x00, 0x00, 0x00, 0x1c, 0x00, 0x00, 0x00, 0x1c, 0x00, 0x00, 0x00,
  0x0d, 0x00, 0x00, 0x00, 0x5c, 0x00, 0x00, 0x00, 0x02, 0x00, 0x00, 0x00,
  0xff, 0xff, 0xff, 0xff, 0x04, 0x00, 0x00, 0x00, 0xb8, 0xf6, 0xff, 0xff,
  0x42, 0x00, 0x00, 0x00, 0x73, 0x65, 0x71, 0x75, 0x65, 0x6e, 0x74, 0x69,
  0x61, 0x6c, 0x5f, 0x33, 0x5f, 0x31, 0x2f, 0x64, 0x65, 0x6e, 0x73, 0x65,
  0x5f, 0x31, 0x35, 0x5f, 0x31, 0x2f, 0x4d, 0x61, 0x74, 0x4d, 0x75, 0x6c,
  0x3b, 0x73, 0x65, 0x71, 0x75, 0x65, 0x6e, 0x74, 0x69, 0x61, 0x6c, 0x5f,
  0x33, 0x5f, 0x31, 0x2f, 0x64, 0x65, 0x6e, 0x73, 0x65, 0x5f, 0x31, 0x35,
  0x5f, 0x31, 0x2f, 0x42, 0x69, 0x61, 0x73, 0x41, 0x64, 0x64, 0x00, 0x00,
  0x02, 0x00, 0x00, 0x00, 0x01, 0x00, 0x00, 0x00, 0x04, 0x00, 0x00, 0x00,
  0x4e, 0xf7, 0xff, 0xff, 0x00, 0x00, 0x00, 0x01, 0x14, 0x00, 0x00, 0x00,
  0x1c, 0x00, 0x00, 0x00, 0x1c, 0x00, 0x00, 0x00, 0x0c, 0x00, 0x00, 0x00,
  0x7c, 0x00, 0x00, 0x00, 0x02, 0x00, 0x00, 0x00, 0xff, 0xff, 0xff, 0xff,
  0x10, 0x00, 0x00, 0x00, 0x38, 0xf7, 0xff, 0xff, 0x61, 0x00, 0x00, 0x00,
  0x73, 0x65, 0x71, 0x75, 0x65, 0x6e, 0x74, 0x69, 0x61, 0x6c, 0x5f, 0x33,
  0x5f, 0x31, 0x2f, 0x64, 0x65, 0x6e, 0x73, 0x65, 0x5f, 0x31, 0x34, 0x5f,
  0x31, 0x2f, 0x4d, 0x61, 0x74, 0x4d, 0x75, 0x6c, 0x3b, 0x73, 0x65, 0x71,
  0x75, 0x65, 0x6e, 0x74, 0x69, 0x61, 0x6c, 0x5f, 0x33, 0x5f, 0x31, 0x2f,
  0x64, 0x65, 0x6e, 0x73, 0x65, 0x5f, 0x31, 0x34, 0x5f, 0x31, 0x2f, 0x52,
  0x65, 0x6c, 0x75, 0x3b, 0x73, 0x65, 0x71, 0x75, 0x65, 0x6e, 0x74, 0x69,
  0x61, 0x6c, 0x5f, 0x33, 0x5f, 0x31, 0x2f, 0x64, 0x65, 0x6e, 0x73, 0x65,
  0x5f, 0x31, 0x34, 0x5f, 0x31, 0x2f, 0x42, 0x69, 0x61, 0x73, 0x41, 0x64,
  0x64, 0x00, 0x00, 0x00, 0x02, 0x00, 0x00, 0x00, 0x01, 0x00, 0x00, 0x00,
  0x10, 0x00, 0x00, 0x00, 0xee, 0xf7, 0xff, 0xff, 0x00, 0x00, 0x00, 0x01,
  0x14, 0x00, 0x00, 0x00, 0x1c, 0x00, 0x00, 0x00, 0x1c, 0x00, 0x00, 0x00,
  0x0b, 0x00, 0x00, 0x00, 0x7c, 0x00, 0x00, 0x00, 0x02, 0x00, 0x00, 0x00,
  0xff, 0xff, 0xff, 0xff, 0x20, 0x00, 0x00, 0x00, 0xd8, 0xf7, 0xff, 0xff,
  0x61, 0x00, 0x00, 0x00, 0x73, 0x65, 0x71, 0x75, 0x65, 0x6e, 0x74, 0x69,
  0x61, 0x6c, 0x5f, 0x33, 0x5f, 0x31, 0x2f, 0x64, 0x65, 0x6e, 0x73, 0x65,
  0x5f, 0x31, 0x33, 0x5f, 0x31, 0x2f, 0x4d, 0x61, 0x74, 0x4d, 0x75, 0x6c,
  0x3b, 0x73, 0x65, 0x71, 0x75, 0x65, 0x6e, 0x74, 0x69, 0x61, 0x6c, 0x5f,
  0x33, 0x5f, 0x31, 0x2f, 0x64, 0x65, 0x6e, 0x73, 0x65, 0x5f, 0x31, 0x33,
  0x5f, 0x31, 0x2f, 0x52, 0x65, 0x6c, 0x75, 0x3b, 0x73, 0x65, 0x71, 0x75,
  0x65, 0x6e, 0x74, 0x69, 0x61, 0x6c, 0x5f, 0x33, 0x5f, 0x31, 0x2f, 0x64,
  0x65, 0x6e, 0x73, 0x65, 0x5f, 0x31, 0x33, 0x5f, 0x31, 0x2f, 0x42, 0x69,
  0x61, 0x73, 0x41, 0x64, 0x64, 0x00, 0x00, 0x00, 0x02, 0x00, 0x00, 0x00,
  0x01, 0x00, 0x00, 0x00, 0x20, 0x00, 0x00, 0x00, 0x8e, 0xf8, 0xff, 0xff,
  0x00, 0x00, 0x00, 0x01, 0x14, 0x00, 0x00, 0x00, 0x1c, 0x00, 0x00, 0x00,
  0x1c, 0x00, 0x00, 0x00, 0x0a, 0x00, 0x00, 0x00, 0x7c, 0x00, 0x00, 0x00,
  0x02, 0x00, 0x00, 0x00, 0xff, 0xff, 0xff, 0xff, 0x40, 0x00, 0x00, 0x00,
  0x78, 0xf8, 0xff, 0xff, 0x61, 0x00, 0x00, 0x00, 0x73, 0x65, 0x71, 0x75,
  0x65, 0x6e, 0x74, 0x69, 0x61, 0x6c, 0x5f, 0x33, 0x5f, 0x31, 0x2f, 0x64,
  0x65, 0x6e, 0x73, 0x65, 0x5f, 0x31, 0x32, 0x5f, 0x31, 0x2f, 0x4d, 0x61,
  0x74, 0x4d, 0x75, 0x6c, 0x3b, 0x73, 0x65, 0x71, 0x75, 0x65, 0x6e, 0x74,
  0x69, 0x61, 0x6c, 0x5f, 0x33, 0x5f, 0x31, 0x2f, 0x64, 0x65, 0x6e, 0x73,
  0x65, 0x5f, 0x31, 0x32, 0x5f, 0x31, 0x2f, 0x52, 0x65, 0x6c, 0x75, 0x3b,
  0x73, 0x65, 0x71, 0x75, 0x65, 0x6e, 0x74, 0x69, 0x61, 0x6c, 0x5f, 0x33,
  0x5f, 0x31, 0x2f, 0x64, 0x65, 0x6e, 0x73, 0x65, 0x5f, 0x31, 0x32, 0x5f,
  0x31, 0x2f, 0x42, 0x69, 0x61, 0x73, 0x41, 0x64, 0x64, 0x00, 0x00, 0x00,
  0x02, 0x00, 0x00, 0x00, 0x01, 0x00, 0x00, 0x00, 0x40, 0x00, 0x00, 0x00,
  0x9a, 0xfc, 0xff, 0xff, 0x00, 0x00, 0x00, 0x01, 0x14, 0x00, 0x00, 0x00,
  0x24, 0x03, 0x00, 0x00, 0x09, 0x00, 0x00, 0x00, 0x00, 0x00, 0x00, 0x09,
  0x40, 0x03, 0x00, 0x00, 0x84, 0xfc, 0xff, 0xff, 0x08, 0x00, 0x00, 0x00,
  0x08, 0x02, 0x00, 0x00, 0x40, 0x00, 0x00, 0x00, 0x00, 0x00, 0x00, 0x00,
  0x00, 0x00, 0x00, 0x00, 0x00, 0x00, 0x00, 0x00, 0x00, 0x00, 0x00, 0x00,
  0x00, 0x00, 0x00, 0x00, 0x00, 0x00, 0x00, 0x00, 0x00, 0x00, 0x00, 0x00,
  0x00, 0x00, 0x00, 0x00, 0x00, 0x00, 0x00, 0x00, 0x00, 0x00, 0x00, 0x00,
  0x00, 0x00, 0x00, 0x00, 0x00, 0x00, 0x00, 0x00, 0x00, 0x00, 0x00, 0x00,
  0x00, 0x00, 0x00, 0x00, 0x00, 0x00, 0x00, 0x00, 0x00, 0x00, 0x00, 0x00,
  0x00, 0x00, 0x00, 0x00, 0x00, 0x00, 0x00, 0x00, 0x00, 0x00, 0x00, 0x00,
  0x00, 0x00, 0x00, 0x00, 0x00, 0x00, 0x00, 0x00, 0x00, 0x00, 0x00, 0x00,
  0x00, 0x00, 0x00, 0x00, 0x00, 0x00, 0x00, 0x00, 0x00, 0x00, 0x00, 0x00,
  0x00, 0x00, 0x00, 0x00, 0x00, 0x00, 0x00, 0x00, 0x00, 0x00, 0x00, 0x00,
  0x00, 0x00, 0x00, 0x00, 0x00, 0x00, 0x00, 0x00, 0x00, 0x00, 0x00, 0x00,
  0x00, 0x00, 0x00, 0x00, 0x00, 0x00, 0x00, 0x00, 0x00, 0x00, 0x00, 0x00,
  0x00, 0x00, 0x00, 0x00, 0x00, 0x00, 0x00, 0x00, 0x00, 0x00, 0x00, 0x00,
  0x00, 0x00, 0x00, 0x00, 0x00, 0x00, 0x00, 0x00, 0x00, 0x00, 0x00, 0x00,
  0x00, 0x00, 0x00, 0x00, 0x00, 0x00, 0x00, 0x00, 0x00, 0x00, 0x00, 0x00,
  0x00, 0x00, 0x00, 0x00, 0x00, 0x00, 0x00, 0x00, 0x00, 0x00, 0x00, 0x00,
  0x00, 0x00, 0x00, 0x00, 0x00, 0x00, 0x00, 0x00, 0x00, 0x00, 0x00, 0x00,
  0x00, 0x00, 0x00, 0x00, 0x00, 0x00, 0x00, 0x00, 0x00, 0x00, 0x00, 0x00,
  0x00, 0x00, 0x00, 0x00, 0x00, 0x00, 0x00, 0x00, 0x00, 0x00, 0x00, 0x00,
  0x00, 0x00, 0x00, 0x00, 0x00, 0x00, 0x00, 0x00, 0x00, 0x00, 0x00, 0x00,
  0x00, 0x00, 0x00, 0x00, 0x00, 0x00, 0x00, 0x00, 0x00, 0x00, 0x00, 0x00,
  0x00, 0x00, 0x00, 0x00, 0x00, 0x00, 0x00, 0x00, 0x00, 0x00, 0x00, 0x00,
  0x00, 0x00, 0x00, 0x00, 0x00, 0x00, 0x00, 0x00, 0x00, 0x00, 0x00, 0x00,
  0x00, 0x00, 0x00, 0x00, 0x00, 0x00, 0x00, 0x00, 0x00, 0x00, 0x00, 0x00,
  0x00, 0x00, 0x00, 0x00, 0x00, 0x00, 0x00, 0x00, 0x00, 0x00, 0x00, 0x00,
  0x00, 0x00, 0x00, 0x00, 0x00, 0x00, 0x00, 0x00, 0x00, 0x00, 0x00, 0x00,
  0x00, 0x00, 0x00, 0x00, 0x00, 0x00, 0x00, 0x00, 0x00, 0x00, 0x00, 0x00,
  0x00, 0x00, 0x00, 0x00, 0x00, 0x00, 0x00, 0x00, 0x00, 0x00, 0x00, 0x00,
  0x00, 0x00, 0x00, 0x00, 0x00, 0x00, 0x00, 0x00, 0x00, 0x00, 0x00, 0x00,
  0x00, 0x00, 0x00, 0x00, 0x00, 0x00, 0x00, 0x00, 0x00, 0x00, 0x00, 0x00,
  0x00, 0x00, 0x00, 0x00, 0x00, 0x00, 0x00, 0x00, 0x00, 0x00, 0x00, 0x00,
  0x00, 0x00, 0x00, 0x00, 0x00, 0x00, 0x00, 0x00, 0x00, 0x00, 0x00, 0x00,
  0x00, 0x00, 0x00, 0x00, 0x00, 0x00, 0x00, 0x00, 0x00, 0x00, 0x00, 0x00,
  0x00, 0x00, 0x00, 0x00, 0x00, 0x00, 0x00, 0x00, 0x00, 0x00, 0x00, 0x00,
  0x00, 0x00, 0x00, 0x00, 0x00, 0x00, 0x00, 0x00, 0x00, 0x00, 0x00, 0x00,
  0x00, 0x00, 0x00, 0x00, 0x00, 0x00, 0x00, 0x00, 0x00, 0x00, 0x00, 0x00,
  0x00, 0x00, 0x00, 0x00, 0x00, 0x00, 0x00, 0x00, 0x00, 0x00, 0x00, 0x00,
  0x00, 0x00, 0x00, 0x00, 0x00, 0x00, 0x00, 0x00, 0x00, 0x00, 0x00, 0x00,
  0x00, 0x00, 0x00, 0x00, 0x00, 0x00, 0x00, 0x00, 0x00, 0x00, 0x00, 0x00,
  0x00, 0x00, 0x00, 0x00, 0x00, 0x00, 0x00, 0x00, 0x00, 0x00, 0x00, 0x00,
  0x00, 0x00, 0x00, 0x00, 0x00, 0x00, 0x00, 0x00, 0x00, 0x00, 0x00, 0x00,
  0x00, 0x00, 0x00, 0x00, 0x00, 0x00, 0x00, 0x00, 0x00, 0x00, 0x00, 0x00,
  0x00, 0x00, 0x00, 0x00, 0x00, 0x00, 0x00, 0x00, 0x00, 0x00, 0x00, 0x00,
  0x00, 0x00, 0x00, 0x00, 0x40, 0x00, 0x00, 0x00, 0x7d, 0x98, 0xf0, 0x3a,
  0xd4, 0x02, 0x48, 0x3b, 0xf0, 0xc3, 0x2c, 0x3b, 0x94, 0x8f, 0x3f, 0x3b,
  0x46, 0x91, 0x4e, 0x3b, 0x58, 0xc7, 0xf0, 0x3a, 0x64, 0xc0, 0xef, 0x3a,
  0xa9, 0xd3, 0xf8, 0x3a, 0x88, 0x6e, 0x55, 0x3b, 0x37, 0x59, 0xfb, 0x3a,
  0x34, 0x61, 0x7e, 0x3b, 0x4e, 0xa0, 0xed, 0x3a, 0x74, 0xb1, 0x09, 0x3b,
  0xeb, 0x64, 0xf9, 0x3a, 0xd4, 0xa4, 0x4d, 0x3b, 0x0d, 0x56, 0xfc, 0x3a,
  0x62, 0x9e, 0x29, 0x3b, 0x77, 0x28, 0x20, 0x3b, 0x2e, 0x6d, 0x0a, 0x3b,
  0x23, 0x6f, 0x41, 0x3b, 0x2b, 0xcb, 0x53, 0x3b, 0x2b, 0xc0, 0xfa, 0x3a,
  0x0a, 0xcf, 0xf1, 0x3a, 0x67, 0xea, 0x4e, 0x3b, 0xa4, 0x4c, 0x01, 0x3b,
  0x90, 0x94, 0xfa, 0x3a, 0x81, 0x50, 0x36, 0x3b, 0xb4, 0xac, 0x3b, 0x3b,
  0xe8, 0x5f, 0x3f, 0x3b, 0xcf, 0xe6, 0x73, 0x3b, 0x8a, 0xdd, 0x09, 0x3b,
  0x27, 0x87, 0xf6, 0x3a, 0x00, 0x25, 0x36, 0x3b, 0xb1, 0x8a, 0x78, 0x3b,
  0x0b, 0x4c, 0x36, 0x3b, 0xd8, 0xa5, 0x71, 0x3b, 0x18, 0x16, 0x40, 0x3b,
  0xf5, 0xd0, 0xfa, 0x3a, 0x95, 0x65, 0x15, 0x3b, 0x86, 0xc0, 0x32, 0x3b,
  0xd1, 0x75, 0x60, 0x3b, 0x2a, 0xad, 0x43, 0x3b, 0xca, 0xf1, 0x15, 0x3b,
  0xf3, 0xd3, 0x22, 0x3b, 0x29, 0x9f, 0x5f, 0x3b, 0x09, 0x61, 0x6f, 0x3b,
  0xc9, 0xfc, 0x25, 0x3b, 0xce, 0x46, 0x22, 0x3b, 0xdf, 0xe9, 0x57, 0x3b,
  0xce, 0x03, 0x4f, 0x3b, 0x0e, 0xf2, 0x85, 0x3b, 0x1e, 0x8a, 0xfa, 0x3a,
  0x00, 0xb2, 0x1d, 0x3b, 0x78, 0xf8, 0xfb, 0x3a, 0x8c, 0x3b, 0x5a, 0x3b,
  0x3b, 0xe0, 0xf9, 0x3a, 0xe1, 0x3f, 0xfb, 0x3a, 0x16, 0xaf, 0x60, 0x3b,
  0x09, 0x80, 0x5c, 0x3b, 0xc6, 0xda, 0xeb, 0x3a, 0x68, 0xff, 0x1a, 0x3b,
  0x48, 0x45, 0xe6, 0x3a, 0xaa, 0x72, 0xef, 0x3a, 0x14, 0x2a, 0xe3, 0x3a,
  0x20, 0x00, 0x00, 0x00, 0x73, 0x65, 0x71, 0x75, 0x65, 0x6e, 0x74, 0x69,
  0x61, 0x6c, 0x5f, 0x33, 0x5f, 0x31, 0x2f, 0x64, 0x65, 0x6e, 0x73, 0x65,
  0x5f, 0x31, 0x32, 0x5f, 0x31, 0x2f, 0x4d, 0x61, 0x74, 0x4d, 0x75, 0x6c,
  0x00, 0x00, 0x00, 0x00, 0x02, 0x00, 0x00, 0x00, 0x40, 0x00, 0x00, 0x00,
  0x24, 0x00, 0x00, 0x00, 0x00, 0x00, 0x16, 0x00, 0x1c, 0x00, 0x18, 0x00,
  0x17, 0x00, 0x10, 0x00, 0x0c, 0x00, 0x08, 0x00, 0x00, 0x00, 0x00, 0x00,
  0x00, 0x00, 0x07, 0x00, 0x16, 0x00, 0x00, 0x00, 0x00, 0x00, 0x00, 0x01,
  0x20, 0x00, 0x00, 0x00, 0xb4, 0x01, 0x00, 0x00, 0x08, 0x00, 0x00, 0x00,
  0x00, 0x00, 0x00, 0x09, 0xc0, 0x01, 0x00, 0x00, 0x0c, 0x00, 0x0c, 0x00,
  0x00, 0x00, 0x00, 0x00, 0x08, 0x00, 0x04, 0x00, 0x0c, 0x00, 0x00, 0x00,
  0x08, 0x00, 0x00, 0x00, 0x0c, 0x01, 0x00, 0x00, 0x20, 0x00, 0x00, 0x00,
  0x00, 0x00, 0x00, 0x00, 0x00, 0x00, 0x00, 0x00, 0x00, 0x00, 0x00, 0x00,
  0x00, 0x00, 0x00, 0x00, 0x00, 0x00, 0x00, 0x00, 0x00, 0x00, 0x00, 0x00,
  0x00, 0x00, 0x00, 0x00, 0x00, 0x00, 0x00, 0x00, 0x00, 0x00, 0x00, 0x00,
  0x00, 0x00, 0x00, 0x00, 0x00, 0x00, 0x00, 0x00, 0x00, 0x00, 0x00, 0x00,
  0x00, 0x00, 0x00, 0x00, 0x00, 0x00, 0x00, 0x00, 0x00, 0x00, 0x00, 0x00,
  0x00, 0x00, 0x00, 0x00, 0x00, 0x00, 0x00, 0x00, 0x00, 0x00, 0x00, 0x00,
  0x00, 0x00, 0x00, 0x00, 0x00, 0x00, 0x00, 0x00, 0x00, 0x00, 0x00, 0x00,
  0x00, 0x00, 0x00, 0x00, 0x00, 0x00, 0x00, 0x00, 0x00, 0x00, 0x00, 0x00,
  0x00, 0x00, 0x00, 0x00, 0x00, 0x00, 0x00, 0x00, 0x00, 0x00, 0x00, 0x00,
  0x00, 0x00, 0x00, 0x00, 0x00, 0x00, 0x00, 0x00, 0x00, 0x00, 0x00, 0x00,
  0x00, 0x00, 0x00, 0x00, 0x00, 0x00, 0x00, 0x00, 0x00, 0x00, 0x00, 0x00,
  0x00, 0x00, 0x00, 0x00, 0x00, 0x00, 0x00, 0x00, 0x00, 0x00, 0x00, 0x00,
  0x00, 0x00, 0x00, 0x00, 0x00, 0x00, 0x00, 0x00, 0x00, 0x00, 0x00, 0x00,
  0x00, 0x00, 0x00, 0x00, 0x00, 0x00, 0x00, 0x00, 0x00, 0x00, 0x00, 0x00,
  0x00, 0x00, 0x00, 0x00, 0x00, 0x00, 0x00, 0x00, 0x00, 0x00, 0x00, 0x00,
  0x00, 0x00, 0x00, 0x00, 0x00, 0x00, 0x00, 0x00, 0x00, 0x00, 0x00, 0x00,
  0x00, 0x00, 0x00, 0x00, 0x00, 0x00, 0x00, 0x00, 0x00, 0x00, 0x00, 0x00,
  0x00, 0x00, 0x00, 0x00, 0x00, 0x00, 0x00, 0x00, 0x00, 0x00, 0x00, 0x00,
  0x00, 0x00, 0x00, 0x00, 0x00, 0x00, 0x00, 0x00, 0x00, 0x00, 0x00, 0x00,
  0x00, 0x00, 0x00, 0x00, 0x00, 0x00, 0x00, 0x00, 0x00, 0x00, 0x00, 0x00,
  0x00, 0x00, 0x00, 0x00, 0x00, 0x00, 0x00, 0x00, 0x00, 0x00, 0x00, 0x00,
  0x00, 0x00, 0x00, 0x00, 0x00, 0x00, 0x00, 0x00, 0x20, 0x00, 0x00, 0x00,
  0x6d, 0xc3, 0x38, 0x3b, 0x0d, 0x6e, 0x8f, 0x3b, 0x57, 0x79, 0xfc, 0x3a,
  0x08, 0x9f, 0x00, 0x3b, 0x80, 0x6c, 0x79, 0x3b, 0xa1, 0xbe, 0xfa, 0x3a,
  0xbb, 0x95, 0xfb, 0x3a, 0xef, 0xcf, 0xfc, 0x3a, 0xbf, 0x54, 0x00, 0x3b,
  0x23, 0x8f, 0x2b, 0x3b, 0x2e, 0x23, 0x48, 0x3b, 0xac, 0x00, 0x43, 0x3b,
  0x73, 0x55, 0x54, 0x3b, 0x12, 0x19, 0x4e, 0x3b, 0xa6, 0x54, 0x41, 0x3b,
  0x85, 0x1b, 0x7e, 0x3b, 0xa9, 0x1c, 0x0d, 0x3b, 0x16, 0x1c, 0x84, 0x3b,
  0xa7, 0x5a, 0x34, 0x3b, 0x16, 0xfb, 0xfe, 0x3a, 0x84, 0x99, 0x5f, 0x3b,
  0xb6, 0xce, 0x6e, 0x3b, 0x78, 0xed, 0x34, 0x3b, 0x38, 0xb4, 0x2e, 0x3b,
  0xb9, 0x80, 0x64, 0x3b, 0x2f, 0x97, 0x5b, 0x3b, 0x21, 0x6a, 0x53, 0x3b,
  0xd0, 0xd7, 0x00, 0x3b, 0x57, 0x30, 0x74, 0x3b, 0xd2, 0x10, 0x00, 0x3b,
  0x41, 0xb5, 0x00, 0x3b, 0xd8, 0xe1, 0x5a, 0x3b, 0x11, 0x00, 0x00, 0x00,
  0x74, 0x66, 0x6c, 0x2e, 0x70, 0x73, 0x65, 0x75, 0x64, 0x6f, 0x5f, 0x71,
  0x63, 0x6f, 0x6e, 0x73, 0x74, 0x00, 0x00, 0x00, 0x02, 0x00, 0x00, 0x00,
  0x20, 0x00, 0x00, 0x00, 0x40, 0x00, 0x00, 0x00, 0xde, 0xfe, 0xff, 0xff,
  0x00, 0x00, 0x00, 0x01, 0x10, 0x00, 0x00, 0x00, 0x10, 0x00, 0x00, 0x00,
  0x07, 0x00, 0x00, 0x00, 0x1c, 0x00, 0x00, 0x00, 0x68, 0xfe, 0xff, 0xff,
  0x0f, 0x00, 0x00, 0x00, 0x61, 0x72, 0x69, 0x74, 0x68, 0x2e, 0x63, 0x6f,
  0x6e, 0x73, 0x74, 0x61, 0x6e, 0x74, 0x35, 0x00, 0x02, 0x00, 0x00, 0x00,
  0x10, 0x00, 0x00, 0x00, 0x20, 0x00, 0x00, 0x00, 0x1a, 0xff, 0xff, 0xff,
  0x00, 0x00, 0x00, 0x01, 0x10, 0x00, 0x00, 0x00, 0x10, 0x00, 0x00, 0x00,
  0x06, 0x00, 0x00, 0x00, 0x1c, 0x00, 0x00, 0x00, 0xa4, 0xfe, 0xff, 0xff,
  0x0f, 0x00, 0x00, 0x00, 0x61, 0x72, 0x69, 0x74, 0x68, 0x2e, 0x63, 0x6f,
  0x6e, 0x73, 0x74, 0x61, 0x6e, 0x74, 0x34, 0x00, 0x02, 0x00, 0x00, 0x00,
  0x04, 0x00, 0x00, 0x00, 0x10, 0x00, 0x00, 0x00, 0x56, 0xff, 0xff, 0xff,
  0x00, 0x00, 0x00, 0x01, 0x10, 0x00, 0x00, 0x00, 0x10, 0x00, 0x00, 0x00,
  0x05, 0x00, 0x00, 0x00, 0x1c, 0x00, 0x00, 0x00, 0xe0, 0xfe, 0xff, 0xff,
  0x0f, 0x00, 0x00, 0x00, 0x61, 0x72, 0x69, 0x74, 0x68, 0x2e, 0x63, 0x6f,
  0x6e, 0x73, 0x74, 0x61, 0x6e, 0x74, 0x33, 0x00, 0x01, 0x00, 0x00, 0x00,
  0x04, 0x00, 0x00, 0x00, 0x8e, 0xff, 0xff, 0xff, 0x00, 0x00, 0x00, 0x01,
  0x10, 0x00, 0x00, 0x00, 0x10, 0x00, 0x00, 0x00, 0x04, 0x00, 0x00, 0x00,
  0x1c, 0x00, 0x00, 0x00, 0x18, 0xff, 0xff, 0xff, 0x0f, 0x00, 0x00, 0x00,
  0x61, 0x72, 0x69, 0x74, 0x68, 0x2e, 0x63, 0x6f, 0x6e, 0x73, 0x74, 0x61,
  0x6e, 0x74, 0x32, 0x00, 0x01, 0x00, 0x00, 0x00, 0x10, 0x00, 0x00, 0x00,
  0xc6, 0xff, 0xff, 0xff, 0x00, 0x00, 0x00, 0x01, 0x10, 0x00, 0x00, 0x00,
  0x10, 0x00, 0x00, 0x00, 0x03, 0x00, 0x00, 0x00, 0x1c, 0x00, 0x00, 0x00,
  0x50, 0xff, 0xff, 0xff, 0x0f, 0x00, 0x00, 0x00, 0x61, 0x72, 0x69, 0x74,
  0x68, 0x2e, 0x63, 0x6f, 0x6e, 0x73, 0x74, 0x61, 0x6e, 0x74, 0x31, 0x00,
  0x01, 0x00, 0x00, 0x00, 0x20, 0x00, 0x00, 0x00, 0x00, 0x00, 0x16, 0x00,
  0x18, 0x00, 0x14, 0x00, 0x00, 0x00, 0x10, 0x00, 0x0c, 0x00, 0x08, 0x00,
  0x00, 0x00, 0x00, 0x00, 0x00, 0x00, 0x07, 0x00, 0x16, 0x00, 0x00, 0x00,
  0x00, 0x00, 0x00, 0x01, 0x10, 0x00, 0x00, 0x00, 0x10, 0x00, 0x00, 0x00,
  0x02, 0x00, 0x00, 0x00, 0x1c, 0x00, 0x00, 0x00, 0xa0, 0xff, 0xff, 0xff,
  0x0e, 0x00, 0x00, 0x00, 0x61, 0x72, 0x69, 0x74, 0x68, 0x2e, 0x63, 0x6f,
  0x6e, 0x73, 0x74, 0x61, 0x6e, 0x74, 0x00, 0x00, 0x01, 0x00, 0x00, 0x00,
  0x40, 0x00, 0x00, 0x00, 0x00, 0x00, 0x16, 0x00, 0x1c, 0x00, 0x18, 0x00,
  0x00, 0x00, 0x14, 0x00, 0x10, 0x00, 0x0c, 0x00, 0x00, 0x00, 0x00, 0x00,
  0x08, 0x00, 0x07, 0x00, 0x16, 0x00, 0x00, 0x00, 0x00, 0x00, 0x00, 0x01,
  0x14, 0x00, 0x00, 0x00, 0x20, 0x00, 0x00, 0x00, 0x20, 0x00, 0x00, 0x00,
  0x01, 0x00, 0x00, 0x00, 0x40, 0x00, 0x00, 0x00, 0x02, 0x00, 0x00, 0x00,
  0xff, 0xff, 0xff, 0xff, 0x24, 0x00, 0x00, 0x00, 0x04, 0x00, 0x04, 0x00,
  0x04, 0x00, 0x00, 0x00, 0x21, 0x00, 0x00, 0x00, 0x73, 0x65, 0x72, 0x76,
  0x69, 0x6e, 0x67, 0x5f, 0x64, 0x65, 0x66, 0x61, 0x75, 0x6c, 0x74, 0x5f,
  0x6b, 0x65, 0x72, 0x61, 0x73, 0x5f, 0x74, 0x65, 0x6e, 0x73, 0x6f, 0x72,
  0x5f, 0x31, 0x35, 0x3a, 0x30, 0x00, 0x00, 0x00, 0x02, 0x00, 0x00, 0x00,
  0x01, 0x00, 0x00, 0x00, 0x24, 0x00, 0x00, 0x00, 0x02, 0x00, 0x00, 0x00,
  0x2c, 0x00, 0x00, 0x00, 0x10, 0x00, 0x00, 0x00, 0x0c, 0x00, 0x0c, 0x00,
  0x0b, 0x00, 0x00, 0x00, 0x00, 0x00, 0x04, 0x00, 0x0c, 0x00, 0x00, 0x00,
  0x19, 0x00, 0x00, 0x00, 0x00, 0x00, 0x00, 0x19, 0x0c, 0x00, 0x10, 0x00,
  0x0f, 0x00, 0x00, 0x00, 0x08, 0x00, 0x04, 0x00, 0x0c, 0x00, 0x00, 0x00,
  0x09, 0x00, 0x00, 0x00, 0x0c, 0x00, 0x00, 0x00, 0x00, 0x00, 0x00, 0x09
};
unsigned int _content_gesture_model_quant_tflite_len = 10872;
