unsigned char model[] = {
  0x20, 0x00, 0x00, 0x00, 0x54, 0x46, 0x4c, 0x33, 0x00, 0x00, 0x00, 0x00,
  0x14, 0x00, 0x20, 0x00, 0x1c, 0x00, 0x18, 0x00, 0x14, 0x00, 0x10, 0x00,
  0x0c, 0x00, 0x00, 0x00, 0x08, 0x00, 0x04, 0x00, 0x14, 0x00, 0x00, 0x00,
  0x1c, 0x00, 0x00, 0x00, 0x98, 0x00, 0x00, 0x00, 0xf0, 0x00, 0x00, 0x00,
  0x08, 0x1e, 0x00, 0x00, 0x18, 0x1e, 0x00, 0x00, 0xf8, 0x29, 0x00, 0x00,
  0x03, 0x00, 0x00, 0x00, 0x01, 0x00, 0x00, 0x00, 0x10, 0x00, 0x00, 0x00,
  0x00, 0x00, 0x0a, 0x00, 0x10, 0x00, 0x0c, 0x00, 0x08, 0x00, 0x04, 0x00,
  0x0a, 0x00, 0x00, 0x00, 0x0c, 0x00, 0x00, 0x00, 0x1c, 0x00, 0x00, 0x00,
  0x3c, 0x00, 0x00, 0x00, 0x0f, 0x00, 0x00, 0x00, 0x73, 0x65, 0x72, 0x76,
  0x69, 0x6e, 0x67, 0x5f, 0x64, 0x65, 0x66, 0x61, 0x75, 0x6c, 0x74, 0x00,
  0x01, 0x00, 0x00, 0x00, 0x04, 0x00, 0x00, 0x00, 0x90, 0xff, 0xff, 0xff,
  0x0d, 0x00, 0x00, 0x00, 0x04, 0x00, 0x00, 0x00, 0x08, 0x00, 0x00, 0x00,
  0x6f, 0x75, 0x74, 0x70, 0x75, 0x74, 0x5f, 0x30, 0x00, 0x00, 0x00, 0x00,
  0x01, 0x00, 0x00, 0x00, 0x04, 0x00, 0x00, 0x00, 0xda, 0xe1, 0xff, 0xff,
  0x04, 0x00, 0x00, 0x00, 0x0f, 0x00, 0x00, 0x00, 0x6b, 0x65, 0x72, 0x61,
  0x73, 0x5f, 0x74, 0x65, 0x6e, 0x73, 0x6f, 0x72, 0x5f, 0x31, 0x30, 0x00,
  0x02, 0x00, 0x00, 0x00, 0x34, 0x00, 0x00, 0x00, 0x04, 0x00, 0x00, 0x00,
  0xdc, 0xff, 0xff, 0xff, 0x10, 0x00, 0x00, 0x00, 0x04, 0x00, 0x00, 0x00,
  0x13, 0x00, 0x00, 0x00, 0x43, 0x4f, 0x4e, 0x56, 0x45, 0x52, 0x53, 0x49,
  0x4f, 0x4e, 0x5f, 0x4d, 0x45, 0x54, 0x41, 0x44, 0x41, 0x54, 0x41, 0x00,
  0x08, 0x00, 0x0c, 0x00, 0x08, 0x00, 0x04, 0x00, 0x08, 0x00, 0x00, 0x00,
  0x0f, 0x00, 0x00, 0x00, 0x04, 0x00, 0x00, 0x00, 0x13, 0x00, 0x00, 0x00,
  0x6d, 0x69, 0x6e, 0x5f, 0x72, 0x75, 0x6e, 0x74, 0x69, 0x6d, 0x65, 0x5f,
  0x76, 0x65, 0x72, 0x73, 0x69, 0x6f, 0x6e, 0x00, 0x11, 0x00, 0x00, 0x00,
  0x14, 0x1d, 0x00, 0x00, 0x0c, 0x1d, 0x00, 0x00, 0xfc, 0x1b, 0x00, 0x00,
  0xdc, 0x1b, 0x00, 0x00, 0x8c, 0x1b, 0x00, 0x00, 0xfc, 0x1a, 0x00, 0x00,
  0xec, 0x19, 0x00, 0x00, 0xdc, 0x11, 0x00, 0x00, 0xcc, 0x09, 0x00, 0x00,
  0xbc, 0x00, 0x00, 0x00, 0xb4, 0x00, 0x00, 0x00, 0xac, 0x00, 0x00, 0x00,
  0xa4, 0x00, 0x00, 0x00, 0x9c, 0x00, 0x00, 0x00, 0x94, 0x00, 0x00, 0x00,
  0x74, 0x00, 0x00, 0x00, 0x04, 0x00, 0x00, 0x00, 0x9a, 0xe2, 0xff, 0xff,
  0x04, 0x00, 0x00, 0x00, 0x60, 0x00, 0x00, 0x00, 0x0c, 0x00, 0x00, 0x00,
  0x08, 0x00, 0x0e, 0x00, 0x08, 0x00, 0x04, 0x00, 0x08, 0x00, 0x00, 0x00,
  0x10, 0x00, 0x00, 0x00, 0x28, 0x00, 0x00, 0x00, 0x00, 0x00, 0x06, 0x00,
  0x08, 0x00, 0x04, 0x00, 0x06, 0x00, 0x00, 0x00, 0x04, 0x00, 0x00, 0x00,
  0x01, 0x00, 0x00, 0x00, 0xea, 0x03, 0x00, 0x00, 0x0c, 0x00, 0x18, 0x00,
  0x14, 0x00, 0x10, 0x00, 0x0c, 0x00, 0x04, 0x00, 0x0c, 0x00, 0x00, 0x00,
  0x29, 0xdf, 0xc4, 0x6a, 0xa2, 0xe8, 0xf8, 0xf7, 0x02, 0x00, 0x00, 0x00,
  0x02, 0x00, 0x00, 0x00, 0x04, 0x00, 0x00, 0x00, 0x06, 0x00, 0x00, 0x00,
  0x32, 0x2e, 0x31, 0x39, 0x2e, 0x30, 0x00, 0x00, 0x06, 0xe3, 0xff, 0xff,
  0x04, 0x00, 0x00, 0x00, 0x10, 0x00, 0x00, 0x00, 0x32, 0x2e, 0x31, 0x37,
  0x2e, 0x30, 0x00, 0x00, 0x00, 0x00, 0x00, 0x00, 0x00, 0x00, 0x00, 0x00,
  0xf8, 0xd7, 0xff, 0xff, 0xfc, 0xd7, 0xff, 0xff, 0x00, 0xd8, 0xff, 0xff,
  0x04, 0xd8, 0xff, 0xff, 0x08, 0xd8, 0xff, 0xff, 0x36, 0xe3, 0xff, 0xff,
  0x04, 0x00, 0x00, 0x00, 0x00, 0x09, 0x00, 0x00, 0x19, 0xf9, 0xf7, 0x35,
  0x31, 0x16, 0xe3, 0x00, 0x37, 0x28, 0x04, 0xc8, 0x1b, 0xed, 0x0e, 0xdf,
  0xf0, 0x43, 0xc7, 0xc5, 0xef, 0x34, 0xe0, 0x0d, 0xe6, 0xf0, 0xdf, 0x75,
  0xc6, 0xe7, 0x48, 0x38, 0x0c, 0x81, 0x46, 0x04, 0xef, 0x93, 0x81, 0x2e,
  0x22, 0xe4, 0xb8, 0xfc, 0x04, 0x6e, 0xce, 0x84, 0x46, 0xd3, 0x94, 0xec,
  0xa5, 0x32, 0x24, 0xdf, 0xf2, 0xac, 0x54, 0xcb, 0x0c, 0x37, 0x20, 0x74,
  0x0f, 0x90, 0x16, 0xdd, 0xf1, 0xfb, 0x71, 0x09, 0x81, 0x63, 0xb2, 0xd2,
  0x96, 0x50, 0x65, 0xa9, 0x95, 0xc3, 0x15, 0x70, 0x1e, 0xf4, 0xf3, 0x4a,
  0x9e, 0xa4, 0xb4, 0x3a, 0x37, 0x3b, 0x58, 0x2b, 0x22, 0x5e, 0x61, 0x9d,
  0xb8, 0xea, 0x64, 0x1a, 0x8d, 0xc0, 0xed, 0x83, 0xfe, 0x8c, 0x56, 0xc5,
  0x15, 0x4a, 0xe9, 0x14, 0x87, 0x31, 0x07, 0x84, 0x27, 0xbb, 0x04, 0x93,
  0x7f, 0xed, 0x8b, 0x7d, 0x4d, 0xd2, 0x02, 0xda, 0xa9, 0x38, 0x72, 0x65,
  0xc5, 0xd5, 0x18, 0xf4, 0x4b, 0x2f, 0x88, 0xa0, 0x8f, 0xe8, 0xd1, 0xd7,
  0xea, 0xbd, 0xb3, 0xe2, 0x29, 0x9b, 0xb6, 0x60, 0xa3, 0x2e, 0x2b, 0xd2,
  0x81, 0xae, 0x1d, 0xed, 0x82, 0x29, 0x1a, 0x17, 0xa7, 0x62, 0x7c, 0x32,
  0x11, 0x28, 0x0a, 0xc0, 0xdd, 0x98, 0x03, 0x7e, 0x09, 0x6b, 0xd2, 0x7f,
  0xa6, 0xa7, 0x65, 0xac, 0xff, 0x4e, 0x44, 0x39, 0xb7, 0xa4, 0x42, 0xf4,
  0xf9, 0xe8, 0x10, 0x36, 0x9b, 0xde, 0xdd, 0x14, 0xb6, 0xa8, 0x06, 0x93,
  0x00, 0xc2, 0x34, 0xcd, 0x7d, 0x7b, 0xdd, 0xf6, 0x0f, 0x7f, 0xbc, 0x29,
  0x90, 0x9b, 0x50, 0x92, 0x20, 0xaa, 0x2a, 0xa4, 0x96, 0x5c, 0xca, 0x0c,
  0xa5, 0x15, 0xef, 0x2b, 0xed, 0x20, 0x81, 0xaa, 0x72, 0xf9, 0x83, 0x6d,
  0x1f, 0xc3, 0xd5, 0x25, 0xba, 0x55, 0x77, 0x2e, 0x0d, 0xda, 0x31, 0x23,
  0x27, 0xd5, 0xeb, 0xe3, 0x1c, 0x3d, 0xcd, 0xeb, 0xdd, 0x20, 0xd0, 0xe8,
  0x0f, 0x11, 0x1d, 0xca, 0x10, 0x7f, 0xdd, 0xf9, 0x48, 0x37, 0x24, 0xe7,
  0x2e, 0xff, 0x1a, 0x43, 0xd8, 0x92, 0x10, 0x09, 0x69, 0xf7, 0x2c, 0xa6,
  0x19, 0x7b, 0x47, 0x3c, 0x79, 0x20, 0xb2, 0xb6, 0xdb, 0xad, 0xe7, 0xea,
  0xa7, 0x08, 0x07, 0x62, 0x37, 0x73, 0xb2, 0x33, 0x7d, 0x95, 0x2a, 0x33,
  0xe1, 0x61, 0x3b, 0xac, 0x15, 0xba, 0x7f, 0x1b, 0xe1, 0x1d, 0x9a, 0x62,
  0xe3, 0x45, 0x5f, 0x2d, 0xb6, 0x81, 0x2d, 0xb4, 0x4e, 0x2a, 0x9e, 0x7a,
  0x3f, 0x1f, 0xe7, 0x09, 0xad, 0x2a, 0x10, 0x85, 0xe6, 0x99, 0xe1, 0x5f,
  0x98, 0x03, 0x2a, 0x5e, 0x0d, 0x5b, 0x9b, 0x56, 0xf9, 0x3e, 0xef, 0xe9,
  0xdf, 0x17, 0x41, 0x0f, 0x3a, 0xcc, 0xf3, 0x35, 0xdf, 0xc9, 0xd8, 0x3a,
  0xd0, 0xfa, 0x04, 0x2b, 0x1f, 0xc5, 0x13, 0xe9, 0xc7, 0x1d, 0x30, 0xd3,
  0x42, 0x24, 0x13, 0xc0, 0x07, 0x7f, 0x12, 0xe8, 0x2b, 0x1c, 0xc8, 0x71,
  0x3f, 0xdf, 0x8f, 0x04, 0x1a, 0xd3, 0xc6, 0x98, 0xa9, 0x8d, 0x36, 0x0d,
  0x03, 0x79, 0xb1, 0xfa, 0xe5, 0x9c, 0xe0, 0x4b, 0x8b, 0x9a, 0x81, 0x4c,
  0x22, 0xac, 0x45, 0xa8, 0x40, 0x1c, 0x85, 0x1d, 0x12, 0x1b, 0x35, 0xc7,
  0xd9, 0xdd, 0xc4, 0x43, 0xec, 0x06, 0xe9, 0x16, 0xed, 0xc1, 0x42, 0x4b,
  0x3f, 0x08, 0x10, 0xa5, 0xc1, 0x09, 0x1c, 0xd2, 0xfc, 0xd7, 0xf7, 0x19,
  0xef, 0x23, 0xc8, 0x61, 0x32, 0x81, 0x6a, 0x0f, 0xdc, 0x24, 0xe8, 0x2a,
  0x2a, 0x36, 0x01, 0x32, 0x1b, 0xe3, 0x22, 0xd4, 0x11, 0x14, 0xda, 0x02,
  0xd7, 0xfa, 0x16, 0xee, 0xe0, 0x7f, 0x0f, 0xf6, 0xf5, 0xf9, 0x28, 0xf2,
  0x4c, 0x33, 0xf2, 0x0d, 0xf8, 0x1a, 0xc4, 0x04, 0x63, 0x7c, 0xcc, 0xfa,
  0xad, 0x93, 0xaf, 0x76, 0x9c, 0xa3, 0x55, 0x37, 0x81, 0x90, 0x05, 0x57,
  0x8b, 0xb7, 0x4f, 0x94, 0xff, 0x2d, 0x8a, 0x59, 0x7a, 0x5d, 0x26, 0xb1,
  0xbd, 0xbb, 0x5d, 0xec, 0xb8, 0xe0, 0x67, 0xd1, 0x0d, 0x01, 0xe7, 0x08,
  0x44, 0xf9, 0xef, 0x3d, 0x4e, 0xdf, 0x23, 0x71, 0x44, 0x5f, 0xac, 0x5f,
  0x7d, 0xcb, 0x7c, 0xc4, 0x7b, 0x5f, 0x7b, 0xae, 0xd4, 0xc7, 0xe6, 0x05,
  0x1b, 0xb3, 0x43, 0x1b, 0x5f, 0xf4, 0xca, 0x7f, 0x37, 0xc4, 0xb5, 0x13,
  0x8a, 0x05, 0x86, 0x37, 0xd4, 0xdf, 0xf4, 0x01, 0x9c, 0x64, 0x75, 0xb4,
  0x70, 0x8a, 0xcd, 0xe8, 0xa8, 0x75, 0xb8, 0x85, 0xdb, 0x97, 0xfc, 0x3b,
  0x81, 0x96, 0xe9, 0x70, 0x46, 0xc7, 0x4d, 0x2d, 0x4a, 0x45, 0xf3, 0x43,
  0xf9, 0x17, 0xde, 0x41, 0x0a, 0x40, 0x33, 0xdd, 0xc9, 0x2c, 0xeb, 0x02,
  0xd2, 0x0f, 0x23, 0x08, 0x38, 0xdf, 0x2f, 0x0c, 0x17, 0x00, 0xf2, 0x55,
  0xfe, 0x21, 0x46, 0x37, 0xfa, 0x7f, 0x06, 0x40, 0x4b, 0x90, 0xda, 0xc6,
  0x42, 0x4c, 0x81, 0x23, 0x8b, 0x45, 0xe9, 0xaa, 0x43, 0x3c, 0xa0, 0x89,
  0x5d, 0xeb, 0xd6, 0x16, 0x0a, 0xaa, 0xf1, 0x6c, 0xb1, 0xce, 0x22, 0x6e,
  0x17, 0x39, 0xb8, 0xe7, 0x00, 0x86, 0x32, 0x45, 0xee, 0x42, 0x00, 0xdc,
  0x78, 0xb7, 0x11, 0xa1, 0x12, 0xf3, 0x32, 0x7c, 0xec, 0x81, 0xae, 0xd1,
  0xdd, 0x30, 0x5a, 0x34, 0xd4, 0xd2, 0x31, 0x17, 0x2e, 0xd8, 0x88, 0x18,
  0xe0, 0x4c, 0x4b, 0xf6, 0x1a, 0xca, 0x9e, 0x0c, 0xd8, 0x0a, 0x0b, 0xab,
  0xd3, 0x40, 0x1f, 0xf6, 0xdb, 0xee, 0x5c, 0xd1, 0xd6, 0x0e, 0x38, 0x17,
  0x2e, 0xc2, 0xc2, 0xc7, 0x35, 0x56, 0x7f, 0xb8, 0x5c, 0x5b, 0x35, 0x8e,
  0x4e, 0x13, 0x0c, 0xea, 0xc1, 0xbc, 0xb7, 0xff, 0x1b, 0xf7, 0xdd, 0xfd,
  0xec, 0x1f, 0x0a, 0x17, 0x2e, 0xc7, 0xca, 0xf3, 0x28, 0xd8, 0xf9, 0xff,
  0x0d, 0x40, 0xe9, 0xde, 0xe2, 0x6d, 0xa5, 0x30, 0x39, 0x24, 0xdb, 0x50,
  0xf6, 0x25, 0x18, 0x52, 0x51, 0x81, 0x2f, 0x4b, 0xe7, 0xd2, 0x3c, 0xcb,
  0xff, 0x3b, 0x00, 0xcc, 0xfd, 0x25, 0x3a, 0x15, 0x2d, 0x10, 0xfb, 0x40,
  0x20, 0x33, 0x34, 0xf4, 0xe1, 0x6e, 0x18, 0xf2, 0xf6, 0x34, 0xf4, 0xac,
  0x49, 0x3d, 0xfc, 0xc8, 0xdb, 0x81, 0xba, 0xdf, 0x2a, 0x53, 0x59, 0x0f,
  0xda, 0x24, 0xea, 0x28, 0xf9, 0x39, 0xbd, 0x5e, 0x5a, 0x6f, 0x59, 0x16,
  0x62, 0x53, 0x09, 0xcc, 0xe9, 0x53, 0x3e, 0x21, 0x75, 0x3b, 0xbe, 0xae,
  0x7f, 0xfe, 0x5d, 0xe6, 0xf9, 0xcd, 0x14, 0xe4, 0xc5, 0x27, 0x11, 0x03,
  0x4b, 0x4f, 0xbb, 0x18, 0xfa, 0x41, 0x40, 0xff, 0x36, 0x4b, 0xff, 0xd4,
  0x42, 0xc6, 0xb9, 0xc0, 0xb3, 0x3f, 0xa5, 0xd1, 0xd6, 0xe5, 0x3d, 0x2a,
  0x3d, 0xec, 0x25, 0x07, 0x09, 0x81, 0x5e, 0x56, 0x07, 0x1e, 0x19, 0xe5,
  0xfa, 0x34, 0x0f, 0x3d, 0x2f, 0x0c, 0x14, 0x12, 0x08, 0x36, 0x3e, 0xdf,
  0xe8, 0xfa, 0x31, 0x2d, 0x27, 0x25, 0x32, 0x08, 0x3d, 0x10, 0x18, 0xb4,
  0x2b, 0xde, 0x26, 0xfd, 0x2c, 0x81, 0x00, 0x19, 0x6c, 0x46, 0x05, 0xaa,
  0xed, 0x90, 0x82, 0xb4, 0x70, 0x8a, 0xe9, 0x5f, 0x48, 0x7f, 0x0c, 0x45,
  0x16, 0x84, 0xb9, 0x9e, 0xaa, 0x41, 0xcb, 0x85, 0x40, 0xcc, 0xe7, 0x33,
  0xd2, 0xc9, 0xf4, 0x91, 0xbf, 0xf0, 0xf5, 0xd5, 0x12, 0x53, 0x19, 0x05,
  0xab, 0xb8, 0x0c, 0x24, 0xd4, 0x3b, 0xae, 0xb7, 0x1d, 0x0d, 0x4c, 0x47,
  0x0a, 0x27, 0x38, 0xdb, 0xb2, 0x5b, 0xb6, 0xfa, 0xe8, 0xbb, 0xae, 0x0b,
  0xa4, 0x28, 0x23, 0x71, 0x71, 0x81, 0x6f, 0x46, 0xcf, 0xf6, 0x19, 0xf6,
  0xf0, 0xea, 0xdf, 0xfe, 0xed, 0x2c, 0x33, 0xde, 0x1e, 0x1f, 0x05, 0xf9,
  0x13, 0x08, 0xd9, 0x13, 0xe1, 0x70, 0xcb, 0xd0, 0xf2, 0xf5, 0x28, 0x4d,
  0xf6, 0x0d, 0x21, 0x33, 0x38, 0x81, 0x28, 0x36, 0x0a, 0xe7, 0xeb, 0x28,
  0x15, 0x15, 0xea, 0x2f, 0x09, 0x1f, 0xf6, 0x24, 0x05, 0xe6, 0x12, 0xf3,
  0xea, 0x08, 0x29, 0x20, 0x4f, 0x81, 0x32, 0xe6, 0x1e, 0x0f, 0xfc, 0x1d,
  0xcc, 0x12, 0xdc, 0xef, 0xde, 0x4f, 0x14, 0x0b, 0x33, 0xff, 0xf1, 0x2d,
  0x32, 0xe0, 0x06, 0xc2, 0xc8, 0xe9, 0x3b, 0x26, 0x3f, 0x16, 0x29, 0x25,
  0xdd, 0x04, 0xed, 0xe5, 0x00, 0x74, 0xac, 0xf1, 0xda, 0xfb, 0x26, 0x3a,
  0x20, 0x38, 0x32, 0x4e, 0xf3, 0x81, 0xd5, 0x47, 0xfe, 0xcb, 0xe4, 0x63,
  0xc6, 0x10, 0x35, 0xcd, 0x1d, 0xa6, 0xc5, 0x4b, 0x63, 0x41, 0xca, 0x42,
  0x9a, 0x55, 0x14, 0x1e, 0xbe, 0xba, 0x00, 0xed, 0x3c, 0xfa, 0xed, 0x6e,
  0x81, 0x17, 0x3f, 0xed, 0x16, 0x53, 0x19, 0x2b, 0x0e, 0x29, 0x34, 0xcb,
  0x0e, 0xe6, 0x0d, 0x1e, 0x2a, 0x05, 0xf9, 0xe1, 0x3a, 0x20, 0x09, 0xfd,
  0x0f, 0x21, 0xdd, 0x2b, 0xec, 0x03, 0x2c, 0xf8, 0xdc, 0xdf, 0x17, 0x55,
  0xc6, 0x1b, 0x39, 0x3d, 0x00, 0x7f, 0xd5, 0x3a, 0x6b, 0xff, 0x54, 0x30,
  0x6f, 0x04, 0x1b, 0x3e, 0x1d, 0x69, 0x02, 0xd3, 0x23, 0x1a, 0xdb, 0x48,
  0x5e, 0x58, 0xe5, 0x15, 0x35, 0x68, 0x01, 0x45, 0xe4, 0x3f, 0x12, 0xea,
  0x7f, 0x01, 0x63, 0xfd, 0xc8, 0x85, 0x53, 0x02, 0x93, 0xae, 0x81, 0xaa,
  0xb1, 0x83, 0x8c, 0xd8, 0x77, 0x63, 0x86, 0x08, 0x99, 0x06, 0x4a, 0xab,
  0x15, 0xb4, 0x96, 0x53, 0x88, 0x43, 0x33, 0xc2, 0x8b, 0x82, 0xa5, 0x45,
  0xf3, 0x29, 0x76, 0xae, 0xbd, 0xed, 0xc7, 0x90, 0xe1, 0xfe, 0x44, 0x7a,
  0x23, 0xc7, 0x6a, 0xb5, 0x7c, 0xa8, 0xa5, 0x7f, 0xba, 0x03, 0xe7, 0x77,
  0xc2, 0x0c, 0xc5, 0xca, 0x8c, 0x78, 0x97, 0x81, 0xce, 0xbc, 0x45, 0x55,
  0xee, 0x5f, 0x2e, 0xc2, 0xd3, 0x5b, 0x98, 0x8e, 0x2f, 0xe9, 0x2f, 0x01,
  0xcc, 0x14, 0x29, 0x25, 0xff, 0xf2, 0x0f, 0x23, 0xe8, 0xe7, 0xec, 0xef,
  0x2f, 0x29, 0xef, 0xef, 0x03, 0x7f, 0xe4, 0xd2, 0xdd, 0xe2, 0xdc, 0xde,
  0x37, 0x1e, 0xe5, 0x20, 0x2d, 0xdb, 0x0a, 0xf7, 0xf6, 0x7c, 0x5e, 0x86,
  0x5b, 0x9a, 0x11, 0xca, 0x65, 0xc1, 0xb6, 0xab, 0xa1, 0x37, 0xf5, 0x74,
  0xcf, 0x14, 0x4c, 0xd4, 0xab, 0x03, 0x81, 0xe1, 0x3b, 0x96, 0x79, 0x16,
  0x3e, 0x0a, 0xd7, 0x03, 0x37, 0xd1, 0x94, 0xe4, 0x7e, 0xa9, 0x92, 0x51,
  0x11, 0x40, 0xd5, 0x31, 0x7b, 0x8d, 0x06, 0x93, 0x96, 0x57, 0x81, 0x97,
  0xfd, 0xb2, 0x72, 0xc8, 0x77, 0x43, 0x81, 0xa2, 0x29, 0x20, 0x5f, 0x52,
  0x7d, 0x7d, 0xf1, 0xb0, 0x58, 0xe6, 0x85, 0x8c, 0xe8, 0x69, 0xe4, 0xa3,
  0xce, 0xa2, 0x9c, 0x10, 0x53, 0xa9, 0xda, 0x30, 0x5c, 0x16, 0xc5, 0x81,
  0xaf, 0x29, 0x8f, 0xc1, 0x91, 0x19, 0x1d, 0x78, 0x38, 0x04, 0xfd, 0x54,
  0x9b, 0x3d, 0xa3, 0x57, 0xae, 0xa0, 0xa6, 0xeb, 0x3d, 0x22, 0x4a, 0x05,
  0x11, 0xcb, 0x0c, 0x31, 0x01, 0xf5, 0x11, 0x47, 0x24, 0x36, 0xd4, 0xd4,
  0x75, 0x4b, 0x74, 0x2e, 0x10, 0xfd, 0xfc, 0x43, 0xf7, 0x27, 0x64, 0x5f,
  0xec, 0xf0, 0x4f, 0x7f, 0x60, 0x54, 0x2e, 0x30, 0xb6, 0xb8, 0x3e, 0x9f,
  0x29, 0x9a, 0x58, 0xad, 0x70, 0x94, 0x6f, 0x04, 0xea, 0x0e, 0xb1, 0x92,
  0x50, 0x92, 0x12, 0x0c, 0xc4, 0x59, 0x2e, 0xf3, 0x37, 0xd2, 0xd7, 0x82,
  0x81, 0x2a, 0x15, 0xb0, 0x32, 0x2b, 0x8d, 0x18, 0xfd, 0xb3, 0xbe, 0x25,
  0x73, 0xd9, 0xa8, 0x8f, 0x62, 0x2a, 0x70, 0x77, 0x81, 0x97, 0xf2, 0x00,
  0xa1, 0xeb, 0x87, 0x01, 0x7e, 0xa8, 0x42, 0xa6, 0xc3, 0xfb, 0x43, 0x0e,
  0xf1, 0xa9, 0x6a, 0x97, 0xe1, 0x53, 0xa6, 0xfc, 0xf7, 0x24, 0x05, 0x02,
  0xe9, 0xe1, 0xd9, 0x1b, 0xed, 0x2e, 0xfe, 0xdc, 0xee, 0xea, 0x11, 0x2c,
  0x02, 0x14, 0x0b, 0xef, 0x2c, 0xc5, 0x23, 0xe3, 0x10, 0x30, 0x2e, 0xed,
  0xe1, 0x02, 0xd4, 0xdf, 0x14, 0x7f, 0x04, 0x10, 0xfe, 0xcc, 0x0f, 0x05,
  0x57, 0x54, 0xe3, 0xc8, 0xda, 0x48, 0xb0, 0x13, 0xb0, 0x40, 0xb4, 0xb2,
  0x07, 0x3d, 0xda, 0x04, 0xf0, 0x81, 0x44, 0x30, 0x34, 0xcf, 0x4a, 0x63,
  0xed, 0x03, 0xc2, 0xc4, 0x5b, 0x7d, 0x61, 0x4a, 0x13, 0x2c, 0x47, 0xe3,
  0x08, 0xdf, 0xf2, 0xd5, 0x3e, 0x42, 0xc0, 0xfc, 0xce, 0x39, 0x46, 0xde,
  0x00, 0x07, 0x43, 0x31, 0x0d, 0x4b, 0xf9, 0xca, 0xc6, 0x3a, 0xc1, 0x57,
  0xb3, 0x15, 0xd7, 0xf8, 0x4a, 0x7f, 0xd3, 0x2e, 0x6c, 0xd5, 0xde, 0xbc,
  0x24, 0xeb, 0x3e, 0xf3, 0xb3, 0x65, 0x92, 0xd4, 0x73, 0x81, 0x84, 0x37,
  0x0f, 0xa5, 0x0f, 0xc7, 0x72, 0x9b, 0x0f, 0x25, 0x8f, 0x7a, 0x14, 0x40,
  0x2f, 0xaa, 0x16, 0xbd, 0xae, 0x90, 0x8f, 0xb9, 0xaa, 0xdc, 0x51, 0x15,
  0x8a, 0x14, 0x34, 0xe4, 0x0c, 0xab, 0xb2, 0x10, 0x48, 0x45, 0x74, 0x1d,
  0x29, 0x81, 0x0b, 0xec, 0x7e, 0xf4, 0xc4, 0xc2, 0xea, 0x2a, 0xb1, 0xf9,
  0x7d, 0xe6, 0xa7, 0x8d, 0xc5, 0xa0, 0xed, 0x65, 0x22, 0xfa, 0x3f, 0x69,
  0xfb, 0xa5, 0x6e, 0xb5, 0x00, 0xbd, 0x84, 0xce, 0xab, 0xed, 0x3c, 0xaa,
  0xf0, 0x88, 0xeb, 0x58, 0xc4, 0x0a, 0xcf, 0x11, 0x1f, 0x01, 0x44, 0x70,
  0xc6, 0x4c, 0x7f, 0x3f, 0x0d, 0x0c, 0xbc, 0x1e, 0x04, 0x04, 0x12, 0x3a,
  0x6d, 0x27, 0x68, 0x53, 0xfa, 0x28, 0x21, 0x6b, 0x36, 0x66, 0xff, 0x30,
  0xf9, 0x56, 0x41, 0x4c, 0x06, 0xd6, 0x00, 0x07, 0x58, 0xf5, 0x5f, 0x14,
  0x20, 0x1a, 0x5b, 0x15, 0x5a, 0x27, 0x7f, 0xec, 0x23, 0x25, 0x5f, 0x65,
  0xd3, 0xd4, 0x4e, 0xb6, 0x05, 0x61, 0xba, 0xf6, 0x20, 0xe0, 0xd4, 0xe2,
  0x68, 0x47, 0x66, 0x09, 0x7f, 0x9c, 0x38, 0x4a, 0x5f, 0x4a, 0x63, 0xbc,
  0xda, 0x5e, 0xfd, 0x4a, 0xb3, 0x74, 0x5f, 0xda, 0x0e, 0x4a, 0x03, 0x30,
  0x32, 0xe1, 0x57, 0xfa, 0xf8, 0x0f, 0x56, 0xc4, 0x40, 0xe2, 0x17, 0xd1,
  0xc8, 0x3c, 0x2f, 0x2e, 0x49, 0x2f, 0x7f, 0xd2, 0x0b, 0x56, 0x40, 0xc1,
  0x43, 0x41, 0xe1, 0xfd, 0xac, 0x3f, 0xe6, 0xfc, 0xe5, 0x16, 0x81, 0xbe,
  0x9d, 0xac, 0x4a, 0x68, 0x12, 0x34, 0x74, 0x5c, 0x90, 0x0d, 0x3a, 0x24,
  0x09, 0x81, 0xc1, 0x34, 0xfc, 0xe7, 0x0a, 0x3a, 0x97, 0x2f, 0x59, 0xa8,
  0x18, 0x1c, 0x87, 0xa9, 0x0e, 0x90, 0xd3, 0x1e, 0x53, 0xdf, 0x19, 0xd4,
  0x54, 0xfe, 0xf3, 0x46, 0x4d, 0x32, 0x5d, 0x71, 0x13, 0xde, 0x93, 0x3f,
  0xcb, 0x8f, 0x8e, 0x97, 0x14, 0xb3, 0xb9, 0x58, 0xf1, 0xe5, 0x81, 0x19,
  0x37, 0xf9, 0xba, 0x1d, 0x2f, 0x3c, 0xf4, 0xb4, 0x14, 0x44, 0xfc, 0xf6,
  0xcd, 0xdf, 0x45, 0xdf, 0x42, 0xea, 0x3e, 0x34, 0x10, 0xea, 0xd4, 0x35,
  0xc7, 0x2f, 0x2f, 0x48, 0x45, 0xc4, 0x47, 0x47, 0x3a, 0x1e, 0x11, 0x06,
  0x60, 0xe1, 0xfc, 0x47, 0x33, 0x7f, 0x1c, 0xf5, 0xef, 0x29, 0xec, 0x2a,
  0xb5, 0xcc, 0xbe, 0x24, 0xe1, 0x30, 0x14, 0xc0, 0x42, 0xea, 0x20, 0xdf,
  0xf1, 0x3e, 0x1d, 0xaf, 0xf6, 0x5c, 0xcd, 0xe7, 0xcf, 0x38, 0x23, 0x3e,
  0xd6, 0x04, 0xf1, 0xf1, 0x2d, 0x81, 0x4b, 0x0b, 0x01, 0xe6, 0x0f, 0x1b,
  0xec, 0xd3, 0x34, 0x12, 0xcc, 0xe8, 0x0e, 0x2d, 0xd0, 0xef, 0x22, 0xd8,
  0x37, 0x1c, 0x02, 0x3d, 0x36, 0xce, 0x42, 0xcb, 0xf2, 0x1a, 0x1a, 0xaa,
  0x01, 0x03, 0xe6, 0xe3, 0x28, 0x81, 0x2a, 0xcd, 0x83, 0xdf, 0x2e, 0x00,
  0xab, 0xda, 0xb7, 0xe4, 0xb0, 0xd4, 0xad, 0x1e, 0x81, 0x22, 0x3d, 0x31,
  0x8e, 0xc2, 0x94, 0x16, 0x6f, 0x64, 0x7a, 0x4a, 0xdd, 0x34, 0x2a, 0x2e,
  0x7e, 0xb6, 0x85, 0xf0, 0x67, 0xda, 0x8e, 0xdc, 0x84, 0x34, 0xbf, 0x82,
  0x1c, 0x59, 0xe7, 0x01, 0xf6, 0xfa, 0x3e, 0xd8, 0xba, 0x79, 0x3f, 0x22,
  0x73, 0x04, 0x25, 0x52, 0xc1, 0x56, 0x44, 0x3b, 0x88, 0x54, 0x8b, 0x0c,
  0x1e, 0x7e, 0xd1, 0x8b, 0xe8, 0xf9, 0x81, 0x9f, 0x62, 0x75, 0xae, 0x1e,
  0x37, 0x77, 0xf2, 0x78, 0x23, 0x74, 0x5a, 0x1b, 0x72, 0x18, 0x27, 0x15,
  0x04, 0x21, 0xb2, 0x56, 0xc1, 0x7f, 0xce, 0x0b, 0x50, 0x2a, 0xf5, 0x25,
  0xd2, 0x68, 0xb0, 0x22, 0xcf, 0x42, 0x7a, 0x0e, 0x74, 0x16, 0x0d, 0x35,
  0xb2, 0x87, 0x12, 0x7d, 0x97, 0xed, 0xc4, 0xe8, 0x7f, 0xf6, 0xef, 0x57,
  0x0b, 0x2a, 0xb8, 0x6d, 0x40, 0x66, 0xb6, 0x95, 0x99, 0x81, 0xbd, 0x34,
  0x85, 0xce, 0xa4, 0x45, 0xeb, 0x37, 0x78, 0x0b, 0x98, 0x5f, 0x3e, 0xb0,
  0x26, 0x2a, 0x10, 0x32, 0x02, 0xc2, 0x61, 0x4c, 0x10, 0x55, 0x72, 0xe6,
  0xa5, 0xdb, 0x81, 0x4e, 0xfa, 0x9c, 0x59, 0x84, 0xbf, 0xec, 0x0d, 0x84,
  0x42, 0x31, 0xc7, 0xc0, 0xa4, 0x23, 0x8f, 0xa6, 0x18, 0x09, 0x40, 0x42,
  0x33, 0x3f, 0x1c, 0x18, 0xe3, 0xda, 0xeb, 0xf0, 0xeb, 0x3a, 0x34, 0xe6,
  0xc9, 0x26, 0x41, 0xfe, 0x4c, 0x81, 0xec, 0x3c, 0x41, 0xdf, 0xe8, 0x5d,
  0xb4, 0x1a, 0x43, 0x0f, 0xc3, 0x61, 0xba, 0xdb, 0x67, 0x44, 0xff, 0x4e,
  0xf4, 0xcc, 0x6a, 0xd7, 0x66, 0x88, 0xa2, 0xd5, 0x38, 0xa3, 0x73, 0xb2,
  0x4c, 0x12, 0xfe, 0xe7, 0x39, 0x3c, 0x10, 0xa0, 0xab, 0x5e, 0x29, 0x56,
  0xf9, 0x12, 0x9f, 0xa8, 0x81, 0x6e, 0xa5, 0x8b, 0x42, 0xec, 0xff, 0xff,
  0x04, 0x00, 0x00, 0x00, 0x00, 0x08, 0x00, 0x00, 0xe1, 0xd0, 0x09, 0x1f,
  0xea, 0xfe, 0x26, 0x36, 0xed, 0xfb, 0xf2, 0xf6, 0xd1, 0x28, 0xf7, 0xfb,
  0xcc, 0xe6, 0xd8, 0x15, 0x7f, 0xc3, 0x69, 0x43, 0xf6, 0x2d, 0x0d, 0xc0,
  0x03, 0xb0, 0xee, 0xe7, 0xfc, 0xfc, 0xe5, 0xd0, 0x1d, 0xf2, 0x1e, 0xda,
  0xef, 0xef, 0x1e, 0xd2, 0xd8, 0x03, 0xec, 0xfe, 0xec, 0x1c, 0x2c, 0x5a,
  0x1c, 0xff, 0x1f, 0xbd, 0x1e, 0xf0, 0x0f, 0x15, 0x1f, 0x00, 0xe2, 0x0b,
  0x53, 0x79, 0x10, 0x3c, 0x8e, 0xe5, 0x1b, 0x04, 0xbd, 0x42, 0x87, 0x01,
  0x02, 0xc9, 0x74, 0xa1, 0xdc, 0xbb, 0xec, 0x90, 0x29, 0x40, 0xbb, 0x16,
  0xbe, 0xa7, 0x1e, 0x0b, 0x85, 0x57, 0xba, 0x65, 0x7b, 0xcf, 0xa1, 0x60,
  0x9a, 0x71, 0x28, 0x84, 0x55, 0x0c, 0x0d, 0x22, 0xa8, 0x24, 0xa4, 0x86,
  0x7f, 0x65, 0x94, 0xc1, 0x77, 0x3c, 0xb8, 0x3e, 0x33, 0x53, 0x00, 0x06,
  0xd3, 0x3f, 0x32, 0x86, 0xb3, 0x32, 0x14, 0x10, 0x19, 0xf9, 0x22, 0xcd,
  0xd0, 0xd7, 0x55, 0xe6, 0xce, 0x37, 0xf6, 0xf9, 0xf4, 0x1f, 0x16, 0x28,
  0x29, 0xb0, 0xce, 0x21, 0xe7, 0xdb, 0xe2, 0x9e, 0xcd, 0x5d, 0xd7, 0xda,
  0x1a, 0x2d, 0xe8, 0xeb, 0xdb, 0xd1, 0x02, 0xe2, 0x20, 0x29, 0xef, 0x7f,
  0xf4, 0xdf, 0xf3, 0x10, 0xf7, 0x20, 0x39, 0x1f, 0xed, 0x01, 0x38, 0xc8,
  0x4d, 0xd5, 0xfa, 0xdd, 0x1a, 0xf1, 0xfa, 0x22, 0x13, 0xeb, 0xd6, 0x03,
  0x2d, 0xde, 0x25, 0x46, 0xf6, 0xf7, 0x22, 0x07, 0xff, 0x41, 0x27, 0x22,
  0x04, 0x04, 0xef, 0x22, 0x7f, 0x08, 0x42, 0x2b, 0x28, 0x2b, 0x09, 0xd6,
  0xda, 0xb6, 0xe5, 0xbb, 0xce, 0x36, 0xeb, 0x0d, 0x47, 0x14, 0x16, 0xdc,
  0x17, 0xf8, 0xfc, 0xd2, 0xfc, 0xee, 0x07, 0x1c, 0x21, 0xde, 0xe1, 0x29,
  0x03, 0x1f, 0xfd, 0xa8, 0x25, 0xd7, 0xd9, 0x0b, 0xe1, 0xeb, 0xfd, 0xf1,
  0x31, 0xaa, 0x55, 0x8b, 0x25, 0x9f, 0x22, 0x15, 0x52, 0xb9, 0xde, 0xe5,
  0x13, 0x7b, 0xfa, 0x86, 0x6f, 0xfc, 0xb9, 0xd4, 0x48, 0xa5, 0x60, 0x81,
  0x81, 0xa7, 0xf2, 0xb6, 0x51, 0x35, 0xc3, 0x95, 0x5e, 0x58, 0x4e, 0xee,
  0x9e, 0xd8, 0x6c, 0x63, 0xf9, 0xe1, 0x9e, 0xba, 0xab, 0x56, 0x50, 0xc1,
  0x4e, 0x61, 0x54, 0x21, 0x66, 0xe5, 0x95, 0x74, 0xae, 0xc3, 0x97, 0xfa,
  0xd5, 0x2c, 0x9f, 0x46, 0xd2, 0xf6, 0xe9, 0xea, 0x19, 0xff, 0x09, 0x1f,
  0x17, 0xe2, 0x39, 0xfa, 0x08, 0x30, 0xda, 0x08, 0xd6, 0x08, 0x14, 0x00,
  0x7f, 0xda, 0x0a, 0x2a, 0xd9, 0x16, 0xfd, 0xea, 0x19, 0x4d, 0x00, 0xc5,
  0x05, 0xf7, 0x00, 0xff, 0xfb, 0xeb, 0xf5, 0xf5, 0x34, 0x1b, 0xee, 0x13,
  0xff, 0xe4, 0x0e, 0xf4, 0x25, 0x31, 0x2b, 0x3e, 0x0b, 0xf4, 0x28, 0xc9,
  0x4b, 0xfc, 0xd9, 0x05, 0x00, 0x21, 0x05, 0xd9, 0xf7, 0x18, 0xb9, 0x3d,
  0xfb, 0x28, 0x3a, 0xce, 0x0d, 0x2e, 0x16, 0x17, 0xdd, 0x0e, 0x43, 0x00,
  0xd4, 0x37, 0x1a, 0xd6, 0x88, 0x46, 0xb1, 0xfb, 0x0c, 0x29, 0x09, 0xe9,
  0xf3, 0x69, 0x3b, 0x32, 0x5d, 0x3c, 0xf0, 0xd7, 0xc1, 0x43, 0x10, 0xc2,
  0x1c, 0xe3, 0x22, 0x25, 0x5a, 0x06, 0xc3, 0x39, 0xc7, 0x3b, 0xe3, 0x4a,
  0xc1, 0xfc, 0x01, 0x66, 0x81, 0xda, 0x3a, 0x59, 0x22, 0x2e, 0x52, 0x16,
  0xa2, 0x11, 0xeb, 0xba, 0x16, 0x42, 0x21, 0xed, 0x10, 0x2b, 0x5d, 0x2d,
  0x02, 0xc5, 0xed, 0xe6, 0x19, 0x28, 0x2b, 0x05, 0x28, 0x11, 0xd7, 0x26,
  0xff, 0xf4, 0xeb, 0x12, 0xbb, 0x78, 0xaa, 0xb9, 0x0e, 0x0a, 0x0c, 0xe0,
  0x19, 0x13, 0x2c, 0x0d, 0x28, 0xcb, 0xc2, 0x65, 0xed, 0xfd, 0xc9, 0x0c,
  0xce, 0x03, 0x29, 0x4d, 0x43, 0xd7, 0xfa, 0xb5, 0x7f, 0x06, 0x43, 0xe7,
  0xd2, 0x2b, 0x4a, 0xbd, 0x4b, 0x06, 0xdb, 0x1d, 0xda, 0xe1, 0x2d, 0x33,
  0xf2, 0xdd, 0xfd, 0x0e, 0x7f, 0xd8, 0x1e, 0x35, 0x06, 0xf0, 0xf2, 0xed,
  0x91, 0x40, 0xe7, 0x02, 0x23, 0x19, 0x26, 0x5f, 0x6d, 0x01, 0x44, 0xfb,
  0xec, 0x31, 0x29, 0x15, 0x10, 0x12, 0x07, 0xd8, 0x48, 0x10, 0xe7, 0xf0,
  0xf2, 0x29, 0x2f, 0xeb, 0xe8, 0x37, 0x24, 0xf1, 0x0e, 0x1a, 0x38, 0x5c,
  0x6f, 0xf2, 0x17, 0x38, 0xee, 0xdc, 0xce, 0xe4, 0xb0, 0x29, 0xda, 0xf2,
  0x19, 0x05, 0x12, 0x0a, 0xe5, 0x03, 0x30, 0x21, 0xd5, 0xec, 0xd0, 0x35,
  0xd4, 0x1d, 0xde, 0x0b, 0x7f, 0xe3, 0x3d, 0xeb, 0xd5, 0xe4, 0xdc, 0x02,
  0xe1, 0x05, 0xda, 0x08, 0x19, 0xef, 0x1a, 0xde, 0xd0, 0x2f, 0x15, 0x09,
  0x2c, 0x12, 0xfe, 0x50, 0x06, 0xfa, 0x1d, 0x1a, 0xee, 0x09, 0x2f, 0x2c,
  0x1c, 0x0f, 0x3e, 0xda, 0x26, 0x01, 0xdb, 0xda, 0x24, 0x10, 0x31, 0x2e,
  0x37, 0x38, 0x0d, 0xf9, 0xfa, 0xe8, 0x14, 0x24, 0x3b, 0xf0, 0x45, 0x25,
  0x4b, 0xdd, 0x2e, 0xf0, 0x06, 0x17, 0xe4, 0xcd, 0x81, 0x47, 0xd1, 0x00,
  0x2e, 0x45, 0xd3, 0x11, 0x08, 0x3f, 0xec, 0x0a, 0x19, 0x05, 0x30, 0x39,
  0x45, 0x1f, 0x1c, 0xcc, 0xf5, 0xef, 0xd0, 0x33, 0x3b, 0xc9, 0x13, 0xfa,
  0x32, 0x4c, 0x48, 0x25, 0x0b, 0xde, 0xea, 0xd8, 0x7f, 0xe7, 0xd4, 0x10,
  0xf0, 0x28, 0xc8, 0x0d, 0xda, 0x91, 0x81, 0x6b, 0x14, 0xbf, 0x83, 0x20,
  0x34, 0x4d, 0xb5, 0x15, 0xb3, 0x6e, 0xb5, 0x39, 0x77, 0x82, 0x95, 0xb9,
  0x79, 0xa9, 0xc5, 0xbf, 0x93, 0x03, 0x4e, 0xdf, 0xfc, 0x3f, 0x63, 0x3d,
  0x31, 0xea, 0xde, 0xd5, 0x8a, 0xb8, 0x7a, 0xd4, 0x88, 0xea, 0xcf, 0x5d,
  0xb6, 0x83, 0xe9, 0x6f, 0x6b, 0x95, 0x03, 0x69, 0xdc, 0x5c, 0xc4, 0x88,
  0xc4, 0x25, 0x24, 0xd7, 0x11, 0xcf, 0x28, 0xa6, 0xd2, 0x58, 0x3a, 0xd7,
  0x41, 0x1d, 0xa5, 0xa3, 0xc2, 0x53, 0x9d, 0x8e, 0x02, 0x91, 0x03, 0x62,
  0x01, 0xd7, 0x7f, 0x48, 0x92, 0x9e, 0x16, 0x10, 0xd5, 0x2d, 0x19, 0xf0,
  0x6c, 0xa1, 0xf6, 0xec, 0xb7, 0xc9, 0x8d, 0x4f, 0x0b, 0xbb, 0x52, 0x5c,
  0xe2, 0x4a, 0x04, 0xd5, 0x6d, 0x01, 0x88, 0xaa, 0x20, 0x2c, 0x24, 0x10,
  0xee, 0x52, 0xa1, 0x60, 0xa1, 0xb7, 0x5f, 0x62, 0xb7, 0x6f, 0xcb, 0xc0,
  0x0e, 0xee, 0xed, 0xfb, 0x56, 0x38, 0x1d, 0xde, 0x13, 0xfd, 0x0b, 0x0c,
  0xd8, 0xc0, 0x18, 0x13, 0xc2, 0x7a, 0x49, 0xae, 0xb7, 0xdf, 0x99, 0x06,
  0xc3, 0x54, 0x04, 0xdc, 0xaf, 0x64, 0xd7, 0x3c, 0x4c, 0xe8, 0xcc, 0x4c,
  0xe4, 0xb2, 0xec, 0x0f, 0x73, 0x3f, 0xbc, 0x39, 0x64, 0xea, 0x43, 0x00,
  0x0f, 0x74, 0x50, 0x36, 0x32, 0x4e, 0x7f, 0xf9, 0xfc, 0xd7, 0xee, 0xfd,
  0x1d, 0x0a, 0x36, 0x17, 0xca, 0x12, 0x2b, 0x0b, 0x0c, 0xd6, 0x1f, 0x1a,
  0xff, 0x10, 0x30, 0xd3, 0x23, 0x0f, 0x2a, 0x21, 0xe6, 0xe9, 0xf1, 0xe1,
  0x7f, 0x1c, 0x1f, 0xf9, 0xd2, 0x1a, 0xfd, 0xc7, 0xce, 0xfe, 0x1c, 0xef,
  0xe9, 0xee, 0xdd, 0x0d, 0x06, 0xf6, 0x08, 0x28, 0xcd, 0x2e, 0x1c, 0x2c,
  0xd3, 0xc4, 0xe0, 0xda, 0x0b, 0x28, 0x16, 0x0d, 0xe9, 0x07, 0x20, 0xad,
  0x46, 0x15, 0xe0, 0xde, 0x14, 0x1d, 0xec, 0x01, 0x3e, 0x60, 0xea, 0x31,
  0x35, 0x43, 0xbb, 0x64, 0xa4, 0xe2, 0x8d, 0xb9, 0x3d, 0x2b, 0x4a, 0x9a,
  0xe5, 0xe8, 0x74, 0x48, 0x78, 0xf5, 0x59, 0xb0, 0xbd, 0xc9, 0x5e, 0x97,
  0x9b, 0x23, 0x9a, 0xe5, 0x68, 0x42, 0xdc, 0xf1, 0xc7, 0x10, 0x81, 0xb0,
  0x16, 0x4e, 0x9c, 0x7c, 0xb4, 0x0f, 0xea, 0xb9, 0x4a, 0xb3, 0xc6, 0x7d,
  0xfb, 0xe2, 0xb3, 0x00, 0x43, 0x71, 0x64, 0xd1, 0xe0, 0x69, 0xe4, 0xc6,
  0x18, 0x48, 0xa6, 0xc9, 0x2a, 0x67, 0xff, 0x09, 0xca, 0xcf, 0xe3, 0x88,
  0xd7, 0xa6, 0xbb, 0x56, 0x2d, 0x48, 0x52, 0x2f, 0x7e, 0x83, 0xde, 0xf3,
  0xee, 0x8c, 0x1d, 0xd1, 0xe9, 0xf1, 0xde, 0x15, 0x83, 0xbf, 0x8a, 0xe4,
  0x6d, 0x24, 0x1d, 0x7b, 0x0e, 0x7f, 0x0f, 0x63, 0x5d, 0xb6, 0x7d, 0x8f,
  0xed, 0x2b, 0xc3, 0xaf, 0xa5, 0xa7, 0xd5, 0x4e, 0xb2, 0x04, 0xb0, 0xa6,
  0x26, 0x76, 0x9e, 0xba, 0x25, 0x29, 0xe5, 0xe7, 0xd7, 0xdd, 0x07, 0x35,
  0x33, 0xd1, 0xcd, 0x2a, 0x1e, 0x30, 0xd2, 0x05, 0x23, 0x0b, 0xf7, 0xdf,
  0x85, 0x0d, 0xf5, 0x36, 0x4a, 0xf1, 0xf5, 0x21, 0x21, 0xb3, 0x3f, 0xef,
  0x03, 0x2b, 0x1e, 0x0e, 0xf0, 0xd5, 0xf6, 0xf4, 0x15, 0x1f, 0x32, 0xc0,
  0x04, 0x07, 0x08, 0x0e, 0x21, 0x02, 0x00, 0xc4, 0x0e, 0xfd, 0xf9, 0x7f,
  0xde, 0xdf, 0xfb, 0x0e, 0x0e, 0x35, 0xee, 0xe0, 0xfe, 0x06, 0xad, 0x7a,
  0xf5, 0xf3, 0xb5, 0x5d, 0x9a, 0x2f, 0x78, 0x43, 0x7f, 0xeb, 0x30, 0xbc,
  0x6b, 0x74, 0x35, 0x89, 0x09, 0x2e, 0x7b, 0xa4, 0xe3, 0xad, 0x27, 0x53,
  0x06, 0x64, 0xae, 0xd0, 0x95, 0x02, 0x98, 0x12, 0xf0, 0xbe, 0x33, 0x5e,
  0x1b, 0xcb, 0x30, 0x07, 0x8c, 0x0f, 0xee, 0xd3, 0xe9, 0xdd, 0x24, 0x4c,
  0x0f, 0xa7, 0xe3, 0xcb, 0xf5, 0x6a, 0x6c, 0xfa, 0xb6, 0x51, 0x75, 0xca,
  0x39, 0x2a, 0x23, 0x1c, 0xf6, 0x06, 0x28, 0x45, 0x3b, 0x02, 0xda, 0xe8,
  0x57, 0xfd, 0x0a, 0xf7, 0x25, 0x15, 0x1e, 0x0b, 0x99, 0x42, 0xd8, 0x22,
  0x45, 0x01, 0x24, 0x47, 0x16, 0xeb, 0x36, 0x1a, 0x22, 0xe2, 0xd9, 0xe7,
  0x2b, 0xef, 0xda, 0x06, 0xee, 0x22, 0xd6, 0xff, 0xc8, 0x36, 0x2a, 0x2c,
  0xdb, 0x32, 0x00, 0xf2, 0x1f, 0xf1, 0xc8, 0x7f, 0xd4, 0xfa, 0x0b, 0x2c,
  0xf4, 0xda, 0xc1, 0xde, 0xba, 0xcb, 0x0f, 0x27, 0x02, 0xde, 0xcb, 0xdd,
  0xf6, 0x2e, 0x0e, 0xcd, 0xcb, 0xda, 0xe3, 0x0c, 0xcf, 0xf7, 0xf5, 0xea,
  0x7f, 0x12, 0x69, 0xf8, 0x21, 0x3b, 0x09, 0xe8, 0x29, 0x21, 0x01, 0xee,
  0xc5, 0x1a, 0x24, 0xf2, 0xd2, 0xf9, 0xe7, 0x26, 0xc4, 0xd9, 0x06, 0xd5,
  0xda, 0xdb, 0xe1, 0x13, 0x03, 0xfe, 0x1f, 0x15, 0xe7, 0x09, 0x2a, 0xc4,
  0x2a, 0xd5, 0xee, 0xf3, 0xd4, 0xf6, 0xe1, 0x26, 0x6d, 0x25, 0xcb, 0x0b,
  0xfd, 0x78, 0x04, 0x00, 0x12, 0x2d, 0x00, 0x36, 0x93, 0xd9, 0xeb, 0x45,
  0x34, 0xd6, 0x11, 0xa7, 0xcb, 0x95, 0x25, 0xbf, 0xd1, 0x06, 0x04, 0xac,
  0x96, 0x75, 0x4d, 0x66, 0x81, 0xc7, 0x0b, 0x8f, 0x6e, 0x23, 0xad, 0xfb,
  0x69, 0xd3, 0x00, 0x77, 0x8a, 0x24, 0xdd, 0xb2, 0x3c, 0x82, 0xdd, 0x52,
  0x0d, 0x87, 0xbd, 0x8f, 0x52, 0x45, 0x8a, 0x71, 0x21, 0xd4, 0xcb, 0xd9,
  0x7f, 0x33, 0x3e, 0x29, 0x3b, 0x15, 0x24, 0x61, 0xfd, 0x0d, 0xfe, 0x18,
  0x73, 0xdf, 0x21, 0x00, 0xd6, 0xf9, 0xd5, 0x23, 0xc1, 0x72, 0x22, 0x1c,
  0x4f, 0x30, 0x0c, 0x08, 0x79, 0xb2, 0x45, 0x22, 0xd6, 0x26, 0xf2, 0xfe,
  0x64, 0xcf, 0x27, 0x3e, 0xeb, 0xd5, 0x1f, 0x99, 0xd1, 0xe4, 0xd6, 0x38,
  0x32, 0x21, 0x37, 0x1b, 0x37, 0x0e, 0x0d, 0x23, 0x21, 0x3d, 0x1f, 0xf5,
  0xe8, 0x12, 0x15, 0x19, 0x5f, 0x07, 0x2b, 0xf1, 0x5f, 0x0e, 0x62, 0x46,
  0xfb, 0x7c, 0x01, 0x63, 0xcb, 0xa9, 0x0f, 0xb4, 0x68, 0x5c, 0x3f, 0x5c,
  0xca, 0xb4, 0xb3, 0xa7, 0x59, 0x9e, 0x68, 0x78, 0x43, 0xe3, 0xcd, 0x65,
  0x1b, 0xc4, 0xf0, 0x3f, 0xb0, 0xea, 0x02, 0x49, 0xfb, 0xef, 0xfa, 0xa5,
  0x81, 0x84, 0xe2, 0x91, 0xe2, 0x10, 0xaf, 0x10, 0xe9, 0x8f, 0x0f, 0xa8,
  0x2c, 0x86, 0xf0, 0xa5, 0x6d, 0x41, 0x64, 0xc3, 0xa8, 0x29, 0xe6, 0xd4,
  0xce, 0xda, 0xfc, 0x3f, 0x21, 0xd7, 0xf2, 0xee, 0xff, 0x52, 0x24, 0xfc,
  0x1b, 0xd8, 0x1e, 0xf5, 0x73, 0x07, 0x7f, 0x06, 0xc4, 0x34, 0x21, 0xb5,
  0xeb, 0x1a, 0x23, 0xec, 0xe3, 0xfc, 0x11, 0xe5, 0xf5, 0xed, 0xed, 0xd2,
  0xf6, 0xd9, 0x19, 0xde, 0x03, 0x07, 0x33, 0x08, 0x13, 0xd7, 0xf7, 0x46,
  0xd7, 0xfd, 0x25, 0xbf, 0x35, 0x31, 0x30, 0x2b, 0xce, 0x0a, 0xd2, 0xf7,
  0x0e, 0xef, 0xf8, 0x0b, 0x17, 0xf5, 0x21, 0xc4, 0xff, 0x1e, 0xf6, 0x12,
  0xef, 0xad, 0x18, 0xeb, 0xe7, 0x10, 0x18, 0xf2, 0x81, 0xdc, 0xbc, 0xeb,
  0xfa, 0x17, 0xea, 0xfa, 0xfc, 0x55, 0xd1, 0x1a, 0x03, 0xfb, 0x0a, 0x11,
  0xbd, 0xfb, 0xfe, 0xda, 0x06, 0xf0, 0x24, 0x13, 0x09, 0x03, 0x23, 0xf2,
  0xe9, 0x08, 0x2d, 0x07, 0x05, 0xee, 0x2d, 0xba, 0x2b, 0xf2, 0xe5, 0xfc,
  0x0b, 0xf7, 0x18, 0xf7, 0x0f, 0x41, 0xe4, 0xc0, 0xcf, 0x37, 0x0c, 0x30,
  0x36, 0xe3, 0xb5, 0xc0, 0x33, 0x61, 0x41, 0xf8, 0xbd, 0xef, 0x05, 0xc8,
  0x2a, 0x24, 0x7f, 0x06, 0x4d, 0xd5, 0x3a, 0x13, 0x54, 0xb2, 0x04, 0xc2,
  0x32, 0x06, 0x0c, 0xd4, 0x54, 0xca, 0x1d, 0xdf, 0x29, 0x10, 0xeb, 0xdb,
  0xb0, 0xfa, 0x42, 0xce, 0xfa, 0xfb, 0xd8, 0x10, 0xf7, 0xc3, 0x36, 0x25,
  0xee, 0xc1, 0xc8, 0x17, 0xe6, 0xff, 0xe6, 0x1d, 0xcd, 0xfc, 0x14, 0xcb,
  0xdb, 0xe6, 0xf1, 0x97, 0x17, 0xf2, 0x44, 0xfb, 0xcd, 0xf3, 0xe6, 0x2c,
  0x09, 0x27, 0x22, 0xec, 0x15, 0xfc, 0xa8, 0xe2, 0xde, 0x04, 0x21, 0xa2,
  0xba, 0x43, 0xcf, 0x06, 0x19, 0xf1, 0xd4, 0x06, 0x98, 0x31, 0x0e, 0x37,
  0xef, 0x26, 0xe7, 0x7f, 0x0d, 0x3e, 0x36, 0x34, 0xd5, 0xe2, 0x3d, 0x3e,
  0xe0, 0x1b, 0x43, 0xca, 0xc9, 0xe0, 0x0a, 0x34, 0xff, 0xe0, 0x2f, 0xd9,
  0x82, 0x6b, 0xb2, 0x44, 0x10, 0xf2, 0xb8, 0x86, 0xeb, 0xdf, 0xd5, 0xc5,
  0x9d, 0x32, 0x34, 0x4f, 0xa7, 0x15, 0x47, 0x7d, 0x3e, 0x90, 0x16, 0x96,
  0x1f, 0x46, 0x27, 0xc4, 0x8f, 0x04, 0x33, 0xfd, 0xee, 0x16, 0xa0, 0x7b,
  0x9a, 0x32, 0x5d, 0xa6, 0x37, 0x13, 0xac, 0xb6, 0xff, 0x9d, 0x03, 0xd3,
  0x7e, 0xb7, 0xc3, 0x38, 0xb5, 0xcf, 0x2a, 0x45, 0x4d, 0x21, 0x7f, 0x89,
  0xaf, 0x02, 0xaa, 0xeb, 0x4e, 0x3b, 0x37, 0xd9, 0x19, 0x32, 0xc6, 0x7f,
  0x38, 0x08, 0xc1, 0xc1, 0xee, 0x1c, 0x07, 0xe6, 0xc5, 0xe7, 0x20, 0xca,
  0x33, 0xf6, 0x6e, 0x37, 0x58, 0x36, 0x28, 0x3d, 0x3a, 0x97, 0x44, 0xa7,
  0xe7, 0x3b, 0x00, 0x39, 0x3e, 0x14, 0xd8, 0xed, 0x13, 0x3f, 0x1f, 0xa3,
  0xf2, 0xcb, 0xff, 0xf2, 0xe7, 0x09, 0xbd, 0x1d, 0xc4, 0x29, 0x0d, 0xfa,
  0x19, 0x0f, 0x06, 0xe6, 0xdf, 0xd9, 0x0d, 0xd1, 0xff, 0x33, 0x07, 0xe2,
  0xc2, 0x1a, 0x21, 0xcc, 0x22, 0xfa, 0xf8, 0xdd, 0xca, 0x61, 0xdd, 0x5a,
  0x3f, 0x50, 0x0e, 0xe7, 0x9a, 0x1a, 0x0e, 0x3a, 0x21, 0x21, 0xfc, 0xef,
  0xe8, 0x2f, 0x1c, 0x5c, 0xfc, 0x49, 0x21, 0x0e, 0x33, 0xc6, 0x17, 0xe2,
  0x0e, 0xce, 0x03, 0x1f, 0xf5, 0x62, 0x00, 0xf6, 0xcf, 0x5c, 0x05, 0x30,
  0x16, 0x03, 0x24, 0x7f, 0xad, 0xd8, 0x1d, 0x48, 0x28, 0xda, 0x65, 0xd9,
  0x22, 0xd7, 0x0d, 0x93, 0xdf, 0xff, 0x16, 0xac, 0xfd, 0x73, 0x22, 0xa9,
  0x02, 0x32, 0x06, 0xfc, 0x3d, 0xaa, 0x9c, 0xf3, 0x0e, 0xcd, 0xad, 0x11,
  0x88, 0xbc, 0x7f, 0x1d, 0x84, 0x96, 0x27, 0x1c, 0x77, 0x2c, 0x09, 0x3b,
  0xb9, 0xe5, 0x7d, 0xce, 0x37, 0x08, 0xab, 0x7d, 0x95, 0x1b, 0x7c, 0x2b,
  0x1a, 0x34, 0xd0, 0x0d, 0x50, 0x37, 0x95, 0xe7, 0xd6, 0x2f, 0x42, 0xa3,
  0xb5, 0x77, 0xc0, 0x3c, 0x4e, 0xf4, 0xff, 0xff, 0x04, 0x00, 0x00, 0x00,
  0x00, 0x08, 0x00, 0x00, 0x11, 0x5f, 0xd0, 0x3d, 0x2a, 0x84, 0x8f, 0xbe,
  0xfa, 0xa2, 0x3e, 0xbe, 0xe5, 0xf2, 0x44, 0xbd, 0x60, 0x54, 0x6b, 0xbc,
  0x28, 0x79, 0x56, 0x3e, 0xcf, 0x8f, 0xc6, 0x3e, 0xb1, 0xbe, 0x1b, 0x3d,
  0xd7, 0x99, 0xf4, 0x3e, 0x52, 0x40, 0x8f, 0xbe, 0x89, 0x3d, 0x17, 0x3e,
  0x5f, 0xe6, 0x01, 0xbe, 0xe9, 0x23, 0x50, 0xbe, 0x15, 0x58, 0xb0, 0x3e,
  0x96, 0xdd, 0xd1, 0xbe, 0x42, 0x1c, 0x5f, 0x3e, 0x3e, 0xb7, 0x71, 0x3e,
  0x63, 0xb8, 0x47, 0x3e, 0x00, 0x90, 0xd3, 0x39, 0xcc, 0x25, 0x96, 0x3e,
  0xde, 0x56, 0x9b, 0xbc, 0x21, 0x0b, 0xb4, 0x3e, 0xbb, 0xe2, 0xf1, 0x3e,
  0x3a, 0x8f, 0x2d, 0x3e, 0x56, 0x62, 0x23, 0xbe, 0xe5, 0xea, 0x10, 0xbf,
  0x87, 0x9f, 0xdf, 0xbc, 0x3f, 0x38, 0x8d, 0xbd, 0x76, 0x10, 0x5b, 0xbe,
  0xb1, 0x78, 0x8e, 0x3e, 0x50, 0x44, 0x94, 0x3e, 0x2c, 0x85, 0xbe, 0x3d,
  0xc9, 0x94, 0xb6, 0xbd, 0xe3, 0xbe, 0xac, 0xbe, 0xdd, 0x28, 0x5d, 0xbd,
  0x11, 0x36, 0xa0, 0xbe, 0xc4, 0x93, 0xd3, 0x3d, 0x7b, 0xea, 0x25, 0xbe,
  0x5a, 0x58, 0xbe, 0xbd, 0x63, 0x4e, 0xa3, 0x3d, 0x83, 0x41, 0xf4, 0x3d,
  0x13, 0x84, 0x81, 0xbd, 0x85, 0x56, 0xa6, 0xbe, 0x9b, 0xf0, 0x91, 0xbe,
  0xe8, 0x58, 0x98, 0xbc, 0xea, 0x63, 0x49, 0x3e, 0xa1, 0x0e, 0xe9, 0xbe,
  0x3c, 0x72, 0x82, 0xbe, 0x4d, 0xc4, 0xb2, 0x3e, 0x6e, 0x6d, 0xb1, 0x3e,
  0xa0, 0x04, 0x4c, 0x3c, 0xa8, 0x2d, 0x88, 0x3e, 0x94, 0x90, 0xc9, 0xbe,
  0x10, 0x8c, 0x96, 0xbd, 0x21, 0x48, 0x15, 0xbe, 0x50, 0xa7, 0x6f, 0x3d,
  0xfc, 0x6a, 0x47, 0xbe, 0xad, 0x33, 0x9e, 0xbe, 0xdb, 0xf9, 0x32, 0xbe,
  0xa5, 0x82, 0x9f, 0x3e, 0x58, 0x9e, 0xaa, 0xbd, 0xb8, 0xd6, 0x06, 0x3d,
  0xe5, 0x2d, 0xc2, 0x3e, 0x00, 0x54, 0x13, 0xbd, 0xc9, 0x06, 0x17, 0x3d,
  0x7d, 0xaa, 0xaf, 0x3e, 0x02, 0xb6, 0x50, 0x3e, 0x8c, 0x2e, 0x09, 0xbf,
  0xfd, 0x91, 0x8a, 0x3e, 0xc5, 0x8f, 0xac, 0x3a, 0xea, 0x48, 0x1f, 0x3e,
  0x1b, 0x92, 0x5a, 0x3e, 0xb3, 0xb6, 0x7e, 0xbe, 0xe4, 0x4f, 0xe6, 0x3c,
  0x2b, 0x06, 0x3d, 0xbd, 0xef, 0xe1, 0xb2, 0x3e, 0xbe, 0x5a, 0x35, 0x3d,
  0x84, 0x2c, 0xd5, 0x3e, 0x5e, 0x43, 0xfd, 0xbe, 0xd8, 0x99, 0xd7, 0x3d,
  0x20, 0x79, 0xa6, 0x3c, 0x68, 0xa8, 0x74, 0xbe, 0xe0, 0x01, 0xa5, 0xbc,
  0x03, 0xa1, 0xc8, 0x3d, 0xeb, 0x6e, 0xc4, 0xbe, 0xd6, 0x9c, 0x2b, 0x3e,
  0x2c, 0xde, 0x88, 0xbd, 0x6e, 0x78, 0x07, 0x3e, 0x72, 0x98, 0x10, 0x3a,
  0xb3, 0xe6, 0x1a, 0x3f, 0x06, 0x00, 0xc8, 0xbe, 0xe8, 0xc8, 0x40, 0x3e,
  0x0d, 0xca, 0x97, 0x3e, 0x94, 0x93, 0x92, 0x3c, 0x94, 0x92, 0x1a, 0x3e,
  0x54, 0xb5, 0x91, 0xbe, 0xd0, 0x5a, 0x30, 0x3d, 0xe7, 0x3b, 0x03, 0xbe,
  0x0e, 0xfd, 0x26, 0xbe, 0xb9, 0xca, 0xa1, 0x3e, 0x71, 0x4c, 0x59, 0xbe,
  0x71, 0xb4, 0xc0, 0x3d, 0x1b, 0x57, 0x56, 0x3e, 0x80, 0x65, 0x29, 0xbe,
  0xf4, 0xe0, 0xa8, 0xbe, 0x3d, 0xa3, 0x65, 0xbe, 0x60, 0x71, 0x9a, 0xbe,
  0x70, 0x20, 0xf8, 0x3c, 0x22, 0x30, 0x73, 0xbe, 0xc8, 0x6e, 0x93, 0xbe,
  0xc0, 0x71, 0x1e, 0xbc, 0xe2, 0x3d, 0x65, 0xbe, 0xaf, 0x23, 0x10, 0xbe,
  0xca, 0x12, 0xa2, 0xbe, 0x00, 0x76, 0xc9, 0xba, 0xdc, 0xaa, 0x78, 0xbe,
  0x3c, 0x7f, 0x68, 0x3d, 0x98, 0xb1, 0xde, 0x3d, 0xcf, 0xca, 0x35, 0xbe,
  0xe6, 0x3c, 0x4f, 0x3e, 0x6d, 0xfb, 0xf4, 0x3d, 0xd8, 0x45, 0x65, 0xbd,
  0xbc, 0xeb, 0x29, 0x3e, 0x04, 0x3c, 0x4c, 0x3e, 0x20, 0x63, 0x4b, 0x3c,
  0x14, 0xbf, 0x97, 0x3e, 0x73, 0x4e, 0x57, 0x3d, 0xee, 0x17, 0x2d, 0xbe,
  0xd5, 0x4b, 0x12, 0xbf, 0x54, 0x85, 0x5c, 0xbe, 0x21, 0xff, 0x8d, 0x3e,
  0x6a, 0x37, 0x01, 0xbf, 0xc3, 0xb5, 0x9b, 0x3e, 0x54, 0x85, 0xc6, 0x3d,
  0x22, 0xdb, 0x26, 0xbe, 0x79, 0x08, 0x06, 0x3f, 0xf5, 0xab, 0x4d, 0x3e,
  0x36, 0xd7, 0x63, 0x3e, 0x58, 0x67, 0xcf, 0x3e, 0x38, 0x9a, 0x32, 0x3d,
  0x82, 0x71, 0xfd, 0xbd, 0x4e, 0xb5, 0xa7, 0x3e, 0x06, 0x71, 0xfa, 0x39,
  0xb0, 0x96, 0x6c, 0x3d, 0x47, 0xfd, 0x8f, 0xbe, 0x49, 0xf3, 0x72, 0xbc,
  0xde, 0xf7, 0x5b, 0x3e, 0x45, 0x41, 0xac, 0xbd, 0xfe, 0x41, 0x0c, 0xbe,
  0x1d, 0x21, 0x26, 0xbe, 0xbd, 0x9c, 0x9a, 0xbe, 0x40, 0x93, 0xaa, 0x3d,
  0x66, 0x3d, 0x10, 0xbf, 0xaa, 0x8b, 0x60, 0x3f, 0xf1, 0xf1, 0x0d, 0xbf,
  0xc8, 0x8e, 0xf3, 0x3e, 0x80, 0x51, 0xc5, 0x3b, 0xbc, 0xe7, 0xe2, 0xbe,
  0x24, 0x58, 0x0a, 0xbd, 0xe2, 0x9e, 0x51, 0x3e, 0x27, 0x35, 0x36, 0x3e,
  0xcf, 0xf3, 0x0d, 0xbe, 0x3a, 0xaa, 0x90, 0x3e, 0x17, 0x06, 0x63, 0xbe,
  0x37, 0x85, 0x3b, 0xbe, 0x4c, 0x53, 0x97, 0xbe, 0x29, 0xa9, 0xbc, 0x3d,
  0xd5, 0x94, 0x7d, 0x3e, 0x20, 0x7e, 0x76, 0xbe, 0x1b, 0xae, 0x56, 0xbe,
  0x39, 0x30, 0x0f, 0xbd, 0xb8, 0xb8, 0xaa, 0x3d, 0xa6, 0xb3, 0x8d, 0xbe,
  0x99, 0x82, 0x9e, 0xbe, 0xd8, 0x38, 0x7c, 0xbd, 0xa3, 0x81, 0x19, 0xbe,
  0x00, 0x1e, 0x0e, 0x3c, 0x80, 0x52, 0xc8, 0x3d, 0xde, 0xc0, 0xf4, 0xbd,
  0x2a, 0x6a, 0x81, 0xbd, 0x49, 0xb6, 0x96, 0x3d, 0xe4, 0x1e, 0x5f, 0xbe,
  0x4e, 0xaf, 0x4f, 0xbe, 0x16, 0x12, 0x6e, 0xbe, 0x20, 0xfb, 0xd2, 0xbc,
  0x7f, 0x4f, 0x55, 0xbd, 0x04, 0x7d, 0x9f, 0xbd, 0xb8, 0xae, 0xb6, 0xbd,
  0xa1, 0xc3, 0x99, 0x3e, 0x80, 0xc2, 0x4b, 0xbe, 0x52, 0xc9, 0x81, 0x3e,
  0x60, 0x83, 0xac, 0x3d, 0x92, 0xf6, 0xb0, 0xbd, 0xd0, 0x1f, 0xa1, 0xbc,
  0xf6, 0xc8, 0xe6, 0x3c, 0xd1, 0x23, 0x07, 0xbd, 0x5e, 0x8f, 0x4e, 0xbe,
  0x55, 0x4e, 0x6d, 0xbe, 0x12, 0x10, 0x42, 0xbe, 0xe4, 0x49, 0x2e, 0xbd,
  0x30, 0xab, 0x77, 0xbe, 0xdc, 0x4f, 0xcf, 0xbc, 0x7d, 0xa3, 0x38, 0x3e,
  0x04, 0xee, 0xb1, 0xbe, 0x7a, 0x19, 0x24, 0x3e, 0xf6, 0xd8, 0xa8, 0xbd,
  0x11, 0x68, 0x25, 0x3e, 0x70, 0x38, 0x92, 0x3c, 0xb4, 0xd8, 0x8a, 0x3d,
  0xfd, 0x30, 0x80, 0xbe, 0xae, 0xd5, 0x3d, 0x3e, 0x3f, 0xb3, 0x73, 0xbe,
  0x8b, 0x1b, 0x81, 0xbe, 0x19, 0x61, 0x06, 0xbe, 0xf0, 0x27, 0x83, 0x3e,
  0x20, 0x79, 0xc8, 0xbc, 0xf1, 0x45, 0x32, 0xbe, 0x27, 0x4c, 0xe5, 0x3d,
  0x0d, 0xcb, 0xb6, 0xbd, 0x37, 0x5d, 0x4f, 0x3e, 0x10, 0xcc, 0x07, 0x3e,
  0x29, 0xce, 0xdd, 0x3d, 0x5e, 0x37, 0x38, 0x3e, 0x1f, 0x6f, 0x85, 0x3e,
  0x1a, 0x0d, 0x37, 0x3e, 0x44, 0x3b, 0xca, 0x3d, 0x8b, 0x44, 0x88, 0xbe,
  0x56, 0x7d, 0x73, 0x3e, 0x8e, 0x7b, 0x49, 0x3e, 0x8a, 0xf7, 0xa6, 0xbe,
  0x26, 0x9e, 0xa8, 0x3e, 0x86, 0x26, 0x4b, 0xbe, 0xe4, 0x09, 0x67, 0x3e,
  0x5b, 0xd9, 0xff, 0xbc, 0x81, 0xde, 0x83, 0x3e, 0x2b, 0x5b, 0xb4, 0x3e,
  0xc6, 0x7e, 0xde, 0xbd, 0xbf, 0x6b, 0xb5, 0x3b, 0x32, 0x31, 0x0a, 0xbf,
  0x69, 0xbc, 0xaf, 0x3e, 0x80, 0x74, 0xb8, 0xbd, 0xee, 0x3a, 0xa7, 0x3e,
  0x70, 0xb8, 0x32, 0xbe, 0x8c, 0x69, 0x5a, 0x3d, 0x6b, 0xf1, 0x6b, 0xbe,
  0xe7, 0xf4, 0x78, 0xbe, 0x5b, 0x15, 0x05, 0x3e, 0xb7, 0x3b, 0xa7, 0x3e,
  0x6b, 0x75, 0x9d, 0xbe, 0xf9, 0xba, 0x9e, 0xbd, 0x6f, 0x1a, 0x08, 0xbe,
  0x5e, 0x91, 0xf0, 0xbe, 0x9c, 0xd0, 0x87, 0xbd, 0x23, 0xac, 0x92, 0xbd,
  0x2a, 0x9b, 0x54, 0x3e, 0x56, 0x4f, 0x7b, 0xbe, 0x8b, 0x26, 0xa3, 0xbe,
  0x8f, 0xa3, 0x14, 0xbe, 0xaf, 0x82, 0xef, 0x3e, 0xff, 0xe5, 0xe8, 0xbe,
  0xd2, 0x5d, 0x4f, 0x3e, 0xe4, 0xd6, 0x7d, 0xbd, 0xe6, 0xe3, 0xe6, 0x3e,
  0x33, 0x23, 0x7c, 0x3e, 0x4b, 0x82, 0x95, 0xbd, 0x35, 0x3c, 0x00, 0x3f,
  0x91, 0x24, 0x9c, 0xbd, 0x42, 0xd9, 0x67, 0x3e, 0x32, 0xa8, 0x43, 0x3e,
  0x05, 0x06, 0xc7, 0x3c, 0x63, 0x6c, 0xdf, 0x3d, 0x06, 0xe5, 0x2f, 0x3e,
  0x70, 0x6a, 0x81, 0xbe, 0x76, 0x79, 0xa4, 0xbe, 0x60, 0x31, 0x39, 0x3c,
  0x93, 0x93, 0x30, 0xbe, 0x71, 0x3d, 0x21, 0x3c, 0xc0, 0xb8, 0x3a, 0xbe,
  0x87, 0x02, 0x46, 0xbc, 0x51, 0xe5, 0x8e, 0x3e, 0xbc, 0xe5, 0x25, 0xbf,
  0xe0, 0xa6, 0x9a, 0x3e, 0xfc, 0x12, 0x12, 0xbf, 0xdd, 0x57, 0xf8, 0x3e,
  0x15, 0x29, 0x06, 0xbe, 0x93, 0xd3, 0x12, 0xbf, 0xea, 0x8f, 0xce, 0x3e,
  0x40, 0x51, 0x1f, 0xbc, 0xc5, 0x04, 0x62, 0xbe, 0x89, 0xfa, 0x46, 0xbe,
  0x75, 0x1c, 0xa0, 0x3e, 0x79, 0x2c, 0x51, 0x3e, 0xe3, 0xb3, 0xaf, 0x3e,
  0x00, 0xbe, 0x20, 0xbd, 0xf8, 0xaa, 0x08, 0x3e, 0xe2, 0xad, 0xf2, 0x3d,
  0x7e, 0x48, 0x13, 0x3d, 0xa8, 0x1d, 0x3b, 0x3d, 0x21, 0x10, 0x4d, 0x3c,
  0x53, 0xbc, 0xa4, 0x3e, 0xe2, 0x05, 0x0a, 0xbe, 0x93, 0x4d, 0xa1, 0xbe,
  0xee, 0xb7, 0xa6, 0xbe, 0x26, 0xd8, 0x60, 0xbe, 0x20, 0xab, 0xd5, 0xbd,
  0xb0, 0xa8, 0x97, 0x3d, 0x4e, 0x48, 0x41, 0x3e, 0x4e, 0x8f, 0x67, 0xbe,
  0xd1, 0x9a, 0x9c, 0xbe, 0x38, 0x5f, 0x75, 0x3d, 0xc4, 0x54, 0x68, 0x3e,
  0x80, 0x04, 0xaa, 0xbd, 0xc9, 0xa6, 0xb0, 0x3e, 0x42, 0x71, 0xfa, 0xbd,
  0x71, 0x7c, 0x3d, 0x3e, 0x78, 0x4c, 0x40, 0xbe, 0x76, 0x65, 0x38, 0x3e,
  0x79, 0x08, 0xfb, 0x3d, 0xb0, 0x36, 0x65, 0xbe, 0xb7, 0x56, 0x77, 0xbe,
  0x3c, 0xdf, 0xcd, 0x3e, 0x53, 0xcd, 0x1c, 0xbe, 0x0d, 0x28, 0x25, 0x3f,
  0x2c, 0x7a, 0x2f, 0x3e, 0xb8, 0x8c, 0xff, 0x3d, 0x30, 0xe0, 0x85, 0x3e,
  0x65, 0x1b, 0x88, 0xbe, 0x77, 0x39, 0xf7, 0x3e, 0xca, 0xaf, 0x65, 0xbe,
  0x00, 0x9d, 0xae, 0x3e, 0xe1, 0x32, 0x83, 0x3e, 0x3b, 0x1f, 0x77, 0xbe,
  0x9a, 0x9f, 0x87, 0xbd, 0xcf, 0x9d, 0xb5, 0xbd, 0x92, 0xb9, 0x08, 0x3f,
  0x80, 0x38, 0x0c, 0x3e, 0xc1, 0x7d, 0x8f, 0xbe, 0x53, 0x5e, 0xed, 0xbb,
  0x40, 0x04, 0x87, 0xbc, 0xc0, 0xa4, 0xd7, 0xbe, 0x04, 0xef, 0xcd, 0x3d,
  0x50, 0xbe, 0x85, 0xbc, 0xb2, 0x72, 0xb2, 0xbe, 0xfd, 0x09, 0x88, 0x3e,
  0xe9, 0x8a, 0x61, 0x3f, 0x7f, 0x68, 0x25, 0xbd, 0x23, 0xb3, 0x43, 0x3e,
  0xd8, 0x6f, 0xef, 0x3e, 0x58, 0x30, 0x92, 0xbe, 0x84, 0x11, 0x3a, 0x3e,
  0x1a, 0x27, 0x97, 0x3d, 0x96, 0x47, 0xae, 0xbe, 0x23, 0xac, 0x28, 0x3f,
  0xaf, 0x52, 0xa9, 0xbe, 0x68, 0x1f, 0x2f, 0x3e, 0x9c, 0x7b, 0x04, 0x3f,
  0xf0, 0x8c, 0x19, 0x3d, 0x1e, 0x27, 0xca, 0x3e, 0x54, 0x22, 0x2a, 0xbe,
  0xe4, 0x45, 0x85, 0x3e, 0xd6, 0xf7, 0xcf, 0x3e, 0x36, 0x87, 0xba, 0x3e,
  0xa9, 0x7f, 0x03, 0x3f, 0x6a, 0x78, 0x27, 0x3e, 0xb1, 0x22, 0x51, 0x3e,
  0x99, 0xc2, 0x40, 0x3e, 0x01, 0x3e, 0xeb, 0x3e, 0xfd, 0xb8, 0x11, 0xbe,
  0x0a, 0x86, 0x17, 0x3e, 0x64, 0x42, 0x51, 0x3e, 0x88, 0xf7, 0xa8, 0xbd,
  0x16, 0x55, 0x2a, 0x3e, 0x60, 0xe4, 0x37, 0xbc, 0xca, 0x0b, 0x48, 0xbe,
  0xff, 0xec, 0x66, 0x3e, 0xc0, 0xa3, 0x32, 0x3c, 0x97, 0x78, 0xc4, 0x3e,
  0x74, 0x5b, 0x8b, 0x3e, 0x15, 0xee, 0x01, 0xbe, 0xc5, 0x44, 0x65, 0xbe,
  0x04, 0x24, 0xbd, 0xbd, 0xa0, 0xf2, 0xa5, 0x3e, 0x2f, 0x53, 0xef, 0xbc,
  0x20, 0xad, 0x67, 0x3d, 0x86, 0x6f, 0x00, 0x3f, 0x04, 0x2f, 0xb7, 0xbd,
  0x54, 0x25, 0xe7, 0x3e, 0x0d, 0x1d, 0x26, 0x3e, 0x7e, 0xbd, 0x40, 0xbe,
  0xdf, 0xd9, 0x1e, 0x3e, 0xb7, 0x85, 0xf7, 0x3e, 0xc5, 0x70, 0xb0, 0x3d,
  0x70, 0x23, 0xc2, 0xbe, 0x2b, 0x3d, 0x1a, 0x3f, 0x96, 0x26, 0xf8, 0xbc,
  0x45, 0x45, 0x36, 0xbe, 0xc2, 0x7a, 0x4d, 0x3e, 0x74, 0xc3, 0x1b, 0x3e,
  0xff, 0xa2, 0x26, 0x3e, 0x7a, 0x55, 0xe2, 0xbd, 0xdf, 0x22, 0x8d, 0x3e,
  0x28, 0x72, 0xae, 0xbe, 0x11, 0xb0, 0x9a, 0xbe, 0xd3, 0xda, 0xa8, 0xbe,
  0xe4, 0x5c, 0x56, 0x3e, 0xa4, 0x88, 0xdf, 0x3d, 0xff, 0xbb, 0xa9, 0xbe,
  0x1c, 0x71, 0x89, 0xbd, 0x29, 0x44, 0x4a, 0x3f, 0xba, 0xeb, 0x81, 0x3b,
  0x8b, 0xca, 0x47, 0xbe, 0x5b, 0xcf, 0xd6, 0x3e, 0x40, 0x99, 0x2d, 0xbc,
  0x7d, 0xbd, 0xcd, 0xbe, 0x5c, 0xb6, 0x5e, 0x3e, 0x49, 0x79, 0x10, 0xbe,
  0x08, 0xeb, 0xf7, 0xbe, 0x50, 0xd8, 0xe4, 0x3c, 0x74, 0xdc, 0xf4, 0x3b,
  0xd8, 0xf3, 0xa0, 0xbe, 0x6c, 0x99, 0xbc, 0x3d, 0x30, 0xea, 0x6b, 0x3e,
  0xf3, 0x7b, 0xd1, 0x3e, 0x7e, 0x76, 0x8e, 0xbe, 0xf4, 0xad, 0x0a, 0xbe,
  0xd9, 0xc4, 0x50, 0xbd, 0x54, 0xdc, 0x47, 0x3e, 0x92, 0x7d, 0x0c, 0x3e,
  0x43, 0x89, 0x33, 0xbd, 0xa1, 0xb4, 0x8e, 0x3e, 0x88, 0xed, 0x17, 0xbf,
  0x4f, 0xc7, 0x5c, 0xbe, 0xee, 0x74, 0x54, 0xbe, 0x93, 0x45, 0x65, 0x3e,
  0x82, 0x95, 0x4e, 0x3e, 0xfb, 0x0b, 0x8a, 0x3d, 0xb3, 0x9b, 0x0c, 0xbf,
  0x78, 0xcd, 0x85, 0xbe, 0xd1, 0x26, 0xe0, 0x3c, 0x04, 0x6a, 0x8a, 0xbe,
  0xbf, 0x0d, 0x54, 0xbe, 0x68, 0xbf, 0xa6, 0x3e, 0x1c, 0xfa, 0x67, 0x3e,
  0x4b, 0x5c, 0x80, 0x3d, 0x1a, 0x7e, 0x3e, 0x3e, 0x02, 0xa2, 0x6f, 0xbe,
  0xfb, 0x51, 0x12, 0xbe, 0xc4, 0xd7, 0x99, 0x3d, 0x61, 0x16, 0xf1, 0x3e,
  0x31, 0xc2, 0xa6, 0x3e, 0xd9, 0x85, 0x98, 0x3e, 0x30, 0x4f, 0x2f, 0x3e,
  0xc1, 0x5d, 0x98, 0xbe, 0xdf, 0xf6, 0x5f, 0x3e, 0xc5, 0xbb, 0x47, 0xbb,
  0x66, 0xb7, 0xdb, 0x3e, 0xb0, 0xc7, 0x08, 0x3d, 0x39, 0x03, 0x54, 0x3e,
  0xf4, 0x4f, 0x8e, 0xbe, 0xe0, 0x3e, 0x33, 0xbe, 0x52, 0x6a, 0x37, 0x3e,
  0x1b, 0xb3, 0xa6, 0x3e, 0x90, 0x25, 0x3e, 0x3f, 0x5e, 0x4a, 0xa2, 0xbe,
  0xc8, 0x62, 0x01, 0xbe, 0xe5, 0xe9, 0xfb, 0xbe, 0xf6, 0xe0, 0x19, 0x3e,
  0xbe, 0x4d, 0x21, 0xbe, 0x5d, 0x3a, 0xbc, 0x3e, 0x61, 0xc3, 0x68, 0xbe,
  0xc2, 0xab, 0x38, 0x3c, 0x0c, 0x02, 0x80, 0xbe, 0xcd, 0x98, 0x03, 0x3f,
  0xcf, 0xf2, 0xfe, 0x3d, 0xce, 0x59, 0xec, 0xbe, 0x8a, 0xcf, 0x6f, 0x3e,
  0xfb, 0xeb, 0x9d, 0xbe, 0x49, 0xdd, 0x8b, 0xbe, 0xb5, 0x81, 0xf2, 0xbd,
  0x42, 0x38, 0x64, 0x3e, 0x74, 0x4f, 0x09, 0x3e, 0x23, 0x1b, 0xa2, 0xbe,
  0x1a, 0x04, 0xda, 0xbd, 0x43, 0xfa, 0x1c, 0x3d, 0x46, 0x7b, 0x4a, 0x3e,
  0x8a, 0xc0, 0x35, 0xbd, 0x0b, 0x66, 0x28, 0xbe, 0xe4, 0x66, 0x2a, 0xbd,
  0xa1, 0x91, 0xcf, 0xbc, 0xcb, 0x39, 0x40, 0xbe, 0x8a, 0x03, 0x25, 0x3e,
  0x38, 0xfa, 0x8d, 0xbd, 0x88, 0x16, 0x02, 0xbd, 0x1e, 0x86, 0x74, 0xbd,
  0x5c, 0xfd, 0xaa, 0x3e, 0xdb, 0x79, 0xa2, 0x3e, 0x70, 0x1b, 0x7b, 0xbd,
  0xe8, 0x68, 0xe0, 0x3d, 0x7f, 0x24, 0xa6, 0x3e, 0x7f, 0xa3, 0xa3, 0xbe,
  0x24, 0x80, 0xd6, 0xbd, 0xaf, 0xf8, 0x52, 0xbe, 0xab, 0x5d, 0x98, 0xbe,
  0xc0, 0x9b, 0xdd, 0x3d, 0x44, 0x77, 0x08, 0x3e, 0x17, 0x41, 0x6e, 0x3e,
  0xca, 0x48, 0x06, 0xbe, 0x67, 0x04, 0x5c, 0xbe, 0x00, 0x69, 0x3a, 0x3b,
  0x62, 0x36, 0xa5, 0xbe, 0x87, 0x1e, 0x9c, 0x3e, 0x84, 0x33, 0xaf, 0xbd,
  0x5a, 0xfc, 0xff, 0xff, 0x04, 0x00, 0x00, 0x00, 0x00, 0x01, 0x00, 0x00,
  0xed, 0xdc, 0xc1, 0xbd, 0x59, 0x0d, 0x07, 0xbf, 0xe3, 0x64, 0x08, 0xbf,
  0x50, 0x73, 0x9d, 0xbe, 0x5d, 0x80, 0x70, 0xbf, 0x91, 0xbc, 0xf8, 0xbe,
  0x6b, 0x66, 0x78, 0xbe, 0xc3, 0x63, 0x82, 0xbe, 0xf9, 0x8b, 0x17, 0xbf,
  0x16, 0x59, 0x40, 0x3e, 0x37, 0x07, 0x53, 0x3f, 0x5b, 0x52, 0x40, 0x3f,
  0x00, 0x54, 0x01, 0x3f, 0xb9, 0x27, 0x86, 0xbf, 0x61, 0xf3, 0x10, 0x3f,
  0x70, 0x22, 0x1b, 0xbe, 0x8d, 0xac, 0x03, 0xbf, 0xe7, 0x71, 0x85, 0x3e,
  0x11, 0xe6, 0x0f, 0x3f, 0x08, 0x03, 0xc9, 0x3e, 0xd3, 0xfa, 0xd4, 0x3e,
  0xf0, 0xe5, 0xef, 0xbd, 0x42, 0xab, 0x94, 0xbe, 0x69, 0xee, 0x34, 0xbf,
  0xa9, 0x1f, 0x46, 0x3f, 0x10, 0x3b, 0xf7, 0x3e, 0xbb, 0xb7, 0x23, 0x3f,
  0x2e, 0x70, 0xb0, 0xbe, 0xc5, 0x19, 0x45, 0x3f, 0x9e, 0x49, 0xab, 0x3e,
  0x1c, 0xc9, 0xf7, 0x3e, 0xfd, 0x74, 0x43, 0xbe, 0x24, 0xbb, 0x20, 0x3f,
  0x53, 0xcd, 0xfa, 0x3e, 0x09, 0x72, 0x24, 0xbe, 0x72, 0xdb, 0x8a, 0xbe,
  0x28, 0xc6, 0x49, 0xbf, 0x07, 0x89, 0xfa, 0x3e, 0x7a, 0xb9, 0x0d, 0xbf,
  0x8c, 0xe2, 0x82, 0x3f, 0xff, 0x46, 0x53, 0xbf, 0x4d, 0x38, 0x03, 0xbf,
  0x07, 0x00, 0xee, 0xbe, 0x77, 0x49, 0x31, 0x3e, 0x43, 0x73, 0x5d, 0xbf,
  0x14, 0xde, 0xab, 0x3e, 0x3d, 0x12, 0x88, 0xbf, 0x09, 0xfe, 0x98, 0x3e,
  0x75, 0xb1, 0x78, 0xbd, 0x79, 0x70, 0xb3, 0xbe, 0xea, 0x0a, 0xd8, 0x3d,
  0x2d, 0x60, 0x58, 0xbe, 0x68, 0x8b, 0x32, 0x3f, 0xfe, 0xe5, 0xf6, 0x3e,
  0x43, 0x45, 0xb2, 0xbd, 0xab, 0x95, 0xbe, 0x3d, 0xe7, 0x71, 0x98, 0x3e,
  0x5b, 0x77, 0x9d, 0x3e, 0x14, 0x16, 0x68, 0x3e, 0x0a, 0xf3, 0xeb, 0x3e,
  0x0b, 0xff, 0x84, 0xbe, 0x5b, 0x73, 0xb9, 0x3d, 0x88, 0xed, 0x41, 0x3e,
  0xbe, 0x67, 0xc2, 0x3e, 0x66, 0xfd, 0xff, 0xff, 0x04, 0x00, 0x00, 0x00,
  0x80, 0x00, 0x00, 0x00, 0x1f, 0x28, 0x45, 0xbc, 0x00, 0x00, 0x00, 0x00,
  0x3d, 0xbf, 0xed, 0xbb, 0x95, 0x5c, 0x02, 0xbd, 0x00, 0x00, 0x00, 0x00,
  0x3a, 0x68, 0x63, 0x3d, 0x67, 0x23, 0x7e, 0x3d, 0x6b, 0x8d, 0xdd, 0x3a,
  0x1b, 0x81, 0x22, 0x3e, 0x0a, 0xd3, 0x16, 0x3d, 0xd5, 0xa9, 0xe3, 0x3d,
  0x00, 0x00, 0x00, 0x00, 0x16, 0x19, 0xf5, 0xbb, 0x30, 0x8e, 0xc5, 0x3d,
  0xc8, 0x6d, 0xba, 0xbc, 0x00, 0x00, 0x00, 0x00, 0x00, 0x00, 0x00, 0x00,
  0x73, 0x6c, 0x67, 0x3d, 0x00, 0x00, 0x00, 0x00, 0xf8, 0x46, 0xe3, 0x3c,
  0xc8, 0x9d, 0xd9, 0xbc, 0x00, 0x00, 0x00, 0x00, 0x0c, 0x9b, 0x96, 0x3d,
  0x00, 0x00, 0x00, 0x00, 0x12, 0x2a, 0x75, 0xbd, 0x30, 0xad, 0x62, 0x3d,
  0x28, 0xea, 0xd5, 0xbc, 0xec, 0x6f, 0xde, 0x3c, 0x00, 0x00, 0x00, 0x00,
  0x16, 0x05, 0x0f, 0xbd, 0x8e, 0x2e, 0x31, 0x3d, 0x00, 0x00, 0x00, 0x00,
  0xf2, 0xfd, 0xff, 0xff, 0x04, 0x00, 0x00, 0x00, 0x40, 0x00, 0x00, 0x00,
  0x13, 0xc8, 0x02, 0x3e, 0x55, 0xd3, 0xaf, 0x3c, 0xcb, 0x7e, 0x8b, 0xbd,
  0x76, 0x32, 0xf3, 0xbb, 0x5c, 0x08, 0xb7, 0x3d, 0x85, 0xc8, 0x60, 0xbc,
  0x43, 0xa3, 0xd4, 0xbb, 0x19, 0x93, 0xbe, 0x3d, 0xa5, 0xf0, 0x4f, 0x3d,
  0x1e, 0x93, 0xb2, 0xbc, 0xd3, 0x6f, 0xff, 0xbc, 0x5e, 0x8d, 0x99, 0x3d,
  0x7f, 0xae, 0x55, 0x3d, 0x67, 0xd2, 0x51, 0x3d, 0x36, 0xb1, 0x09, 0xbd,
  0xa5, 0x52, 0x05, 0xbc, 0x3e, 0xfe, 0xff, 0xff, 0x04, 0x00, 0x00, 0x00,
  0x10, 0x00, 0x00, 0x00, 0xb1, 0xfe, 0x5a, 0x3d, 0x89, 0xe4, 0x2b, 0xbe,
  0x77, 0x73, 0xd4, 0x3d, 0x1f, 0x09, 0x52, 0xbb, 0x5a, 0xfe, 0xff, 0xff,
  0x04, 0x00, 0x00, 0x00, 0x00, 0x01, 0x00, 0x00, 0xa6, 0x29, 0x18, 0x3d,
  0x75, 0xb0, 0x14, 0xbc, 0xc6, 0x0b, 0x18, 0xbc, 0x00, 0x00, 0x00, 0x00,
  0x00, 0x00, 0x00, 0x00, 0x00, 0x00, 0x00, 0x00, 0x00, 0x00, 0x00, 0x00,
  0xb7, 0xbe, 0xee, 0xbc, 0xe9, 0x0d, 0x08, 0x3c, 0x00, 0x00, 0x00, 0x00,
  0x19, 0xbc, 0x86, 0x3c, 0x00, 0x00, 0x00, 0x00, 0xb2, 0xc0, 0x40, 0x3d,
  0x80, 0x16, 0x81, 0xbd, 0x00, 0x00, 0x00, 0x00, 0x67, 0x35, 0xb4, 0x3c,
  0x00, 0x00, 0x00, 0x00, 0xe3, 0x65, 0xca, 0x3d, 0x28, 0xf2, 0x51, 0xbc,
  0x00, 0x00, 0x00, 0x00, 0xc5, 0x55, 0x73, 0xbd, 0xed, 0x1a, 0x62, 0x3d,
  0x95, 0xde, 0x8f, 0xbd, 0x65, 0xbd, 0xe3, 0xbc, 0x2e, 0x36, 0x56, 0x3c,
  0x67, 0x71, 0x0c, 0x3d, 0x00, 0x00, 0x00, 0x00, 0x36, 0x13, 0x46, 0x3d,
  0xc2, 0x62, 0x0b, 0x3d, 0xda, 0xdd, 0xbc, 0x3d, 0x95, 0xf9, 0x8b, 0x3c,
  0x77, 0x4b, 0x84, 0x3d, 0x6a, 0xb3, 0x7b, 0x3d, 0x28, 0x73, 0x27, 0x3d,
  0x00, 0x00, 0x00, 0x00, 0x00, 0x00, 0x00, 0x00, 0x67, 0x32, 0x0d, 0xbd,
  0x00, 0x00, 0x00, 0x00, 0x00, 0x00, 0x00, 0x00, 0x00, 0x00, 0x00, 0x00,
  0x2b, 0xfc, 0x11, 0x3e, 0x00, 0x00, 0x00, 0x00, 0x00, 0x00, 0x00, 0x00,
  0xea, 0xc4, 0x2b, 0x3d, 0x70, 0x48, 0x7b, 0x3d, 0x68, 0xa2, 0x13, 0x3d,
  0x00, 0x00, 0x00, 0x00, 0x00, 0x00, 0x00, 0x00, 0x00, 0x00, 0x00, 0x00,
  0x6b, 0xa5, 0x5d, 0x3e, 0xe4, 0xb1, 0x5b, 0x3d, 0xef, 0xde, 0x3e, 0x3b,
  0x2b, 0xfe, 0x52, 0xbc, 0xda, 0xe2, 0xf8, 0xbb, 0x47, 0x8f, 0xff, 0x3c,
  0x4f, 0x71, 0x1c, 0x3d, 0xde, 0x77, 0x77, 0x3b, 0x00, 0x00, 0x00, 0x00,
  0x00, 0x00, 0x00, 0x00, 0xc6, 0xab, 0x40, 0x3d, 0x00, 0x00, 0x00, 0x00,
  0x02, 0x17, 0xa9, 0xbb, 0x6e, 0xa3, 0x1e, 0x3d, 0x44, 0xc9, 0x6a, 0xbc,
  0x3c, 0xf4, 0xff, 0xff, 0x40, 0xf4, 0xff, 0xff, 0x0f, 0x00, 0x00, 0x00,
  0x4d, 0x4c, 0x49, 0x52, 0x20, 0x43, 0x6f, 0x6e, 0x76, 0x65, 0x72, 0x74,
  0x65, 0x64, 0x2e, 0x00, 0x01, 0x00, 0x00, 0x00, 0x14, 0x00, 0x00, 0x00,
  0x00, 0x00, 0x0e, 0x00, 0x18, 0x00, 0x14, 0x00, 0x10, 0x00, 0x0c, 0x00,
  0x08, 0x00, 0x04, 0x00, 0x0e, 0x00, 0x00, 0x00, 0x14, 0x00, 0x00, 0x00,
  0x1c, 0x00, 0x00, 0x00, 0x78, 0x01, 0x00, 0x00, 0x7c, 0x01, 0x00, 0x00,
  0x80, 0x01, 0x00, 0x00, 0x04, 0x00, 0x00, 0x00, 0x6d, 0x61, 0x69, 0x6e,
  0x00, 0x00, 0x00, 0x00, 0x05, 0x00, 0x00, 0x00, 0x1c, 0x01, 0x00, 0x00,
  0xd4, 0x00, 0x00, 0x00, 0x94, 0x00, 0x00, 0x00, 0x50, 0x00, 0x00, 0x00,
  0x14, 0x00, 0x00, 0x00, 0x00, 0x00, 0x0e, 0x00, 0x1a, 0x00, 0x14, 0x00,
  0x10, 0x00, 0x0c, 0x00, 0x0b, 0x00, 0x04, 0x00, 0x0e, 0x00, 0x00, 0x00,
  0x1c, 0x00, 0x00, 0x00, 0x00, 0x00, 0x00, 0x09, 0x1c, 0x00, 0x00, 0x00,
  0x20, 0x00, 0x00, 0x00, 0x01, 0x00, 0x00, 0x00, 0x00, 0x00, 0x06, 0x00,
  0x08, 0x00, 0x04, 0x00, 0x06, 0x00, 0x00, 0x00, 0x00, 0x00, 0x80, 0x3f,
  0x01, 0x00, 0x00, 0x00, 0x0d, 0x00, 0x00, 0x00, 0x01, 0x00, 0x00, 0x00,
  0x0c, 0x00, 0x00, 0x00, 0x4e, 0xff, 0xff, 0xff, 0x10, 0x00, 0x00, 0x00,
  0x00, 0x00, 0x00, 0x08, 0x0c, 0x00, 0x00, 0x00, 0x10, 0x00, 0x00, 0x00,
  0x08, 0xf5, 0xff, 0xff, 0x01, 0x00, 0x00, 0x00, 0x0c, 0x00, 0x00, 0x00,
  0x03, 0x00, 0x00, 0x00, 0x0b, 0x00, 0x00, 0x00, 0x05, 0x00, 0x00, 0x00,
  0x02, 0x00, 0x00, 0x00, 0x00, 0x00, 0x0e, 0x00, 0x16, 0x00, 0x00, 0x00,
  0x10, 0x00, 0x0c, 0x00, 0x0b, 0x00, 0x04, 0x00, 0x0e, 0x00, 0x00, 0x00,
  0x18, 0x00, 0x00, 0x00, 0x00, 0x00, 0x00, 0x08, 0x18, 0x00, 0x00, 0x00,
  0x1c, 0x00, 0x00, 0x00, 0x00, 0x00, 0x06, 0x00, 0x08, 0x00, 0x07, 0x00,
  0x06, 0x00, 0x00, 0x00, 0x00, 0x00, 0x00, 0x01, 0x01, 0x00, 0x00, 0x00,
  0x0b, 0x00, 0x00, 0x00, 0x03, 0x00, 0x00, 0x00, 0x0a, 0x00, 0x00, 0x00,
  0x06, 0x00, 0x00, 0x00, 0x03, 0x00, 0x00, 0x00, 0xca, 0xff, 0xff, 0xff,
  0x10, 0x00, 0x00, 0x00, 0x00, 0x00, 0x00, 0x08, 0x10, 0x00, 0x00, 0x00,
  0x14, 0x00, 0x00, 0x00, 0xbc, 0xff, 0xff, 0xff, 0x00, 0x00, 0x01, 0x01,
  0x01, 0x00, 0x00, 0x00, 0x0a, 0x00, 0x00, 0x00, 0x03, 0x00, 0x00, 0x00,
  0x09, 0x00, 0x00, 0x00, 0x07, 0x00, 0x00, 0x00, 0x04, 0x00, 0x00, 0x00,
  0x00, 0x00, 0x0e, 0x00, 0x14, 0x00, 0x00, 0x00, 0x10, 0x00, 0x0c, 0x00,
  0x0b, 0x00, 0x04, 0x00, 0x0e, 0x00, 0x00, 0x00, 0x1c, 0x00, 0x00, 0x00,
  0x00, 0x00, 0x00, 0x08, 0x1c, 0x00, 0x00, 0x00, 0x20, 0x00, 0x00, 0x00,
  0x0c, 0x00, 0x08, 0x00, 0x07, 0x00, 0x00, 0x00, 0x00, 0x00, 0x06, 0x00,
  0x0c, 0x00, 0x00, 0x00, 0x00, 0x00, 0x01, 0x01, 0x01, 0x00, 0x00, 0x00,
  0x09, 0x00, 0x00, 0x00, 0x03, 0x00, 0x00, 0x00, 0x00, 0x00, 0x00, 0x00,
  0x08, 0x00, 0x00, 0x00, 0x01, 0x00, 0x00, 0x00, 0x01, 0x00, 0x00, 0x00,
  0x0d, 0x00, 0x00, 0x00, 0x01, 0x00, 0x00, 0x00, 0x00, 0x00, 0x00, 0x00,
  0x0e, 0x00, 0x00, 0x00, 0xd0, 0x09, 0x00, 0x00, 0x7c, 0x09, 0x00, 0x00,
  0x28, 0x09, 0x00, 0x00, 0xec, 0x08, 0x00, 0x00, 0xb0, 0x08, 0x00, 0x00,
  0x70, 0x08, 0x00, 0x00, 0x30, 0x08, 0x00, 0x00, 0x48, 0x06, 0x00, 0x00,
  0xc8, 0x02, 0x00, 0x00, 0x28, 0x02, 0x00, 0x00, 0x88, 0x01, 0x00, 0x00,
  0xe4, 0x00, 0x00, 0x00, 0x60, 0x00, 0x00, 0x00, 0x04, 0x00, 0x00, 0x00,
  0x7e, 0xf6, 0xff, 0xff, 0x00, 0x00, 0x00, 0x01, 0x14, 0x00, 0x00, 0x00,
  0x1c, 0x00, 0x00, 0x00, 0x1c, 0x00, 0x00, 0x00, 0x0e, 0x00, 0x00, 0x00,
  0x34, 0x00, 0x00, 0x00, 0x02, 0x00, 0x00, 0x00, 0xff, 0xff, 0xff, 0xff,
  0x04, 0x00, 0x00, 0x00, 0x68, 0xf6, 0xff, 0xff, 0x1b, 0x00, 0x00, 0x00,
  0x53, 0x74, 0x61, 0x74, 0x65, 0x66, 0x75, 0x6c, 0x50, 0x61, 0x72, 0x74,
  0x69, 0x74, 0x69, 0x6f, 0x6e, 0x65, 0x64, 0x43, 0x61, 0x6c, 0x6c, 0x5f,
  0x31, 0x3a, 0x30, 0x00, 0x02, 0x00, 0x00, 0x00, 0x01, 0x00, 0x00, 0x00,
  0x04, 0x00, 0x00, 0x00, 0xd6, 0xf6, 0xff, 0xff, 0x00, 0x00, 0x00, 0x01,
  0x14, 0x00, 0x00, 0x00, 0x1c, 0x00, 0x00, 0x00, 0x1c, 0x00, 0x00, 0x00,
  0x0d, 0x00, 0x00, 0x00, 0x5c, 0x00, 0x00, 0x00, 0x02, 0x00, 0x00, 0x00,
  0xff, 0xff, 0xff, 0xff, 0x04, 0x00, 0x00, 0x00, 0xc0, 0xf6, 0xff, 0xff,
  0x42, 0x00, 0x00, 0x00, 0x73, 0x65, 0x71, 0x75, 0x65, 0x6e, 0x74, 0x69,
  0x61, 0x6c, 0x5f, 0x32, 0x5f, 0x31, 0x2f, 0x64, 0x65, 0x6e, 0x73, 0x65,
  0x5f, 0x31, 0x31, 0x5f, 0x31, 0x2f, 0x4d, 0x61, 0x74, 0x4d, 0x75, 0x6c,
  0x3b, 0x73, 0x65, 0x71, 0x75, 0x65, 0x6e, 0x74, 0x69, 0x61, 0x6c, 0x5f,
  0x32, 0x5f, 0x31, 0x2f, 0x64, 0x65, 0x6e, 0x73, 0x65, 0x5f, 0x31, 0x31,
  0x5f, 0x31, 0x2f, 0x42, 0x69, 0x61, 0x73, 0x41, 0x64, 0x64, 0x00, 0x00,
  0x02, 0x00, 0x00, 0x00, 0x01, 0x00, 0x00, 0x00, 0x04, 0x00, 0x00, 0x00,
  0x56, 0xf7, 0xff, 0xff, 0x00, 0x00, 0x00, 0x01, 0x14, 0x00, 0x00, 0x00,
  0x1c, 0x00, 0x00, 0x00, 0x1c, 0x00, 0x00, 0x00, 0x0c, 0x00, 0x00, 0x00,
  0x7c, 0x00, 0x00, 0x00, 0x02, 0x00, 0x00, 0x00, 0xff, 0xff, 0xff, 0xff,
  0x10, 0x00, 0x00, 0x00, 0x40, 0xf7, 0xff, 0xff, 0x61, 0x00, 0x00, 0x00,
  0x73, 0x65, 0x71, 0x75, 0x65, 0x6e, 0x74, 0x69, 0x61, 0x6c, 0x5f, 0x32,
  0x5f, 0x31, 0x2f, 0x64, 0x65, 0x6e, 0x73, 0x65, 0x5f, 0x31, 0x30, 0x5f,
  0x31, 0x2f, 0x4d, 0x61, 0x74, 0x4d, 0x75, 0x6c, 0x3b, 0x73, 0x65, 0x71,
  0x75, 0x65, 0x6e, 0x74, 0x69, 0x61, 0x6c, 0x5f, 0x32, 0x5f, 0x31, 0x2f,
  0x64, 0x65, 0x6e, 0x73, 0x65, 0x5f, 0x31, 0x30, 0x5f, 0x31, 0x2f, 0x52,
  0x65, 0x6c, 0x75, 0x3b, 0x73, 0x65, 0x71, 0x75, 0x65, 0x6e, 0x74, 0x69,
  0x61, 0x6c, 0x5f, 0x32, 0x5f, 0x31, 0x2f, 0x64, 0x65, 0x6e, 0x73, 0x65,
  0x5f, 0x31, 0x30, 0x5f, 0x31, 0x2f, 0x42, 0x69, 0x61, 0x73, 0x41, 0x64,
  0x64, 0x00, 0x00, 0x00, 0x02, 0x00, 0x00, 0x00, 0x01, 0x00, 0x00, 0x00,
  0x10, 0x00, 0x00, 0x00, 0xf6, 0xf7, 0xff, 0xff, 0x00, 0x00, 0x00, 0x01,
  0x14, 0x00, 0x00, 0x00, 0x1c, 0x00, 0x00, 0x00, 0x1c, 0x00, 0x00, 0x00,
  0x0b, 0x00, 0x00, 0x00, 0x78, 0x00, 0x00, 0x00, 0x02, 0x00, 0x00, 0x00,
  0xff, 0xff, 0xff, 0xff, 0x20, 0x00, 0x00, 0x00, 0xe0, 0xf7, 0xff, 0xff,
  0x5e, 0x00, 0x00, 0x00, 0x73, 0x65, 0x71, 0x75, 0x65, 0x6e, 0x74, 0x69,
  0x61, 0x6c, 0x5f, 0x32, 0x5f, 0x31, 0x2f, 0x64, 0x65, 0x6e, 0x73, 0x65,
  0x5f, 0x39, 0x5f, 0x31, 0x2f, 0x4d, 0x61, 0x74, 0x4d, 0x75, 0x6c, 0x3b,
  0x73, 0x65, 0x71, 0x75, 0x65, 0x6e, 0x74, 0x69, 0x61, 0x6c, 0x5f, 0x32,
  0x5f, 0x31, 0x2f, 0x64, 0x65, 0x6e, 0x73, 0x65, 0x5f, 0x39, 0x5f, 0x31,
  0x2f, 0x52, 0x65, 0x6c, 0x75, 0x3b, 0x73, 0x65, 0x71, 0x75, 0x65, 0x6e,
  0x74, 0x69, 0x61, 0x6c, 0x5f, 0x32, 0x5f, 0x31, 0x2f, 0x64, 0x65, 0x6e,
  0x73, 0x65, 0x5f, 0x39, 0x5f, 0x31, 0x2f, 0x42, 0x69, 0x61, 0x73, 0x41,
  0x64, 0x64, 0x00, 0x00, 0x02, 0x00, 0x00, 0x00, 0x01, 0x00, 0x00, 0x00,
  0x20, 0x00, 0x00, 0x00, 0x92, 0xf8, 0xff, 0xff, 0x00, 0x00, 0x00, 0x01,
  0x14, 0x00, 0x00, 0x00, 0x1c, 0x00, 0x00, 0x00, 0x1c, 0x00, 0x00, 0x00,
  0x0a, 0x00, 0x00, 0x00, 0x78, 0x00, 0x00, 0x00, 0x02, 0x00, 0x00, 0x00,
  0xff, 0xff, 0xff, 0xff, 0x40, 0x00, 0x00, 0x00, 0x7c, 0xf8, 0xff, 0xff,
  0x5e, 0x00, 0x00, 0x00, 0x73, 0x65, 0x71, 0x75, 0x65, 0x6e, 0x74, 0x69,
  0x61, 0x6c, 0x5f, 0x32, 0x5f, 0x31, 0x2f, 0x64, 0x65, 0x6e, 0x73, 0x65,
  0x5f, 0x38, 0x5f, 0x31, 0x2f, 0x4d, 0x61, 0x74, 0x4d, 0x75, 0x6c, 0x3b,
  0x73, 0x65, 0x71, 0x75, 0x65, 0x6e, 0x74, 0x69, 0x61, 0x6c, 0x5f, 0x32,
  0x5f, 0x31, 0x2f, 0x64, 0x65, 0x6e, 0x73, 0x65, 0x5f, 0x38, 0x5f, 0x31,
  0x2f, 0x52, 0x65, 0x6c, 0x75, 0x3b, 0x73, 0x65, 0x71, 0x75, 0x65, 0x6e,
  0x74, 0x69, 0x61, 0x6c, 0x5f, 0x32, 0x5f, 0x31, 0x2f, 0x64, 0x65, 0x6e,
  0x73, 0x65, 0x5f, 0x38, 0x5f, 0x31, 0x2f, 0x42, 0x69, 0x61, 0x73, 0x41,
  0x64, 0x64, 0x00, 0x00, 0x02, 0x00, 0x00, 0x00, 0x01, 0x00, 0x00, 0x00,
  0x40, 0x00, 0x00, 0x00, 0x9a, 0xfc, 0xff, 0xff, 0x00, 0x00, 0x00, 0x01,
  0x14, 0x00, 0x00, 0x00, 0x28, 0x03, 0x00, 0x00, 0x09, 0x00, 0x00, 0x00,
  0x00, 0x00, 0x00, 0x09, 0x40, 0x03, 0x00, 0x00, 0x84, 0xfc, 0xff, 0xff,
  0x08, 0x00, 0x00, 0x00, 0x0c, 0x02, 0x00, 0x00, 0x40, 0x00, 0x00, 0x00,
  0x00, 0x00, 0x00, 0x00, 0x00, 0x00, 0x00, 0x00, 0x00, 0x00, 0x00, 0x00,
  0x00, 0x00, 0x00, 0x00, 0x00, 0x00, 0x00, 0x00, 0x00, 0x00, 0x00, 0x00,
  0x00, 0x00, 0x00, 0x00, 0x00, 0x00, 0x00, 0x00, 0x00, 0x00, 0x00, 0x00,
  0x00, 0x00, 0x00, 0x00, 0x00, 0x00, 0x00, 0x00, 0x00, 0x00, 0x00, 0x00,
  0x00, 0x00, 0x00, 0x00, 0x00, 0x00, 0x00, 0x00, 0x00, 0x00, 0x00, 0x00,
  0x00, 0x00, 0x00, 0x00, 0x00, 0x00, 0x00, 0x00, 0x00, 0x00, 0x00, 0x00,
  0x00, 0x00, 0x00, 0x00, 0x00, 0x00, 0x00, 0x00, 0x00, 0x00, 0x00, 0x00,
  0x00, 0x00, 0x00, 0x00, 0x00, 0x00, 0x00, 0x00, 0x00, 0x00, 0x00, 0x00,
  0x00, 0x00, 0x00, 0x00, 0x00, 0x00, 0x00, 0x00, 0x00, 0x00, 0x00, 0x00,
  0x00, 0x00, 0x00, 0x00, 0x00, 0x00, 0x00, 0x00, 0x00, 0x00, 0x00, 0x00,
  0x00, 0x00, 0x00, 0x00, 0x00, 0x00, 0x00, 0x00, 0x00, 0x00, 0x00, 0x00,
  0x00, 0x00, 0x00, 0x00, 0x00, 0x00, 0x00, 0x00, 0x00, 0x00, 0x00, 0x00,
  0x00, 0x00, 0x00, 0x00, 0x00, 0x00, 0x00, 0x00, 0x00, 0x00, 0x00, 0x00,
  0x00, 0x00, 0x00, 0x00, 0x00, 0x00, 0x00, 0x00, 0x00, 0x00, 0x00, 0x00,
  0x00, 0x00, 0x00, 0x00, 0x00, 0x00, 0x00, 0x00, 0x00, 0x00, 0x00, 0x00,
  0x00, 0x00, 0x00, 0x00, 0x00, 0x00, 0x00, 0x00, 0x00, 0x00, 0x00, 0x00,
  0x00, 0x00, 0x00, 0x00, 0x00, 0x00, 0x00, 0x00, 0x00, 0x00, 0x00, 0x00,
  0x00, 0x00, 0x00, 0x00, 0x00, 0x00, 0x00, 0x00, 0x00, 0x00, 0x00, 0x00,
  0x00, 0x00, 0x00, 0x00, 0x00, 0x00, 0x00, 0x00, 0x00, 0x00, 0x00, 0x00,
  0x00, 0x00, 0x00, 0x00, 0x00, 0x00, 0x00, 0x00, 0x00, 0x00, 0x00, 0x00,
  0x00, 0x00, 0x00, 0x00, 0x00, 0x00, 0x00, 0x00, 0x00, 0x00, 0x00, 0x00,
  0x00, 0x00, 0x00, 0x00, 0x00, 0x00, 0x00, 0x00, 0x00, 0x00, 0x00, 0x00,
  0x00, 0x00, 0x00, 0x00, 0x00, 0x00, 0x00, 0x00, 0x00, 0x00, 0x00, 0x00,
  0x00, 0x00, 0x00, 0x00, 0x00, 0x00, 0x00, 0x00, 0x00, 0x00, 0x00, 0x00,
  0x00, 0x00, 0x00, 0x00, 0x00, 0x00, 0x00, 0x00, 0x00, 0x00, 0x00, 0x00,
  0x00, 0x00, 0x00, 0x00, 0x00, 0x00, 0x00, 0x00, 0x00, 0x00, 0x00, 0x00,
  0x00, 0x00, 0x00, 0x00, 0x00, 0x00, 0x00, 0x00, 0x00, 0x00, 0x00, 0x00,
  0x00, 0x00, 0x00, 0x00, 0x00, 0x00, 0x00, 0x00, 0x00, 0x00, 0x00, 0x00,
  0x00, 0x00, 0x00, 0x00, 0x00, 0x00, 0x00, 0x00, 0x00, 0x00, 0x00, 0x00,
  0x00, 0x00, 0x00, 0x00, 0x00, 0x00, 0x00, 0x00, 0x00, 0x00, 0x00, 0x00,
  0x00, 0x00, 0x00, 0x00, 0x00, 0x00, 0x00, 0x00, 0x00, 0x00, 0x00, 0x00,
  0x00, 0x00, 0x00, 0x00, 0x00, 0x00, 0x00, 0x00, 0x00, 0x00, 0x00, 0x00,
  0x00, 0x00, 0x00, 0x00, 0x00, 0x00, 0x00, 0x00, 0x00, 0x00, 0x00, 0x00,
  0x00, 0x00, 0x00, 0x00, 0x00, 0x00, 0x00, 0x00, 0x00, 0x00, 0x00, 0x00,
  0x00, 0x00, 0x00, 0x00, 0x00, 0x00, 0x00, 0x00, 0x00, 0x00, 0x00, 0x00,
  0x00, 0x00, 0x00, 0x00, 0x00, 0x00, 0x00, 0x00, 0x00, 0x00, 0x00, 0x00,
  0x00, 0x00, 0x00, 0x00, 0x00, 0x00, 0x00, 0x00, 0x00, 0x00, 0x00, 0x00,
  0x00, 0x00, 0x00, 0x00, 0x00, 0x00, 0x00, 0x00, 0x00, 0x00, 0x00, 0x00,
  0x00, 0x00, 0x00, 0x00, 0x00, 0x00, 0x00, 0x00, 0x00, 0x00, 0x00, 0x00,
  0x00, 0x00, 0x00, 0x00, 0x00, 0x00, 0x00, 0x00, 0x00, 0x00, 0x00, 0x00,
  0x00, 0x00, 0x00, 0x00, 0x00, 0x00, 0x00, 0x00, 0x00, 0x00, 0x00, 0x00,
  0x00, 0x00, 0x00, 0x00, 0x00, 0x00, 0x00, 0x00, 0x00, 0x00, 0x00, 0x00,
  0x00, 0x00, 0x00, 0x00, 0x00, 0x00, 0x00, 0x00, 0x00, 0x00, 0x00, 0x00,
  0x40, 0x00, 0x00, 0x00, 0xe8, 0xed, 0x67, 0x3b, 0x0e, 0x85, 0x00, 0x3b,
  0xaa, 0x8a, 0x00, 0x3b, 0xcd, 0x1e, 0xed, 0x3a, 0x81, 0x75, 0xfa, 0x3a,
  0xb4, 0x2d, 0xf5, 0x3a, 0x27, 0x66, 0xf9, 0x3a, 0xd9, 0x73, 0x7b, 0x3b,
  0x4b, 0xcb, 0x03, 0x3b, 0x5f, 0x26, 0xf8, 0x3a, 0xde, 0x55, 0x7a, 0x3b,
  0xf5, 0xbd, 0xf7, 0x3a, 0xea, 0x70, 0x5d, 0x3b, 0x5d, 0x7c, 0x93, 0x3b,
  0xb8, 0x6f, 0xe1, 0x3a, 0x22, 0xf6, 0x10, 0x3b, 0x1e, 0x19, 0xfc, 0x3a,
  0xb5, 0x07, 0x70, 0x3b, 0x5d, 0x02, 0xfb, 0x3a, 0xe2, 0xfe, 0xee, 0x3a,
  0x66, 0xb7, 0x2d, 0x3b, 0x55, 0xb7, 0x6d, 0x3b, 0x5c, 0x34, 0x85, 0x3b,
  0x5d, 0x40, 0x28, 0x3b, 0xa6, 0x80, 0x4c, 0x3b, 0xe8, 0xa1, 0x92, 0x3b,
  0xbe, 0x74, 0xf6, 0x3a, 0x28, 0x58, 0x34, 0x3b, 0xb1, 0x23, 0x90, 0x3b,
  0x18, 0xe3, 0xa5, 0x3b, 0xda, 0xc0, 0x6f, 0x3b, 0x3b, 0xdb, 0x16, 0x3b,
  0xcd, 0xc2, 0x8b, 0x3b, 0xf5, 0xca, 0x34, 0x3b, 0xd8, 0xa5, 0xfb, 0x3a,
  0xf1, 0x1a, 0xf6, 0x3a, 0xea, 0xdf, 0x92, 0x3b, 0x86, 0x49, 0xfb, 0x3a,
  0xfa, 0x07, 0xfc, 0x3a, 0x95, 0x4b, 0xf4, 0x3a, 0xad, 0x42, 0x33, 0x3b,
  0x33, 0x74, 0xfc, 0x3a, 0xa6, 0x12, 0xf3, 0x3a, 0x01, 0x54, 0xb7, 0x3b,
  0x1c, 0x0a, 0x3a, 0x3b, 0x22, 0xda, 0x5e, 0x3b, 0x05, 0x0f, 0xf4, 0x3a,
  0x07, 0x61, 0xfa, 0x3a, 0x6a, 0x29, 0xfb, 0x3a, 0xe3, 0x15, 0x63, 0x3b,
  0xaa, 0xc0, 0x29, 0x3b, 0x28, 0x46, 0x50, 0x3b, 0x88, 0xe2, 0x00, 0x3b,
  0xf4, 0xd4, 0xfb, 0x3a, 0x44, 0xfd, 0x58, 0x3b, 0x9d, 0xad, 0x49, 0x3b,
  0x5b, 0x7e, 0x8f, 0x3b, 0x7f, 0xb9, 0xf2, 0x3a, 0x65, 0xd4, 0xe8, 0x3a,
  0xd9, 0xbb, 0x11, 0x3b, 0xe0, 0x87, 0xfc, 0x3a, 0xdf, 0x2e, 0x00, 0x3b,
  0x35, 0x33, 0x6e, 0x3b, 0x5c, 0x37, 0xfc, 0x3a, 0x1f, 0x00, 0x00, 0x00,
  0x73, 0x65, 0x71, 0x75, 0x65, 0x6e, 0x74, 0x69, 0x61, 0x6c, 0x5f, 0x32,
  0x5f, 0x31, 0x2f, 0x64, 0x65, 0x6e, 0x73, 0x65, 0x5f, 0x38, 0x5f, 0x31,
  0x2f, 0x4d, 0x61, 0x74, 0x4d, 0x75, 0x6c, 0x00, 0x02, 0x00, 0x00, 0x00,
  0x40, 0x00, 0x00, 0x00, 0x24, 0x00, 0x00, 0x00, 0x00, 0x00, 0x16, 0x00,
  0x1c, 0x00, 0x18, 0x00, 0x17, 0x00, 0x10, 0x00, 0x0c, 0x00, 0x08, 0x00,
  0x00, 0x00, 0x00, 0x00, 0x00, 0x00, 0x07, 0x00, 0x16, 0x00, 0x00, 0x00,
  0x00, 0x00, 0x00, 0x01, 0x20, 0x00, 0x00, 0x00, 0xb4, 0x01, 0x00, 0x00,
  0x08, 0x00, 0x00, 0x00, 0x00, 0x00, 0x00, 0x09, 0xc0, 0x01, 0x00, 0x00,
  0x0c, 0x00, 0x0c, 0x00, 0x00, 0x00, 0x00, 0x00, 0x08, 0x00, 0x04, 0x00,
  0x0c, 0x00, 0x00, 0x00, 0x08, 0x00, 0x00, 0x00, 0x0c, 0x01, 0x00, 0x00,
  0x20, 0x00, 0x00, 0x00, 0x00, 0x00, 0x00, 0x00, 0x00, 0x00, 0x00, 0x00,
  0x00, 0x00, 0x00, 0x00, 0x00, 0x00, 0x00, 0x00, 0x00, 0x00, 0x00, 0x00,
  0x00, 0x00, 0x00, 0x00, 0x00, 0x00, 0x00, 0x00, 0x00, 0x00, 0x00, 0x00,
  0x00, 0x00, 0x00, 0x00, 0x00, 0x00, 0x00, 0x00, 0x00, 0x00, 0x00, 0x00,
  0x00, 0x00, 0x00, 0x00, 0x00, 0x00, 0x00, 0x00, 0x00, 0x00, 0x00, 0x00,
  0x00, 0x00, 0x00, 0x00, 0x00, 0x00, 0x00, 0x00, 0x00, 0x00, 0x00, 0x00,
  0x00, 0x00, 0x00, 0x00, 0x00, 0x00, 0x00, 0x00, 0x00, 0x00, 0x00, 0x00,
  0x00, 0x00, 0x00, 0x00, 0x00, 0x00, 0x00, 0x00, 0x00, 0x00, 0x00, 0x00,
  0x00, 0x00, 0x00, 0x00, 0x00, 0x00, 0x00, 0x00, 0x00, 0x00, 0x00, 0x00,
  0x00, 0x00, 0x00, 0x00, 0x00, 0x00, 0x00, 0x00, 0x00, 0x00, 0x00, 0x00,
  0x00, 0x00, 0x00, 0x00, 0x00, 0x00, 0x00, 0x00, 0x00, 0x00, 0x00, 0x00,
  0x00, 0x00, 0x00, 0x00, 0x00, 0x00, 0x00, 0x00, 0x00, 0x00, 0x00, 0x00,
  0x00, 0x00, 0x00, 0x00, 0x00, 0x00, 0x00, 0x00, 0x00, 0x00, 0x00, 0x00,
  0x00, 0x00, 0x00, 0x00, 0x00, 0x00, 0x00, 0x00, 0x00, 0x00, 0x00, 0x00,
  0x00, 0x00, 0x00, 0x00, 0x00, 0x00, 0x00, 0x00, 0x00, 0x00, 0x00, 0x00,
  0x00, 0x00, 0x00, 0x00, 0x00, 0x00, 0x00, 0x00, 0x00, 0x00, 0x00, 0x00,
  0x00, 0x00, 0x00, 0x00, 0x00, 0x00, 0x00, 0x00, 0x00, 0x00, 0x00, 0x00,
  0x00, 0x00, 0x00, 0x00, 0x00, 0x00, 0x00, 0x00, 0x00, 0x00, 0x00, 0x00,
  0x00, 0x00, 0x00, 0x00, 0x00, 0x00, 0x00, 0x00, 0x00, 0x00, 0x00, 0x00,
  0x00, 0x00, 0x00, 0x00, 0x00, 0x00, 0x00, 0x00, 0x00, 0x00, 0x00, 0x00,
  0x00, 0x00, 0x00, 0x00, 0x00, 0x00, 0x00, 0x00, 0x00, 0x00, 0x00, 0x00,
  0x00, 0x00, 0x00, 0x00, 0x00, 0x00, 0x00, 0x00, 0x00, 0x00, 0x00, 0x00,
  0x20, 0x00, 0x00, 0x00, 0x17, 0x86, 0x8c, 0x3b, 0x0a, 0xc8, 0x00, 0x3b,
  0x58, 0x98, 0x96, 0x3b, 0x1c, 0xd0, 0xa7, 0x3b, 0x14, 0xd8, 0x00, 0x3b,
  0x5a, 0xef, 0xb0, 0x3b, 0xf0, 0x87, 0x61, 0x3b, 0xb5, 0x37, 0x66, 0x3b,
  0x19, 0x88, 0xad, 0x3b, 0x4c, 0x57, 0xa9, 0x3b, 0x4a, 0xcc, 0x8a, 0x3b,
  0x5b, 0xc5, 0x00, 0x3b, 0x85, 0x9a, 0xfd, 0x3a, 0x7b, 0xca, 0x30, 0x3b,
  0xf5, 0xde, 0xaf, 0x3b, 0x67, 0x1b, 0xfc, 0x3a, 0x67, 0xb3, 0xfe, 0x3a,
  0xdf, 0x41, 0x96, 0x3b, 0x4d, 0xa0, 0xf6, 0x3a, 0xb9, 0x4d, 0x95, 0x3b,
  0x2a, 0x9e, 0x8e, 0x3b, 0x71, 0x36, 0xf8, 0x3a, 0x8b, 0xab, 0x81, 0x3b,
  0x8b, 0xdb, 0xed, 0x3a, 0x2e, 0x4a, 0x9e, 0x3b, 0xfc, 0xc9, 0xd2, 0x3b,
  0x38, 0xd5, 0x70, 0x3b, 0x8d, 0xff, 0x93, 0x3b, 0xce, 0x40, 0xff, 0x3a,
  0x68, 0x02, 0x7f, 0x3b, 0xae, 0x1f, 0x6f, 0x3b, 0x6f, 0xb7, 0xfc, 0x3a,
  0x11, 0x00, 0x00, 0x00, 0x74, 0x66, 0x6c, 0x2e, 0x70, 0x73, 0x65, 0x75,
  0x64, 0x6f, 0x5f, 0x71, 0x63, 0x6f, 0x6e, 0x73, 0x74, 0x00, 0x00, 0x00,
  0x02, 0x00, 0x00, 0x00, 0x20, 0x00, 0x00, 0x00, 0x40, 0x00, 0x00, 0x00,
  0xde, 0xfe, 0xff, 0xff, 0x00, 0x00, 0x00, 0x01, 0x10, 0x00, 0x00, 0x00,
  0x10, 0x00, 0x00, 0x00, 0x07, 0x00, 0x00, 0x00, 0x1c, 0x00, 0x00, 0x00,
  0x68, 0xfe, 0xff, 0xff, 0x0f, 0x00, 0x00, 0x00, 0x61, 0x72, 0x69, 0x74,
  0x68, 0x2e, 0x63, 0x6f, 0x6e, 0x73, 0x74, 0x61, 0x6e, 0x74, 0x35, 0x00,
  0x02, 0x00, 0x00, 0x00, 0x10, 0x00, 0x00, 0x00, 0x20, 0x00, 0x00, 0x00,
  0x1a, 0xff, 0xff, 0xff, 0x00, 0x00, 0x00, 0x01, 0x10, 0x00, 0x00, 0x00,
  0x10, 0x00, 0x00, 0x00, 0x06, 0x00, 0x00, 0x00, 0x1c, 0x00, 0x00, 0x00,
  0xa4, 0xfe, 0xff, 0xff, 0x0f, 0x00, 0x00, 0x00, 0x61, 0x72, 0x69, 0x74,
  0x68, 0x2e, 0x63, 0x6f, 0x6e, 0x73, 0x74, 0x61, 0x6e, 0x74, 0x34, 0x00,
  0x02, 0x00, 0x00, 0x00, 0x04, 0x00, 0x00, 0x00, 0x10, 0x00, 0x00, 0x00,
  0x56, 0xff, 0xff, 0xff, 0x00, 0x00, 0x00, 0x01, 0x10, 0x00, 0x00, 0x00,
  0x10, 0x00, 0x00, 0x00, 0x05, 0x00, 0x00, 0x00, 0x1c, 0x00, 0x00, 0x00,
  0xe0, 0xfe, 0xff, 0xff, 0x0f, 0x00, 0x00, 0x00, 0x61, 0x72, 0x69, 0x74,
  0x68, 0x2e, 0x63, 0x6f, 0x6e, 0x73, 0x74, 0x61, 0x6e, 0x74, 0x33, 0x00,
  0x01, 0x00, 0x00, 0x00, 0x20, 0x00, 0x00, 0x00, 0x8e, 0xff, 0xff, 0xff,
  0x00, 0x00, 0x00, 0x01, 0x10, 0x00, 0x00, 0x00, 0x10, 0x00, 0x00, 0x00,
  0x04, 0x00, 0x00, 0x00, 0x1c, 0x00, 0x00, 0x00, 0x18, 0xff, 0xff, 0xff,
  0x0f, 0x00, 0x00, 0x00, 0x61, 0x72, 0x69, 0x74, 0x68, 0x2e, 0x63, 0x6f,
  0x6e, 0x73, 0x74, 0x61, 0x6e, 0x74, 0x32, 0x00, 0x01, 0x00, 0x00, 0x00,
  0x10, 0x00, 0x00, 0x00, 0xc6, 0xff, 0xff, 0xff, 0x00, 0x00, 0x00, 0x01,
  0x10, 0x00, 0x00, 0x00, 0x10, 0x00, 0x00, 0x00, 0x03, 0x00, 0x00, 0x00,
  0x1c, 0x00, 0x00, 0x00, 0x50, 0xff, 0xff, 0xff, 0x0f, 0x00, 0x00, 0x00,
  0x61, 0x72, 0x69, 0x74, 0x68, 0x2e, 0x63, 0x6f, 0x6e, 0x73, 0x74, 0x61,
  0x6e, 0x74, 0x31, 0x00, 0x01, 0x00, 0x00, 0x00, 0x04, 0x00, 0x00, 0x00,
  0x00, 0x00, 0x16, 0x00, 0x18, 0x00, 0x14, 0x00, 0x00, 0x00, 0x10, 0x00,
  0x0c, 0x00, 0x08, 0x00, 0x00, 0x00, 0x00, 0x00, 0x00, 0x00, 0x07, 0x00,
  0x16, 0x00, 0x00, 0x00, 0x00, 0x00, 0x00, 0x01, 0x10, 0x00, 0x00, 0x00,
  0x10, 0x00, 0x00, 0x00, 0x02, 0x00, 0x00, 0x00, 0x1c, 0x00, 0x00, 0x00,
  0xa0, 0xff, 0xff, 0xff, 0x0e, 0x00, 0x00, 0x00, 0x61, 0x72, 0x69, 0x74,
  0x68, 0x2e, 0x63, 0x6f, 0x6e, 0x73, 0x74, 0x61, 0x6e, 0x74, 0x00, 0x00,
  0x01, 0x00, 0x00, 0x00, 0x40, 0x00, 0x00, 0x00, 0x00, 0x00, 0x16, 0x00,
  0x1c, 0x00, 0x18, 0x00, 0x00, 0x00, 0x14, 0x00, 0x10, 0x00, 0x0c, 0x00,
  0x00, 0x00, 0x00, 0x00, 0x08, 0x00, 0x07, 0x00, 0x16, 0x00, 0x00, 0x00,
  0x00, 0x00, 0x00, 0x01, 0x14, 0x00, 0x00, 0x00, 0x20, 0x00, 0x00, 0x00,
  0x20, 0x00, 0x00, 0x00, 0x01, 0x00, 0x00, 0x00, 0x40, 0x00, 0x00, 0x00,
  0x02, 0x00, 0x00, 0x00, 0xff, 0xff, 0xff, 0xff, 0x24, 0x00, 0x00, 0x00,
  0x04, 0x00, 0x04, 0x00, 0x04, 0x00, 0x00, 0x00, 0x21, 0x00, 0x00, 0x00,
  0x73, 0x65, 0x72, 0x76, 0x69, 0x6e, 0x67, 0x5f, 0x64, 0x65, 0x66, 0x61,
  0x75, 0x6c, 0x74, 0x5f, 0x6b, 0x65, 0x72, 0x61, 0x73, 0x5f, 0x74, 0x65,
  0x6e, 0x73, 0x6f, 0x72, 0x5f, 0x31, 0x30, 0x3a, 0x30, 0x00, 0x00, 0x00,
  0x02, 0x00, 0x00, 0x00, 0x01, 0x00, 0x00, 0x00, 0x24, 0x00, 0x00, 0x00,
  0x02, 0x00, 0x00, 0x00, 0x2c, 0x00, 0x00, 0x00, 0x10, 0x00, 0x00, 0x00,
  0x0c, 0x00, 0x0c, 0x00, 0x0b, 0x00, 0x00, 0x00, 0x00, 0x00, 0x04, 0x00,
  0x0c, 0x00, 0x00, 0x00, 0x19, 0x00, 0x00, 0x00, 0x00, 0x00, 0x00, 0x19,
  0x0c, 0x00, 0x10, 0x00, 0x0f, 0x00, 0x00, 0x00, 0x08, 0x00, 0x04, 0x00,
  0x0c, 0x00, 0x00, 0x00, 0x09, 0x00, 0x00, 0x00, 0x0c, 0x00, 0x00, 0x00,
  0x00, 0x00, 0x00, 0x09
};
unsigned int _content_gesture_model_quant_tflite_len = 10864;
