unsigned char model[] = {
  0x1c, 0x00, 0x00, 0x00, 0x54, 0x46, 0x4c, 0x33, 0x14, 0x00, 0x20, 0x00,
  0x1c, 0x00, 0x18, 0x00, 0x14, 0x00, 0x10, 0x00, 0x0c, 0x00, 0x00, 0x00,
  0x08, 0x00, 0x04, 0x00, 0x14, 0x00, 0x00, 0x00, 0x1c, 0x00, 0x00, 0x00,
  0x98, 0x00, 0x00, 0x00, 0xf0, 0x00, 0x00, 0x00, 0x08, 0x1e, 0x00, 0x00,
  0x18, 0x1e, 0x00, 0x00, 0xf4, 0x29, 0x00, 0x00, 0x03, 0x00, 0x00, 0x00,
  0x01, 0x00, 0x00, 0x00, 0x10, 0x00, 0x00, 0x00, 0x00, 0x00, 0x0a, 0x00,
  0x10, 0x00, 0x0c, 0x00, 0x08, 0x00, 0x04, 0x00, 0x0a, 0x00, 0x00, 0x00,
  0x0c, 0x00, 0x00, 0x00, 0x1c, 0x00, 0x00, 0x00, 0x3c, 0x00, 0x00, 0x00,
  0x0f, 0x00, 0x00, 0x00, 0x73, 0x65, 0x72, 0x76, 0x69, 0x6e, 0x67, 0x5f,
  0x64, 0x65, 0x66, 0x61, 0x75, 0x6c, 0x74, 0x00, 0x01, 0x00, 0x00, 0x00,
  0x04, 0x00, 0x00, 0x00, 0x90, 0xff, 0xff, 0xff, 0x0d, 0x00, 0x00, 0x00,
  0x04, 0x00, 0x00, 0x00, 0x08, 0x00, 0x00, 0x00, 0x6f, 0x75, 0x74, 0x70,
  0x75, 0x74, 0x5f, 0x30, 0x00, 0x00, 0x00, 0x00, 0x01, 0x00, 0x00, 0x00,
  0x04, 0x00, 0x00, 0x00, 0xda, 0xe1, 0xff, 0xff, 0x04, 0x00, 0x00, 0x00,
  0x0e, 0x00, 0x00, 0x00, 0x6b, 0x65, 0x72, 0x61, 0x73, 0x5f, 0x74, 0x65,
  0x6e, 0x73, 0x6f, 0x72, 0x5f, 0x35, 0x00, 0x00, 0x02, 0x00, 0x00, 0x00,
  0x34, 0x00, 0x00, 0x00, 0x04, 0x00, 0x00, 0x00, 0xdc, 0xff, 0xff, 0xff,
  0x10, 0x00, 0x00, 0x00, 0x04, 0x00, 0x00, 0x00, 0x13, 0x00, 0x00, 0x00,
  0x43, 0x4f, 0x4e, 0x56, 0x45, 0x52, 0x53, 0x49, 0x4f, 0x4e, 0x5f, 0x4d,
  0x45, 0x54, 0x41, 0x44, 0x41, 0x54, 0x41, 0x00, 0x08, 0x00, 0x0c, 0x00,
  0x08, 0x00, 0x04, 0x00, 0x08, 0x00, 0x00, 0x00, 0x0f, 0x00, 0x00, 0x00,
  0x04, 0x00, 0x00, 0x00, 0x13, 0x00, 0x00, 0x00, 0x6d, 0x69, 0x6e, 0x5f,
  0x72, 0x75, 0x6e, 0x74, 0x69, 0x6d, 0x65, 0x5f, 0x76, 0x65, 0x72, 0x73,
  0x69, 0x6f, 0x6e, 0x00, 0x11, 0x00, 0x00, 0x00, 0x14, 0x1d, 0x00, 0x00,
  0x0c, 0x1d, 0x00, 0x00, 0xfc, 0x1b, 0x00, 0x00, 0x6c, 0x1b, 0x00, 0x00,
  0x1c, 0x1b, 0x00, 0x00, 0xfc, 0x1a, 0x00, 0x00, 0xec, 0x19, 0x00, 0x00,
  0xdc, 0x11, 0x00, 0x00, 0xcc, 0x09, 0x00, 0x00, 0xbc, 0x00, 0x00, 0x00,
  0xb4, 0x00, 0x00, 0x00, 0xac, 0x00, 0x00, 0x00, 0xa4, 0x00, 0x00, 0x00,
  0x9c, 0x00, 0x00, 0x00, 0x94, 0x00, 0x00, 0x00, 0x74, 0x00, 0x00, 0x00,
  0x04, 0x00, 0x00, 0x00, 0x9a, 0xe2, 0xff, 0xff, 0x04, 0x00, 0x00, 0x00,
  0x60, 0x00, 0x00, 0x00, 0x0c, 0x00, 0x00, 0x00, 0x08, 0x00, 0x0e, 0x00,
  0x08, 0x00, 0x04, 0x00, 0x08, 0x00, 0x00, 0x00, 0x10, 0x00, 0x00, 0x00,
  0x28, 0x00, 0x00, 0x00, 0x00, 0x00, 0x06, 0x00, 0x08, 0x00, 0x04, 0x00,
  0x06, 0x00, 0x00, 0x00, 0x04, 0x00, 0x00, 0x00, 0x01, 0x00, 0x00, 0x00,
  0xea, 0x03, 0x00, 0x00, 0x0c, 0x00, 0x18, 0x00, 0x14, 0x00, 0x10, 0x00,
  0x0c, 0x00, 0x04, 0x00, 0x0c, 0x00, 0x00, 0x00, 0x7d, 0x12, 0x2e, 0xfe,
  0xb4, 0x13, 0x43, 0x88, 0x02, 0x00, 0x00, 0x00, 0x02, 0x00, 0x00, 0x00,
  0x04, 0x00, 0x00, 0x00, 0x06, 0x00, 0x00, 0x00, 0x32, 0x2e, 0x31, 0x39,
  0x2e, 0x30, 0x00, 0x00, 0x06, 0xe3, 0xff, 0xff, 0x04, 0x00, 0x00, 0x00,
  0x10, 0x00, 0x00, 0x00, 0x32, 0x2e, 0x31, 0x37, 0x2e, 0x30, 0x00, 0x00,
  0x00, 0x00, 0x00, 0x00, 0x00, 0x00, 0x00, 0x00, 0xfc, 0xd7, 0xff, 0xff,
  0x00, 0xd8, 0xff, 0xff, 0x04, 0xd8, 0xff, 0xff, 0x08, 0xd8, 0xff, 0xff,
  0x0c, 0xd8, 0xff, 0xff, 0x36, 0xe3, 0xff, 0xff, 0x04, 0x00, 0x00, 0x00,
  0x00, 0x09, 0x00, 0x00, 0xc1, 0xac, 0xe3, 0xa6, 0xde, 0x87, 0xcc, 0xe1,
  0xd0, 0x9e, 0xc1, 0xa6, 0x9f, 0x81, 0xb5, 0x90, 0xe0, 0xbb, 0xd7, 0xfb,
  0xa7, 0xb7, 0xd1, 0x75, 0xde, 0xcf, 0xd4, 0xae, 0xb8, 0xf0, 0x97, 0xd7,
  0xbc, 0x47, 0xce, 0x2b, 0x36, 0x59, 0x69, 0x71, 0x52, 0x3c, 0x50, 0x4c,
  0x5c, 0x28, 0x00, 0x4d, 0x12, 0x3d, 0x65, 0x43, 0x61, 0x2a, 0x4c, 0x38,
  0x3a, 0x2e, 0x5f, 0x34, 0x5c, 0x1c, 0x76, 0x5b, 0x38, 0x7f, 0x73, 0x30,
  0xfb, 0x9f, 0x6e, 0xe1, 0x12, 0x84, 0xa0, 0xbc, 0x36, 0x1c, 0x47, 0x44,
  0xa6, 0xcc, 0xda, 0x8b, 0xf5, 0x89, 0xa8, 0x81, 0xe9, 0x0c, 0x7a, 0x1a,
  0xb5, 0xc6, 0x10, 0x90, 0x62, 0x83, 0x04, 0xc7, 0xf5, 0x28, 0x36, 0x7c,
  0x2d, 0x9d, 0x08, 0xd5, 0x0b, 0xa5, 0xb6, 0xdf, 0x08, 0xac, 0xa1, 0xf7,
  0xe4, 0xf9, 0xd8, 0xea, 0xea, 0xcb, 0xd1, 0x01, 0xb2, 0xb5, 0xbc, 0xb9,
  0xad, 0xa6, 0xa8, 0x34, 0xce, 0x95, 0xe6, 0xf8, 0xf9, 0x9d, 0xb2, 0xca,
  0xe6, 0x7f, 0xd3, 0x24, 0xce, 0xe5, 0x9c, 0xcc, 0xb2, 0x98, 0xc5, 0xe3,
  0xf9, 0xab, 0x9a, 0xce, 0xaf, 0xd2, 0xb2, 0xde, 0xf6, 0xa2, 0x99, 0xd5,
  0xb7, 0x81, 0xaf, 0x5b, 0x99, 0xd2, 0xd3, 0xa6, 0xe3, 0x0d, 0xa3, 0xed,
  0xd2, 0x2b, 0xce, 0xf9, 0xf6, 0x93, 0xe0, 0xa4, 0xd6, 0xd8, 0x1e, 0xbe,
  0x19, 0xec, 0xf7, 0xe6, 0xc0, 0x14, 0x03, 0xb6, 0x1f, 0x14, 0x82, 0xaa,
  0xca, 0x12, 0x92, 0x7f, 0x82, 0xb7, 0x86, 0xa8, 0x0a, 0x14, 0x09, 0xe1,
  0x86, 0x4e, 0xfe, 0x6a, 0xa6, 0x88, 0x81, 0xc1, 0xec, 0xcf, 0x90, 0x94,
  0xbd, 0xe2, 0x8b, 0xf2, 0xdc, 0x91, 0xd8, 0xe0, 0xd3, 0x18, 0xa3, 0x0f,
  0x08, 0xd7, 0xf1, 0x26, 0xa4, 0x0e, 0xa4, 0xf1, 0xfd, 0x95, 0x82, 0xd3,
  0xc1, 0x04, 0x0b, 0x35, 0xa0, 0xee, 0xdb, 0xab, 0xce, 0xfa, 0xd1, 0xc5,
  0xc6, 0xdb, 0x9e, 0x90, 0xfa, 0xd3, 0x9e, 0xe3, 0x9b, 0xad, 0xeb, 0xe2,
  0xe7, 0xe9, 0xe7, 0x3b, 0xdf, 0xe9, 0xe6, 0xd1, 0xa1, 0xa1, 0xc7, 0xd5,
  0xb9, 0x7f, 0x00, 0x16, 0x57, 0x4e, 0x7a, 0x56, 0x6e, 0x47, 0x37, 0x3f,
  0x51, 0x63, 0x7d, 0x38, 0x2f, 0x5a, 0x41, 0x24, 0x42, 0x29, 0x35, 0x36,
  0x58, 0x36, 0x27, 0xe0, 0x40, 0x7f, 0x62, 0x4c, 0x7c, 0x4e, 0x3c, 0x52,
  0x5f, 0xbe, 0x17, 0x34, 0x6f, 0x7a, 0x3a, 0x26, 0x30, 0x50, 0x07, 0x11,
  0x14, 0x7f, 0x0e, 0x36, 0x39, 0xfd, 0x2e, 0x5b, 0xfd, 0x3e, 0x1c, 0x2e,
  0x77, 0x62, 0x37, 0x0a, 0x47, 0x3d, 0x59, 0x00, 0x7b, 0x68, 0x58, 0x49,
  0x52, 0xb5, 0x58, 0x0e, 0xac, 0x26, 0x22, 0x1f, 0xb5, 0x3f, 0xc2, 0xa8,
  0x9b, 0x4c, 0xbc, 0x81, 0x22, 0xc3, 0x90, 0xfa, 0xbb, 0x26, 0x99, 0x1d,
  0xc5, 0x0a, 0x34, 0x44, 0xb7, 0xb2, 0x57, 0x5d, 0xea, 0xea, 0xfe, 0xbe,
  0xdd, 0xef, 0x88, 0xa0, 0x2b, 0xe4, 0xcd, 0x5a, 0x70, 0x7d, 0x22, 0x9d,
  0xce, 0x0d, 0xfe, 0xc7, 0x7f, 0x74, 0xb8, 0xab, 0xdc, 0xdc, 0x42, 0x03,
  0x93, 0x03, 0x39, 0xa3, 0x9e, 0x4a, 0xc7, 0x4f, 0x5e, 0x92, 0x08, 0xc7,
  0xce, 0x32, 0xed, 0x98, 0x7f, 0x33, 0x4a, 0xe6, 0xd1, 0x7a, 0x55, 0x5f,
  0x53, 0x2e, 0xf8, 0xff, 0xd2, 0x05, 0x5c, 0x08, 0xe2, 0xe2, 0xef, 0x27,
  0xda, 0x75, 0x55, 0x85, 0x27, 0xc9, 0xce, 0x33, 0xf0, 0xac, 0x22, 0x35,
  0xde, 0x32, 0x10, 0x48, 0x74, 0x7f, 0x54, 0x60, 0x69, 0xf7, 0x65, 0x6c,
  0xfc, 0x50, 0x09, 0x50, 0x0f, 0x3c, 0x79, 0x3f, 0x73, 0x11, 0x2e, 0x76,
  0x4b, 0x0c, 0x7c, 0xf6, 0x4d, 0x5b, 0x70, 0xe8, 0x3b, 0x6f, 0x5e, 0x78,
  0x18, 0xbc, 0x4f, 0x33, 0x3d, 0x9c, 0x3d, 0xdb, 0x27, 0xdc, 0x81, 0xb9,
  0x35, 0x27, 0xc8, 0xed, 0x1a, 0x40, 0x02, 0xd7, 0xa1, 0xe9, 0x94, 0xac,
  0x3e, 0xbd, 0x49, 0x7e, 0xb4, 0x12, 0xad, 0xf8, 0x2e, 0x76, 0xd4, 0x32,
  0x09, 0x31, 0xcf, 0xd6, 0x54, 0x29, 0xb6, 0x52, 0x1d, 0xf1, 0x2f, 0x59,
  0x57, 0x05, 0x52, 0xf9, 0x16, 0x4b, 0xf8, 0xbd, 0x59, 0xc3, 0x20, 0x41,
  0x1a, 0x54, 0xee, 0xac, 0x53, 0x57, 0xdf, 0xf5, 0x13, 0x8a, 0x3c, 0xb9,
  0x4b, 0x41, 0x53, 0x7f, 0x45, 0x5c, 0x15, 0x18, 0x50, 0x5d, 0x41, 0x4b,
  0x79, 0x20, 0x3d, 0x1f, 0x2b, 0x50, 0x2b, 0x4e, 0x28, 0x22, 0x6f, 0x79,
  0x6c, 0x1a, 0x45, 0xfb, 0x5e, 0x20, 0x29, 0x78, 0x7a, 0x7f, 0x40, 0x53,
  0x70, 0xa7, 0x6e, 0xe6, 0x33, 0xde, 0x0d, 0x1a, 0xef, 0xeb, 0x4d, 0x06,
  0xf5, 0x2f, 0x09, 0x1a, 0xe9, 0x2f, 0x39, 0xd4, 0xf8, 0xbe, 0xd8, 0x0c,
  0xfe, 0xad, 0x09, 0x7f, 0xf9, 0x36, 0x15, 0xd9, 0x28, 0x6a, 0xfd, 0x31,
  0x02, 0xb8, 0x26, 0x35, 0x1c, 0xff, 0x46, 0x06, 0xff, 0xe9, 0xcc, 0xce,
  0x3c, 0xf1, 0xf5, 0x31, 0xd0, 0xf1, 0x11, 0x03, 0xfd, 0x03, 0x1c, 0x30,
  0xed, 0xc7, 0x23, 0x7f, 0xd5, 0x35, 0x1f, 0x24, 0x0a, 0x5c, 0x40, 0x11,
  0xe3, 0xc6, 0x3d, 0x32, 0xee, 0x10, 0xc7, 0xfa, 0xfc, 0xd1, 0x1f, 0x48,
  0xdc, 0x34, 0xea, 0x19, 0xbb, 0x1d, 0xc3, 0x18, 0x9c, 0x12, 0xe2, 0x06,
  0xb0, 0x88, 0x41, 0x65, 0xf1, 0xdc, 0xf1, 0xc4, 0xbe, 0x3b, 0xd3, 0xfa,
  0xb5, 0x00, 0x9d, 0x81, 0x10, 0x24, 0x79, 0xfd, 0x1a, 0x49, 0xf5, 0x26,
  0x0d, 0x40, 0x21, 0x2e, 0x4c, 0x14, 0xf0, 0x41, 0x37, 0x2d, 0xf2, 0x49,
  0x68, 0x63, 0x05, 0x34, 0x6b, 0x2f, 0xfe, 0x48, 0x28, 0x7f, 0xfe, 0x7a,
  0x2d, 0xa8, 0x2a, 0xec, 0x05, 0x12, 0xed, 0x7e, 0x69, 0x63, 0x12, 0x11,
  0x7a, 0x2a, 0x2b, 0x2e, 0xe8, 0x40, 0x79, 0x7f, 0x0a, 0x1e, 0x44, 0x1b,
  0x32, 0x6d, 0x34, 0x08, 0x12, 0x55, 0xef, 0x74, 0xfe, 0x68, 0x1e, 0x43,
  0xea, 0xea, 0xfd, 0x62, 0x1f, 0xf1, 0xe2, 0x25, 0xfd, 0x3e, 0x13, 0x6b,
  0x32, 0x01, 0x3d, 0x38, 0xf7, 0xd1, 0x7b, 0x75, 0xc2, 0xf2, 0xcb, 0x0a,
  0x0d, 0x07, 0x47, 0x89, 0x09, 0x30, 0x7f, 0x6b, 0x44, 0x90, 0xee, 0x60,
  0x49, 0x7e, 0x14, 0x60, 0x7b, 0x57, 0x11, 0x7f, 0x7e, 0x3f, 0x37, 0x3c,
  0x67, 0x0f, 0x2b, 0x2d, 0x3b, 0x38, 0x72, 0x64, 0x62, 0x5d, 0x38, 0x2e,
  0x73, 0x2a, 0x75, 0xc1, 0x7d, 0x69, 0x07, 0x1c, 0x5a, 0x1f, 0x48, 0x2f,
  0x52, 0x1e, 0x0d, 0x5c, 0x7c, 0x86, 0x78, 0xa9, 0xaa, 0x21, 0x29, 0xa6,
  0x38, 0x0a, 0xda, 0x11, 0xad, 0x3a, 0x43, 0x65, 0x3b, 0x9e, 0x5c, 0xe1,
  0xe5, 0x84, 0xd2, 0xb9, 0xeb, 0x94, 0x5e, 0x52, 0x00, 0xb6, 0xb0, 0x6b,
  0x8e, 0x2d, 0x6d, 0x81, 0x46, 0xc9, 0xf5, 0x4b, 0x06, 0xf6, 0xb0, 0xb6,
  0x41, 0x76, 0xa0, 0x4b, 0x26, 0x0b, 0xc6, 0x9e, 0xef, 0x64, 0xe5, 0x7c,
  0xa7, 0x7f, 0x81, 0xe2, 0xfd, 0xcc, 0x56, 0x93, 0x51, 0xae, 0xaf, 0x42,
  0xe9, 0x32, 0x29, 0xfc, 0xdf, 0x08, 0xf2, 0xf8, 0x3a, 0x3d, 0x50, 0x22,
  0x0e, 0xfc, 0x4a, 0x00, 0x5f, 0x1e, 0x27, 0x57, 0x41, 0xd5, 0xf1, 0x53,
  0x3a, 0x40, 0x17, 0x6e, 0x1f, 0xe0, 0x05, 0xe6, 0x3f, 0x7f, 0x20, 0xf3,
  0x20, 0xfc, 0xee, 0xdd, 0xa9, 0xb2, 0xd4, 0xdb, 0x9d, 0xb2, 0x95, 0xcd,
  0x9a, 0xe0, 0x95, 0xcb, 0x93, 0x94, 0x98, 0xb2, 0xa9, 0xa6, 0xe1, 0xd9,
  0xbf, 0x9f, 0xa4, 0x62, 0xd3, 0xa5, 0x81, 0xbd, 0xb1, 0xb1, 0xa1, 0xbb,
  0xcf, 0x13, 0xb9, 0xef, 0x29, 0x19, 0xbb, 0x6e, 0x26, 0x09, 0xe6, 0xca,
  0xc5, 0x35, 0xd8, 0xd0, 0x23, 0x14, 0x81, 0xc2, 0x67, 0x75, 0x50, 0xc0,
  0x78, 0x33, 0xdd, 0xd2, 0x39, 0x44, 0x39, 0x20, 0x5b, 0x20, 0x01, 0x2f,
  0xf2, 0x3f, 0x04, 0xcf, 0x49, 0x4c, 0x76, 0x57, 0x53, 0x37, 0x68, 0x21,
  0x18, 0x0b, 0x0a, 0x41, 0x7f, 0x40, 0x04, 0x1c, 0x71, 0x66, 0x52, 0x22,
  0x44, 0x55, 0x4e, 0xdf, 0x66, 0x74, 0x0f, 0x0d, 0x4b, 0x7e, 0x2d, 0x42,
  0x2d, 0xbf, 0x2c, 0x2a, 0xf1, 0xe9, 0xec, 0xfe, 0x4d, 0x23, 0x44, 0x0e,
  0xf4, 0x76, 0x6a, 0x6a, 0xdd, 0x14, 0x17, 0x24, 0x2e, 0x41, 0x06, 0x7e,
  0x36, 0xc7, 0xe9, 0x64, 0x2d, 0x0a, 0x1b, 0x3a, 0x2c, 0x7f, 0xf7, 0x16,
  0xe8, 0xbe, 0x53, 0xeb, 0x81, 0xcd, 0xd3, 0xff, 0x8d, 0xdc, 0x93, 0x9e,
  0xa5, 0xca, 0x8c, 0x98, 0xba, 0x8d, 0xae, 0xc1, 0xe6, 0xb4, 0xee, 0xbe,
  0xa2, 0xa3, 0xd9, 0x1d, 0x83, 0xde, 0x8b, 0x8d, 0xa2, 0x8a, 0xa1, 0xcc,
  0xb1, 0x14, 0x08, 0x3f, 0x4d, 0x3d, 0x10, 0x66, 0x3a, 0x4e, 0x07, 0x5d,
  0x3d, 0x11, 0x56, 0x35, 0x6a, 0x1c, 0x52, 0x29, 0x69, 0x58, 0x56, 0x4f,
  0x4f, 0x41, 0x14, 0x81, 0x2a, 0xf6, 0x32, 0x2c, 0xfb, 0xf6, 0x22, 0xf6,
  0xfa, 0x3a, 0x56, 0x4d, 0x82, 0x39, 0x60, 0xb8, 0xce, 0x4f, 0x41, 0x5d,
  0xfa, 0x7b, 0xad, 0xa9, 0x45, 0x9f, 0x78, 0x26, 0x5c, 0x00, 0x15, 0x1e,
  0xa0, 0x44, 0xfd, 0xbe, 0xc9, 0x18, 0x8f, 0x6d, 0x39, 0x9d, 0x2f, 0xe0,
  0x48, 0x85, 0x81, 0xc7, 0xee, 0xf6, 0xfc, 0xc4, 0xd2, 0xae, 0xbb, 0xd8,
  0xf4, 0xa9, 0xbd, 0xc5, 0x97, 0x91, 0xaf, 0xa9, 0xbd, 0xba, 0x9f, 0xfb,
  0xc6, 0x81, 0xc7, 0x75, 0xfc, 0x8c, 0xd1, 0xb2, 0xbe, 0xb1, 0xca, 0xc7,
  0xa1, 0x53, 0xe3, 0x45, 0x5f, 0xf3, 0x43, 0x08, 0x01, 0xf5, 0x37, 0xdb,
  0xe0, 0xe3, 0x6f, 0x1a, 0xe6, 0x28, 0x61, 0x0e, 0x2a, 0x63, 0x3a, 0x00,
  0x35, 0xf3, 0x52, 0xba, 0x50, 0x0e, 0x4d, 0x7f, 0x68, 0x11, 0x2c, 0x40,
  0x24, 0x67, 0xdf, 0x4f, 0x0d, 0xe0, 0x95, 0x9d, 0x8f, 0x1f, 0x8b, 0x03,
  0xa2, 0xd1, 0x6d, 0x62, 0xa9, 0x6c, 0x4b, 0x0b, 0x45, 0x10, 0x32, 0x06,
  0x37, 0xf3, 0x35, 0xe3, 0x8b, 0x48, 0x7e, 0x7f, 0xea, 0xeb, 0x2b, 0xda,
  0xe9, 0x2b, 0xa7, 0xa1, 0x31, 0x00, 0xf3, 0x19, 0xeb, 0xf1, 0x02, 0x3c,
  0xe7, 0x02, 0x2f, 0x41, 0x5a, 0x49, 0x3d, 0xfc, 0x56, 0xe7, 0x66, 0x55,
  0x12, 0x09, 0x0f, 0x4c, 0xfa, 0x62, 0x5a, 0x00, 0x4e, 0x5b, 0x47, 0x3d,
  0x57, 0xeb, 0x18, 0x7f, 0x5a, 0x4a, 0x50, 0x52, 0x5c, 0x5b, 0x34, 0x2a,
  0x5a, 0x34, 0x21, 0x4b, 0x48, 0x25, 0x49, 0x6a, 0x24, 0x43, 0x77, 0x6d,
  0x61, 0x7f, 0x78, 0xe1, 0x4f, 0x3f, 0x7c, 0x6c, 0x6f, 0x61, 0x77, 0x44,
  0x59, 0xc7, 0x0f, 0x0a, 0xae, 0xdf, 0x0f, 0xa8, 0x19, 0xac, 0x38, 0xc3,
  0xb7, 0xfe, 0xf1, 0xbd, 0xc0, 0xa5, 0x16, 0x08, 0xe8, 0x9b, 0x9c, 0x4a,
  0x38, 0xaa, 0xb9, 0x7f, 0xbc, 0x3a, 0xbb, 0x8c, 0xbb, 0x1d, 0xf5, 0x1e,
  0x11, 0x10, 0xc4, 0xec, 0x27, 0x28, 0x22, 0x1b, 0x6f, 0x2e, 0x31, 0x7c,
  0x4a, 0x1e, 0x76, 0x19, 0x42, 0x49, 0x48, 0x7f, 0x73, 0x26, 0x53, 0x72,
  0x2e, 0x41, 0x6a, 0xed, 0x65, 0x16, 0x66, 0x20, 0x6e, 0x54, 0x6e, 0x3d,
  0x40, 0xd8, 0x5d, 0x58, 0x11, 0x48, 0xdb, 0x37, 0xc3, 0xd5, 0x72, 0x4b,
  0x70, 0xac, 0xcc, 0x22, 0x2b, 0x3b, 0x0f, 0x87, 0xcd, 0xad, 0xa5, 0x04,
  0xf7, 0x61, 0xf7, 0x88, 0x27, 0x0b, 0x04, 0xe4, 0x03, 0xa3, 0xe8, 0x81,
  0xb0, 0x33, 0x18, 0xa9, 0xec, 0xb3, 0x93, 0x90, 0xbf, 0xd8, 0xdc, 0xe2,
  0xa3, 0xdb, 0xf0, 0x9c, 0xef, 0xde, 0xdd, 0x8d, 0xa2, 0xd8, 0xe9, 0xf4,
  0xb4, 0x81, 0x9a, 0x41, 0x96, 0xc9, 0xba, 0xca, 0xb9, 0xc2, 0x9a, 0xc5,
  0xde, 0x6b, 0xb6, 0xe7, 0x63, 0x77, 0x38, 0x55, 0x6e, 0x7e, 0x4f, 0x77,
  0x4c, 0x3d, 0x5f, 0x55, 0x5c, 0x7f, 0x7d, 0x24, 0x51, 0x39, 0x3d, 0x3f,
  0x3b, 0x34, 0x3b, 0xde, 0x5e, 0x22, 0x43, 0x6a, 0x21, 0x5e, 0x50, 0x43,
  0x70, 0x98, 0x40, 0x10, 0x89, 0xd9, 0xa0, 0x97, 0x46, 0xc1, 0xeb, 0x34,
  0x70, 0x72, 0x7d, 0xf5, 0xfd, 0x53, 0x68, 0x3a, 0xf2, 0xb4, 0x51, 0x0a,
  0x91, 0x07, 0x0b, 0xd3, 0x7b, 0x45, 0x68, 0x6e, 0x31, 0xe7, 0x81, 0xfa,
  0x06, 0x08, 0xfb, 0x90, 0xfd, 0xaf, 0x47, 0x14, 0x94, 0xcf, 0x59, 0x4b,
  0x89, 0x23, 0x42, 0xce, 0xdb, 0x81, 0xe6, 0xfb, 0x5b, 0xf5, 0xc2, 0xf4,
  0xa7, 0xcb, 0x2c, 0x5e, 0x49, 0xcb, 0xcd, 0x53, 0xa0, 0xac, 0xc3, 0xed,
  0x0a, 0x3a, 0x36, 0xb3, 0x96, 0xd6, 0xe7, 0x95, 0xd6, 0x09, 0x8b, 0x8c,
  0xbf, 0xe0, 0xd3, 0x81, 0x8b, 0x96, 0x09, 0xfe, 0xdf, 0x98, 0x07, 0x08,
  0xee, 0x8e, 0x02, 0x3a, 0xf2, 0xcc, 0xfc, 0xdf, 0xe0, 0xc5, 0xb6, 0xc4,
  0xa1, 0x6e, 0x9b, 0x28, 0xb2, 0xcc, 0xc2, 0xdb, 0xe1, 0xa9, 0xa1, 0xc4,
  0xb3, 0xe8, 0xb1, 0xce, 0xa7, 0xb1, 0x9c, 0xf2, 0xf8, 0xe4, 0xca, 0xa9,
  0xc5, 0x81, 0xf2, 0x73, 0xc3, 0xf7, 0xf8, 0xd5, 0xdb, 0xf5, 0xe1, 0xe6,
  0xe5, 0xfa, 0xca, 0x09, 0x9e, 0xc5, 0xc0, 0xb3, 0xae, 0x9e, 0xc3, 0x94,
  0xc7, 0xd2, 0x8b, 0xe0, 0xd4, 0x9a, 0xde, 0x98, 0xb4, 0x8d, 0xd4, 0xc2,
  0xbd, 0x81, 0xb4, 0x58, 0xd8, 0xd4, 0xa9, 0x8b, 0xc0, 0xb4, 0xb5, 0x95,
  0x93, 0x56, 0xa8, 0xeb, 0xa3, 0xe2, 0xcf, 0xb0, 0xb4, 0xe6, 0xa8, 0x88,
  0xcf, 0xe3, 0xc6, 0x82, 0xa8, 0xe7, 0xb0, 0xd8, 0xb6, 0xb2, 0xae, 0x02,
  0xe7, 0xbf, 0x8d, 0x46, 0xd0, 0xef, 0xe5, 0xd3, 0x81, 0xd4, 0xdc, 0x8c,
  0xc9, 0x72, 0xf2, 0xcf, 0x25, 0xef, 0xef, 0x48, 0xe8, 0xec, 0x07, 0xf8,
  0x5c, 0xf7, 0x4a, 0x0b, 0x32, 0x1d, 0x30, 0x05, 0xf2, 0x2d, 0xef, 0xe4,
  0x68, 0x24, 0x5e, 0x1c, 0x10, 0x14, 0x5e, 0x51, 0xfe, 0x7f, 0x03, 0x17,
  0x48, 0xe8, 0xf3, 0x01, 0x17, 0xdf, 0x2c, 0xb2, 0xd6, 0xbf, 0xc4, 0xcc,
  0x0c, 0xc6, 0x09, 0x51, 0x46, 0x5f, 0xcb, 0x00, 0xe4, 0xc7, 0xcc, 0x50,
  0x07, 0x0a, 0xfd, 0x52, 0xba, 0x17, 0x53, 0x7f, 0x3e, 0xb0, 0xa0, 0xf4,
  0x9b, 0x15, 0x14, 0xa1, 0x21, 0x74, 0x35, 0x2c, 0x16, 0x5e, 0xf9, 0x34,
  0xf0, 0x7f, 0x60, 0xe7, 0x22, 0x5a, 0x7d, 0x04, 0x41, 0xf2, 0xf6, 0x0e,
  0xe4, 0x2f, 0xf1, 0xbc, 0x5e, 0x7b, 0x2e, 0x59, 0x3b, 0x4d, 0x2c, 0x1f,
  0x58, 0xed, 0x2d, 0x61, 0xe5, 0xfc, 0x6c, 0x16, 0x49, 0xfd, 0x50, 0xdd,
  0xfa, 0x2a, 0x3f, 0xf6, 0x44, 0x30, 0x0d, 0xfa, 0x5a, 0x49, 0x2e, 0x0f,
  0x20, 0xdd, 0x46, 0x5c, 0x6f, 0x2f, 0x12, 0x2d, 0xed, 0x7f, 0x6f, 0x2d,
  0x60, 0x0e, 0xed, 0xcc, 0x34, 0x23, 0x4a, 0x65, 0x3e, 0x58, 0x6f, 0x64,
  0x3a, 0x7e, 0x41, 0x7a, 0x2b, 0x20, 0x15, 0x47, 0x30, 0x6f, 0x6b, 0x6f,
  0x3e, 0x1c, 0x79, 0xc7, 0x5f, 0x33, 0x68, 0x54, 0x17, 0x3a, 0x44, 0x42,
  0x4b, 0xd9, 0x7f, 0x62, 0xc9, 0xcd, 0xb2, 0xb1, 0xa3, 0xba, 0xba, 0x9d,
  0xc4, 0xa5, 0x99, 0x9b, 0xa0, 0xba, 0xa9, 0x9a, 0xd1, 0xc9, 0x9a, 0xbc,
  0xc8, 0x81, 0xb2, 0x3c, 0xd2, 0x94, 0xac, 0xc3, 0xa0, 0xd6, 0xa0, 0xc5,
  0xa2, 0x33, 0xc7, 0xfb, 0x10, 0x4e, 0x44, 0x6b, 0x5b, 0x74, 0x15, 0x75,
  0xf6, 0x6c, 0x6c, 0x59, 0x17, 0xec, 0x68, 0x0f, 0x38, 0x45, 0x20, 0x55,
  0x3f, 0x53, 0xf5, 0x61, 0x50, 0x46, 0xf8, 0x0a, 0x7f, 0x79, 0x22, 0x3d,
  0x20, 0x8f, 0x71, 0xda, 0x96, 0x06, 0x37, 0xf9, 0xf1, 0x3d, 0x44, 0xd7,
  0xf3, 0x32, 0x1d, 0x22, 0xf4, 0xf3, 0x07, 0xdc, 0xa2, 0x1a, 0xe1, 0x08,
  0xd0, 0x9a, 0xba, 0x64, 0xe4, 0x37, 0x04, 0x0b, 0x24, 0x26, 0x2e, 0xe6,
  0x14, 0xf7, 0xcf, 0x81, 0x91, 0xde, 0x56, 0x01, 0x60, 0x2d, 0x61, 0xca,
  0xe5, 0xed, 0x00, 0x15, 0x81, 0x6f, 0x38, 0xc9, 0x40, 0xc2, 0xba, 0x50,
  0xee, 0xc7, 0xa9, 0xe0, 0x28, 0x25, 0x79, 0xf5, 0x31, 0xc2, 0xc5, 0x2d,
  0xc0, 0x58, 0x14, 0xfd, 0x61, 0x40, 0x40, 0x14, 0x11, 0x31, 0x70, 0x4a,
  0xf9, 0x26, 0x19, 0x57, 0x78, 0x7f, 0x79, 0xf9, 0x5c, 0x62, 0x61, 0x14,
  0x59, 0x24, 0x6c, 0x1d, 0x0c, 0x1c, 0x45, 0xfa, 0x27, 0x63, 0x10, 0x32,
  0x30, 0xef, 0x59, 0xf9, 0xd1, 0xbc, 0xbe, 0xca, 0xdb, 0xa1, 0xac, 0xab,
  0xc2, 0xac, 0xe4, 0xca, 0xc3, 0xd3, 0xcf, 0xb6, 0xa9, 0xa7, 0xb0, 0xb8,
  0xd5, 0x81, 0xba, 0x33, 0xa7, 0xa7, 0xc5, 0x9d, 0xc7, 0xe9, 0xa7, 0xe2,
  0xc9, 0x0f, 0xdf, 0xee, 0xab, 0x0f, 0x00, 0xe6, 0x0c, 0x0f, 0xf8, 0xdc,
  0xd6, 0x18, 0xbd, 0x31, 0xd6, 0xdf, 0xb4, 0x1a, 0xb1, 0x01, 0x28, 0x3e,
  0xa7, 0xdd, 0xd4, 0x70, 0x39, 0xae, 0xb9, 0x3c, 0x0f, 0xf8, 0x33, 0xed,
  0xb1, 0x46, 0x9b, 0x81, 0x65, 0x6a, 0x2a, 0x62, 0x79, 0x7d, 0x75, 0x79,
  0x4c, 0x32, 0x43, 0x5a, 0x45, 0x18, 0x61, 0x28, 0x20, 0x6f, 0x7f, 0x74,
  0x5d, 0x30, 0x5a, 0xe9, 0x50, 0x37, 0x46, 0x23, 0x7e, 0x5f, 0x20, 0x25,
  0x17, 0xd0, 0x2d, 0x0a, 0x48, 0x1b, 0xe4, 0x29, 0x66, 0x05, 0xee, 0x35,
  0x66, 0x5d, 0x2b, 0x0c, 0x1d, 0x44, 0xfb, 0x54, 0xfb, 0x47, 0x08, 0xf9,
  0x3d, 0xe4, 0x3b, 0x3d, 0xfb, 0x43, 0xe4, 0xd6, 0x0f, 0x7f, 0x68, 0xed,
  0x5b, 0x3c, 0x26, 0xe4, 0x42, 0xec, 0xff, 0xff, 0x04, 0x00, 0x00, 0x00,
  0x00, 0x08, 0x00, 0x00, 0x27, 0xcc, 0x2a, 0x9f, 0xa1, 0x22, 0x12, 0x45,
  0x6d, 0xb7, 0x51, 0x7b, 0x00, 0x85, 0x19, 0xf2, 0xa8, 0x8e, 0xe3, 0x8c,
  0x9d, 0xbe, 0xde, 0x6a, 0xbf, 0x10, 0x56, 0x0a, 0x86, 0x2b, 0xd9, 0x83,
  0x4b, 0x30, 0xc8, 0x32, 0x95, 0xd7, 0x16, 0x35, 0x95, 0xcd, 0x18, 0x7d,
  0xa8, 0x19, 0xa1, 0xa0, 0x8c, 0x28, 0x5e, 0x85, 0x81, 0x76, 0xde, 0xdf,
  0x42, 0xfa, 0xf1, 0xae, 0x8f, 0xfe, 0x4d, 0x8e, 0xcb, 0xe3, 0xf8, 0x0c,
  0x3a, 0x81, 0x5c, 0xbb, 0x84, 0x41, 0xd5, 0x27, 0x87, 0xc6, 0xc8, 0xc5,
  0xb9, 0xc2, 0x51, 0xb4, 0x36, 0xc0, 0x48, 0x4e, 0x41, 0x6b, 0xc2, 0xb4,
  0x4f, 0x63, 0x91, 0x32, 0x85, 0x25, 0xc8, 0x59, 0x9d, 0x55, 0x6c, 0x30,
  0xf0, 0x15, 0xdb, 0xb8, 0x52, 0x6d, 0xe4, 0xdc, 0xc8, 0xca, 0x60, 0x95,
  0x3f, 0xd5, 0x85, 0xb0, 0x17, 0x65, 0xe1, 0x57, 0x98, 0x25, 0x97, 0x91,
  0xa4, 0xf0, 0xad, 0xb3, 0x69, 0x81, 0x5d, 0xed, 0xc1, 0x71, 0x27, 0x30,
  0x59, 0x38, 0xb9, 0xae, 0x0c, 0x1f, 0xab, 0x69, 0x9b, 0x9e, 0xb1, 0x6e,
  0x46, 0x40, 0xb1, 0x59, 0x8a, 0xc2, 0xe5, 0xb4, 0xe7, 0x7e, 0x17, 0x18,
  0xf9, 0xdc, 0xda, 0x31, 0x18, 0x98, 0xb1, 0x12, 0xdc, 0x4a, 0xa2, 0x4e,
  0x67, 0xf0, 0x82, 0xdc, 0x0b, 0x99, 0xb9, 0x7d, 0x7f, 0x91, 0x68, 0xcb,
  0x9d, 0xf7, 0x96, 0x70, 0x9f, 0x43, 0xc6, 0x85, 0xf2, 0xb5, 0x9b, 0xd5,
  0x3a, 0x6a, 0x81, 0x5b, 0x9f, 0xdf, 0x0b, 0xd4, 0xb4, 0xf9, 0x3c, 0x10,
  0xe0, 0x5e, 0xe1, 0x69, 0xab, 0xc0, 0xba, 0x9f, 0xff, 0xe8, 0xbf, 0x3a,
  0x91, 0xb7, 0x27, 0x66, 0xb7, 0x3e, 0xec, 0xe7, 0xbd, 0x88, 0x9e, 0x65,
  0xed, 0x10, 0x33, 0x39, 0x5a, 0x60, 0x42, 0x2f, 0x94, 0xfd, 0x96, 0xb7,
  0x48, 0x55, 0x18, 0x82, 0x42, 0x04, 0xa2, 0x1c, 0x44, 0x97, 0x03, 0xfd,
  0xcf, 0x1e, 0xf6, 0x35, 0x67, 0xe6, 0xf7, 0x0a, 0x6d, 0x33, 0x11, 0x45,
  0xe3, 0x19, 0x25, 0xec, 0xcf, 0x56, 0x2f, 0x79, 0x22, 0xb9, 0xd1, 0x40,
  0xea, 0x27, 0x21, 0x33, 0x62, 0xb9, 0x7f, 0x73, 0x44, 0x6a, 0x32, 0xc7,
  0x77, 0xfb, 0xff, 0x47, 0xee, 0xa1, 0x7d, 0x4a, 0xba, 0xec, 0xc1, 0x9e,
  0x6d, 0xb3, 0x11, 0xfe, 0xa3, 0x99, 0xea, 0xc9, 0xc8, 0x82, 0xd9, 0xe7,
  0x01, 0xce, 0x89, 0xbc, 0x31, 0x86, 0x70, 0xa5, 0x41, 0x7f, 0xb3, 0x8f,
  0x28, 0x9c, 0x77, 0xd4, 0xcb, 0x99, 0x94, 0x7d, 0x34, 0xa1, 0xa0, 0x5e,
  0x1d, 0x84, 0x07, 0xda, 0xf0, 0xd7, 0x1a, 0xbf, 0x8d, 0x3b, 0x65, 0x68,
  0x67, 0x8a, 0xde, 0x13, 0x66, 0xd9, 0xf6, 0x13, 0x58, 0x54, 0xb4, 0x25,
  0x8a, 0x65, 0xed, 0xd7, 0xf7, 0xf6, 0xd6, 0xdb, 0x7e, 0x2b, 0x7e, 0xff,
  0xea, 0xea, 0x14, 0xc1, 0xc6, 0x62, 0x51, 0x6d, 0xaf, 0xeb, 0xb8, 0x8c,
  0x8b, 0x0b, 0xe4, 0x2e, 0x54, 0xb4, 0x8c, 0x5d, 0xdd, 0x83, 0x77, 0x83,
  0xbe, 0xd8, 0x1d, 0x35, 0x57, 0xca, 0x93, 0xcf, 0x94, 0x09, 0x20, 0x43,
  0xa9, 0x11, 0xe6, 0x98, 0x21, 0xdb, 0xd7, 0xa7, 0x97, 0x90, 0x47, 0xe5,
  0xba, 0xd6, 0x2b, 0x71, 0x81, 0xc4, 0x4f, 0x47, 0xbe, 0x92, 0x60, 0xa9,
  0xc1, 0x8c, 0x8b, 0x52, 0xbc, 0xda, 0xdc, 0xce, 0x22, 0xab, 0x22, 0x68,
  0xf5, 0x29, 0x47, 0x1e, 0x43, 0x0b, 0x04, 0x08, 0x42, 0xf3, 0xce, 0x4c,
  0x81, 0x21, 0x34, 0xeb, 0x9f, 0x3a, 0x6f, 0x5e, 0x00, 0x18, 0xd0, 0xe4,
  0x17, 0x10, 0xb0, 0x5f, 0x40, 0xeb, 0x48, 0x29, 0xea, 0x52, 0xd2, 0xea,
  0xf0, 0xdd, 0xe4, 0x21, 0xda, 0xd7, 0x3b, 0x2c, 0x0b, 0xd8, 0xfc, 0x03,
  0x51, 0xd4, 0x2f, 0xf4, 0xd4, 0x14, 0x2b, 0xe0, 0x31, 0xed, 0xce, 0xba,
  0x6c, 0x6a, 0xfd, 0xb4, 0xdb, 0xb1, 0x96, 0xec, 0x0a, 0x6b, 0x15, 0x6b,
  0x1b, 0x96, 0x0a, 0x1f, 0x4b, 0xa1, 0xc9, 0xee, 0xad, 0x81, 0x44, 0x56,
  0xf2, 0xa4, 0x17, 0x44, 0x33, 0x2e, 0x2f, 0xf8, 0x66, 0x11, 0x5d, 0x8e,
  0xdd, 0x1b, 0x59, 0xb3, 0x83, 0xb0, 0x25, 0xd5, 0xd9, 0x84, 0x8a, 0x35,
  0x6a, 0xc2, 0x34, 0xf2, 0x67, 0xf5, 0xf2, 0x8f, 0xb5, 0xa4, 0x89, 0x8c,
  0xa3, 0x2f, 0xe4, 0x74, 0x24, 0x5b, 0xd8, 0xb5, 0x27, 0x13, 0xe0, 0x14,
  0x34, 0x59, 0xae, 0xda, 0x81, 0x23, 0xf4, 0xe0, 0x5f, 0x5b, 0x09, 0xd9,
  0x4c, 0x46, 0x88, 0x04, 0xfd, 0x17, 0x6b, 0xe4, 0x25, 0xf6, 0x3a, 0xf8,
  0x91, 0x0f, 0x1f, 0x21, 0xdc, 0xf4, 0x0d, 0x13, 0x33, 0x20, 0xb1, 0x0c,
  0x3d, 0x02, 0xfb, 0x43, 0xef, 0x8a, 0x7d, 0xd8, 0x1c, 0xfe, 0xf3, 0x12,
  0x35, 0xd0, 0xf2, 0x38, 0xb9, 0xcb, 0xf8, 0x20, 0xbe, 0x60, 0x93, 0x15,
  0x09, 0x54, 0x1c, 0xb1, 0xb8, 0x44, 0x23, 0x3d, 0xc2, 0x2f, 0xe2, 0x46,
  0xcf, 0x00, 0xb3, 0x79, 0xd5, 0x8c, 0x76, 0xf3, 0x58, 0xb7, 0x1b, 0x34,
  0xcc, 0xef, 0xd4, 0x0e, 0xd7, 0xa6, 0xfa, 0x15, 0x4d, 0xb7, 0x87, 0x8d,
  0xfd, 0x2d, 0x27, 0x18, 0x59, 0x5d, 0x10, 0xdd, 0xfa, 0xc0, 0x46, 0xc1,
  0xcb, 0x82, 0x9e, 0x81, 0x4a, 0x89, 0x6a, 0x75, 0x2b, 0xdb, 0x41, 0x4a,
  0x0b, 0xce, 0xe3, 0x69, 0x43, 0x37, 0x1e, 0x7f, 0xb6, 0xca, 0x0e, 0xca,
  0x13, 0xe7, 0x35, 0xef, 0xc0, 0x3e, 0x14, 0x26, 0xd2, 0xf2, 0x17, 0x08,
  0x10, 0xd0, 0x33, 0x24, 0x05, 0xe7, 0xcc, 0x70, 0xa1, 0xf1, 0x53, 0xc8,
  0xdc, 0xfe, 0xa9, 0x70, 0xfc, 0xfb, 0x5b, 0x97, 0x2e, 0x21, 0x38, 0x3d,
  0x58, 0x77, 0xe1, 0x30, 0xb0, 0x40, 0xd5, 0x39, 0xe1, 0x2c, 0xe6, 0x01,
  0x60, 0x2f, 0xcc, 0xc6, 0xb1, 0x6e, 0xc2, 0x31, 0xcc, 0x94, 0x08, 0xfc,
  0x98, 0xdf, 0xdf, 0x69, 0x97, 0x2d, 0x86, 0x2c, 0xff, 0xef, 0x46, 0x4f,
  0x2a, 0xb6, 0x66, 0xc8, 0x13, 0xdf, 0xe7, 0xb6, 0xd9, 0x8a, 0x34, 0x44,
  0x22, 0x5a, 0xc2, 0xc7, 0x71, 0x45, 0x1c, 0x96, 0x9b, 0x06, 0x48, 0xf0,
  0xd1, 0x83, 0x81, 0x6d, 0xfd, 0x49, 0x2b, 0x58, 0xd6, 0xa8, 0x26, 0x0e,
  0x6e, 0xae, 0x5e, 0x2b, 0x85, 0x69, 0x23, 0x12, 0xdc, 0x16, 0x06, 0x9b,
  0x03, 0x02, 0xe0, 0xec, 0x63, 0x1d, 0xe1, 0x21, 0x0b, 0x3b, 0x3a, 0xd8,
  0x6e, 0x04, 0x1f, 0x15, 0x57, 0x21, 0x02, 0xe7, 0xdc, 0x10, 0x27, 0xa6,
  0xd3, 0x6f, 0x63, 0xad, 0x17, 0xc8, 0xc7, 0x20, 0xfb, 0x39, 0x2c, 0xe0,
  0x05, 0xde, 0x84, 0x10, 0x08, 0xe0, 0xcc, 0x0c, 0x81, 0xa6, 0x64, 0xb2,
  0xfa, 0x55, 0xf3, 0xfa, 0x5b, 0x00, 0xcb, 0x18, 0xf5, 0x24, 0x56, 0x1f,
  0xef, 0x5b, 0x03, 0xdb, 0x24, 0x04, 0x14, 0x0a, 0x23, 0x3a, 0xe9, 0x3b,
  0x83, 0x15, 0x78, 0xad, 0x31, 0x4a, 0x42, 0x19, 0x50, 0x0c, 0xae, 0xf1,
  0xd0, 0xf8, 0x43, 0x51, 0xd0, 0xfb, 0x73, 0xec, 0xbb, 0x15, 0xf3, 0xcd,
  0xf9, 0x47, 0x1c, 0x6e, 0xf2, 0x15, 0x41, 0x27, 0xee, 0xf6, 0xf8, 0x5b,
  0x69, 0xda, 0x62, 0xdb, 0x0d, 0x7f, 0x27, 0x1f, 0x68, 0x24, 0x20, 0x6e,
  0x33, 0xde, 0x24, 0x1c, 0x1d, 0x2d, 0x8f, 0xe4, 0xf5, 0x35, 0xe7, 0x77,
  0xd8, 0x5f, 0x77, 0x9b, 0x86, 0xeb, 0xe9, 0x3c, 0xfd, 0x1d, 0x81, 0xa9,
  0x0c, 0x16, 0x4f, 0x1e, 0x62, 0xd3, 0x8b, 0x99, 0x0b, 0x26, 0x96, 0xf2,
  0x43, 0x1b, 0x47, 0xaa, 0x26, 0xf7, 0xa4, 0xb1, 0x41, 0xb4, 0xe8, 0x84,
  0x8f, 0x1f, 0x2e, 0xd5, 0xd3, 0xa7, 0x11, 0x71, 0x36, 0x02, 0x92, 0x65,
  0x6e, 0xf4, 0xa7, 0x0f, 0xd7, 0xd4, 0x43, 0x06, 0x27, 0x3f, 0xf3, 0x3f,
  0xfa, 0x2c, 0x2f, 0xf4, 0x36, 0x5c, 0xec, 0x13, 0x7b, 0x38, 0x14, 0xf5,
  0x4a, 0x23, 0x2e, 0x38, 0xed, 0x39, 0x7f, 0x0b, 0x1d, 0xc5, 0x1e, 0x0d,
  0xe6, 0xf5, 0xf9, 0xff, 0x54, 0x0f, 0x38, 0x1f, 0x18, 0x19, 0x54, 0xef,
  0x4a, 0xd0, 0x1c, 0x2e, 0x33, 0x10, 0x43, 0x1c, 0x13, 0xd0, 0xf1, 0x2c,
  0x53, 0x15, 0x6a, 0xd3, 0x38, 0xf0, 0xe7, 0x7d, 0x1e, 0xfa, 0x1c, 0x38,
  0x06, 0x4d, 0x00, 0xde, 0xe3, 0x0a, 0xc6, 0xf2, 0x07, 0x65, 0xe6, 0xdc,
  0xc0, 0x1d, 0x26, 0xe7, 0x46, 0x44, 0x23, 0x00, 0x67, 0x6e, 0xd1, 0x66,
  0x0d, 0xfe, 0x1f, 0x91, 0xd5, 0x67, 0x02, 0xd4, 0x2d, 0x00, 0x00, 0x70,
  0x2a, 0xf5, 0x77, 0x42, 0x65, 0x25, 0xd5, 0x27, 0xc4, 0xf7, 0xd5, 0xf7,
  0x81, 0xcd, 0x71, 0xea, 0x17, 0x28, 0x24, 0xc3, 0x05, 0x1f, 0xf5, 0x5b,
  0xca, 0xa9, 0x7f, 0x64, 0x77, 0x08, 0xf6, 0x28, 0x89, 0xfe, 0xda, 0xf8,
  0xcf, 0xa6, 0xfc, 0xa6, 0xae, 0xce, 0x41, 0xc2, 0xca, 0xd6, 0xb4, 0x27,
  0xbd, 0x68, 0x07, 0x83, 0x33, 0x99, 0xc8, 0x8c, 0x08, 0xef, 0x81, 0xe8,
  0xf0, 0x82, 0x06, 0x3e, 0xca, 0xbd, 0x6e, 0x48, 0xce, 0xb0, 0xd9, 0x86,
  0x72, 0x7c, 0xb0, 0xfc, 0x10, 0x95, 0xf4, 0xb0, 0xbf, 0x6c, 0x46, 0x6c,
  0x52, 0xef, 0x99, 0xc7, 0x81, 0xae, 0x91, 0x74, 0x50, 0x67, 0xd8, 0xfa,
  0x47, 0x4c, 0xd3, 0xe6, 0xe0, 0x08, 0x1d, 0xec, 0xb6, 0x07, 0x7e, 0xb6,
  0x1b, 0x06, 0x3a, 0x5c, 0x6b, 0x34, 0xe9, 0xc7, 0x1d, 0xcb, 0x5b, 0x6c,
  0xe0, 0x2a, 0x6f, 0xce, 0xbe, 0x3a, 0x12, 0xf4, 0xd0, 0x27, 0x39, 0x72,
  0xd5, 0x2a, 0x2f, 0xff, 0xdb, 0x40, 0x00, 0x03, 0x07, 0x3d, 0x3a, 0x0b,
  0x21, 0x7f, 0xff, 0x56, 0x3e, 0x29, 0xca, 0x1f, 0x6e, 0x4a, 0xd3, 0x63,
  0xc1, 0x8e, 0xfc, 0xf6, 0x81, 0xee, 0x56, 0x64, 0xd5, 0xd8, 0xef, 0x0d,
  0x42, 0xf2, 0xc5, 0x6c, 0x9f, 0x11, 0xb1, 0xd7, 0x88, 0x3e, 0x65, 0x2e,
  0x39, 0x12, 0xdb, 0x1a, 0x26, 0xd0, 0xe4, 0x15, 0x45, 0x1f, 0x48, 0x5a,
  0x26, 0x4c, 0xc9, 0xa5, 0x29, 0x0e, 0x43, 0xeb, 0xda, 0x00, 0xea, 0xc8,
  0x15, 0x67, 0xe0, 0xd2, 0x63, 0xf0, 0x5f, 0xb9, 0x8f, 0x11, 0x28, 0xec,
  0x00, 0xd5, 0xf3, 0xcc, 0x81, 0x96, 0x9d, 0x46, 0xa1, 0xea, 0x11, 0xdd,
  0xe7, 0x1a, 0xf8, 0xfb, 0xa2, 0x6f, 0x37, 0x5c, 0x8e, 0x14, 0xac, 0x97,
  0x06, 0x23, 0xb9, 0xf3, 0xb0, 0x34, 0xd5, 0x4e, 0xae, 0xea, 0xc6, 0x24,
  0x2a, 0xee, 0x1c, 0xc1, 0xa0, 0xbc, 0x4a, 0x1a, 0x82, 0x04, 0x26, 0x7e,
  0xc2, 0x7a, 0x06, 0xa9, 0xd9, 0x0e, 0xda, 0xb9, 0x25, 0x5b, 0x3c, 0x97,
  0x36, 0x39, 0xda, 0xa6, 0x54, 0xd7, 0x28, 0xa4, 0xd3, 0x28, 0x24, 0x13,
  0x9e, 0x2f, 0xc2, 0xe2, 0x1e, 0x47, 0x19, 0xde, 0x6b, 0xfb, 0xca, 0x2c,
  0x72, 0xfe, 0xe5, 0xee, 0xeb, 0x00, 0x44, 0x3d, 0x15, 0x24, 0x12, 0xb7,
  0xe9, 0x4c, 0xe2, 0xec, 0x53, 0x1c, 0xe0, 0x0e, 0xe9, 0x2f, 0x7f, 0xed,
  0x2c, 0x14, 0x8d, 0x6e, 0xd2, 0x01, 0xe0, 0xc6, 0xab, 0xfc, 0x1b, 0xea,
  0x1f, 0x13, 0x12, 0xa8, 0xef, 0xea, 0xed, 0x2e, 0xd5, 0xe9, 0x44, 0x0b,
  0x1c, 0xe6, 0x29, 0x3e, 0x2e, 0x1a, 0x40, 0x6c, 0xb9, 0xea, 0x44, 0xed,
  0x28, 0xde, 0x08, 0x1f, 0xc4, 0xf8, 0xf9, 0x39, 0xb8, 0x0e, 0x0d, 0xd6,
  0x0e, 0xee, 0xf3, 0x6a, 0x19, 0xb3, 0xf5, 0x12, 0xfd, 0xd5, 0x36, 0x17,
  0xcf, 0x23, 0xf4, 0x14, 0xdd, 0xe9, 0x79, 0xb6, 0x29, 0xf0, 0x40, 0x37,
  0x3c, 0x5b, 0xfd, 0xf8, 0x13, 0xff, 0xd9, 0x7f, 0xef, 0x21, 0xdd, 0xe3,
  0x0a, 0x0d, 0xa1, 0x1b, 0x54, 0x2c, 0x11, 0x4b, 0x7f, 0x0c, 0xea, 0xfb,
  0xc5, 0x39, 0x0b, 0x2d, 0x8f, 0xed, 0x6c, 0xcb, 0x22, 0x61, 0xf8, 0x13,
  0x58, 0xdd, 0xf3, 0xee, 0x04, 0x25, 0x5c, 0x1a, 0x31, 0x09, 0x1e, 0xf4,
  0x00, 0xe5, 0x51, 0xaf, 0x27, 0x32, 0xe3, 0x2b, 0x2e, 0x0d, 0x52, 0xf9,
  0xf9, 0x3c, 0xfa, 0x61, 0x50, 0x0a, 0x20, 0x2d, 0xc0, 0x64, 0xe3, 0x4d,
  0x59, 0xfd, 0x07, 0x2e, 0x78, 0x25, 0xf3, 0x6a, 0x4b, 0x7d, 0x84, 0x62,
  0x91, 0xb6, 0xf1, 0xbb, 0xa5, 0x57, 0x0d, 0x35, 0x2d, 0xfc, 0xf2, 0xa7,
  0x25, 0x90, 0x81, 0x6a, 0xdf, 0xb0, 0x99, 0x65, 0x13, 0xee, 0x96, 0xfe,
  0x14, 0xe7, 0xb7, 0xf1, 0x85, 0x2e, 0x77, 0xe7, 0x53, 0x5b, 0x0e, 0x3e,
  0x1a, 0xf7, 0xd4, 0x21, 0x31, 0xf8, 0x0c, 0x55, 0x6a, 0x06, 0x43, 0x00,
  0xcb, 0x9e, 0xf6, 0xa3, 0xb2, 0x17, 0xb4, 0x61, 0x2f, 0xde, 0xd7, 0x62,
  0xac, 0xeb, 0xe6, 0xab, 0x4e, 0x1b, 0xad, 0xa2, 0xe4, 0x69, 0xcf, 0xad,
  0x6f, 0x43, 0x41, 0x44, 0x9b, 0x9f, 0xe6, 0xea, 0x33, 0x4f, 0x70, 0xed,
  0xbd, 0x19, 0xae, 0xbd, 0x2a, 0x46, 0x85, 0x9f, 0xb9, 0xd8, 0x55, 0xdf,
  0xa8, 0xc6, 0x37, 0xd4, 0x07, 0x4f, 0x0b, 0xd6, 0x14, 0xfc, 0x8a, 0x02,
  0x43, 0xec, 0x02, 0xd5, 0x2d, 0xec, 0x81, 0x33, 0x0c, 0xf0, 0x38, 0xc9,
  0xf9, 0xe2, 0x63, 0x5f, 0xea, 0x91, 0xec, 0x81, 0x03, 0x0e, 0x0e, 0x40,
  0x55, 0x92, 0x4d, 0xab, 0xc9, 0xd1, 0x8f, 0xab, 0xda, 0x55, 0x95, 0x64,
  0xd7, 0x9a, 0xe9, 0xca, 0xcf, 0x36, 0xf6, 0x26, 0xa0, 0xd8, 0x8d, 0x2f,
  0x5f, 0x5b, 0x6e, 0xd9, 0x13, 0xef, 0x96, 0x0f, 0xaa, 0xfa, 0x3c, 0xa8,
  0x5b, 0x51, 0xdd, 0xda, 0xc2, 0x93, 0xb4, 0x0d, 0xe6, 0x60, 0xd3, 0x0d,
  0x48, 0xaf, 0x65, 0xd0, 0x9c, 0x4f, 0xd3, 0x8e, 0x4b, 0xda, 0x2c, 0x34,
  0x0c, 0x3c, 0x71, 0x79, 0x35, 0xc2, 0x24, 0xf4, 0x69, 0xd6, 0x2b, 0xf4,
  0xc9, 0xe2, 0x1f, 0x15, 0xdd, 0x27, 0x4d, 0x05, 0x05, 0x18, 0x2e, 0x6c,
  0x05, 0x13, 0x05, 0x74, 0x1d, 0xe7, 0x1f, 0x34, 0xd1, 0x02, 0xf4, 0x02,
  0xfc, 0xe7, 0x4a, 0xd1, 0x2f, 0xef, 0x51, 0x55, 0x35, 0x3a, 0xa0, 0x13,
  0x1b, 0xcd, 0x45, 0x7f, 0xfe, 0x3e, 0x0a, 0x9f, 0x0f, 0xf5, 0xbf, 0xdb,
  0xb3, 0xe2, 0x0a, 0xb6, 0xa6, 0xf1, 0x41, 0xdb, 0x0f, 0x3b, 0xc9, 0xf1,
  0x2d, 0x8a, 0xc4, 0xb0, 0xc5, 0x3a, 0xf8, 0xeb, 0x73, 0x8a, 0x2d, 0x35,
  0x7a, 0x9f, 0x5b, 0xb0, 0xfc, 0xbb, 0xea, 0x23, 0x5a, 0x72, 0x59, 0x5d,
  0x58, 0x81, 0xc4, 0xfa, 0x8e, 0x1b, 0xfa, 0xe3, 0x1b, 0x0c, 0xcb, 0x1c,
  0xed, 0x33, 0x61, 0x38, 0x1a, 0x07, 0x7d, 0x08, 0x05, 0x29, 0x41, 0x6b,
  0xac, 0x0d, 0x7b, 0xd2, 0x83, 0xf5, 0xac, 0x54, 0x9e, 0x49, 0x94, 0xfd,
  0x65, 0xba, 0x1f, 0xb9, 0x0a, 0xed, 0x93, 0x24, 0xb3, 0x95, 0xce, 0x47,
  0x0c, 0x55, 0x5f, 0x04, 0x46, 0xca, 0x1d, 0x2a, 0x02, 0x1f, 0x08, 0x63,
  0x43, 0xdb, 0x18, 0xcd, 0x01, 0x90, 0xd5, 0x51, 0xc6, 0x18, 0xfd, 0xb0,
  0x81, 0x58, 0xc4, 0xae, 0x65, 0x5a, 0xf5, 0x56, 0xb6, 0xff, 0xca, 0x8f,
  0x60, 0x00, 0xf6, 0x8c, 0x1b, 0x91, 0x77, 0xab, 0xf0, 0x10, 0xff, 0x23,
  0x3a, 0x28, 0xbb, 0x44, 0xbd, 0x1b, 0x7c, 0xfb, 0xd8, 0xb1, 0x26, 0xa4,
  0x0b, 0xfe, 0x16, 0x6f, 0xf5, 0x81, 0x03, 0x0c, 0x49, 0xc2, 0x28, 0x4f,
  0x2d, 0xf0, 0x4e, 0xbc, 0xfe, 0x46, 0x3a, 0x0c, 0xda, 0xde, 0xc3, 0x37,
  0x97, 0x17, 0x72, 0x1a, 0x18, 0x7d, 0x04, 0x60, 0x63, 0x5a, 0x1b, 0x2b,
  0x8a, 0x5b, 0x91, 0x52, 0x04, 0x0e, 0x39, 0x29, 0x00, 0x7b, 0xe6, 0x60,
  0x4e, 0xf4, 0xff, 0xff, 0x04, 0x00, 0x00, 0x00, 0x00, 0x08, 0x00, 0x00,
  0xbf, 0xbd, 0xad, 0xbe, 0xfd, 0xa5, 0x10, 0xbe, 0xc0, 0x3e, 0xce, 0x3c,
  0x06, 0xc7, 0x99, 0xbe, 0x4e, 0xab, 0x4d, 0xbe, 0x7a, 0xe4, 0x1d, 0xbe,
  0x80, 0x36, 0x80, 0xbc, 0x2c, 0xdb, 0xa1, 0xbe, 0xc0, 0x4e, 0x59, 0xbd,
  0x5e, 0x93, 0xfc, 0x3e, 0x08, 0x0b, 0x85, 0xbd, 0x63, 0x07, 0x32, 0xbe,
  0xb5, 0xbe, 0x3b, 0x3e, 0xd7, 0x87, 0x98, 0x3e, 0xb4, 0x1a, 0x80, 0x3e,
  0xa5, 0xf7, 0x20, 0xbd, 0x8f, 0xfa, 0xd7, 0x3e, 0x8e, 0x28, 0xfb, 0x3e,
  0xe2, 0x24, 0x88, 0xbe, 0x25, 0x48, 0xd7, 0x3e, 0xd6, 0x66, 0xe0, 0xbe,
  0x42, 0xa9, 0x5c, 0x3e, 0xfa, 0xa5, 0x9f, 0x3e, 0x78, 0x91, 0x25, 0xbf,
  0x1a, 0xfd, 0x8a, 0xbd, 0x7c, 0x2a, 0x50, 0xbe, 0x0f, 0x06, 0x0b, 0xbe,
  0xd7, 0xff, 0xa7, 0xbe, 0xaa, 0xfa, 0x11, 0xbe, 0xed, 0xfe, 0xa5, 0x3e,
  0x7c, 0x82, 0xa8, 0xbe, 0x1f, 0xa8, 0x5e, 0x3e, 0x0a, 0x51, 0xb3, 0xbe,
  0xc4, 0x1c, 0x88, 0xbd, 0x06, 0x8b, 0x73, 0x3e, 0x9d, 0x8b, 0xb4, 0xbd,
  0x97, 0x53, 0x25, 0xbf, 0xe0, 0xc5, 0xe7, 0xbc, 0xf0, 0x0c, 0x5d, 0xbe,
  0x95, 0x2c, 0x40, 0xbc, 0x88, 0xa1, 0xa4, 0xbe, 0x2f, 0xac, 0x23, 0xbe,
  0x3a, 0xfa, 0x68, 0x3e, 0xe5, 0x36, 0x9d, 0xbd, 0x24, 0x9e, 0x2b, 0xbe,
  0x64, 0x5a, 0x8e, 0xbe, 0x62, 0xad, 0xe3, 0xbd, 0x3c, 0xc7, 0xee, 0xbc,
  0xf1, 0x6c, 0x38, 0xbe, 0x76, 0xba, 0xdf, 0xbe, 0x90, 0x9c, 0xeb, 0x3d,
  0x3a, 0x58, 0xe3, 0x3e, 0x41, 0x67, 0xec, 0xbe, 0x3c, 0x50, 0xd6, 0x3d,
  0x2e, 0x62, 0x00, 0xbf, 0x52, 0x71, 0xca, 0x3e, 0xb2, 0xe2, 0x98, 0x3e,
  0xe4, 0x78, 0x9f, 0x3d, 0xc6, 0x47, 0xda, 0xbd, 0x24, 0x7d, 0xb2, 0x3e,
  0x3b, 0xb2, 0xe1, 0x3e, 0x58, 0x98, 0x99, 0xbd, 0xbb, 0x72, 0x93, 0x3e,
  0x10, 0x39, 0x59, 0x3e, 0x10, 0xdf, 0x87, 0xbd, 0xbb, 0x4f, 0xac, 0xbe,
  0x33, 0x07, 0x3a, 0xbe, 0x02, 0x76, 0x9b, 0xbe, 0x57, 0x3c, 0x22, 0xbc,
  0xc5, 0x91, 0xa3, 0x3e, 0xf4, 0xdb, 0xc7, 0x3d, 0x51, 0xe8, 0xa4, 0x3e,
  0x36, 0xe0, 0x06, 0xbe, 0x3d, 0xd3, 0xdd, 0xbe, 0x7c, 0x9f, 0xe9, 0xbd,
  0x30, 0x9f, 0xe1, 0x3d, 0xcd, 0x3c, 0x35, 0xbe, 0xb7, 0x3f, 0x58, 0x3e,
  0xc3, 0xd3, 0x3a, 0xbe, 0x8c, 0x74, 0x9e, 0x3c, 0x87, 0x1a, 0x2a, 0x3e,
  0x0e, 0xb5, 0x4e, 0x3e, 0x3f, 0x8a, 0x55, 0xbe, 0x28, 0x9c, 0x16, 0xbe,
  0xe2, 0x44, 0x37, 0x3e, 0xe3, 0x03, 0x98, 0xbe, 0x18, 0x1a, 0x09, 0x3f,
  0x59, 0xd1, 0x50, 0xbe, 0x94, 0x19, 0xd5, 0xbe, 0xee, 0xc7, 0x3a, 0x3e,
  0xcb, 0x02, 0xad, 0xbe, 0x1e, 0xf8, 0xca, 0x3d, 0xfa, 0x93, 0x9f, 0xbd,
  0x30, 0x85, 0xbc, 0xbd, 0x31, 0x31, 0xa1, 0x3e, 0x53, 0xc8, 0x93, 0x3e,
  0x11, 0xef, 0x8d, 0x3e, 0x2e, 0x65, 0x61, 0x3e, 0x02, 0x0f, 0x77, 0x3e,
  0x3d, 0x75, 0xa3, 0x3e, 0xf7, 0xd8, 0xdd, 0xbe, 0x68, 0x5f, 0x74, 0x3d,
  0xde, 0x65, 0x5c, 0x3e, 0xa2, 0xad, 0x37, 0x3e, 0x80, 0x73, 0x29, 0x3d,
  0x9a, 0x9d, 0x86, 0xbe, 0xce, 0x6b, 0x4a, 0x3e, 0x56, 0xb0, 0x8e, 0x3e,
  0x25, 0x5c, 0x09, 0xbe, 0xfc, 0x42, 0xfb, 0xbe, 0xa7, 0x7b, 0x87, 0x3e,
  0xbc, 0x23, 0x41, 0x3e, 0xf9, 0x02, 0x79, 0x3e, 0xdb, 0x73, 0xf4, 0x3b,
  0xe4, 0x17, 0xb7, 0xbd, 0xcd, 0xb0, 0xa7, 0x3e, 0x02, 0x12, 0x3a, 0x3e,
  0xce, 0x09, 0x61, 0x3e, 0xfe, 0xe7, 0xf7, 0xbe, 0x7a, 0x18, 0xc0, 0x3e,
  0x5e, 0x79, 0xd3, 0x3e, 0x53, 0x0b, 0x0d, 0xbe, 0xa3, 0xa7, 0x55, 0xbe,
  0x48, 0xbd, 0x40, 0xbe, 0x33, 0x24, 0x80, 0x3e, 0x20, 0xb4, 0x04, 0x3e,
  0xc4, 0x29, 0x9d, 0xbe, 0x56, 0x08, 0x61, 0x3e, 0xb6, 0xf6, 0x4b, 0x3e,
  0x5a, 0xcb, 0xb2, 0xbe, 0xdf, 0x1d, 0x83, 0xbe, 0x64, 0xe8, 0x52, 0x3e,
  0x8b, 0xb3, 0x30, 0x3e, 0x65, 0xb9, 0x89, 0xbe, 0xf0, 0x8a, 0xdc, 0x3c,
  0xa0, 0x09, 0x66, 0xbe, 0xf2, 0x89, 0x95, 0x3e, 0xc3, 0x4c, 0xa7, 0x3e,
  0x91, 0xab, 0x9d, 0x3e, 0x4b, 0x55, 0x15, 0xbf, 0xae, 0x4a, 0xf6, 0xbd,
  0x2f, 0xa7, 0x50, 0x3e, 0xae, 0x50, 0x25, 0x3e, 0xe0, 0x41, 0xe4, 0xbc,
  0x00, 0x85, 0xad, 0x3e, 0xad, 0xc7, 0x8d, 0x3e, 0xc7, 0xb2, 0xaa, 0xbe,
  0xbd, 0xb7, 0xd2, 0x3d, 0x4d, 0xd1, 0x1f, 0xbe, 0xda, 0xd0, 0x59, 0x3e,
  0x8e, 0xa2, 0x3e, 0xbd, 0x32, 0x8d, 0xf3, 0xbe, 0x17, 0xd5, 0xef, 0x3e,
  0x64, 0xb9, 0xb0, 0x3d, 0xbe, 0x3a, 0x0a, 0x3e, 0x64, 0xcc, 0xac, 0xbe,
  0xd2, 0xbb, 0x50, 0xbe, 0x85, 0x4e, 0x85, 0x3e, 0xb0, 0x3e, 0x79, 0xbe,
  0x22, 0x6a, 0x17, 0xbe, 0x61, 0xe9, 0x93, 0xbe, 0x7a, 0x7b, 0x39, 0x3e,
  0xec, 0x03, 0xa0, 0xbe, 0xb5, 0x61, 0xb2, 0xbc, 0x5e, 0xa2, 0xe8, 0x3e,
  0x44, 0x04, 0x0a, 0x3e, 0xaf, 0xb9, 0xa0, 0x3e, 0xc9, 0xa8, 0xe1, 0x3e,
  0xe0, 0x0e, 0xd8, 0x3c, 0xba, 0xf3, 0xdd, 0xbe, 0x23, 0xf0, 0x66, 0xbe,
  0x42, 0x4b, 0xef, 0xbe, 0xaf, 0x1c, 0x87, 0x3e, 0xea, 0xc7, 0xa0, 0xbe,
  0x40, 0x91, 0x23, 0xbf, 0x2a, 0x7b, 0xc9, 0xbd, 0x75, 0xd3, 0xff, 0x3e,
  0x68, 0x3d, 0x66, 0x3e, 0x56, 0x93, 0x70, 0x3e, 0xb8, 0xa5, 0x0a, 0xbf,
  0x20, 0xa3, 0xec, 0x3e, 0x72, 0xe1, 0x26, 0xbe, 0x28, 0x8f, 0x91, 0x3e,
  0x06, 0x9b, 0x22, 0x3e, 0x4f, 0x0d, 0x01, 0xbf, 0xce, 0x53, 0x19, 0xbe,
  0x40, 0x4f, 0xb2, 0x3c, 0x9c, 0x29, 0x0b, 0xbe, 0x1b, 0xdf, 0xe2, 0x3e,
  0x23, 0xec, 0x8c, 0x3e, 0x2e, 0x19, 0xa8, 0xbe, 0x4d, 0x3b, 0xa4, 0xbe,
  0xc3, 0xb2, 0xab, 0xbe, 0x60, 0x2b, 0xad, 0x3c, 0xbf, 0x54, 0x41, 0xbe,
  0x79, 0xa2, 0xc1, 0x3d, 0x0b, 0xec, 0x4b, 0xbd, 0x60, 0x15, 0xd5, 0xbc,
  0x1f, 0x3e, 0x38, 0xbe, 0x9a, 0x81, 0xb8, 0x3d, 0x9c, 0x9d, 0x9b, 0x3e,
  0x5e, 0x21, 0xc3, 0x3e, 0x96, 0xed, 0x7c, 0x3e, 0x02, 0xd1, 0xd0, 0xbe,
  0x43, 0x3c, 0x80, 0x3e, 0x7c, 0x20, 0xcf, 0x3e, 0x28, 0x74, 0x04, 0x3f,
  0x91, 0x44, 0xbf, 0x3d, 0x0b, 0x46, 0x10, 0xbd, 0xd1, 0xf5, 0xdb, 0x3e,
  0x00, 0xb4, 0x10, 0x3e, 0x83, 0x1c, 0xb9, 0x3e, 0x1f, 0x3f, 0x6a, 0xbe,
  0xa0, 0xf0, 0x61, 0xbe, 0x49, 0xc4, 0x8c, 0xbd, 0x3f, 0xcf, 0x47, 0xbe,
  0x59, 0xb7, 0x05, 0x3f, 0xd0, 0x1d, 0x82, 0xbd, 0x4f, 0xae, 0xab, 0x3d,
  0x9e, 0x19, 0x7a, 0x3e, 0x7d, 0x06, 0xcb, 0xbc, 0xf3, 0xa7, 0x8f, 0x3e,
  0x1d, 0xfc, 0x83, 0x3e, 0xf7, 0xad, 0x5b, 0xbe, 0x00, 0x2d, 0x11, 0xbe,
  0x14, 0x35, 0x84, 0xbe, 0x7e, 0x46, 0x5a, 0x3e, 0x64, 0x41, 0x26, 0xbe,
  0xff, 0xa1, 0x42, 0x3e, 0x33, 0x8d, 0xaa, 0x3e, 0x40, 0x8e, 0x96, 0x3c,
  0x94, 0xff, 0x44, 0x3e, 0x09, 0x25, 0x5e, 0x3e, 0x87, 0x95, 0xa9, 0x3e,
  0x48, 0x95, 0xdf, 0x3d, 0xb5, 0x6e, 0xc1, 0xbe, 0xac, 0x0d, 0x5c, 0xbe,
  0xd4, 0x21, 0xfd, 0x3e, 0x76, 0x77, 0xdc, 0x3d, 0xc5, 0x9e, 0x34, 0x3e,
  0xd6, 0xbd, 0x0b, 0x3f, 0xb7, 0x60, 0x79, 0x3d, 0xf2, 0x16, 0x33, 0xbe,
  0xbc, 0x37, 0x2c, 0xbe, 0x3f, 0x64, 0x73, 0x3e, 0x30, 0x38, 0x60, 0xbe,
  0x10, 0xd5, 0x8b, 0x3b, 0x43, 0x55, 0x1f, 0xbe, 0x38, 0xae, 0x4b, 0x3e,
  0x40, 0x8f, 0xdb, 0x3b, 0xf6, 0x80, 0x44, 0x3e, 0x25, 0xb6, 0x0f, 0xbe,
  0x07, 0xd4, 0x9f, 0x3e, 0x00, 0xf9, 0x23, 0x3c, 0x03, 0xc8, 0x76, 0xbe,
  0xde, 0x45, 0xa0, 0xbe, 0xfd, 0xc7, 0x89, 0x3e, 0xf7, 0x2c, 0xa9, 0xbe,
  0x5c, 0x2c, 0xd6, 0x3d, 0xfa, 0x5f, 0x33, 0x3e, 0x9e, 0x40, 0xda, 0xbd,
  0x2b, 0x61, 0x83, 0x3e, 0x44, 0x8d, 0xae, 0x3d, 0xbf, 0x9d, 0x53, 0xbe,
  0x94, 0xb0, 0xfd, 0xbd, 0xd1, 0x07, 0xa7, 0xbe, 0xaa, 0x99, 0x46, 0x3e,
  0x58, 0x8e, 0xf4, 0x3d, 0xa8, 0x6b, 0x83, 0xbd, 0xf1, 0xca, 0x78, 0xbe,
  0xf0, 0x4a, 0x2c, 0xbd, 0x30, 0xfe, 0x26, 0x3d, 0x0a, 0x44, 0x8a, 0xbe,
  0xe4, 0xeb, 0xd6, 0xbd, 0x60, 0xf5, 0x0d, 0x3e, 0x5a, 0x18, 0x13, 0x3e,
  0x86, 0x81, 0x76, 0x3e, 0x94, 0x87, 0xdc, 0x3d, 0xfa, 0xee, 0x98, 0xbe,
  0x40, 0xb2, 0x69, 0xbe, 0x42, 0xd8, 0x42, 0x3e, 0xcc, 0x00, 0xe2, 0x3d,
  0xa3, 0x73, 0xaa, 0x3e, 0xce, 0x40, 0xa3, 0xbe, 0x26, 0x04, 0x58, 0xbe,
  0xc5, 0x7b, 0x1f, 0xbe, 0x10, 0xde, 0xd4, 0x3c, 0xf0, 0x39, 0x42, 0xbe,
  0xa4, 0xef, 0x8c, 0x3d, 0xf0, 0xfd, 0xed, 0x3c, 0x6f, 0xf1, 0x9d, 0x3e,
  0xfc, 0x7d, 0x87, 0x3e, 0x9b, 0xd3, 0xa3, 0x3e, 0xe8, 0xe8, 0xe2, 0x3d,
  0xb0, 0xea, 0x4e, 0xbd, 0x63, 0xdb, 0xd7, 0x3e, 0x3b, 0x15, 0xf4, 0xbc,
  0x21, 0x7b, 0xab, 0x3e, 0x54, 0x4d, 0xaf, 0xbe, 0x16, 0x7d, 0xc9, 0x3e,
  0x30, 0xa2, 0x04, 0x3d, 0x1a, 0x0f, 0x9e, 0xbe, 0x0c, 0x4c, 0x00, 0x3f,
  0xf4, 0x6e, 0x54, 0x3e, 0xfc, 0x78, 0xa3, 0xbb, 0x22, 0x8f, 0xd0, 0x3e,
  0x6d, 0x30, 0x15, 0xbe, 0xe1, 0xed, 0x57, 0xbc, 0xe3, 0x81, 0x22, 0x3e,
  0x98, 0x3c, 0xb0, 0x3d, 0x6c, 0xfb, 0x0f, 0xbe, 0x84, 0x67, 0x7c, 0xbc,
  0x7e, 0xf8, 0xe3, 0x3d, 0x19, 0x79, 0x96, 0x3e, 0x2f, 0x13, 0x24, 0xbe,
  0x20, 0xbf, 0xed, 0xbd, 0x75, 0xbe, 0x1a, 0x3d, 0xd0, 0x7c, 0xee, 0x3c,
  0x3d, 0x78, 0x01, 0xbe, 0xc7, 0x33, 0xb0, 0xbe, 0x6d, 0xfd, 0x83, 0x3e,
  0x40, 0xe9, 0x7c, 0xbd, 0xb9, 0x75, 0x3b, 0xbe, 0x8b, 0x7a, 0x94, 0x3e,
  0x95, 0x17, 0x74, 0xbe, 0xb5, 0x3f, 0x82, 0x3e, 0x95, 0x5d, 0x89, 0x3e,
  0x48, 0x32, 0x81, 0x3b, 0x04, 0xe5, 0x9b, 0xbd, 0x56, 0x27, 0x5f, 0xbe,
  0x40, 0x34, 0x11, 0xbd, 0xb8, 0xa2, 0x89, 0x3d, 0x2d, 0x1a, 0x5b, 0xbe,
  0xf6, 0xde, 0x77, 0x3e, 0x8f, 0x56, 0xe3, 0xbd, 0xa6, 0x2c, 0x3d, 0x3e,
  0xde, 0xf6, 0xaf, 0xbe, 0x24, 0x27, 0xac, 0x3e, 0x31, 0x96, 0xab, 0xbe,
  0xf9, 0xb0, 0x9e, 0x3e, 0x72, 0x51, 0xeb, 0x3d, 0xfa, 0x6b, 0x6a, 0xbe,
  0x3d, 0x56, 0x1a, 0xbe, 0xc1, 0x7b, 0x40, 0xbe, 0xe8, 0x8d, 0x32, 0xbe,
  0xf3, 0x51, 0xa1, 0x3e, 0x35, 0x79, 0x13, 0x3d, 0x40, 0x57, 0x09, 0x3e,
  0xbf, 0x29, 0x7a, 0xbe, 0x07, 0x6f, 0xa2, 0xbe, 0x46, 0x81, 0x0a, 0xbe,
  0x6e, 0x0f, 0x46, 0x3e, 0x82, 0x67, 0x51, 0x3e, 0x60, 0x33, 0xca, 0x3c,
  0xa4, 0x49, 0xb6, 0xbd, 0xf0, 0x5a, 0x82, 0x3e, 0xd6, 0x49, 0x5b, 0x3e,
  0x20, 0xfe, 0x25, 0x3d, 0x4f, 0x96, 0x95, 0x3e, 0xa5, 0x82, 0x4a, 0xbd,
  0x19, 0x82, 0x1e, 0x3e, 0xf4, 0x7a, 0x4c, 0xbe, 0xa1, 0x42, 0x81, 0xbe,
  0x0f, 0xec, 0x2d, 0x3f, 0xaa, 0x67, 0x77, 0x3e, 0xae, 0x43, 0xce, 0xbe,
  0x53, 0x59, 0x97, 0x3e, 0xec, 0x8e, 0x74, 0x3e, 0xf5, 0xe0, 0x97, 0x3e,
  0xc8, 0xff, 0x9b, 0xbe, 0xe2, 0xdf, 0x46, 0x3e, 0xdc, 0x1c, 0x05, 0x3f,
  0x5d, 0xf9, 0xd8, 0xbe, 0xf4, 0x60, 0xe4, 0x3d, 0x0e, 0x9a, 0x30, 0xbf,
  0xe6, 0xed, 0x11, 0x3f, 0xe4, 0xed, 0x12, 0x3e, 0x2e, 0x0b, 0x56, 0x3e,
  0x22, 0x74, 0x8e, 0x3e, 0x92, 0x62, 0x68, 0xbe, 0xcc, 0xd6, 0xda, 0x3e,
  0x56, 0x50, 0x61, 0x3e, 0x8a, 0x0b, 0xef, 0xbd, 0x82, 0x7f, 0xa2, 0x3e,
  0xe2, 0xdf, 0x52, 0x3e, 0x1b, 0x1e, 0x93, 0x3e, 0xe2, 0xa6, 0x5a, 0xbe,
  0xd0, 0x8f, 0x06, 0xbe, 0xc0, 0x10, 0x44, 0xbd, 0xe2, 0xa9, 0x2b, 0x3e,
  0xae, 0x34, 0x5c, 0x3e, 0xd5, 0x40, 0x4e, 0xbe, 0x80, 0xab, 0xb5, 0xbc,
  0x9f, 0x7c, 0x58, 0xbe, 0x44, 0xdb, 0x75, 0xbe, 0x10, 0x2a, 0x66, 0x3d,
  0x40, 0x94, 0x15, 0x3c, 0xd0, 0x5c, 0x25, 0x3d, 0xdc, 0xe3, 0x15, 0x3e,
  0xa0, 0xb5, 0xb3, 0xbc, 0xca, 0xeb, 0xfa, 0xbd, 0x4a, 0x11, 0xab, 0xbe,
  0xc8, 0xd8, 0x8d, 0xbe, 0x70, 0xc3, 0x4f, 0xbd, 0x50, 0xf3, 0x53, 0x3d,
  0x46, 0x7d, 0x56, 0x3e, 0x20, 0x9b, 0x75, 0x3d, 0xb0, 0x76, 0x19, 0xbd,
  0x0c, 0xa9, 0x84, 0xbe, 0xaa, 0x06, 0x54, 0xbe, 0x42, 0xe3, 0xe5, 0xbd,
  0x0a, 0x3b, 0x50, 0x3e, 0xf8, 0x02, 0x47, 0x3d, 0xc5, 0xb3, 0x22, 0xbe,
  0xca, 0x96, 0x8f, 0xbe, 0x90, 0xf7, 0xb8, 0xbc, 0x1e, 0x1d, 0x04, 0x3e,
  0x17, 0xae, 0x9a, 0xbe, 0xea, 0xf7, 0x55, 0x3e, 0x10, 0x96, 0x66, 0x3e,
  0xf2, 0x75, 0x63, 0x3e, 0xe4, 0x01, 0x3b, 0xbe, 0xa5, 0x41, 0xb2, 0xbe,
  0xce, 0x28, 0x28, 0x3e, 0x0c, 0xbd, 0x2a, 0x3e, 0xd7, 0xbf, 0xf2, 0x3d,
  0x52, 0x7b, 0x6f, 0x3e, 0x65, 0x5f, 0x29, 0x3f, 0xdb, 0x4b, 0x20, 0x3e,
  0x1e, 0xeb, 0xb9, 0xbe, 0x6e, 0xdc, 0xa4, 0xbe, 0xb4, 0x9b, 0xe3, 0x3d,
  0x34, 0x61, 0x19, 0x3d, 0xd4, 0xf2, 0x4b, 0xbe, 0xce, 0x57, 0x1e, 0x3e,
  0x4b, 0x86, 0x28, 0xbe, 0x23, 0xa0, 0x69, 0x3e, 0x67, 0xe3, 0x85, 0x3e,
  0xcd, 0xb1, 0xff, 0xbe, 0x7a, 0x2b, 0x0c, 0x3f, 0x67, 0x35, 0x35, 0x3e,
  0x7c, 0x47, 0x67, 0xbe, 0xba, 0xa2, 0xaa, 0x3e, 0xbc, 0xa8, 0x7e, 0xbd,
  0xf6, 0x3b, 0x9f, 0x3e, 0xa1, 0xbb, 0x8c, 0x3e, 0x5c, 0x0b, 0xa3, 0x3d,
  0x28, 0xdd, 0x20, 0xbc, 0x26, 0x0b, 0x00, 0xbe, 0xab, 0x5a, 0xa7, 0x3e,
  0xbe, 0x76, 0x3b, 0x3e, 0x63, 0x61, 0xcd, 0xbd, 0x26, 0x83, 0x8b, 0xbd,
  0xd8, 0x15, 0xd8, 0xbd, 0x28, 0x07, 0x25, 0xbd, 0x07, 0x16, 0x6a, 0x3d,
  0x72, 0x39, 0x48, 0x3e, 0xe6, 0x8d, 0x43, 0x3e, 0x4c, 0x20, 0x88, 0xbd,
  0xeb, 0x13, 0x92, 0x3e, 0x70, 0xe0, 0xc1, 0x3d, 0x91, 0x77, 0xae, 0x3c,
  0x4b, 0xf3, 0x2f, 0x3f, 0xec, 0x8f, 0x99, 0xbe, 0xc9, 0x4e, 0xc6, 0x3d,
  0xad, 0xd6, 0x2a, 0x3e, 0xbf, 0x87, 0x6b, 0xbe, 0x93, 0xeb, 0x9a, 0x3e,
  0x06, 0x47, 0xf7, 0xbe, 0x9d, 0x14, 0x9a, 0x3e, 0xa3, 0xdb, 0x21, 0xbe,
  0xa6, 0xc8, 0x5b, 0x3e, 0x54, 0x71, 0x2b, 0x3f, 0x62, 0x88, 0x5c, 0x3e,
  0x57, 0xe6, 0x81, 0xbe, 0xaf, 0x6c, 0x30, 0xbd, 0x1d, 0x31, 0x5b, 0x3d,
  0x70, 0xfd, 0xff, 0xbc, 0x10, 0x39, 0xab, 0xbd, 0x6e, 0x4b, 0x92, 0x3e,
  0x71, 0x6e, 0xa8, 0x3e, 0x84, 0x82, 0xbb, 0xbd, 0xb2, 0xa3, 0x8b, 0xbe,
  0x44, 0x71, 0x83, 0xbe, 0x22, 0x45, 0xde, 0xbe, 0xb8, 0x0b, 0x03, 0x3d,
  0x4a, 0xf2, 0xb4, 0xbe, 0xd4, 0x5d, 0x33, 0xbe, 0x10, 0x14, 0xf3, 0x3c,
  0xe5, 0xea, 0x65, 0xbe, 0xec, 0xbf, 0xe1, 0x3d, 0x6f, 0x28, 0x04, 0xbd,
  0x49, 0x72, 0x87, 0xbe, 0xae, 0x48, 0xb2, 0xbe, 0xf3, 0x09, 0x9c, 0x3e,
  0x6b, 0xf9, 0x9f, 0x3e, 0x10, 0x86, 0x0d, 0xbe, 0xef, 0x8d, 0x05, 0xbf,
  0x28, 0x19, 0x56, 0x3d, 0x47, 0x54, 0xa4, 0x3e, 0xb2, 0xe3, 0xba, 0xbe,
  0x80, 0xc2, 0x80, 0x3c, 0x9b, 0xad, 0x99, 0xbd, 0x44, 0xdc, 0x48, 0x3d,
  0xe0, 0x53, 0xf2, 0x3e, 0xb4, 0x6e, 0xf1, 0x3d, 0x5c, 0x9a, 0x2d, 0x3e,
  0x58, 0x44, 0xcb, 0x3d, 0xf1, 0x90, 0xa0, 0x3d, 0xc6, 0x03, 0x59, 0x3e,
  0xf0, 0xea, 0x8b, 0xbe, 0xff, 0x7a, 0xa5, 0x3e, 0x5a, 0xfc, 0xff, 0xff,
  0x04, 0x00, 0x00, 0x00, 0x00, 0x01, 0x00, 0x00, 0x2d, 0x41, 0x32, 0x3f,
  0xc7, 0x64, 0x1e, 0xbe, 0x4b, 0x92, 0x55, 0xbe, 0x5c, 0xe9, 0x11, 0xbf,
  0xaa, 0x17, 0x8f, 0x3e, 0xc2, 0x46, 0x1e, 0xbf, 0x49, 0x0b, 0x30, 0x3f,
  0xb8, 0x6a, 0xdf, 0x3c, 0x14, 0x38, 0xe8, 0xbe, 0xa4, 0xa9, 0x53, 0x3e,
  0xc9, 0x20, 0x47, 0x3e, 0xfc, 0xc3, 0xa8, 0xbe, 0x04, 0x64, 0x4f, 0x3e,
  0x74, 0xbf, 0x65, 0xbf, 0x7d, 0x30, 0x1f, 0x3f, 0x67, 0xe3, 0xe5, 0xbe,
  0x81, 0x40, 0x7b, 0x3e, 0x32, 0x5a, 0xb8, 0x3e, 0xba, 0x56, 0x92, 0x3e,
  0xa3, 0xe7, 0x03, 0x3f, 0x52, 0x54, 0x24, 0xbf, 0xed, 0x91, 0x02, 0xbf,
  0xd9, 0x05, 0x8b, 0xbe, 0x56, 0xdc, 0x60, 0xbf, 0xc4, 0xcd, 0xaf, 0x3e,
  0x8a, 0xe3, 0x33, 0xbf, 0x81, 0xb5, 0x48, 0x3e, 0x76, 0x96, 0xbc, 0x3e,
  0x7c, 0x80, 0x55, 0x3e, 0xa4, 0x0f, 0xae, 0x3d, 0x38, 0x25, 0x14, 0x3f,
  0x52, 0x50, 0x1e, 0x3f, 0xf5, 0xf0, 0x1c, 0x3d, 0x3d, 0x28, 0xa1, 0xbe,
  0x78, 0x9f, 0xfe, 0x3e, 0xef, 0x97, 0x13, 0xbf, 0xb4, 0x99, 0x39, 0xbf,
  0x99, 0x81, 0x46, 0x3f, 0x28, 0x72, 0x3b, 0xbf, 0x13, 0xcc, 0xa9, 0xbc,
  0xa0, 0x5a, 0xdd, 0x3e, 0x2e, 0x3c, 0x22, 0x3e, 0x3d, 0x9e, 0x04, 0xbe,
  0x38, 0xf9, 0x29, 0xbf, 0xf0, 0x3d, 0xb1, 0x3e, 0x26, 0x55, 0x85, 0x3e,
  0xdc, 0xab, 0x55, 0xbf, 0xd3, 0x04, 0xfd, 0xbd, 0x22, 0x17, 0x9d, 0xbe,
  0x31, 0x42, 0xc8, 0xbe, 0xaa, 0x15, 0x28, 0xbf, 0xba, 0x40, 0x15, 0x3d,
  0x2f, 0x7e, 0x2f, 0xbf, 0x43, 0x9a, 0x76, 0xbe, 0x07, 0x9e, 0x2a, 0xbe,
  0x1e, 0x82, 0x1c, 0xbe, 0x62, 0x3d, 0x97, 0x3e, 0x0e, 0x01, 0x0f, 0x3f,
  0xfb, 0x95, 0xda, 0x3e, 0xbd, 0xfc, 0x14, 0x3f, 0x5a, 0x94, 0x9f, 0xbe,
  0x75, 0x2c, 0x2d, 0x3f, 0xb9, 0xae, 0xac, 0x3e, 0xdd, 0xa7, 0x83, 0xbf,
  0x66, 0xfd, 0xff, 0xff, 0x04, 0x00, 0x00, 0x00, 0x10, 0x00, 0x00, 0x00,
  0xf7, 0xcd, 0xae, 0x3b, 0x62, 0x92, 0x97, 0xbd, 0xa3, 0x1b, 0xb5, 0x3d,
  0x96, 0x8c, 0x52, 0xbd, 0x82, 0xfd, 0xff, 0xff, 0x04, 0x00, 0x00, 0x00,
  0x40, 0x00, 0x00, 0x00, 0x86, 0x37, 0x10, 0x3d, 0x8b, 0xc6, 0x81, 0x3d,
  0x2d, 0x75, 0x50, 0x3d, 0x25, 0x43, 0xc5, 0xbb, 0xbd, 0xfb, 0x57, 0x3c,
  0x0e, 0x81, 0xf2, 0x3d, 0xa0, 0xed, 0xeb, 0xbc, 0xeb, 0xbc, 0x15, 0x3e,
  0x00, 0x00, 0x00, 0x00, 0xcc, 0xbf, 0x8e, 0x3d, 0x07, 0x3a, 0xf8, 0xbb,
  0x70, 0xed, 0x1c, 0xbc, 0x00, 0x00, 0x00, 0x00, 0xf2, 0x1f, 0x7c, 0x3c,
  0x77, 0x21, 0xb9, 0x3d, 0xba, 0xfc, 0x66, 0x3d, 0xce, 0xfd, 0xff, 0xff,
  0x04, 0x00, 0x00, 0x00, 0x80, 0x00, 0x00, 0x00, 0x00, 0x00, 0x00, 0x00,
  0x00, 0x00, 0x00, 0x00, 0x00, 0x00, 0x00, 0x00, 0xc1, 0xdd, 0xfe, 0xbc,
  0xde, 0xec, 0x05, 0x3e, 0x00, 0x00, 0x00, 0x00, 0x00, 0x00, 0x00, 0x00,
  0x5b, 0xef, 0x19, 0x3e, 0xd2, 0xe7, 0x2e, 0xbc, 0xe4, 0x02, 0x35, 0xbd,
  0x00, 0x00, 0x00, 0x00, 0x66, 0x5d, 0x92, 0x3d, 0xa0, 0xdf, 0x97, 0xbc,
  0xf7, 0x71, 0xc8, 0xbb, 0xc8, 0xa7, 0x71, 0x3b, 0x79, 0x38, 0x28, 0xbd,
  0xe6, 0xc7, 0x15, 0x3e, 0x01, 0x46, 0xf4, 0x3d, 0x00, 0x00, 0x00, 0x00,
  0x0f, 0x05, 0xb5, 0x3c, 0xcf, 0xe2, 0xe1, 0x3d, 0x00, 0x00, 0x00, 0x00,
  0xa0, 0x22, 0xe6, 0x3d, 0x49, 0x0a, 0xbb, 0x3d, 0x66, 0x21, 0xd5, 0x3c,
  0x00, 0x00, 0x00, 0x00, 0x7f, 0x10, 0x01, 0xbc, 0x48, 0x35, 0x9e, 0xbc,
  0xfd, 0xf7, 0x0d, 0x3e, 0x00, 0x00, 0x00, 0x00, 0x00, 0x00, 0x00, 0x00,
  0x2c, 0x52, 0x11, 0x3d, 0x5a, 0xfe, 0xff, 0xff, 0x04, 0x00, 0x00, 0x00,
  0x00, 0x01, 0x00, 0x00, 0x0e, 0xa4, 0xa8, 0x3d, 0xa6, 0x32, 0x80, 0x3d,
  0x85, 0xad, 0x91, 0xbb, 0x6d, 0x17, 0x00, 0x3e, 0x8a, 0xab, 0x56, 0x3c,
  0x4c, 0x91, 0x0f, 0x3e, 0xba, 0x5d, 0x83, 0x3d, 0xd9, 0x00, 0xf2, 0x3d,
  0x08, 0x9d, 0xbf, 0x3d, 0x69, 0x78, 0x85, 0xbc, 0xf6, 0x22, 0xe6, 0x3d,
  0x00, 0x00, 0x00, 0x00, 0xf5, 0xe5, 0x1e, 0x3e, 0xe6, 0xdb, 0xf3, 0xbb,
  0x2e, 0x45, 0xa3, 0x3d, 0x4b, 0xb9, 0xfb, 0x3d, 0xee, 0xd2, 0x90, 0x3d,
  0x33, 0x44, 0xc2, 0x3c, 0x86, 0x69, 0xac, 0x3d, 0xf0, 0x98, 0x0c, 0x3e,
  0x26, 0xcb, 0xa3, 0x3c, 0x4e, 0xee, 0x1d, 0x3e, 0x03, 0x42, 0x14, 0x3e,
  0xf5, 0x91, 0x58, 0x3e, 0x00, 0x00, 0x00, 0x00, 0x00, 0x00, 0x00, 0x00,
  0x6c, 0x40, 0xa0, 0x3d, 0xdf, 0xd4, 0x00, 0x3e, 0x10, 0xc9, 0x03, 0xbc,
  0x08, 0x0e, 0x12, 0xbc, 0x13, 0x90, 0x73, 0x3c, 0x12, 0x17, 0x67, 0x3d,
  0xb8, 0xea, 0x0b, 0x3e, 0x00, 0x00, 0x00, 0x00, 0x33, 0xf1, 0x29, 0x3e,
  0x1b, 0x66, 0x14, 0x3e, 0x00, 0x00, 0x00, 0x00, 0x03, 0x39, 0x5e, 0x3e,
  0x7c, 0x1b, 0xb7, 0x3d, 0xb5, 0x17, 0x0e, 0x3d, 0x1c, 0x1d, 0xd3, 0x3d,
  0x00, 0x00, 0x00, 0x00, 0x5e, 0x6f, 0x11, 0x3e, 0x4b, 0x81, 0x90, 0x3d,
  0x00, 0x00, 0x00, 0x00, 0x06, 0xb1, 0x44, 0x3d, 0xcb, 0xb1, 0xd9, 0x3d,
  0xf6, 0xf6, 0xec, 0x3d, 0x9d, 0x7f, 0x22, 0x3e, 0x6e, 0x09, 0x24, 0x3e,
  0xa0, 0xdd, 0x3d, 0xbd, 0x42, 0xa4, 0x95, 0x3d, 0x21, 0x20, 0x34, 0x3e,
  0xa1, 0x93, 0xfd, 0x3d, 0x32, 0x61, 0x56, 0x3e, 0xc0, 0x83, 0x92, 0x3d,
  0x95, 0x34, 0x9e, 0x3d, 0x3f, 0xf3, 0xb9, 0x3d, 0x00, 0x00, 0x00, 0x00,
  0xa0, 0x4c, 0x1d, 0x3d, 0xfe, 0x99, 0x2b, 0x3e, 0x75, 0x0f, 0x14, 0x3e,
  0xf8, 0x5a, 0x03, 0xbd, 0x8c, 0x47, 0x47, 0x3d, 0x40, 0xf4, 0xff, 0xff,
  0x44, 0xf4, 0xff, 0xff, 0x0f, 0x00, 0x00, 0x00, 0x4d, 0x4c, 0x49, 0x52,
  0x20, 0x43, 0x6f, 0x6e, 0x76, 0x65, 0x72, 0x74, 0x65, 0x64, 0x2e, 0x00,
  0x01, 0x00, 0x00, 0x00, 0x14, 0x00, 0x00, 0x00, 0x00, 0x00, 0x0e, 0x00,
  0x18, 0x00, 0x14, 0x00, 0x10, 0x00, 0x0c, 0x00, 0x08, 0x00, 0x04, 0x00,
  0x0e, 0x00, 0x00, 0x00, 0x14, 0x00, 0x00, 0x00, 0x1c, 0x00, 0x00, 0x00,
  0x78, 0x01, 0x00, 0x00, 0x7c, 0x01, 0x00, 0x00, 0x80, 0x01, 0x00, 0x00,
  0x04, 0x00, 0x00, 0x00, 0x6d, 0x61, 0x69, 0x6e, 0x00, 0x00, 0x00, 0x00,
  0x05, 0x00, 0x00, 0x00, 0x1c, 0x01, 0x00, 0x00, 0xd4, 0x00, 0x00, 0x00,
  0x94, 0x00, 0x00, 0x00, 0x50, 0x00, 0x00, 0x00, 0x14, 0x00, 0x00, 0x00,
  0x00, 0x00, 0x0e, 0x00, 0x1a, 0x00, 0x14, 0x00, 0x10, 0x00, 0x0c, 0x00,
  0x0b, 0x00, 0x04, 0x00, 0x0e, 0x00, 0x00, 0x00, 0x1c, 0x00, 0x00, 0x00,
  0x00, 0x00, 0x00, 0x09, 0x1c, 0x00, 0x00, 0x00, 0x20, 0x00, 0x00, 0x00,
  0x01, 0x00, 0x00, 0x00, 0x00, 0x00, 0x06, 0x00, 0x08, 0x00, 0x04, 0x00,
  0x06, 0x00, 0x00, 0x00, 0x00, 0x00, 0x80, 0x3f, 0x01, 0x00, 0x00, 0x00,
  0x0d, 0x00, 0x00, 0x00, 0x01, 0x00, 0x00, 0x00, 0x0c, 0x00, 0x00, 0x00,
  0x4e, 0xff, 0xff, 0xff, 0x10, 0x00, 0x00, 0x00, 0x00, 0x00, 0x00, 0x08,
  0x0c, 0x00, 0x00, 0x00, 0x10, 0x00, 0x00, 0x00, 0x0c, 0xf5, 0xff, 0xff,
  0x01, 0x00, 0x00, 0x00, 0x0c, 0x00, 0x00, 0x00, 0x03, 0x00, 0x00, 0x00,
  0x0b, 0x00, 0x00, 0x00, 0x05, 0x00, 0x00, 0x00, 0x04, 0x00, 0x00, 0x00,
  0x00, 0x00, 0x0e, 0x00, 0x16, 0x00, 0x00, 0x00, 0x10, 0x00, 0x0c, 0x00,
  0x0b, 0x00, 0x04, 0x00, 0x0e, 0x00, 0x00, 0x00, 0x18, 0x00, 0x00, 0x00,
  0x00, 0x00, 0x00, 0x08, 0x18, 0x00, 0x00, 0x00, 0x1c, 0x00, 0x00, 0x00,
  0x00, 0x00, 0x06, 0x00, 0x08, 0x00, 0x07, 0x00, 0x06, 0x00, 0x00, 0x00,
  0x00, 0x00, 0x00, 0x01, 0x01, 0x00, 0x00, 0x00, 0x0b, 0x00, 0x00, 0x00,
  0x03, 0x00, 0x00, 0x00, 0x0a, 0x00, 0x00, 0x00, 0x06, 0x00, 0x00, 0x00,
  0x03, 0x00, 0x00, 0x00, 0xca, 0xff, 0xff, 0xff, 0x10, 0x00, 0x00, 0x00,
  0x00, 0x00, 0x00, 0x08, 0x10, 0x00, 0x00, 0x00, 0x14, 0x00, 0x00, 0x00,
  0xbc, 0xff, 0xff, 0xff, 0x00, 0x00, 0x01, 0x01, 0x01, 0x00, 0x00, 0x00,
  0x0a, 0x00, 0x00, 0x00, 0x03, 0x00, 0x00, 0x00, 0x09, 0x00, 0x00, 0x00,
  0x07, 0x00, 0x00, 0x00, 0x02, 0x00, 0x00, 0x00, 0x00, 0x00, 0x0e, 0x00,
  0x14, 0x00, 0x00, 0x00, 0x10, 0x00, 0x0c, 0x00, 0x0b, 0x00, 0x04, 0x00,
  0x0e, 0x00, 0x00, 0x00, 0x1c, 0x00, 0x00, 0x00, 0x00, 0x00, 0x00, 0x08,
  0x1c, 0x00, 0x00, 0x00, 0x20, 0x00, 0x00, 0x00, 0x0c, 0x00, 0x08, 0x00,
  0x07, 0x00, 0x00, 0x00, 0x00, 0x00, 0x06, 0x00, 0x0c, 0x00, 0x00, 0x00,
  0x00, 0x00, 0x01, 0x01, 0x01, 0x00, 0x00, 0x00, 0x09, 0x00, 0x00, 0x00,
  0x03, 0x00, 0x00, 0x00, 0x00, 0x00, 0x00, 0x00, 0x08, 0x00, 0x00, 0x00,
  0x01, 0x00, 0x00, 0x00, 0x01, 0x00, 0x00, 0x00, 0x0d, 0x00, 0x00, 0x00,
  0x01, 0x00, 0x00, 0x00, 0x00, 0x00, 0x00, 0x00, 0x0e, 0x00, 0x00, 0x00,
  0xcc, 0x09, 0x00, 0x00, 0x78, 0x09, 0x00, 0x00, 0x24, 0x09, 0x00, 0x00,
  0xe8, 0x08, 0x00, 0x00, 0xac, 0x08, 0x00, 0x00, 0x6c, 0x08, 0x00, 0x00,
  0x2c, 0x08, 0x00, 0x00, 0x44, 0x06, 0x00, 0x00, 0xc4, 0x02, 0x00, 0x00,
  0x24, 0x02, 0x00, 0x00, 0x84, 0x01, 0x00, 0x00, 0xe4, 0x00, 0x00, 0x00,
  0x60, 0x00, 0x00, 0x00, 0x04, 0x00, 0x00, 0x00, 0x82, 0xf6, 0xff, 0xff,
  0x00, 0x00, 0x00, 0x01, 0x14, 0x00, 0x00, 0x00, 0x1c, 0x00, 0x00, 0x00,
  0x1c, 0x00, 0x00, 0x00, 0x0e, 0x00, 0x00, 0x00, 0x34, 0x00, 0x00, 0x00,
  0x02, 0x00, 0x00, 0x00, 0xff, 0xff, 0xff, 0xff, 0x04, 0x00, 0x00, 0x00,
  0x6c, 0xf6, 0xff, 0xff, 0x1b, 0x00, 0x00, 0x00, 0x53, 0x74, 0x61, 0x74,
  0x65, 0x66, 0x75, 0x6c, 0x50, 0x61, 0x72, 0x74, 0x69, 0x74, 0x69, 0x6f,
  0x6e, 0x65, 0x64, 0x43, 0x61, 0x6c, 0x6c, 0x5f, 0x31, 0x3a, 0x30, 0x00,
  0x02, 0x00, 0x00, 0x00, 0x01, 0x00, 0x00, 0x00, 0x04, 0x00, 0x00, 0x00,
  0xda, 0xf6, 0xff, 0xff, 0x00, 0x00, 0x00, 0x01, 0x14, 0x00, 0x00, 0x00,
  0x1c, 0x00, 0x00, 0x00, 0x1c, 0x00, 0x00, 0x00, 0x0d, 0x00, 0x00, 0x00,
  0x5c, 0x00, 0x00, 0x00, 0x02, 0x00, 0x00, 0x00, 0xff, 0xff, 0xff, 0xff,
  0x04, 0x00, 0x00, 0x00, 0xc4, 0xf6, 0xff, 0xff, 0x40, 0x00, 0x00, 0x00,
  0x73, 0x65, 0x71, 0x75, 0x65, 0x6e, 0x74, 0x69, 0x61, 0x6c, 0x5f, 0x31,
  0x5f, 0x31, 0x2f, 0x64, 0x65, 0x6e, 0x73, 0x65, 0x5f, 0x37, 0x5f, 0x31,
  0x2f, 0x4d, 0x61, 0x74, 0x4d, 0x75, 0x6c, 0x3b, 0x73, 0x65, 0x71, 0x75,
  0x65, 0x6e, 0x74, 0x69, 0x61, 0x6c, 0x5f, 0x31, 0x5f, 0x31, 0x2f, 0x64,
  0x65, 0x6e, 0x73, 0x65, 0x5f, 0x37, 0x5f, 0x31, 0x2f, 0x42, 0x69, 0x61,
  0x73, 0x41, 0x64, 0x64, 0x00, 0x00, 0x00, 0x00, 0x02, 0x00, 0x00, 0x00,
  0x01, 0x00, 0x00, 0x00, 0x04, 0x00, 0x00, 0x00, 0x5a, 0xf7, 0xff, 0xff,
  0x00, 0x00, 0x00, 0x01, 0x14, 0x00, 0x00, 0x00, 0x1c, 0x00, 0x00, 0x00,
  0x1c, 0x00, 0x00, 0x00, 0x0c, 0x00, 0x00, 0x00, 0x78, 0x00, 0x00, 0x00,
  0x02, 0x00, 0x00, 0x00, 0xff, 0xff, 0xff, 0xff, 0x10, 0x00, 0x00, 0x00,
  0x44, 0xf7, 0xff, 0xff, 0x5e, 0x00, 0x00, 0x00, 0x73, 0x65, 0x71, 0x75,
  0x65, 0x6e, 0x74, 0x69, 0x61, 0x6c, 0x5f, 0x31, 0x5f, 0x31, 0x2f, 0x64,
  0x65, 0x6e, 0x73, 0x65, 0x5f, 0x36, 0x5f, 0x31, 0x2f, 0x4d, 0x61, 0x74,
  0x4d, 0x75, 0x6c, 0x3b, 0x73, 0x65, 0x71, 0x75, 0x65, 0x6e, 0x74, 0x69,
  0x61, 0x6c, 0x5f, 0x31, 0x5f, 0x31, 0x2f, 0x64, 0x65, 0x6e, 0x73, 0x65,
  0x5f, 0x36, 0x5f, 0x31, 0x2f, 0x52, 0x65, 0x6c, 0x75, 0x3b, 0x73, 0x65,
  0x71, 0x75, 0x65, 0x6e, 0x74, 0x69, 0x61, 0x6c, 0x5f, 0x31, 0x5f, 0x31,
  0x2f, 0x64, 0x65, 0x6e, 0x73, 0x65, 0x5f, 0x36, 0x5f, 0x31, 0x2f, 0x42,
  0x69, 0x61, 0x73, 0x41, 0x64, 0x64, 0x00, 0x00, 0x02, 0x00, 0x00, 0x00,
  0x01, 0x00, 0x00, 0x00, 0x10, 0x00, 0x00, 0x00, 0xf6, 0xf7, 0xff, 0xff,
  0x00, 0x00, 0x00, 0x01, 0x14, 0x00, 0x00, 0x00, 0x1c, 0x00, 0x00, 0x00,
  0x1c, 0x00, 0x00, 0x00, 0x0b, 0x00, 0x00, 0x00, 0x78, 0x00, 0x00, 0x00,
  0x02, 0x00, 0x00, 0x00, 0xff, 0xff, 0xff, 0xff, 0x20, 0x00, 0x00, 0x00,
  0xe0, 0xf7, 0xff, 0xff, 0x5e, 0x00, 0x00, 0x00, 0x73, 0x65, 0x71, 0x75,
  0x65, 0x6e, 0x74, 0x69, 0x61, 0x6c, 0x5f, 0x31, 0x5f, 0x31, 0x2f, 0x64,
  0x65, 0x6e, 0x73, 0x65, 0x5f, 0x35, 0x5f, 0x31, 0x2f, 0x4d, 0x61, 0x74,
  0x4d, 0x75, 0x6c, 0x3b, 0x73, 0x65, 0x71, 0x75, 0x65, 0x6e, 0x74, 0x69,
  0x61, 0x6c, 0x5f, 0x31, 0x5f, 0x31, 0x2f, 0x64, 0x65, 0x6e, 0x73, 0x65,
  0x5f, 0x35, 0x5f, 0x31, 0x2f, 0x52, 0x65, 0x6c, 0x75, 0x3b, 0x73, 0x65,
  0x71, 0x75, 0x65, 0x6e, 0x74, 0x69, 0x61, 0x6c, 0x5f, 0x31, 0x5f, 0x31,
  0x2f, 0x64, 0x65, 0x6e, 0x73, 0x65, 0x5f, 0x35, 0x5f, 0x31, 0x2f, 0x42,
  0x69, 0x61, 0x73, 0x41, 0x64, 0x64, 0x00, 0x00, 0x02, 0x00, 0x00, 0x00,
  0x01, 0x00, 0x00, 0x00, 0x20, 0x00, 0x00, 0x00, 0x92, 0xf8, 0xff, 0xff,
  0x00, 0x00, 0x00, 0x01, 0x14, 0x00, 0x00, 0x00, 0x1c, 0x00, 0x00, 0x00,
  0x1c, 0x00, 0x00, 0x00, 0x0a, 0x00, 0x00, 0x00, 0x78, 0x00, 0x00, 0x00,
  0x02, 0x00, 0x00, 0x00, 0xff, 0xff, 0xff, 0xff, 0x40, 0x00, 0x00, 0x00,
  0x7c, 0xf8, 0xff, 0xff, 0x5e, 0x00, 0x00, 0x00, 0x73, 0x65, 0x71, 0x75,
  0x65, 0x6e, 0x74, 0x69, 0x61, 0x6c, 0x5f, 0x31, 0x5f, 0x31, 0x2f, 0x64,
  0x65, 0x6e, 0x73, 0x65, 0x5f, 0x34, 0x5f, 0x31, 0x2f, 0x4d, 0x61, 0x74,
  0x4d, 0x75, 0x6c, 0x3b, 0x73, 0x65, 0x71, 0x75, 0x65, 0x6e, 0x74, 0x69,
  0x61, 0x6c, 0x5f, 0x31, 0x5f, 0x31, 0x2f, 0x64, 0x65, 0x6e, 0x73, 0x65,
  0x5f, 0x34, 0x5f, 0x31, 0x2f, 0x52, 0x65, 0x6c, 0x75, 0x3b, 0x73, 0x65,
  0x71, 0x75, 0x65, 0x6e, 0x74, 0x69, 0x61, 0x6c, 0x5f, 0x31, 0x5f, 0x31,
  0x2f, 0x64, 0x65, 0x6e, 0x73, 0x65, 0x5f, 0x34, 0x5f, 0x31, 0x2f, 0x42,
  0x69, 0x61, 0x73, 0x41, 0x64, 0x64, 0x00, 0x00, 0x02, 0x00, 0x00, 0x00,
  0x01, 0x00, 0x00, 0x00, 0x40, 0x00, 0x00, 0x00, 0x9a, 0xfc, 0xff, 0xff,
  0x00, 0x00, 0x00, 0x01, 0x14, 0x00, 0x00, 0x00, 0x28, 0x03, 0x00, 0x00,
  0x09, 0x00, 0x00, 0x00, 0x00, 0x00, 0x00, 0x09, 0x40, 0x03, 0x00, 0x00,
  0x84, 0xfc, 0xff, 0xff, 0x08, 0x00, 0x00, 0x00, 0x0c, 0x02, 0x00, 0x00,
  0x40, 0x00, 0x00, 0x00, 0x00, 0x00, 0x00, 0x00, 0x00, 0x00, 0x00, 0x00,
  0x00, 0x00, 0x00, 0x00, 0x00, 0x00, 0x00, 0x00, 0x00, 0x00, 0x00, 0x00,
  0x00, 0x00, 0x00, 0x00, 0x00, 0x00, 0x00, 0x00, 0x00, 0x00, 0x00, 0x00,
  0x00, 0x00, 0x00, 0x00, 0x00, 0x00, 0x00, 0x00, 0x00, 0x00, 0x00, 0x00,
  0x00, 0x00, 0x00, 0x00, 0x00, 0x00, 0x00, 0x00, 0x00, 0x00, 0x00, 0x00,
  0x00, 0x00, 0x00, 0x00, 0x00, 0x00, 0x00, 0x00, 0x00, 0x00, 0x00, 0x00,
  0x00, 0x00, 0x00, 0x00, 0x00, 0x00, 0x00, 0x00, 0x00, 0x00, 0x00, 0x00,
  0x00, 0x00, 0x00, 0x00, 0x00, 0x00, 0x00, 0x00, 0x00, 0x00, 0x00, 0x00,
  0x00, 0x00, 0x00, 0x00, 0x00, 0x00, 0x00, 0x00, 0x00, 0x00, 0x00, 0x00,
  0x00, 0x00, 0x00, 0x00, 0x00, 0x00, 0x00, 0x00, 0x00, 0x00, 0x00, 0x00,
  0x00, 0x00, 0x00, 0x00, 0x00, 0x00, 0x00, 0x00, 0x00, 0x00, 0x00, 0x00,
  0x00, 0x00, 0x00, 0x00, 0x00, 0x00, 0x00, 0x00, 0x00, 0x00, 0x00, 0x00,
  0x00, 0x00, 0x00, 0x00, 0x00, 0x00, 0x00, 0x00, 0x00, 0x00, 0x00, 0x00,
  0x00, 0x00, 0x00, 0x00, 0x00, 0x00, 0x00, 0x00, 0x00, 0x00, 0x00, 0x00,
  0x00, 0x00, 0x00, 0x00, 0x00, 0x00, 0x00, 0x00, 0x00, 0x00, 0x00, 0x00,
  0x00, 0x00, 0x00, 0x00, 0x00, 0x00, 0x00, 0x00, 0x00, 0x00, 0x00, 0x00,
  0x00, 0x00, 0x00, 0x00, 0x00, 0x00, 0x00, 0x00, 0x00, 0x00, 0x00, 0x00,
  0x00, 0x00, 0x00, 0x00, 0x00, 0x00, 0x00, 0x00, 0x00, 0x00, 0x00, 0x00,
  0x00, 0x00, 0x00, 0x00, 0x00, 0x00, 0x00, 0x00, 0x00, 0x00, 0x00, 0x00,
  0x00, 0x00, 0x00, 0x00, 0x00, 0x00, 0x00, 0x00, 0x00, 0x00, 0x00, 0x00,
  0x00, 0x00, 0x00, 0x00, 0x00, 0x00, 0x00, 0x00, 0x00, 0x00, 0x00, 0x00,
  0x00, 0x00, 0x00, 0x00, 0x00, 0x00, 0x00, 0x00, 0x00, 0x00, 0x00, 0x00,
  0x00, 0x00, 0x00, 0x00, 0x00, 0x00, 0x00, 0x00, 0x00, 0x00, 0x00, 0x00,
  0x00, 0x00, 0x00, 0x00, 0x00, 0x00, 0x00, 0x00, 0x00, 0x00, 0x00, 0x00,
  0x00, 0x00, 0x00, 0x00, 0x00, 0x00, 0x00, 0x00, 0x00, 0x00, 0x00, 0x00,
  0x00, 0x00, 0x00, 0x00, 0x00, 0x00, 0x00, 0x00, 0x00, 0x00, 0x00, 0x00,
  0x00, 0x00, 0x00, 0x00, 0x00, 0x00, 0x00, 0x00, 0x00, 0x00, 0x00, 0x00,
  0x00, 0x00, 0x00, 0x00, 0x00, 0x00, 0x00, 0x00, 0x00, 0x00, 0x00, 0x00,
  0x00, 0x00, 0x00, 0x00, 0x00, 0x00, 0x00, 0x00, 0x00, 0x00, 0x00, 0x00,
  0x00, 0x00, 0x00, 0x00, 0x00, 0x00, 0x00, 0x00, 0x00, 0x00, 0x00, 0x00,
  0x00, 0x00, 0x00, 0x00, 0x00, 0x00, 0x00, 0x00, 0x00, 0x00, 0x00, 0x00,
  0x00, 0x00, 0x00, 0x00, 0x00, 0x00, 0x00, 0x00, 0x00, 0x00, 0x00, 0x00,
  0x00, 0x00, 0x00, 0x00, 0x00, 0x00, 0x00, 0x00, 0x00, 0x00, 0x00, 0x00,
  0x00, 0x00, 0x00, 0x00, 0x00, 0x00, 0x00, 0x00, 0x00, 0x00, 0x00, 0x00,
  0x00, 0x00, 0x00, 0x00, 0x00, 0x00, 0x00, 0x00, 0x00, 0x00, 0x00, 0x00,
  0x00, 0x00, 0x00, 0x00, 0x00, 0x00, 0x00, 0x00, 0x00, 0x00, 0x00, 0x00,
  0x00, 0x00, 0x00, 0x00, 0x00, 0x00, 0x00, 0x00, 0x00, 0x00, 0x00, 0x00,
  0x00, 0x00, 0x00, 0x00, 0x00, 0x00, 0x00, 0x00, 0x00, 0x00, 0x00, 0x00,
  0x00, 0x00, 0x00, 0x00, 0x00, 0x00, 0x00, 0x00, 0x00, 0x00, 0x00, 0x00,
  0x00, 0x00, 0x00, 0x00, 0x00, 0x00, 0x00, 0x00, 0x00, 0x00, 0x00, 0x00,
  0x00, 0x00, 0x00, 0x00, 0x00, 0x00, 0x00, 0x00, 0x00, 0x00, 0x00, 0x00,
  0x00, 0x00, 0x00, 0x00, 0x00, 0x00, 0x00, 0x00, 0x00, 0x00, 0x00, 0x00,
  0x00, 0x00, 0x00, 0x00, 0x00, 0x00, 0x00, 0x00, 0x00, 0x00, 0x00, 0x00,
  0x00, 0x00, 0x00, 0x00, 0x40, 0x00, 0x00, 0x00, 0xf5, 0xb7, 0x8f, 0x3b,
  0xcc, 0x01, 0x69, 0x3b, 0xbb, 0x3d, 0xfb, 0x3a, 0xc8, 0x64, 0x81, 0x3b,
  0x6c, 0x68, 0xa3, 0x3b, 0x0e, 0x7d, 0x38, 0x3b, 0x9b, 0x5e, 0x55, 0x3b,
  0x3b, 0x4d, 0x8a, 0x3b, 0xc8, 0xcc, 0x98, 0x3b, 0x3d, 0xef, 0x6f, 0x3b,
  0xa0, 0x5f, 0x14, 0x3b, 0x78, 0x3d, 0xf8, 0x3a, 0x01, 0x8d, 0x2c, 0x3b,
  0xd1, 0xf8, 0x62, 0x3b, 0xa4, 0x04, 0x1b, 0x3b, 0xf4, 0xb8, 0x30, 0x3b,
  0xdb, 0xe1, 0x92, 0x3b, 0xe6, 0xb2, 0x6c, 0x3b, 0x93, 0x4d, 0x81, 0x3b,
  0xd7, 0xd4, 0x2e, 0x3b, 0x8d, 0x12, 0x42, 0x3b, 0x0c, 0xb1, 0x3e, 0x3b,
  0x92, 0x70, 0x23, 0x3b, 0x3b, 0x79, 0x81, 0x3b, 0x2e, 0x8d, 0xf3, 0x3a,
  0x92, 0x79, 0xe8, 0x3a, 0x6d, 0x5e, 0x6c, 0x3b, 0xb1, 0xa4, 0xa0, 0x3b,
  0xf6, 0x5b, 0x01, 0x3b, 0xdb, 0x18, 0x80, 0x3b, 0xa0, 0x36, 0x47, 0x3b,
  0x6c, 0x4f, 0x7b, 0x3b, 0x2e, 0xa0, 0x85, 0x3b, 0x60, 0xbf, 0xfc, 0x3a,
  0x3a, 0xb1, 0x85, 0x3b, 0x01, 0xe2, 0x49, 0x3b, 0xa0, 0x63, 0xf7, 0x3a,
  0x1f, 0x68, 0x6e, 0x3b, 0x0e, 0xe9, 0x94, 0x3b, 0x4e, 0x9e, 0x38, 0x3b,
  0x58, 0x3f, 0x8f, 0x3b, 0x8f, 0x4f, 0xf1, 0x3a, 0x07, 0x4d, 0x9a, 0x3b,
  0x1a, 0xc6, 0xa6, 0x3b, 0x6c, 0x35, 0xf6, 0x3a, 0xfb, 0x69, 0x08, 0x3b,
  0x1d, 0xd7, 0x73, 0x3b, 0x42, 0xe8, 0x9c, 0x3b, 0xb3, 0xf1, 0xae, 0x3b,
  0xc5, 0xa1, 0x87, 0x3b, 0xc5, 0x8a, 0x6b, 0x3b, 0xb9, 0x6e, 0x24, 0x3b,
  0xed, 0x7d, 0x4e, 0x3b, 0x63, 0x5b, 0x57, 0x3b, 0x4d, 0xa8, 0x91, 0x3b,
  0x1d, 0x1a, 0xe6, 0x3b, 0x00, 0xcb, 0x5f, 0x3b, 0x76, 0x85, 0x2f, 0x3b,
  0xdb, 0x15, 0xfa, 0x3a, 0x80, 0x1c, 0x6d, 0x3b, 0xd4, 0x6b, 0xe4, 0x3b,
  0x82, 0x0f, 0x50, 0x3b, 0x2c, 0x11, 0x97, 0x3b, 0xe6, 0xd4, 0x53, 0x3b,
  0x1f, 0x00, 0x00, 0x00, 0x73, 0x65, 0x71, 0x75, 0x65, 0x6e, 0x74, 0x69,
  0x61, 0x6c, 0x5f, 0x31, 0x5f, 0x31, 0x2f, 0x64, 0x65, 0x6e, 0x73, 0x65,
  0x5f, 0x34, 0x5f, 0x31, 0x2f, 0x4d, 0x61, 0x74, 0x4d, 0x75, 0x6c, 0x00,
  0x02, 0x00, 0x00, 0x00, 0x40, 0x00, 0x00, 0x00, 0x24, 0x00, 0x00, 0x00,
  0x00, 0x00, 0x16, 0x00, 0x1c, 0x00, 0x18, 0x00, 0x17, 0x00, 0x10, 0x00,
  0x0c, 0x00, 0x08, 0x00, 0x00, 0x00, 0x00, 0x00, 0x00, 0x00, 0x07, 0x00,
  0x16, 0x00, 0x00, 0x00, 0x00, 0x00, 0x00, 0x01, 0x20, 0x00, 0x00, 0x00,
  0xb4, 0x01, 0x00, 0x00, 0x08, 0x00, 0x00, 0x00, 0x00, 0x00, 0x00, 0x09,
  0xc0, 0x01, 0x00, 0x00, 0x0c, 0x00, 0x0c, 0x00, 0x00, 0x00, 0x00, 0x00,
  0x08, 0x00, 0x04, 0x00, 0x0c, 0x00, 0x00, 0x00, 0x08, 0x00, 0x00, 0x00,
  0x0c, 0x01, 0x00, 0x00, 0x20, 0x00, 0x00, 0x00, 0x00, 0x00, 0x00, 0x00,
  0x00, 0x00, 0x00, 0x00, 0x00, 0x00, 0x00, 0x00, 0x00, 0x00, 0x00, 0x00,
  0x00, 0x00, 0x00, 0x00, 0x00, 0x00, 0x00, 0x00, 0x00, 0x00, 0x00, 0x00,
  0x00, 0x00, 0x00, 0x00, 0x00, 0x00, 0x00, 0x00, 0x00, 0x00, 0x00, 0x00,
  0x00, 0x00, 0x00, 0x00, 0x00, 0x00, 0x00, 0x00, 0x00, 0x00, 0x00, 0x00,
  0x00, 0x00, 0x00, 0x00, 0x00, 0x00, 0x00, 0x00, 0x00, 0x00, 0x00, 0x00,
  0x00, 0x00, 0x00, 0x00, 0x00, 0x00, 0x00, 0x00, 0x00, 0x00, 0x00, 0x00,
  0x00, 0x00, 0x00, 0x00, 0x00, 0x00, 0x00, 0x00, 0x00, 0x00, 0x00, 0x00,
  0x00, 0x00, 0x00, 0x00, 0x00, 0x00, 0x00, 0x00, 0x00, 0x00, 0x00, 0x00,
  0x00, 0x00, 0x00, 0x00, 0x00, 0x00, 0x00, 0x00, 0x00, 0x00, 0x00, 0x00,
  0x00, 0x00, 0x00, 0x00, 0x00, 0x00, 0x00, 0x00, 0x00, 0x00, 0x00, 0x00,
  0x00, 0x00, 0x00, 0x00, 0x00, 0x00, 0x00, 0x00, 0x00, 0x00, 0x00, 0x00,
  0x00, 0x00, 0x00, 0x00, 0x00, 0x00, 0x00, 0x00, 0x00, 0x00, 0x00, 0x00,
  0x00, 0x00, 0x00, 0x00, 0x00, 0x00, 0x00, 0x00, 0x00, 0x00, 0x00, 0x00,
  0x00, 0x00, 0x00, 0x00, 0x00, 0x00, 0x00, 0x00, 0x00, 0x00, 0x00, 0x00,
  0x00, 0x00, 0x00, 0x00, 0x00, 0x00, 0x00, 0x00, 0x00, 0x00, 0x00, 0x00,
  0x00, 0x00, 0x00, 0x00, 0x00, 0x00, 0x00, 0x00, 0x00, 0x00, 0x00, 0x00,
  0x00, 0x00, 0x00, 0x00, 0x00, 0x00, 0x00, 0x00, 0x00, 0x00, 0x00, 0x00,
  0x00, 0x00, 0x00, 0x00, 0x00, 0x00, 0x00, 0x00, 0x00, 0x00, 0x00, 0x00,
  0x00, 0x00, 0x00, 0x00, 0x00, 0x00, 0x00, 0x00, 0x00, 0x00, 0x00, 0x00,
  0x00, 0x00, 0x00, 0x00, 0x00, 0x00, 0x00, 0x00, 0x00, 0x00, 0x00, 0x00,
  0x00, 0x00, 0x00, 0x00, 0x00, 0x00, 0x00, 0x00, 0x00, 0x00, 0x00, 0x00,
  0x00, 0x00, 0x00, 0x00, 0x20, 0x00, 0x00, 0x00, 0x85, 0x8f, 0x00, 0x3b,
  0xf2, 0x3e, 0xf8, 0x3a, 0xb9, 0xce, 0xf8, 0x3a, 0x28, 0xda, 0x06, 0x3b,
  0xbd, 0xdb, 0x5e, 0x3b, 0x0c, 0x30, 0xf1, 0x3a, 0xa3, 0x0b, 0xfe, 0x3a,
  0x6a, 0xb9, 0x93, 0x3b, 0xc7, 0x98, 0x00, 0x3b, 0xb0, 0x5f, 0x7c, 0x3b,
  0x43, 0x53, 0xfe, 0x3a, 0x0e, 0xa0, 0x90, 0x3b, 0x36, 0x62, 0x0a, 0x3b,
  0xe6, 0x2f, 0x82, 0x3b, 0x7b, 0x1e, 0x85, 0x3b, 0x4d, 0x4a, 0x08, 0x3b,
  0x00, 0x6c, 0x88, 0x3b, 0xb0, 0xd6, 0x85, 0x3b, 0x32, 0xbd, 0xfe, 0x3a,
  0x50, 0xbc, 0x84, 0x3b, 0x6c, 0x91, 0x5f, 0x3b, 0xdc, 0x69, 0xfd, 0x3a,
  0xb9, 0x3a, 0xa7, 0x3b, 0x14, 0xd1, 0xa0, 0x3b, 0xef, 0x94, 0x8b, 0x3b,
  0x06, 0xf5, 0xfd, 0x3a, 0x74, 0x33, 0xff, 0x3a, 0x67, 0x3b, 0x08, 0x3b,
  0xca, 0x37, 0x86, 0x3b, 0xa3, 0x07, 0xff, 0x3a, 0xee, 0x2c, 0xff, 0x3a,
  0x92, 0xfc, 0x58, 0x3b, 0x11, 0x00, 0x00, 0x00, 0x74, 0x66, 0x6c, 0x2e,
  0x70, 0x73, 0x65, 0x75, 0x64, 0x6f, 0x5f, 0x71, 0x63, 0x6f, 0x6e, 0x73,
  0x74, 0x00, 0x00, 0x00, 0x02, 0x00, 0x00, 0x00, 0x20, 0x00, 0x00, 0x00,
  0x40, 0x00, 0x00, 0x00, 0xde, 0xfe, 0xff, 0xff, 0x00, 0x00, 0x00, 0x01,
  0x10, 0x00, 0x00, 0x00, 0x10, 0x00, 0x00, 0x00, 0x07, 0x00, 0x00, 0x00,
  0x1c, 0x00, 0x00, 0x00, 0x68, 0xfe, 0xff, 0xff, 0x0f, 0x00, 0x00, 0x00,
  0x61, 0x72, 0x69, 0x74, 0x68, 0x2e, 0x63, 0x6f, 0x6e, 0x73, 0x74, 0x61,
  0x6e, 0x74, 0x35, 0x00, 0x02, 0x00, 0x00, 0x00, 0x10, 0x00, 0x00, 0x00,
  0x20, 0x00, 0x00, 0x00, 0x1a, 0xff, 0xff, 0xff, 0x00, 0x00, 0x00, 0x01,
  0x10, 0x00, 0x00, 0x00, 0x10, 0x00, 0x00, 0x00, 0x06, 0x00, 0x00, 0x00,
  0x1c, 0x00, 0x00, 0x00, 0xa4, 0xfe, 0xff, 0xff, 0x0f, 0x00, 0x00, 0x00,
  0x61, 0x72, 0x69, 0x74, 0x68, 0x2e, 0x63, 0x6f, 0x6e, 0x73, 0x74, 0x61,
  0x6e, 0x74, 0x34, 0x00, 0x02, 0x00, 0x00, 0x00, 0x04, 0x00, 0x00, 0x00,
  0x10, 0x00, 0x00, 0x00, 0x56, 0xff, 0xff, 0xff, 0x00, 0x00, 0x00, 0x01,
  0x10, 0x00, 0x00, 0x00, 0x10, 0x00, 0x00, 0x00, 0x05, 0x00, 0x00, 0x00,
  0x1c, 0x00, 0x00, 0x00, 0xe0, 0xfe, 0xff, 0xff, 0x0f, 0x00, 0x00, 0x00,
  0x61, 0x72, 0x69, 0x74, 0x68, 0x2e, 0x63, 0x6f, 0x6e, 0x73, 0x74, 0x61,
  0x6e, 0x74, 0x33, 0x00, 0x01, 0x00, 0x00, 0x00, 0x04, 0x00, 0x00, 0x00,
  0x8e, 0xff, 0xff, 0xff, 0x00, 0x00, 0x00, 0x01, 0x10, 0x00, 0x00, 0x00,
  0x10, 0x00, 0x00, 0x00, 0x04, 0x00, 0x00, 0x00, 0x1c, 0x00, 0x00, 0x00,
  0x18, 0xff, 0xff, 0xff, 0x0f, 0x00, 0x00, 0x00, 0x61, 0x72, 0x69, 0x74,
  0x68, 0x2e, 0x63, 0x6f, 0x6e, 0x73, 0x74, 0x61, 0x6e, 0x74, 0x32, 0x00,
  0x01, 0x00, 0x00, 0x00, 0x10, 0x00, 0x00, 0x00, 0xc6, 0xff, 0xff, 0xff,
  0x00, 0x00, 0x00, 0x01, 0x10, 0x00, 0x00, 0x00, 0x10, 0x00, 0x00, 0x00,
  0x03, 0x00, 0x00, 0x00, 0x1c, 0x00, 0x00, 0x00, 0x50, 0xff, 0xff, 0xff,
  0x0f, 0x00, 0x00, 0x00, 0x61, 0x72, 0x69, 0x74, 0x68, 0x2e, 0x63, 0x6f,
  0x6e, 0x73, 0x74, 0x61, 0x6e, 0x74, 0x31, 0x00, 0x01, 0x00, 0x00, 0x00,
  0x20, 0x00, 0x00, 0x00, 0x00, 0x00, 0x16, 0x00, 0x18, 0x00, 0x14, 0x00,
  0x00, 0x00, 0x10, 0x00, 0x0c, 0x00, 0x08, 0x00, 0x00, 0x00, 0x00, 0x00,
  0x00, 0x00, 0x07, 0x00, 0x16, 0x00, 0x00, 0x00, 0x00, 0x00, 0x00, 0x01,
  0x10, 0x00, 0x00, 0x00, 0x10, 0x00, 0x00, 0x00, 0x02, 0x00, 0x00, 0x00,
  0x1c, 0x00, 0x00, 0x00, 0xa0, 0xff, 0xff, 0xff, 0x0e, 0x00, 0x00, 0x00,
  0x61, 0x72, 0x69, 0x74, 0x68, 0x2e, 0x63, 0x6f, 0x6e, 0x73, 0x74, 0x61,
  0x6e, 0x74, 0x00, 0x00, 0x01, 0x00, 0x00, 0x00, 0x40, 0x00, 0x00, 0x00,
  0x00, 0x00, 0x16, 0x00, 0x1c, 0x00, 0x18, 0x00, 0x00, 0x00, 0x14, 0x00,
  0x10, 0x00, 0x0c, 0x00, 0x00, 0x00, 0x00, 0x00, 0x08, 0x00, 0x07, 0x00,
  0x16, 0x00, 0x00, 0x00, 0x00, 0x00, 0x00, 0x01, 0x14, 0x00, 0x00, 0x00,
  0x20, 0x00, 0x00, 0x00, 0x20, 0x00, 0x00, 0x00, 0x01, 0x00, 0x00, 0x00,
  0x40, 0x00, 0x00, 0x00, 0x02, 0x00, 0x00, 0x00, 0xff, 0xff, 0xff, 0xff,
  0x24, 0x00, 0x00, 0x00, 0x04, 0x00, 0x04, 0x00, 0x04, 0x00, 0x00, 0x00,
  0x20, 0x00, 0x00, 0x00, 0x73, 0x65, 0x72, 0x76, 0x69, 0x6e, 0x67, 0x5f,
  0x64, 0x65, 0x66, 0x61, 0x75, 0x6c, 0x74, 0x5f, 0x6b, 0x65, 0x72, 0x61,
  0x73, 0x5f, 0x74, 0x65, 0x6e, 0x73, 0x6f, 0x72, 0x5f, 0x35, 0x3a, 0x30,
  0x00, 0x00, 0x00, 0x00, 0x02, 0x00, 0x00, 0x00, 0x01, 0x00, 0x00, 0x00,
  0x24, 0x00, 0x00, 0x00, 0x02, 0x00, 0x00, 0x00, 0x2c, 0x00, 0x00, 0x00,
  0x10, 0x00, 0x00, 0x00, 0x0c, 0x00, 0x0c, 0x00, 0x0b, 0x00, 0x00, 0x00,
  0x00, 0x00, 0x04, 0x00, 0x0c, 0x00, 0x00, 0x00, 0x19, 0x00, 0x00, 0x00,
  0x00, 0x00, 0x00, 0x19, 0x0c, 0x00, 0x10, 0x00, 0x0f, 0x00, 0x00, 0x00,
  0x08, 0x00, 0x04, 0x00, 0x0c, 0x00, 0x00, 0x00, 0x09, 0x00, 0x00, 0x00,
  0x0c, 0x00, 0x00, 0x00, 0x00, 0x00, 0x00, 0x09
};
unsigned int _content_gesture_model_quant_tflite_len = 10856;
