// Auto-generated by KWS_MFCC_Training.ipynb
// TFLite model — INT8 quantised
#pragma once
#include <stdint.h>

const unsigned int kws_model_len = 11240;
alignas(8) const uint8_t kws_model_data[] = {
  0x1c, 0x00, 0x00, 0x00, 0x54, 0x46, 0x4c, 0x33, 0x14, 0x00, 0x20, 0x00, 0x1c, 0x00, 0x18, 0x00, 0x14, 0x00, 0x10, 0x00, 0x0c, 0x00, 0x00, 0x00, 0x08, 0x00, 0x04, 0x00, 0x14, 0x00, 0x00, 0x00, 0x1c, 0x00, 0x00, 0x00, 0x88, 0x00, 0x00, 0x00, 0x08, 0x01, 0x00, 0x00, 0xf0, 0x0f, 0x00, 0x00, 0x00, 0x10, 0x00, 0x00, 0xd4, 0x2a, 0x00, 0x00, 0x03, 0x00, 0x00, 0x00, 0x01, 0x00, 0x00, 0x00, 0x04, 0x00, 0x00, 0x00, 0x3e, 0xec, 0xff, 0xff, 0x0c, 0x00, 0x00, 0x00, 0x1c, 0x00, 0x00, 0x00, 0x3c, 0x00, 0x00, 0x00, 0x0f, 0x00, 0x00, 0x00, 0x73, 0x65, 0x72, 0x76, 0x69, 0x6e, 0x67, 0x5f, 0x64, 0x65, 0x66, 0x61, 0x75, 0x6c, 0x74, 0x00, 0x01, 0x00, 0x00, 0x00, 0x04, 0x00, 0x00, 0x00, 0x6c, 0xff, 0xff, 0xff, 0x23, 0x00, 0x00, 0x00, 0x04, 0x00, 0x00, 0x00, 0x08, 0x00, 0x00, 0x00, 0x6f, 0x75, 0x74, 0x70, 0x75, 0x74, 0x5f, 0x30, 0x00, 0x00, 0x00, 0x00, 0x01, 0x00, 0x00, 0x00, 0x04, 0x00, 0x00, 0x00, 0x12, 0xef, 0xff, 0xff, 0x04, 0x00, 0x00, 0x00, 0x0a, 0x00, 0x00, 0x00, 0x6d, 0x66, 0x63, 0x63, 0x5f, 0x69, 0x6e, 0x70, 0x75, 0x74, 0x00, 0x00, 0x03, 0x00, 0x00, 0x00, 0x5c, 0x00, 0x00, 0x00, 0x2c, 0x00, 0x00, 0x00, 0x04, 0x00, 0x00, 0x00, 0xb8, 0xff, 0xff, 0xff, 0x27, 0x00, 0x00, 0x00, 0x04, 0x00, 0x00, 0x00, 0x13, 0x00, 0x00, 0x00, 0x43, 0x4f, 0x4e, 0x56, 0x45, 0x52, 0x53, 0x49, 0x4f, 0x4e, 0x5f, 0x4d, 0x45, 0x54, 0x41, 0x44, 0x41, 0x54, 0x41, 0x00, 0xdc, 0xff, 0xff, 0xff, 0x26, 0x00, 0x00, 0x00, 0x04, 0x00, 0x00, 0x00, 0x13, 0x00, 0x00, 0x00, 0x6d, 0x69, 0x6e, 0x5f, 0x72, 0x75, 0x6e, 0x74, 0x69, 0x6d, 0x65, 0x5f, 0x76, 0x65, 0x72, 0x73, 0x69, 0x6f, 0x6e, 0x00, 0x08, 0x00, 0x0c, 0x00, 0x08, 0x00, 0x04, 0x00, 0x08, 0x00, 0x00, 0x00, 0x25, 0x00, 0x00, 0x00, 0x04, 0x00, 0x00, 0x00, 0x13, 0x00, 0x00, 0x00, 0x6d, 0x69, 0x6e, 0x5f, 0x72, 0x75, 0x6e, 0x74, 0x69, 0x6d, 0x65, 0x5f, 0x76, 0x65, 0x72, 0x73, 0x69, 0x6f, 0x6e, 0x00, 0x28, 0x00, 0x00, 0x00, 0xe4, 0x0e, 0x00, 0x00, 0xdc, 0x0e, 0x00, 0x00, 0xc8, 0x0e, 0x00, 0x00, 0xac, 0x0e, 0x00, 0x00, 0x98, 0x0e, 0x00, 0x00, 0x7c, 0x0e, 0x00, 0x00, 0x60, 0x0e, 0x00, 0x00, 0x44, 0x0e, 0x00, 0x00, 0x30, 0x0e, 0x00, 0x00, 0x28, 0x0e, 0x00, 0x00, 0x14, 0x0e, 0x00, 0x00, 0xf4, 0x0d, 0x00, 0x00, 0x64, 0x0c, 0x00, 0x00, 0xd4, 0x0b, 0x00, 0x00, 0xc4, 0x05, 0x00, 0x00, 0x74, 0x05, 0x00, 0x00, 0x54, 0x01, 0x00, 0x00, 0x4c, 0x01, 0x00, 0x00, 0x44, 0x01, 0x00, 0x00, 0x3c, 0x01, 0x00, 0x00, 0x34, 0x01, 0x00, 0x00, 0x2c, 0x01, 0x00, 0x00, 0x24, 0x01, 0x00, 0x00, 0x1c, 0x01, 0x00, 0x00, 0x14, 0x01, 0x00, 0x00, 0x0c, 0x01, 0x00, 0x00, 0x04, 0x01, 0x00, 0x00, 0xfc, 0x00, 0x00, 0x00, 0xf4, 0x00, 0x00, 0x00, 0xec, 0x00, 0x00, 0x00, 0xe4, 0x00, 0x00, 0x00, 0xdc, 0x00, 0x00, 0x00, 0xd4, 0x00, 0x00, 0x00, 0xcc, 0x00, 0x00, 0x00, 0xc4, 0x00, 0x00, 0x00, 0xbc, 0x00, 0x00, 0x00, 0xb4, 0x00, 0x00, 0x00, 0x94, 0x00, 0x00, 0x00, 0x74, 0x00, 0x00, 0x00, 0x04, 0x00, 0x00, 0x00, 0x52, 0xf0, 0xff, 0xff, 0x04, 0x00, 0x00, 0x00, 0x60, 0x00, 0x00, 0x00, 0x0c, 0x00, 0x00, 0x00, 0x08, 0x00, 0x0e, 0x00, 0x08, 0x00, 0x04, 0x00, 0x08, 0x00, 0x00, 0x00, 0x10, 0x00, 0x00, 0x00, 0x28, 0x00, 0x00, 0x00, 0x00, 0x00, 0x06, 0x00, 0x08, 0x00, 0x04, 0x00, 0x06, 0x00, 0x00, 0x00, 0x04, 0x00, 0x00, 0x00, 0x01, 0x00, 0x00, 0x00, 0xeb, 0x03, 0x00, 0x00, 0x0c, 0x00, 0x18, 0x00, 0x14, 0x00, 0x10, 0x00, 0x0c, 0x00, 0x04, 0x00, 0x0c, 0x00, 0x00, 0x00, 0xdb, 0xab, 0xfa, 0xee, 0x91, 0x60, 0xa3, 0x9a, 0x02, 0x00, 0x00, 0x00, 0x02, 0x00, 0x00, 0x00, 0x04, 0x00, 0x00, 0x00, 0x06, 0x00, 0x00, 0x00, 0x32, 0x2e, 0x31, 0x39, 0x2e, 0x30, 0x00, 0x00, 0xbe, 0xf0, 0xff, 0xff, 0x04, 0x00, 0x00, 0x00, 0x10, 0x00, 0x00, 0x00, 0x00, 0x00, 0x00, 0x00, 0x00, 0x00, 0x00, 0x00, 0x00, 0x00, 0x00, 0x00, 0x00, 0x00, 0x00, 0x00, 0xda, 0xf0, 0xff, 0xff, 0x04, 0x00, 0x00, 0x00, 0x10, 0x00, 0x00, 0x00, 0x31, 0x2e, 0x31, 0x34, 0x2e, 0x30, 0x00, 0x00, 0x00, 0x00, 0x00, 0x00, 0x00, 0x00, 0x00, 0x00, 0xac, 0xd7, 0xff, 0xff, 0xb0, 0xd7, 0xff, 0xff, 0xb4, 0xd7, 0xff, 0xff, 0xb8, 0xd7, 0xff, 0xff, 0xbc, 0xd7, 0xff, 0xff, 0xc0, 0xd7, 0xff, 0xff, 0xc4, 0xd7, 0xff, 0xff, 0xc8, 0xd7, 0xff, 0xff, 0xcc, 0xd7, 0xff, 0xff, 0xd0, 0xd7, 0xff, 0xff, 0xd4, 0xd7, 0xff, 0xff, 0xd8, 0xd7, 0xff, 0xff, 0xdc, 0xd7, 0xff, 0xff, 0xe0, 0xd7, 0xff, 0xff, 0xe4, 0xd7, 0xff, 0xff, 0xe8, 0xd7, 0xff, 0xff, 0xec, 0xd7, 0xff, 0xff, 0xf0, 0xd7, 0xff, 0xff, 0xf4, 0xd7, 0xff, 0xff, 0xf8, 0xd7, 0xff, 0xff, 0x46, 0xf1, 0xff, 0xff, 0x04, 0x00, 0x00, 0x00, 0x10, 0x04, 0x00, 0x00, 0x69, 0xd6, 0x6f, 0x3d, 0x14, 0x44, 0x8a, 0x2b, 0x3f, 0xa8, 0xa8, 0xbe, 0x71, 0xe7, 0xb4, 0x51, 0x0f, 0x54, 0x2e, 0x41, 0xbf, 0xb4, 0xc7, 0xa1, 0x95, 0x43, 0x4e, 0x90, 0xc3, 0x26, 0xcf, 0x0d, 0x41, 0x54, 0x36, 0x2a, 0xf0, 0xa2, 0xcd, 0x37, 0xcd, 0x20, 0x7f, 0xd4, 0xed, 0xd1, 0xcf, 0x26, 0xc0, 0xf0, 0x49, 0x0d, 0x5c, 0x00, 0xb1, 0xf4, 0x07, 0xcc, 0x44, 0x31, 0x3e, 0x24, 0xd8, 0xdf, 0x55, 0xc3, 0xb5, 0xe5, 0xb4, 0x0d, 0xea, 0xf0, 0x1c, 0xcc, 0xee, 0x4f, 0xd2, 0x45, 0xaf, 0xd1, 0xcd, 0x2b, 0x88, 0x41, 0xbb, 0xda, 0xd9, 0x16, 0xfc, 0xb7, 0x83, 0xba, 0x0b, 0xbd, 0xb5, 0x16, 0x5a, 0x38, 0xab, 0xa4, 0x6b, 0x33, 0x4a, 0x89, 0x81, 0x55, 0x3d, 0x2f, 0xc4, 0x5b, 0x4b, 0x4c, 0xd0, 0xa4, 0x41, 0x93, 0xe5, 0x25, 0x44, 0xf3, 0xb5, 0xac, 0x1a, 0xe8, 0x23, 0xf0, 0xe3, 0xab, 0x91, 0xfc, 0xb0, 0x2d, 0x93, 0xd0, 0x09, 0xfe, 0xbc, 0x9b, 0x3c, 0x5d, 0xeb, 0x78, 0xec, 0x58, 0xd5, 0x2f, 0xb1, 0xde, 0xd9, 0x3d, 0x8a, 0x15, 0xf2, 0x66, 0x78, 0x31, 0xed, 0x4b, 0xe5, 0xa2, 0x05, 0x7f, 0x68, 0xc2, 0x3c, 0x48, 0x40, 0x5a, 0x1f, 0xc7, 0x10, 0xba, 0xb5, 0x5e, 0xdd, 0x06, 0x9b, 0x20, 0xba, 0x59, 0x2d, 0x53, 0xaf, 0x88, 0x95, 0x0c, 0x17, 0x35, 0xc2, 0xd9, 0x09, 0xc0, 0xf6, 0x3b, 0x89, 0x99, 0x51, 0xdf, 0x18, 0xbe, 0x24, 0x45, 0x2d, 0x67, 0x3b, 0x25, 0xc1, 0x0d, 0xbf, 0xdc, 0xb5, 0xf3, 0xaf, 0x41, 0x7c, 0x58, 0xa7, 0xd0, 0x9b, 0xec, 0xf7, 0x0b, 0x08, 0x6c, 0x06, 0x9d, 0x1e, 0x20, 0x4e, 0xf7, 0x9d, 0x29, 0xe0, 0xaa, 0x04, 0x4f, 0xff, 0x81, 0x9e, 0x13, 0xc9, 0xe6, 0x32, 0xc6, 0xd0, 0x47, 0x03, 0x46, 0x1d, 0xdc, 0xea, 0x9f, 0xf0, 0xb8, 0x59, 0x01, 0x65, 0xc5, 0xb2, 0xcb, 0x31, 0xd9, 0x00, 0x2d, 0xe4, 0x36, 0xb9, 0x5b, 0x6c, 0x52, 0x02, 0xa1, 0xcf, 0xfd, 0xe3, 0x94, 0xd1, 0x30, 0x24, 0xf8, 0x29, 0x55, 0xf5, 0x0f, 0x57, 0x06, 0xa4, 0x94, 0xa2, 0x6a, 0xcf, 0xad, 0x09, 0xb2, 0xe3, 0xb8, 0x26, 0x1b, 0xbd, 0x00, 0x81, 0xf5, 0x7e, 0x48, 0xc6, 0x42, 0x21, 0xe7, 0x2c, 0x97, 0x01, 0x28, 0xe5, 0x9f, 0x1e, 0x2a, 0xf0, 0x1c, 0x3a, 0x07, 0x0b, 0x2c, 0xa7, 0xb2, 0xc9, 0xf6, 0x56, 0x03, 0x18, 0x1b, 0x42, 0xb4, 0xd9, 0x14, 0xe2, 0x23, 0x0f, 0x95, 0x2e, 0xf4, 0x3f, 0xf1, 0x75, 0x7f, 0x6a, 0xc4, 0xf7, 0x1f, 0xd5, 0xeb, 0x27, 0x24, 0xc2, 0x9a, 0xc6, 0x26, 0xe6, 0xc1, 0x98, 0x2d, 0x18, 0xb6, 0x21, 0xeb, 0x41, 0x49, 0xdf, 0x95, 0x25, 0x74, 0x04, 0x99, 0x37, 0x30, 0x7b, 0x38, 0xbb, 0xc4, 0x37, 0x8c, 0xd7, 0x34, 0x23, 0xcd, 0x18, 0xe0, 0x01, 0x13, 0x5a, 0xb3, 0x74, 0x7f, 0x02, 0x3e, 0xe3, 0x2e, 0x07, 0xfd, 0x8e, 0xf7, 0x81, 0x85, 0xed, 0xd8, 0x14, 0x25, 0x6f, 0x2a, 0x98, 0xd6, 0x71, 0xcc, 0x11, 0x15, 0xd3, 0x15, 0x45, 0x07, 0x30, 0x59, 0x08, 0xcf, 0x43, 0x15, 0xce, 0x03, 0x22, 0xb6, 0xb2, 0x0d, 0xc7, 0x42, 0x6e, 0x18, 0xca, 0xf1, 0xf6, 0xe0, 0x45, 0x45, 0x0e, 0xb7, 0x41, 0xfe, 0x3b, 0x5d, 0xcf, 0x14, 0x1d, 0x01, 0x17, 0xa9, 0x9f, 0xb0, 0xd7, 0xc7, 0xf8, 0x63, 0xca, 0xb8, 0xcd, 0x94, 0xa2, 0xcb, 0x3f, 0xef, 0x49, 0xb9, 0x7c, 0xf3, 0xff, 0x15, 0x58, 0xec, 0x2c, 0xe3, 0x0d, 0xf4, 0x1e, 0xc9, 0xc6, 0x11, 0xe4, 0x58, 0xae, 0x0c, 0xc8, 0x1c, 0xf1, 0x21, 0xaf, 0xf1, 0x13, 0x93, 0x07, 0xd8, 0x25, 0x0f, 0xa1, 0x47, 0x2a, 0xad, 0x9b, 0x53, 0xf4, 0x65, 0x3c, 0x14, 0xe3, 0x2d, 0x11, 0xb8, 0x10, 0x28, 0x9d, 0xe4, 0x92, 0x3e, 0x7f, 0xdc, 0x2b, 0x77, 0x43, 0xc8, 0xd9, 0x05, 0x2e, 0x38, 0x07, 0xfb, 0x73, 0x8f, 0xd8, 0x9f, 0xeb, 0xda, 0xce, 0x2c, 0x36, 0xae, 0x2d, 0xf6, 0x5e, 0xaf, 0x6e, 0x88, 0x87, 0x4c, 0xaa, 0x3f, 0x84, 0xdf, 0xeb, 0xb0, 0x04, 0x32, 0xb4, 0xa1, 0x68, 0x81, 0xce, 0xbf, 0x1c, 0x75, 0x1e, 0x57, 0xc4, 0xb3, 0xea, 0xdc, 0xd4, 0x3a, 0x88, 0x16, 0x5f, 0x4c, 0xbe, 0xe6, 0x38, 0x95, 0x95, 0xb6, 0xbd, 0xd9, 0xc0, 0x41, 0xb3, 0x5d, 0xd8, 0x21, 0x89, 0xd5, 0xd1, 0xdf, 0xaa, 0x14, 0xcc, 0x2d, 0xa9, 0xd0, 0x3c, 0xc2, 0xb1, 0xf8, 0xa9, 0xb6, 0x09, 0x1f, 0xfa, 0xc3, 0x11, 0x1c, 0x63, 0x38, 0xf1, 0xe3, 0xb7, 0xf4, 0xe7, 0x5a, 0xe8, 0xa9, 0xce, 0x1e, 0xe0, 0xcb, 0xce, 0xf9, 0xfa, 0xb5, 0x55, 0xd5, 0xfd, 0x1c, 0x12, 0xe8, 0x26, 0xd0, 0xed, 0x01, 0xa8, 0x81, 0xf1, 0xfa, 0x59, 0x64, 0xe9, 0xf6, 0xd7, 0x3e, 0x0d, 0xb9, 0xd3, 0x34, 0xda, 0xf2, 0x4d, 0xad, 0xef, 0xb3, 0xf1, 0x14, 0x58, 0x08, 0x42, 0x3c, 0x77, 0xd0, 0xc8, 0x06, 0x1a, 0x12, 0x1c, 0xd8, 0xc1, 0xd0, 0x77, 0xa9, 0x7b, 0x7f, 0xea, 0x10, 0xe2, 0xef, 0x8b, 0x59, 0xd3, 0x19, 0x22, 0x52, 0x4a, 0x37, 0x59, 0x16, 0xa7, 0x0d, 0x45, 0x0d, 0xdc, 0xc5, 0x6e, 0xd8, 0x1d, 0xdf, 0x57, 0x2c, 0x2c, 0x2e, 0x4e, 0xe4, 0xde, 0xa8, 0x00, 0x33, 0xb4, 0xe4, 0x77, 0x23, 0x3a, 0x8f, 0xa9, 0xc1, 0x0a, 0x5e, 0x25, 0xe7, 0xd4, 0xe6, 0xca, 0x19, 0x2b, 0x1a, 0xf8, 0x3f, 0x71, 0x46, 0x93, 0x98, 0xb6, 0x4e, 0x97, 0xad, 0xdd, 0xcc, 0x00, 0xbc, 0xc8, 0x40, 0xf2, 0x18, 0x7f, 0x48, 0x89, 0xa9, 0xef, 0x5a, 0x26, 0xa2, 0x95, 0x3f, 0x46, 0xe6, 0x2e, 0x25, 0xdc, 0xfa, 0xf9, 0x83, 0xc4, 0x1c, 0x9b, 0x35, 0xb4, 0x14, 0xec, 0x6c, 0xf3, 0x55, 0x16, 0xd4, 0xf3, 0xfb, 0x86, 0x00, 0x53, 0x18, 0x7f, 0xb1, 0x94, 0x56, 0x53, 0xc9, 0x0e, 0x35, 0xb9, 0xcb, 0xd4, 0xcc, 0x6a, 0x01, 0xa1, 0xe1, 0xee, 0x24, 0x2b, 0xcf, 0xe1, 0xc1, 0x14, 0x31, 0x46, 0xbe, 0xea, 0xd8, 0x02, 0x3e, 0x35, 0x2d, 0x1f, 0x1b, 0x56, 0x2e, 0x73, 0x13, 0xdc, 0x4d, 0x89, 0x57, 0x56, 0x0e, 0x62, 0x7f, 0x1a, 0x70, 0x65, 0x26, 0x5d, 0xfd, 0x65, 0xb8, 0xa4, 0x82, 0xc9, 0x31, 0xe4, 0xa9, 0x17, 0xf1, 0x78, 0x55, 0x81, 0xe3, 0xc4, 0xf7, 0xa9, 0xf8, 0x32, 0xfa, 0x97, 0x24, 0x2a, 0x4a, 0xd6, 0x21, 0x42, 0x16, 0xcb, 0x2f, 0x21, 0xeb, 0x49, 0x92, 0xf4, 0xfe, 0x38, 0xa6, 0x89, 0xae, 0x1e, 0xf7, 0x15, 0x48, 0x2f, 0x6d, 0xe1, 0xed, 0x08, 0xe4, 0x5c, 0xc9, 0x8b, 0x59, 0x77, 0xff, 0x0c, 0x2b, 0xc7, 0xdd, 0xe7, 0xe5, 0x15, 0x40, 0x97, 0xf6, 0x2f, 0x47, 0x29, 0xee, 0xf3, 0x2a, 0xa8, 0xc6, 0xe0, 0xcf, 0x81, 0xb6, 0xd3, 0xd6, 0x63, 0xb9, 0x87, 0x96, 0x45, 0xc5, 0xf7, 0xd7, 0x31, 0xf2, 0x58, 0xcd, 0x07, 0x18, 0xae, 0x00, 0x0e, 0x2d, 0xe1, 0x62, 0xf5, 0x9a, 0xb9, 0x11, 0x29, 0x17, 0xca, 0xdd, 0x93, 0x09, 0xbc, 0x00, 0x56, 0x59, 0x2a, 0xe6, 0xfd, 0x2d, 0x70, 0x9b, 0x1d, 0x3a, 0x63, 0xf2, 0x81, 0xa0, 0x1e, 0xed, 0x13, 0x10, 0xbf, 0x9a, 0x2b, 0xd2, 0x4d, 0xc1, 0x4d, 0xe5, 0x86, 0x3c, 0x0e, 0xcb, 0xf7, 0xf7, 0x0d, 0x25, 0x2f, 0xe4, 0xba, 0xed, 0x9f, 0x12, 0xeb, 0x38, 0x04, 0x28, 0xfa, 0x56, 0x14, 0x0f, 0xc9, 0xec, 0x3e, 0xe0, 0xec, 0x81, 0x41, 0xf0, 0x99, 0xab, 0xf7, 0x3b, 0xf2, 0xf3, 0x16, 0xc6, 0xbe, 0x16, 0x49, 0x22, 0x03, 0x8f, 0x86, 0x22, 0x19, 0x18, 0x23, 0x39, 0x2a, 0x08, 0x3b, 0xd9, 0x7b, 0xd6, 0x9d, 0xa0, 0xd0, 0xd3, 0xfc, 0x92, 0x29, 0xe0, 0x62, 0xf5, 0xff, 0xff, 0x04, 0x00, 0x00, 0x00, 0x40, 0x00, 0x00, 0x00, 0x39, 0x02, 0x00, 0x00, 0x0a, 0x03, 0x00, 0x00, 0x84, 0x03, 0x00, 0x00, 0xd0, 0x02, 0x00, 0x00, 0xa2, 0x01, 0x00, 0x00, 0xa9, 0x02, 0x00, 0x00, 0xdf, 0x01, 0x00, 0x00, 0x83, 0x03, 0x00, 0x00, 0x31, 0x02, 0x00, 0x00, 0x62, 0x04, 0x00, 0x00, 0xc5, 0x03, 0x00, 0x00, 0x5f, 0x02, 0x00, 0x00, 0xbb, 0x03, 0x00, 0x00, 0x6e, 0x02, 0x00, 0x00, 0x88, 0x02, 0x00, 0x00, 0xac, 0x00, 0x00, 0x00, 0xae, 0xf5, 0xff, 0xff, 0x04, 0x00, 0x00, 0x00, 0x00, 0x06, 0x00, 0x00, 0xea, 0x33, 0x50, 0x28, 0x32, 0x33, 0x40, 0xba, 0xe3, 0xa6, 0x71, 0xd6, 0x15, 0x60, 0xe6, 0xc0, 0x38, 0xdd, 0x51, 0xaf, 0xf0, 0xce, 0x1e, 0x93, 0x13, 0x68, 0x7f, 0xe3, 0xb7, 0x2a, 0x08, 0xac, 0xde, 0x09, 0x04, 0x03, 0x22, 0xea, 0x05, 0x5c, 0x47, 0x40, 0xf7, 0xf9, 0x1d, 0x35, 0x23, 0x0a, 0x36, 0xc5, 0x2c, 0xcf, 0x96, 0x4f, 0x59, 0x03, 0xb8, 0xef, 0x05, 0x40, 0x2b, 0x53, 0xf9, 0x18, 0x3a, 0xe6, 0xe9, 0xc4, 0xce, 0x02, 0x0a, 0x6b, 0x9d, 0xf8, 0x7f, 0xa7, 0x31, 0xb5, 0xdf, 0xaf, 0x4e, 0x3a, 0x34, 0x0a, 0x07, 0x53, 0x17, 0xed, 0x13, 0x1f, 0x78, 0x12, 0x16, 0x0c, 0xb7, 0x2b, 0x22, 0x2a, 0x93, 0x09, 0xba, 0x21, 0x3c, 0xc5, 0x03, 0xb4, 0xfb, 0xa7, 0x43, 0xf0, 0xef, 0xf7, 0xea, 0xe3, 0xf0, 0x00, 0x19, 0x27, 0x45, 0xd3, 0x30, 0xc5, 0x76, 0xa4, 0xb6, 0x64, 0x5a, 0xb9, 0x62, 0xcc, 0xcb, 0x0d, 0xa2, 0xfb, 0x1e, 0xde, 0xb6, 0x45, 0x7f, 0xb4, 0x24, 0x23, 0xee, 0x5c, 0x33, 0x36, 0xf1, 0x3b, 0x7f, 0x48, 0x15, 0x2a, 0x12, 0x37, 0xb8, 0xce, 0x00, 0x01, 0xd8, 0x30, 0x31, 0xf3, 0x22, 0x49, 0x76, 0xb7, 0xc2, 0xe4, 0xde, 0x26, 0xdf, 0xe6, 0xd8, 0x0f, 0xf7, 0x49, 0xfd, 0x16, 0xae, 0xc5, 0xe3, 0xd3, 0x95, 0xcc, 0x31, 0x1f, 0xf4, 0xf9, 0xf9, 0x2d, 0x1a, 0x06, 0x2c, 0x77, 0x10, 0xc6, 0xf1, 0x20, 0xc4, 0xee, 0xd4, 0x5c, 0xe5, 0x3c, 0xb1, 0x5f, 0x4c, 0xc9, 0xbe, 0x5f, 0xf3, 0xf2, 0xd6, 0xe5, 0x56, 0xc8, 0x6d, 0xf2, 0xe0, 0xfe, 0xa2, 0xf7, 0x37, 0xec, 0x02, 0x6f, 0xc4, 0x72, 0xdb, 0xb8, 0x49, 0x24, 0xe6, 0x03, 0xa7, 0x7f, 0xcb, 0x35, 0x19, 0xe6, 0xe2, 0x23, 0x06, 0x10, 0xd8, 0x89, 0x04, 0x4e, 0xca, 0xee, 0x55, 0xca, 0xdc, 0x21, 0x18, 0xc7, 0xb0, 0x8a, 0x68, 0x55, 0x7f, 0xe7, 0xe4, 0xf1, 0xec, 0xeb, 0x14, 0x4d, 0x03, 0xf3, 0x19, 0x37, 0x79, 0x94, 0xf7, 0x85, 0x4e, 0x1f, 0xbe, 0x40, 0x41, 0x51, 0xd9, 0xf9, 0xa6, 0x2c, 0xba, 0xd9, 0x20, 0xeb, 0x3a, 0xea, 0x0d, 0xfc, 0xe5, 0x20, 0xe8, 0x6c, 0x3b, 0xb9, 0xb5, 0x36, 0xa5, 0x7c, 0x13, 0xc3, 0x49, 0xd6, 0x1b, 0x1b, 0xaa, 0xc0, 0xf8, 0x25, 0xa3, 0x18, 0xc1, 0x35, 0x01, 0x56, 0x1b, 0xd1, 0x3a, 0xc3, 0x00, 0x28, 0x3a, 0xa2, 0x4f, 0x07, 0xc1, 0x13, 0x9f, 0x7f, 0x26, 0x6d, 0x29, 0x21, 0x08, 0x39, 0x39, 0x34, 0xf1, 0x42, 0x58, 0xe0, 0x4d, 0xda, 0x68, 0xd6, 0x9e, 0x20, 0x4d, 0xc9, 0x7f, 0xdf, 0x2d, 0x11, 0x06, 0xfd, 0x52, 0x14, 0x2d, 0x30, 0xe4, 0x01, 0x0c, 0x48, 0x1c, 0xf5, 0x51, 0x69, 0x23, 0xae, 0x02, 0x4b, 0x27, 0xae, 0xed, 0xd7, 0x13, 0xce, 0x64, 0xcd, 0x62, 0xe0, 0x39, 0xe4, 0xa2, 0xb0, 0xd7, 0x09, 0x59, 0x49, 0x43, 0x7f, 0x0e, 0x26, 0x1b, 0xcf, 0x0c, 0x01, 0x7e, 0xdf, 0x23, 0xc0, 0xd9, 0x28, 0x4a, 0x03, 0x5b, 0x3c, 0x7d, 0xd8, 0x49, 0x06, 0x13, 0x54, 0x62, 0x5a, 0xa3, 0x7b, 0xa8, 0xc8, 0x01, 0x32, 0xd7, 0xe5, 0xd1, 0xa6, 0x5a, 0xde, 0xf5, 0x44, 0xb4, 0x10, 0xb5, 0xd6, 0xec, 0x0f, 0x15, 0x31, 0xe7, 0x6c, 0xd2, 0x1e, 0x25, 0x1f, 0xb0, 0xbe, 0xca, 0x3e, 0x29, 0x25, 0xbd, 0x08, 0x69, 0x46, 0x2d, 0x7f, 0x39, 0xe9, 0x67, 0x6b, 0xd4, 0xc5, 0x32, 0x3f, 0x4b, 0x44, 0x58, 0xd2, 0x01, 0x64, 0x3a, 0xcd, 0xb4, 0x16, 0x57, 0xff, 0xae, 0xa3, 0xd4, 0x2e, 0x10, 0x0f, 0x58, 0x81, 0xf8, 0x12, 0xb0, 0x26, 0xac, 0xaa, 0xfc, 0xbf, 0x20, 0x9d, 0xbf, 0x26, 0x8c, 0xd1, 0xe1, 0x27, 0xd8, 0x5d, 0xb7, 0xe6, 0xbd, 0x58, 0xc8, 0xda, 0x6d, 0x23, 0x14, 0xae, 0xf0, 0xcd, 0x35, 0x3c, 0x24, 0x2f, 0x70, 0xfd, 0x18, 0xcd, 0x06, 0x8e, 0xdc, 0xaf, 0x2a, 0x44, 0x7f, 0xd8, 0x01, 0xe6, 0x17, 0x75, 0x83, 0x48, 0x47, 0x47, 0x15, 0xb2, 0x35, 0xf1, 0x49, 0x5b, 0xd0, 0x24, 0x4c, 0x9e, 0x54, 0x48, 0xb1, 0x06, 0xf6, 0x77, 0x79, 0x2b, 0xc9, 0xd7, 0xe0, 0xb5, 0xef, 0x03, 0xf7, 0x6a, 0x28, 0xcb, 0xb4, 0xc4, 0x69, 0x0e, 0x3d, 0xfa, 0x7e, 0xf6, 0x43, 0x94, 0x71, 0x1c, 0xa6, 0xaf, 0x8c, 0xb2, 0xaf, 0xb8, 0xd1, 0x55, 0x65, 0xd4, 0xd3, 0xba, 0x54, 0xd3, 0x06, 0x4e, 0x10, 0xda, 0x93, 0xba, 0x10, 0x57, 0xde, 0x15, 0xe1, 0x4d, 0xdd, 0x08, 0xb4, 0x78, 0x6f, 0x7f, 0xfd, 0x2d, 0xcb, 0xaa, 0xe8, 0x17, 0x43, 0x24, 0xd0, 0x7a, 0x31, 0xc8, 0x13, 0xd6, 0xd0, 0xdc, 0x17, 0x18, 0x96, 0x35, 0x23, 0x49, 0x30, 0x59, 0x39, 0xb0, 0x9f, 0x52, 0xbe, 0x51, 0xa3, 0xf3, 0x94, 0x3c, 0x03, 0x22, 0x34, 0xca, 0x12, 0xcb, 0xd7, 0xcc, 0xf6, 0xba, 0xf5, 0x46, 0x9d, 0x2d, 0x19, 0x0d, 0x5a, 0x62, 0x81, 0xde, 0xd8, 0x4c, 0xc1, 0xec, 0x30, 0x9c, 0xe2, 0x00, 0x49, 0xe7, 0xe9, 0xf9, 0xcc, 0xe7, 0xa1, 0x11, 0x02, 0x0d, 0xfb, 0xeb, 0xf9, 0xd3, 0xb8, 0x98, 0x28, 0x6d, 0x54, 0xc7, 0xc7, 0x7d, 0x47, 0xe8, 0x97, 0x7f, 0x30, 0x24, 0x00, 0xe7, 0x34, 0x0e, 0x73, 0xc3, 0xbb, 0xb2, 0x34, 0x66, 0xaf, 0xed, 0xc7, 0xed, 0xb4, 0xc9, 0x93, 0x4f, 0x65, 0xa6, 0x71, 0x7f, 0xd2, 0x77, 0x1c, 0xc2, 0x40, 0xc7, 0xcd, 0xfb, 0x05, 0xaa, 0xcb, 0xea, 0x36, 0xed, 0xec, 0xef, 0x16, 0x60, 0xf9, 0x12, 0xa0, 0xd7, 0xff, 0x3f, 0x4b, 0xcd, 0x41, 0x30, 0xe6, 0xcd, 0x2f, 0x67, 0xf6, 0x42, 0x36, 0x9a, 0x30, 0xd4, 0x28, 0x6a, 0xa6, 0x22, 0x7f, 0xcb, 0xde, 0xda, 0x05, 0x6e, 0x09, 0x72, 0xe4, 0x34, 0x4f, 0xd5, 0x3f, 0x27, 0x0c, 0xef, 0xbe, 0x1c, 0xfb, 0x91, 0x61, 0xc2, 0x4b, 0xca, 0xdf, 0x3d, 0x35, 0x2e, 0x52, 0x0a, 0xf2, 0x5f, 0x2c, 0x30, 0xfb, 0xd5, 0xcf, 0xd5, 0x3b, 0x93, 0xd3, 0x23, 0x97, 0xaa, 0xbc, 0x2b, 0x06, 0xfc, 0xc4, 0x0b, 0x26, 0xa5, 0xb6, 0xef, 0x57, 0x1d, 0x33, 0xf4, 0x4f, 0x84, 0x46, 0x44, 0x20, 0x7f, 0x71, 0x39, 0x8e, 0x77, 0x7f, 0xa3, 0x09, 0x32, 0xe3, 0x19, 0x77, 0x93, 0xee, 0xd7, 0xd6, 0xc0, 0x62, 0x0e, 0x48, 0xf5, 0xb1, 0xee, 0xd1, 0xe1, 0xad, 0xc5, 0x5f, 0x1b, 0xf5, 0x3d, 0x12, 0x34, 0xf6, 0x3b, 0x5d, 0xf1, 0xfa, 0x61, 0x99, 0x3e, 0x1d, 0x55, 0xe5, 0x3d, 0x3c, 0x65, 0x27, 0x76, 0xce, 0x44, 0xd5, 0xe6, 0x3e, 0xf4, 0xc4, 0x03, 0x88, 0xf4, 0x81, 0xfe, 0x3a, 0xeb, 0x7c, 0x1f, 0x0d, 0xbe, 0xee, 0xeb, 0x10, 0xaf, 0x5a, 0x1e, 0xb3, 0xec, 0x09, 0x5a, 0x9d, 0x35, 0x4b, 0xff, 0x04, 0x1c, 0x49, 0xb6, 0xdc, 0xc6, 0x65, 0x5d, 0x30, 0xb3, 0xcd, 0x39, 0x5c, 0xba, 0xb8, 0x1b, 0x6a, 0xcb, 0x2a, 0xd3, 0x04, 0xcf, 0x0d, 0x71, 0x0d, 0x6f, 0x54, 0xe4, 0xc3, 0xe6, 0xe9, 0xf6, 0x30, 0xfb, 0x35, 0x33, 0x4b, 0xc0, 0xe5, 0x77, 0x91, 0x31, 0x7f, 0x9c, 0x32, 0xed, 0xaf, 0x4f, 0x53, 0xa8, 0x01, 0x11, 0x42, 0xb0, 0x41, 0x88, 0x34, 0xb9, 0x12, 0x3b, 0x41, 0x49, 0x0e, 0xc8, 0xfd, 0xb7, 0x59, 0x1b, 0x18, 0xf9, 0x14, 0x23, 0x38, 0x41, 0xbf, 0xce, 0x1d, 0x33, 0x57, 0xf0, 0x03, 0xa4, 0xa6, 0xdf, 0x74, 0x56, 0x0c, 0x5d, 0x31, 0xa3, 0xbd, 0x81, 0x4c, 0xe6, 0xf2, 0x15, 0x5e, 0xd9, 0x62, 0x09, 0x26, 0x02, 0x33, 0x87, 0x5a, 0x28, 0xca, 0xca, 0xd1, 0xf8, 0x6e, 0x5c, 0x1f, 0x28, 0x0c, 0xbf, 0x3e, 0x10, 0xaa, 0xab, 0xca, 0xea, 0xd1, 0xf9, 0x25, 0x65, 0xc3, 0xb5, 0xb6, 0x41, 0x91, 0x49, 0xf0, 0x9e, 0xe8, 0x14, 0x28, 0x81, 0x42, 0xf8, 0x3e, 0xdf, 0x49, 0xa7, 0xe2, 0x7a, 0x95, 0xd0, 0x19, 0x50, 0x4e, 0x53, 0x9d, 0xa8, 0x2a, 0xcd, 0xfe, 0xfe, 0x0b, 0xa7, 0xf0, 0xb7, 0xc9, 0x43, 0x0c, 0x78, 0xba, 0x6e, 0xf5, 0x2c, 0x84, 0xaf, 0x32, 0xa8, 0xfc, 0x25, 0x55, 0xb2, 0x7f, 0xee, 0x5d, 0xc8, 0x0f, 0xb1, 0xa9, 0xb8, 0x02, 0x92, 0x78, 0x26, 0x49, 0xfe, 0x32, 0xca, 0x7f, 0x35, 0xc3, 0x1a, 0xe2, 0xb0, 0xe8, 0x4a, 0x32, 0x1c, 0x6e, 0xdb, 0xaa, 0x9e, 0x8f, 0x71, 0x00, 0x3a, 0xe2, 0xc7, 0x1e, 0x43, 0x37, 0x4e, 0x15, 0xcc, 0xf1, 0xb5, 0xa0, 0x03, 0xdc, 0x51, 0x63, 0x94, 0xfa, 0x51, 0xc1, 0xd3, 0xcf, 0x58, 0x7b, 0x0c, 0x1c, 0xaf, 0xa0, 0x17, 0xcf, 0xca, 0x51, 0x0c, 0x67, 0x48, 0xb3, 0x54, 0xe2, 0x07, 0x7d, 0x93, 0x53, 0xf4, 0xbe, 0x2d, 0x79, 0x92, 0xf6, 0xe1, 0xf5, 0xcd, 0x37, 0xd2, 0x9d, 0x7d, 0x27, 0x17, 0xcc, 0x6e, 0x0a, 0x19, 0x35, 0x47, 0x4e, 0xea, 0xad, 0x8a, 0x7f, 0x0f, 0xd6, 0x4a, 0x0e, 0xa7, 0xe9, 0x10, 0x21, 0x2a, 0x96, 0x34, 0x93, 0xf6, 0x37, 0xf9, 0x1a, 0xea, 0xd4, 0x06, 0xca, 0x26, 0x3c, 0xb4, 0x44, 0x6f, 0x0a, 0x21, 0xdf, 0x86, 0x4e, 0x1b, 0x8d, 0x46, 0x53, 0x94, 0x20, 0x81, 0xf7, 0xad, 0x4d, 0xbb, 0xc9, 0xda, 0x18, 0x43, 0xcc, 0xae, 0x63, 0xc8, 0x86, 0xb2, 0xa6, 0xd8, 0x1d, 0xc8, 0x0c, 0x91, 0x7f, 0x37, 0xe2, 0xc9, 0x17, 0x1d, 0x23, 0x2f, 0x3a, 0x7e, 0x45, 0xf0, 0x14, 0x50, 0x22, 0x4a, 0xfc, 0xb7, 0xcc, 0x2b, 0x1a, 0x31, 0x90, 0x48, 0xe0, 0x10, 0xaf, 0xda, 0xe5, 0x06, 0xad, 0xb6, 0x1f, 0x1d, 0x3b, 0x01, 0x6d, 0xbb, 0x10, 0xa4, 0x18, 0xa4, 0x3a, 0x14, 0x9e, 0x2c, 0x00, 0x22, 0x6a, 0x63, 0x6a, 0xb0, 0xc7, 0x8b, 0x02, 0x4a, 0x27, 0x4f, 0x30, 0x98, 0xb6, 0xb2, 0x7f, 0xa5, 0xc6, 0xf4, 0xe2, 0x5b, 0xb4, 0x40, 0xbd, 0xf8, 0xe5, 0x60, 0xef, 0x4a, 0x9c, 0xec, 0xa2, 0xc3, 0x75, 0xbb, 0xda, 0x1b, 0x38, 0x29, 0x3a, 0x1e, 0xc4, 0xdb, 0x29, 0xbf, 0x61, 0x01, 0x9b, 0x71, 0xe3, 0x52, 0x62, 0xfc, 0xf7, 0x19, 0x69, 0x11, 0xe5, 0xd4, 0xe9, 0x7f, 0x1b, 0xe8, 0x6a, 0x0d, 0x96, 0x22, 0xf4, 0x3d, 0xed, 0x05, 0xdd, 0x2b, 0xe4, 0xbe, 0xfb, 0x7b, 0x43, 0xe9, 0xce, 0xd6, 0x3d, 0x50, 0x38, 0x36, 0x3a, 0x0b, 0xee, 0xe0, 0x49, 0xe6, 0xb6, 0x51, 0xf1, 0x1a, 0x17, 0xff, 0x35, 0x27, 0x19, 0x97, 0x45, 0xf6, 0xc0, 0x9b, 0xdd, 0x2a, 0x44, 0x38, 0x07, 0x39, 0xd2, 0x49, 0xea, 0x55, 0x51, 0x06, 0x47, 0x30, 0x21, 0xae, 0x2d, 0x42, 0x45, 0x02, 0xc5, 0x08, 0xeb, 0xfe, 0x0d, 0x06, 0x4a, 0x23, 0x7f, 0x30, 0x93, 0xc5, 0x34, 0x98, 0xa2, 0x35, 0xdf, 0xc9, 0x45, 0x50, 0x28, 0x64, 0xf7, 0x45, 0xea, 0x32, 0xc9, 0x20, 0xba, 0x13, 0xc5, 0x3a, 0xc8, 0xb1, 0xa1, 0xcf, 0xc7, 0x3b, 0x1d, 0x21, 0xc3, 0xe1, 0x65, 0xf6, 0xbe, 0x6e, 0x33, 0x23, 0xa8, 0x1d, 0xe6, 0xf5, 0x11, 0x21, 0x49, 0xcd, 0x53, 0x9f, 0x7f, 0x33, 0x6f, 0x79, 0x21, 0xd7, 0xb4, 0x52, 0x7a, 0x3c, 0x3d, 0x7f, 0xcb, 0x54, 0xfd, 0xeb, 0xba, 0x0c, 0x3d, 0xe4, 0x1c, 0xed, 0xd1, 0x0c, 0xff, 0xb7, 0xee, 0xe4, 0xb7, 0x57, 0x45, 0x13, 0x52, 0xac, 0x0b, 0x2d, 0x59, 0xd0, 0xf7, 0x3e, 0x1c, 0x2c, 0x36, 0xc6, 0x91, 0x75, 0xb0, 0x3b, 0x2e, 0x6f, 0xbc, 0xc4, 0xf4, 0x63, 0x6a, 0xcb, 0x29, 0x59, 0xba, 0xfb, 0xff, 0xff, 0x04, 0x00, 0x00, 0x00, 0x80, 0x00, 0x00, 0x00, 0xf2, 0x01, 0x00, 0x00, 0x39, 0x03, 0x00, 0x00, 0xda, 0x03, 0x00, 0x00, 0x5f, 0x00, 0x00, 0x00, 0xb4, 0x02, 0x00, 0x00, 0x0c, 0x02, 0x00, 0x00, 0x22, 0x00, 0x00, 0x00, 0x1f, 0x02, 0x00, 0x00, 0x4f, 0x02, 0x00, 0x00, 0x3a, 0x03, 0x00, 0x00, 0x28, 0x00, 0x00, 0x00, 0x18, 0xff, 0xff, 0xff, 0x86, 0x02, 0x00, 0x00, 0x5e, 0xff, 0xff, 0xff, 0x74, 0x04, 0x00, 0x00, 0x64, 0x02, 0x00, 0x00, 0x1c, 0xff, 0xff, 0xff, 0xeb, 0x04, 0x00, 0x00, 0x23, 0x00, 0x00, 0x00, 0x8a, 0x04, 0x00, 0x00, 0xd0, 0x00, 0x00, 0x00, 0xdc, 0xff, 0xff, 0xff, 0x48, 0xff, 0xff, 0xff, 0x44, 0x02, 0x00, 0x00, 0xd5, 0x02, 0x00, 0x00, 0xa1, 0xfe, 0xff, 0xff, 0x2a, 0x00, 0x00, 0x00, 0xbc, 0xfe, 0xff, 0xff, 0x5f, 0x03, 0x00, 0x00, 0x7d, 0xfe, 0xff, 0xff, 0xb4, 0x02, 0x00, 0x00, 0x4c, 0x03, 0x00, 0x00, 0x46, 0xfc, 0xff, 0xff, 0x04, 0x00, 0x00, 0x00, 0x80, 0x01, 0x00, 0x00, 0x56, 0x2c, 0xb9, 0xf6, 0x30, 0x6e, 0xbe, 0x1e, 0xdc, 0x33, 0x39, 0xb0, 0xb5, 0x87, 0x89, 0x85, 0xc5, 0x68, 0xe3, 0x7f, 0xaf, 0xe5, 0xbc, 0x4f, 0x4a, 0x53, 0xbb, 0xc4, 0xcd, 0xca, 0xce, 0x19, 0x0a, 0x6e, 0xdc, 0xd5, 0xdc, 0xf8, 0x9e, 0xc6, 0x0b, 0xe2, 0xd7, 0xbd, 0xcf, 0xad, 0xf6, 0xab, 0xb4, 0x1b, 0xf3, 0x42, 0x52, 0xa3, 0xee, 0xb8, 0x1c, 0xaa, 0xe3, 0x15, 0x0c, 0xfd, 0x40, 0x1d, 0x5f, 0xd8, 0x6b, 0x98, 0x98, 0xc3, 0x42, 0x0d, 0x37, 0x08, 0x5b, 0xb0, 0xc2, 0xa1, 0x5a, 0xb5, 0x74, 0x6f, 0x84, 0xd3, 0xee, 0x1b, 0x99, 0x08, 0x78, 0x3c, 0x5d, 0x56, 0xbb, 0x8f, 0x46, 0xd0, 0x21, 0xd4, 0xcd, 0xe2, 0x22, 0x0b, 0xf6, 0xee, 0xff, 0x13, 0xd5, 0xe6, 0xe3, 0x30, 0x01, 0xcd, 0x05, 0x18, 0x04, 0xd3, 0x05, 0x15, 0xd8, 0xdc, 0xe9, 0xd4, 0xef, 0x03, 0xef, 0x0a, 0x03, 0x2f, 0x1e, 0xd7, 0xce, 0x1b, 0x32, 0x0a, 0x07, 0xee, 0x03, 0xfa, 0x13, 0xee, 0xe6, 0xeb, 0x09, 0xd2, 0xd8, 0xd2, 0xd9, 0xd0, 0xf6, 0xe7, 0x11, 0x13, 0xd8, 0x02, 0xe1, 0xea, 0x30, 0xfb, 0x29, 0xed, 0xea, 0xcb, 0x0d, 0x18, 0x35, 0x81, 0x1e, 0x04, 0x08, 0x21, 0x18, 0x21, 0xfd, 0x32, 0xcd, 0xcf, 0xe6, 0x11, 0x1f, 0xd6, 0xdb, 0x12, 0x12, 0x0d, 0xc7, 0xe1, 0x13, 0xfa, 0x22, 0x19, 0x32, 0x1c, 0x0d, 0xb1, 0xcf, 0x30, 0x81, 0x59, 0x43, 0x14, 0x22, 0xb8, 0xcb, 0xc9, 0xda, 0xb4, 0x32, 0x08, 0xed, 0x00, 0x39, 0x1b, 0xfc, 0xd6, 0x2c, 0x13, 0xbf, 0x08, 0x05, 0x15, 0xee, 0x36, 0x1b, 0x0d, 0xef, 0xac, 0xae, 0x5e, 0xfb, 0xd9, 0x4b, 0xb7, 0xb6, 0xe2, 0x2e, 0xe9, 0x51, 0x2a, 0x6f, 0xc4, 0x33, 0xf6, 0x37, 0xdc, 0x31, 0xf3, 0xdf, 0x14, 0xd4, 0x10, 0x04, 0xd1, 0xa6, 0x04, 0x30, 0xe4, 0x38, 0x18, 0xc2, 0x45, 0xde, 0x50, 0x22, 0xd7, 0xb1, 0x1d, 0x3e, 0x44, 0xd2, 0x43, 0x31, 0x16, 0xdf, 0x25, 0x08, 0xe2, 0x05, 0x55, 0x3d, 0xa7, 0x48, 0x40, 0x07, 0x25, 0xf5, 0x4d, 0xbe, 0xbc, 0xec, 0xde, 0xfd, 0x26, 0x32, 0x16, 0x28, 0x1e, 0x23, 0xf9, 0x28, 0x0a, 0x51, 0xd5, 0xbf, 0x31, 0xe1, 0xda, 0x29, 0xb9, 0x0b, 0x15, 0x30, 0x1e, 0xc3, 0x2e, 0x03, 0x0f, 0x16, 0x31, 0xdc, 0x1f, 0xbe, 0x50, 0xd1, 0xe9, 0xc7, 0x00, 0x25, 0xd1, 0x41, 0xda, 0x08, 0xfd, 0x0b, 0xca, 0x1a, 0x4c, 0xcf, 0x0c, 0xfc, 0x34, 0xc7, 0xbb, 0x35, 0x3c, 0x01, 0xd1, 0xb2, 0xf5, 0xfd, 0xf9, 0xaf, 0xc0, 0x44, 0xe1, 0xb4, 0xf5, 0x22, 0x81, 0xaa, 0xe9, 0xf5, 0xb5, 0xb9, 0xdb, 0xcc, 0x0f, 0xc0, 0x27, 0x2b, 0xe4, 0xdf, 0x46, 0x0d, 0x31, 0xc1, 0x39, 0xcc, 0xd0, 0x12, 0xd5, 0xc8, 0x23, 0xf6, 0xb2, 0xd2, 0xfd, 0xff, 0xff, 0x04, 0x00, 0x00, 0x00, 0x10, 0x00, 0x00, 0x00, 0x1a, 0x02, 0x00, 0x00, 0x92, 0x00, 0x00, 0x00, 0xe7, 0xfe, 0xff, 0xff, 0x55, 0xff, 0xff, 0xff, 0xee, 0xfd, 0xff, 0xff, 0x04, 0x00, 0x00, 0x00, 0x04, 0x00, 0x00, 0x00, 0x60, 0x00, 0x00, 0x00, 0xb4, 0xe4, 0xff, 0xff, 0x02, 0xfe, 0xff, 0xff, 0x04, 0x00, 0x00, 0x00, 0x04, 0x00, 0x00, 0x00, 0x00, 0x00, 0x00, 0x00, 0x12, 0xfe, 0xff, 0xff, 0x04, 0x00, 0x00, 0x00, 0x0c, 0x00, 0x00, 0x00, 0xff, 0xff, 0xff, 0xff, 0x03, 0x00, 0x00, 0x00, 0x20, 0x00, 0x00, 0x00, 0x2a, 0xfe, 0xff, 0xff, 0x04, 0x00, 0x00, 0x00, 0x0c, 0x00, 0x00, 0x00, 0xff, 0xff, 0xff, 0xff, 0x07, 0x00, 0x00, 0x00, 0x20, 0x00, 0x00, 0x00, 0x42, 0xfe, 0xff, 0xff, 0x04, 0x00, 0x00, 0x00, 0x0c, 0x00, 0x00, 0x00, 0xff, 0xff, 0xff, 0xff, 0x07, 0x00, 0x00, 0x00, 0x10, 0x00, 0x00, 0x00, 0x5a, 0xfe, 0xff, 0xff, 0x04, 0x00, 0x00, 0x00, 0x04, 0x00, 0x00, 0x00, 0x01, 0x00, 0x00, 0x00, 0x6a, 0xfe, 0xff, 0xff, 0x04, 0x00, 0x00, 0x00, 0x0c, 0x00, 0x00, 0x00, 0xff, 0xff, 0xff, 0xff, 0x0e, 0x00, 0x00, 0x00, 0x10, 0x00, 0x00, 0x00, 0x82, 0xfe, 0xff, 0xff, 0x04, 0x00, 0x00, 0x00, 0x04, 0x00, 0x00, 0x00, 0xfd, 0xff, 0xff, 0xff, 0x48, 0xe5, 0xff, 0xff, 0x4c, 0xe5, 0xff, 0xff, 0x0f, 0x00, 0x00, 0x00, 0x4d, 0x4c, 0x49, 0x52, 0x20, 0x43, 0x6f, 0x6e, 0x76, 0x65, 0x72, 0x74, 0x65, 0x64, 0x2e, 0x00, 0x01, 0x00, 0x00, 0x00, 0x14, 0x00, 0x00, 0x00, 0x00, 0x00, 0x0e, 0x00, 0x18, 0x00, 0x14, 0x00, 0x10, 0x00, 0x0c, 0x00, 0x08, 0x00, 0x04, 0x00, 0x0e, 0x00, 0x00, 0x00, 0x14, 0x00, 0x00, 0x00, 0x1c, 0x00, 0x00, 0x00, 0x94, 0x04, 0x00, 0x00, 0x98, 0x04, 0x00, 0x00, 0x9c, 0x04, 0x00, 0x00, 0x04, 0x00, 0x00, 0x00, 0x6d, 0x61, 0x69, 0x6e, 0x00, 0x00, 0x00, 0x00, 0x14, 0x00, 0x00, 0x00, 0x5c, 0x04, 0x00, 0x00, 0x1c, 0x04, 0x00, 0x00, 0xbc, 0x03, 0x00, 0x00, 0x94, 0x03, 0x00, 0x00, 0x54, 0x03, 0x00, 0x00, 0x00, 0x03, 0x00, 0x00, 0xc8, 0x02, 0x00, 0x00, 0x94, 0x02, 0x00, 0x00, 0x50, 0x02, 0x00, 0x00, 0x28, 0x02, 0x00, 0x00, 0xf4, 0x01, 0x00, 0x00, 0xb0, 0x01, 0x00, 0x00, 0x88, 0x01, 0x00, 0x00, 0x4c, 0x01, 0x00, 0x00, 0xfc, 0x00, 0x00, 0x00, 0xbc, 0x00, 0x00, 0x00, 0x94, 0x00, 0x00, 0x00, 0x5c, 0x00, 0x00, 0x00, 0x28, 0x00, 0x00, 0x00, 0x04, 0x00, 0x00, 0x00, 0xba, 0xfc, 0xff, 0xff, 0x0c, 0x00, 0x00, 0x00, 0x10, 0x00, 0x00, 0x00, 0x0a, 0x00, 0x00, 0x00, 0x01, 0x00, 0x00, 0x00, 0x23, 0x00, 0x00, 0x00, 0x01, 0x00, 0x00, 0x00, 0x22, 0x00, 0x00, 0x00, 0x5e, 0xfc, 0xff, 0xff, 0x14, 0x00, 0x00, 0x00, 0x00, 0x00, 0x00, 0x09, 0x14, 0x00, 0x00, 0x00, 0x18, 0x00, 0x00, 0x00, 0x09, 0x00, 0x00, 0x00, 0x76, 0xff, 0xff, 0xff, 0x00, 0x00, 0x80, 0x3f, 0x01, 0x00, 0x00, 0x00, 0x22, 0x00, 0x00, 0x00, 0x01, 0x00, 0x00, 0x00, 0x21, 0x00, 0x00, 0x00, 0x8e, 0xfc, 0xff, 0xff, 0x14, 0x00, 0x00, 0x00, 0x00, 0x00, 0x00, 0x08, 0x10, 0x00, 0x00, 0x00, 0x14, 0x00, 0x00, 0x00, 0x08, 0x00, 0x00, 0x00, 0x5c, 0xe6, 0xff, 0xff, 0x01, 0x00, 0x00, 0x00, 0x21, 0x00, 0x00, 0x00, 0x03, 0x00, 0x00, 0x00, 0x20, 0x00, 0x00, 0x00, 0x0b, 0x00, 0x00, 0x00, 0x0a, 0x00, 0x00, 0x00, 0x3e, 0xfd, 0xff, 0xff, 0x0c, 0x00, 0x00, 0x00, 0x10, 0x00, 0x00, 0x00, 0x03, 0x00, 0x00, 0x00, 0x01, 0x00, 0x00, 0x00, 0x20, 0x00, 0x00, 0x00, 0x02, 0x00, 0x00, 0x00, 0x1b, 0x00, 0x00, 0x00, 0x1f, 0x00, 0x00, 0x00, 0xf2, 0xfd, 0xff, 0xff, 0x1c, 0x00, 0x00, 0x00, 0x00, 0x00, 0x00, 0x3b, 0x1c, 0x00, 0x00, 0x00, 0x20, 0x00, 0x00, 0x00, 0x07, 0x00, 0x00, 0x00, 0x00, 0x00, 0x06, 0x00, 0x08, 0x00, 0x04, 0x00, 0x06, 0x00, 0x00, 0x00, 0x02, 0x00, 0x00, 0x00, 0x01, 0x00, 0x00, 0x00, 0x1f, 0x00, 0x00, 0x00, 0x02, 0x00, 0x00, 0x00, 0x1e, 0x00, 0x00, 0x00, 0x09, 0x00, 0x00, 0x00, 0x2e, 0xfe, 0xff, 0xff, 0x24, 0x00, 0x00, 0x00, 0x00, 0x00, 0x00, 0x20, 0x24, 0x00, 0x00, 0x00, 0x28, 0x00, 0x00, 0x00, 0x06, 0x00, 0x00, 0x00, 0x00, 0x00, 0x0e, 0x00, 0x08, 0x00, 0x00, 0x00, 0x00, 0x00, 0x00, 0x00, 0x00, 0x00, 0x04, 0x00, 0x0e, 0x00, 0x00, 0x00, 0x01, 0x00, 0x00, 0x00, 0x01, 0x00, 0x00, 0x00, 0x1e, 0x00, 0x00, 0x00, 0x04, 0x00, 0x00, 0x00, 0x1d, 0x00, 0x00, 0x00, 0x07, 0x00, 0x00, 0x00, 0x08, 0x00, 0x00, 0x00, 0x08, 0x00, 0x00, 0x00, 0x7a, 0xfe, 0xff, 0xff, 0x1c, 0x00, 0x00, 0x00, 0x00, 0x00, 0x00, 0x37, 0x1c, 0x00, 0x00, 0x00, 0x20, 0x00, 0x00, 0x00, 0x05, 0x00, 0x00, 0x00, 0x00, 0x00, 0x06, 0x00, 0x08, 0x00, 0x07, 0x00, 0x06, 0x00, 0x00, 0x00, 0x00, 0x00, 0x00, 0x02, 0x01, 0x00, 0x00, 0x00, 0x1d, 0x00, 0x00, 0x00, 0x01, 0x00, 0x00, 0x00, 0x1c, 0x00, 0x00, 0x00, 0x22, 0xfe, 0xff, 0xff, 0x0c, 0x00, 0x00, 0x00, 0x10, 0x00, 0x00, 0x00, 0x03, 0x00, 0x00, 0x00, 0x01, 0x00, 0x00, 0x00, 0x1c, 0x00, 0x00, 0x00, 0x02, 0x00, 0x00, 0x00, 0x1b, 0x00, 0x00, 0x00, 0x06, 0x00, 0x00, 0x00, 0xca, 0xfd, 0xff, 0xff, 0x14, 0x00, 0x00, 0x00, 0x00, 0x00, 0x00, 0x05, 0x24, 0x00, 0x00, 0x00, 0x28, 0x00, 0x00, 0x00, 0x04, 0x00, 0x00, 0x00, 0xc6, 0xfe, 0xff, 0xff, 0x01, 0x00, 0x00, 0x00, 0x02, 0x00, 0x00, 0x00, 0x01, 0x00, 0x00, 0x00, 0x02, 0x00, 0x00, 0x00, 0x00, 0x00, 0x00, 0x01, 0x01, 0x00, 0x00, 0x00, 0x1b, 0x00, 0x00, 0x00, 0x01, 0x00, 0x00, 0x00, 0x1a, 0x00, 0x00, 0x00, 0x0a, 0xfe, 0xff, 0xff, 0x14, 0x00, 0x00, 0x00, 0x00, 0x00, 0x00, 0x34, 0x10, 0x00, 0x00, 0x00, 0x14, 0x00, 0x00, 0x00, 0x01, 0x00, 0x00, 0x00, 0xd8, 0xe7, 0xff, 0xff, 0x01, 0x00, 0x00, 0x00, 0x1a, 0x00, 0x00, 0x00, 0x02, 0x00, 0x00, 0x00, 0x19, 0x00, 0x00, 0x00, 0x03, 0x00, 0x00, 0x00, 0xb6, 0xfe, 0xff, 0xff, 0x0c, 0x00, 0x00, 0x00, 0x10, 0x00, 0x00, 0x00, 0x03, 0x00, 0x00, 0x00, 0x01, 0x00, 0x00, 0x00, 0x19, 0x00, 0x00, 0x00, 0x02, 0x00, 0x00, 0x00, 0x18, 0x00, 0x00, 0x00, 0x05, 0x00, 0x00, 0x00, 0x5e, 0xfe, 0xff, 0xff, 0x14, 0x00, 0x00, 0x00, 0x00, 0x00, 0x00, 0x01, 0x1c, 0x00, 0x00, 0x00, 0x20, 0x00, 0x00, 0x00, 0x02, 0x00, 0x00, 0x00, 0xac, 0xfe, 0xff, 0xff, 0x00, 0x00, 0x00, 0x01, 0x01, 0x00, 0x00, 0x00, 0x01, 0x00, 0x00, 0x00, 0x01, 0x00, 0x00, 0x00, 0x18, 0x00, 0x00, 0x00, 0x03, 0x00, 0x00, 0x00, 0x17, 0x00, 0x00, 0x00, 0x0d, 0x00, 0x00, 0x00, 0x0c, 0x00, 0x00, 0x00, 0x9e, 0xfe, 0xff, 0xff, 0x14, 0x00, 0x00, 0x00, 0x00, 0x00, 0x00, 0x34, 0x10, 0x00, 0x00, 0x00, 0x14, 0x00, 0x00, 0x00, 0x01, 0x00, 0x00, 0x00, 0x6c, 0xe8, 0xff, 0xff, 0x01, 0x00, 0x00, 0x00, 0x17, 0x00, 0x00, 0x00, 0x02, 0x00, 0x00, 0x00, 0x16, 0x00, 0x00, 0x00, 0x01, 0x00, 0x00, 0x00, 0x4a, 0xff, 0xff, 0xff, 0x0c, 0x00, 0x00, 0x00, 0x10, 0x00, 0x00, 0x00, 0x03, 0x00, 0x00, 0x00, 0x01, 0x00, 0x00, 0x00, 0x16, 0x00, 0x00, 0x00, 0x02, 0x00, 0x00, 0x00, 0x15, 0x00, 0x00, 0x00, 0x04, 0x00, 0x00, 0x00, 0x00, 0x00, 0x0e, 0x00, 0x1a, 0x00, 0x14, 0x00, 0x10, 0x00, 0x0c, 0x00, 0x0b, 0x00, 0x04, 0x00, 0x0e, 0x00, 0x00, 0x00, 0x24, 0x00, 0x00, 0x00, 0x00, 0x00, 0x00, 0x05, 0x34, 0x00, 0x00, 0x00, 0x38, 0x00, 0x00, 0x00, 0x04, 0x00, 0x00, 0x00, 0x00, 0x00, 0x0e, 0x00, 0x18, 0x00, 0x17, 0x00, 0x10, 0x00, 0x0c, 0x00, 0x08, 0x00, 0x04, 0x00, 0x0e, 0x00, 0x00, 0x00, 0x01, 0x00, 0x00, 0x00, 0x02, 0x00, 0x00, 0x00, 0x01, 0x00, 0x00, 0x00, 0x02, 0x00, 0x00, 0x00, 0x00, 0x00, 0x00, 0x01, 0x01, 0x00, 0x00, 0x00, 0x15, 0x00, 0x00, 0x00, 0x01, 0x00, 0x00, 0x00, 0x14, 0x00, 0x00, 0x00, 0x52, 0xff, 0xff, 0xff, 0x14, 0x00, 0x00, 0x00, 0x00, 0x00, 0x00, 0x34, 0x10, 0x00, 0x00, 0x00, 0x14, 0x00, 0x00, 0x00, 0x01, 0x00, 0x00, 0x00, 0x20, 0xe9, 0xff, 0xff, 0x01, 0x00, 0x00, 0x00, 0x14, 0x00, 0x00, 0x00, 0x02, 0x00, 0x00, 0x00, 0x13, 0x00, 0x00, 0x00, 0x03, 0x00, 0x00, 0x00, 0x00, 0x00, 0x0a, 0x00, 0x10, 0x00, 0x0c, 0x00, 0x08, 0x00, 0x04, 0x00, 0x0a, 0x00, 0x00, 0x00, 0x0c, 0x00, 0x00, 0x00, 0x10, 0x00, 0x00, 0x00, 0x03, 0x00, 0x00, 0x00, 0x01, 0x00, 0x00, 0x00, 0x13, 0x00, 0x00, 0x00, 0x02, 0x00, 0x00, 0x00, 0x12, 0x00, 0x00, 0x00, 0x02, 0x00, 0x00, 0x00, 0xb2, 0xff, 0xff, 0xff, 0x20, 0x00, 0x00, 0x00, 0x00, 0x00, 0x00, 0x01, 0x28, 0x00, 0x00, 0x00, 0x2c, 0x00, 0x00, 0x00, 0x02, 0x00, 0x00, 0x00, 0x0c, 0x00, 0x10, 0x00, 0x00, 0x00, 0x0c, 0x00, 0x08, 0x00, 0x07, 0x00, 0x0c, 0x00, 0x00, 0x00, 0x00, 0x00, 0x00, 0x01, 0x01, 0x00, 0x00, 0x00, 0x01, 0x00, 0x00, 0x00, 0x01, 0x00, 0x00, 0x00, 0x12, 0x00, 0x00, 0x00, 0x03, 0x00, 0x00, 0x00, 0x11, 0x00, 0x00, 0x00, 0x0f, 0x00, 0x00, 0x00, 0x0e, 0x00, 0x00, 0x00, 0x00, 0x00, 0x0e, 0x00, 0x18, 0x00, 0x14, 0x00, 0x10, 0x00, 0x0c, 0x00, 0x0b, 0x00, 0x04, 0x00, 0x0e, 0x00, 0x00, 0x00, 0x14, 0x00, 0x00, 0x00, 0x00, 0x00, 0x00, 0x34, 0x10, 0x00, 0x00, 0x00, 0x14, 0x00, 0x00, 0x00, 0x01, 0x00, 0x00, 0x00, 0xdc, 0xe9, 0xff, 0xff, 0x01, 0x00, 0x00, 0x00, 0x11, 0x00, 0x00, 0x00, 0x02, 0x00, 0x00, 0x00, 0x10, 0x00, 0x00, 0x00, 0x01, 0x00, 0x00, 0x00, 0x00, 0x00, 0x0a, 0x00, 0x0c, 0x00, 0x00, 0x00, 0x08, 0x00, 0x04, 0x00, 0x0a, 0x00, 0x00, 0x00, 0x08, 0x00, 0x00, 0x00, 0x0c, 0x00, 0x00, 0x00, 0x01, 0x00, 0x00, 0x00, 0x10, 0x00, 0x00, 0x00, 0x01, 0x00, 0x00, 0x00, 0x00, 0x00, 0x00, 0x00, 0x01, 0x00, 0x00, 0x00, 0x23, 0x00, 0x00, 0x00, 0x01, 0x00, 0x00, 0x00, 0x00, 0x00, 0x00, 0x00, 0x24, 0x00, 0x00, 0x00, 0xa4, 0x15, 0x00, 0x00, 0x50, 0x15, 0x00, 0x00, 0xf8, 0x14, 0x00, 0x00, 0xbc, 0x14, 0x00, 0x00, 0x7c, 0x14, 0x00, 0x00, 0x3c, 0x14, 0x00, 0x00, 0xfc, 0x13, 0x00, 0x00, 0xbc, 0x13, 0x00, 0x00, 0x7c, 0x13, 0x00, 0x00, 0x40, 0x13, 0x00, 0x00, 0xac, 0x12, 0x00, 0x00, 0x24, 0x12, 0x00, 0x00, 0x50, 0x10, 0x00, 0x00, 0x6c, 0x0e, 0x00, 0x00, 0x58, 0x0d, 0x00, 0x00, 0x34, 0x0c, 0x00, 0x00, 0xbc, 0x0b, 0x00, 0x00, 0x04, 0x0b, 0x00, 0x00, 0xf8, 0x09, 0x00, 0x00, 0x10, 0x09, 0x00, 0x00, 0x70, 0x08, 0x00, 0x00, 0xdc, 0x07, 0x00, 0x00, 0x4c, 0x07, 0x00, 0x00, 0xac, 0x06, 0x00, 0x00, 0xa0, 0x05, 0x00, 0x00, 0xb8, 0x04, 0x00, 0x00, 0x18, 0x04, 0x00, 0x00, 0x84, 0x03, 0x00, 0x00, 0xf4, 0x02, 0x00, 0x00, 0xa8, 0x02, 0x00, 0x00, 0x58, 0x02, 0x00, 0x00, 0x04, 0x02, 0x00, 0x00, 0x80, 0x01, 0x00, 0x00, 0xe4, 0x00, 0x00, 0x00, 0x60, 0x00, 0x00, 0x00, 0x04, 0x00, 0x00, 0x00, 0x02, 0xeb, 0xff, 0xff, 0x00, 0x00, 0x00, 0x01, 0x14, 0x00, 0x00, 0x00, 0x1c, 0x00, 0x00, 0x00, 0x1c, 0x00, 0x00, 0x00, 0x24, 0x00, 0x00, 0x00, 0x34, 0x00, 0x00, 0x00, 0x02, 0x00, 0x00, 0x00, 0xff, 0xff, 0xff, 0xff, 0x04, 0x00, 0x00, 0x00, 0xe8, 0xea, 0xff, 0xff, 0x1b, 0x00, 0x00, 0x00, 0x53, 0x74, 0x61, 0x74, 0x65, 0x66, 0x75, 0x6c, 0x50, 0x61, 0x72, 0x74, 0x69, 0x74, 0x69, 0x6f, 0x6e, 0x65, 0x64, 0x43, 0x61, 0x6c, 0x6c, 0x5f, 0x31, 0x3a, 0x30, 0x00, 0x02, 0x00, 0x00, 0x00, 0x01, 0x00, 0x00, 0x00, 0x04, 0x00, 0x00, 0x00, 0x02, 0xf5, 0xff, 0xff, 0x00, 0x00, 0x00, 0x01, 0x18, 0x00, 0x00, 0x00, 0x20, 0x00, 0x00, 0x00, 0x40, 0x00, 0x00, 0x00, 0x23, 0x00, 0x00, 0x00, 0x00, 0x00, 0x00, 0x09, 0x58, 0x00, 0x00, 0x00, 0x02, 0x00, 0x00, 0x00, 0xff, 0xff, 0xff, 0xff, 0x04, 0x00, 0x00, 0x00, 0x24, 0xee, 0xff, 0xff, 0x08, 0x00, 0x00, 0x00, 0x14, 0x00, 0x00, 0x00, 0x01, 0x00, 0x00, 0x00, 0x80, 0xff, 0xff, 0xff, 0xff, 0xff, 0xff, 0xff, 0x00, 0x00, 0x00, 0x00, 0x01, 0x00, 0x00, 0x00, 0x00, 0x00, 0x80, 0x3b, 0x1c, 0x00, 0x00, 0x00, 0x53, 0x74, 0x61, 0x74, 0x65, 0x66, 0x75, 0x6c, 0x50, 0x61, 0x72, 0x74, 0x69, 0x74, 0x69, 0x6f, 0x6e, 0x65, 0x64, 0x43, 0x61, 0x6c, 0x6c, 0x5f, 0x31, 0x3a, 0x30, 0x31, 0x00, 0x00, 0x00, 0x00, 0x02, 0x00, 0x00, 0x00, 0x01, 0x00, 0x00, 0x00, 0x04, 0x00, 0x00, 0x00, 0x82, 0xf5, 0xff, 0xff, 0x00, 0x00, 0x00, 0x01, 0x18, 0x00, 0x00, 0x00, 0x20, 0x00, 0x00, 0x00, 0x3c, 0x00, 0x00, 0x00, 0x22, 0x00, 0x00, 0x00, 0x00, 0x00, 0x00, 0x09, 0x70, 0x00, 0x00, 0x00, 0x02, 0x00, 0x00, 0x00, 0xff, 0xff, 0xff, 0xff, 0x04, 0x00, 0x00, 0x00, 0xa4, 0xee, 0xff, 0xff, 0x08, 0x00, 0x00, 0x00, 0x10, 0x00, 0x00, 0x00, 0x01, 0x00, 0x00, 0x00, 0x04, 0x00, 0x00, 0x00, 0x00, 0x00, 0x00, 0x00, 0x01, 0x00, 0x00, 0x00, 0x8d, 0xfe, 0x84, 0x3d, 0x38, 0x00, 0x00, 0x00, 0x4b, 0x57, 0x53, 0x5f, 0x31, 0x44, 0x43, 0x4e, 0x4e, 0x5f, 0x31, 0x2f, 0x6f, 0x75, 0x74, 0x70, 0x75, 0x74, 0x5f, 0x31, 0x2f, 0x4d, 0x61, 0x74, 0x4d, 0x75, 0x6c, 0x3b, 0x4b, 0x57, 0x53, 0x5f, 0x31, 0x44, 0x43, 0x4e, 0x4e, 0x5f, 0x31, 0x2f, 0x6f, 0x75, 0x74, 0x70, 0x75, 0x74, 0x5f, 0x31, 0x2f, 0x42, 0x69, 0x61, 0x73, 0x41, 0x64, 0x64, 0x00, 0x00, 0x00, 0x00, 0x02, 0x00, 0x00, 0x00, 0x01, 0x00, 0x00, 0x00, 0x04, 0x00, 0x00, 0x00, 0x1a, 0xf6, 0xff, 0xff, 0x00, 0x00, 0x00, 0x01, 0x18, 0x00, 0x00, 0x00, 0x20, 0x00, 0x00, 0x00, 0x40, 0x00, 0x00, 0x00, 0x21, 0x00, 0x00, 0x00, 0x00, 0x00, 0x00, 0x09, 0x58, 0x00, 0x00, 0x00, 0x02, 0x00, 0x00, 0x00, 0xff, 0xff, 0xff, 0xff, 0x60, 0x00, 0x00, 0x00, 0x3c, 0xef, 0xff, 0xff, 0x08, 0x00, 0x00, 0x00, 0x14, 0x00, 0x00, 0x00, 0x01, 0x00, 0x00, 0x00, 0x80, 0xff, 0xff, 0xff, 0xff, 0xff, 0xff, 0xff, 0x00, 0x00, 0x00, 0x00, 0x01, 0x00, 0x00, 0x00, 0xd8, 0x34, 0xa9, 0x3c, 0x1d, 0x00, 0x00, 0x00, 0x4b, 0x57, 0x53, 0x5f, 0x31, 0x44, 0x43, 0x4e, 0x4e, 0x5f, 0x31, 0x2f, 0x66, 0x6c, 0x61, 0x74, 0x74, 0x65, 0x6e, 0x5f, 0x31, 0x2f, 0x52, 0x65, 0x73, 0x68, 0x61, 0x70, 0x65, 0x00, 0x00, 0x00, 0x02, 0x00, 0x00, 0x00, 0x01, 0x00, 0x00, 0x00, 0x60, 0x00, 0x00, 0x00, 0x42, 0xed, 0xff, 0xff, 0x00, 0x00, 0x00, 0x01, 0x14, 0x00, 0x00, 0x00, 0x14, 0x00, 0x00, 0x00, 0x20, 0x00, 0x00, 0x00, 0x00, 0x00, 0x00, 0x02, 0x30, 0x00, 0x00, 0x00, 0xcc, 0xec, 0xff, 0xff, 0x23, 0x00, 0x00, 0x00, 0x4b, 0x57, 0x53, 0x5f, 0x31, 0x44, 0x43, 0x4e, 0x4e, 0x5f, 0x31, 0x2f, 0x66, 0x6c, 0x61, 0x74, 0x74, 0x65, 0x6e, 0x5f, 0x31, 0x2f, 0x52, 0x65, 0x73, 0x68, 0x61, 0x70, 0x65, 0x2f, 0x73, 0x68, 0x61, 0x70, 0x65, 0x00, 0x01, 0x00, 0x00, 0x00, 0x02, 0x00, 0x00, 0x00, 0x92, 0xed, 0xff, 0xff, 0x00, 0x00, 0x00, 0x01, 0x14, 0x00, 0x00, 0x00, 0x14, 0x00, 0x00, 0x00, 0x1f, 0x00, 0x00, 0x00, 0x00, 0x00, 0x00, 0x02, 0x30, 0x00, 0x00, 0x00, 0x1c, 0xed, 0xff, 0xff, 0x23, 0x00, 0x00, 0x00, 0x4b, 0x57, 0x53, 0x5f, 0x31, 0x44, 0x43, 0x4e, 0x4e, 0x5f, 0x31, 0x2f, 0x66, 0x6c, 0x61, 0x74, 0x74, 0x65, 0x6e, 0x5f, 0x31, 0x2f, 0x73, 0x74, 0x72, 0x69, 0x64, 0x65, 0x64, 0x5f, 0x73, 0x6c, 0x69, 0x63, 0x65, 0x00, 0x00, 0x00, 0x00, 0x00, 0xde, 0xed, 0xff, 0xff, 0x00, 0x00, 0x00, 0x01, 0x14, 0x00, 0x00, 0x00, 0x14, 0x00, 0x00, 0x00, 0x1e, 0x00, 0x00, 0x00, 0x00, 0x00, 0x00, 0x02, 0x28, 0x00, 0x00, 0x00, 0x68, 0xed, 0xff, 0xff, 0x1b, 0x00, 0x00, 0x00, 0x4b, 0x57, 0x53, 0x5f, 0x31, 0x44, 0x43, 0x4e, 0x4e, 0x5f, 0x31, 0x2f, 0x66, 0x6c, 0x61, 0x74, 0x74, 0x65, 0x6e, 0x5f, 0x31, 0x2f, 0x53, 0x68, 0x61, 0x70, 0x65, 0x00, 0x01, 0x00, 0x00, 0x00, 0x03, 0x00, 0x00, 0x00, 0x7e, 0xf7, 0xff, 0xff, 0x00, 0x00, 0x00, 0x01, 0x18, 0x00, 0x00, 0x00, 0x24, 0x00, 0x00, 0x00, 0x40, 0x00, 0x00, 0x00, 0x1d, 0x00, 0x00, 0x00, 0x00, 0x00, 0x00, 0x09, 0x60, 0x00, 0x00, 0x00, 0x03, 0x00, 0x00, 0x00, 0xff, 0xff, 0xff, 0xff, 0x03, 0x00, 0x00, 0x00, 0x20, 0x00, 0x00, 0x00, 0xa4, 0xf0, 0xff, 0xff, 0x08, 0x00, 0x00, 0x00, 0x10, 0x00, 0x00, 0x00, 0x01, 0x00, 0x00, 0x00, 0x80, 0xff, 0xff, 0xff, 0xff, 0xff, 0xff, 0xff, 0x01, 0x00, 0x00, 0x00, 0xd8, 0x34, 0xa9, 0x3c, 0x25, 0x00, 0x00, 0x00, 0x4b, 0x57, 0x53, 0x5f, 0x31, 0x44, 0x43, 0x4e, 0x4e, 0x5f, 0x31, 0x2f, 0x70, 0x6f, 0x6f, 0x6c, 0x32, 0x5f, 0x31, 0x2f, 0x4d, 0x61, 0x78, 0x50, 0x6f, 0x6f, 0x6c, 0x31, 0x64, 0x2f, 0x53, 0x71, 0x75, 0x65, 0x65, 0x7a, 0x65, 0x00, 0x00, 0x00, 0x03, 0x00, 0x00, 0x00, 0x01, 0x00, 0x00, 0x00, 0x03, 0x00, 0x00, 0x00, 0x20, 0x00, 0x00, 0x00, 0x0a, 0xf8, 0xff, 0xff, 0x00, 0x00, 0x00, 0x01, 0x18, 0x00, 0x00, 0x00, 0x28, 0x00, 0x00, 0x00, 0x48, 0x00, 0x00, 0x00, 0x1c, 0x00, 0x00, 0x00, 0x00, 0x00, 0x00, 0x09, 0x60, 0x00, 0x00, 0x00, 0x04, 0x00, 0x00, 0x00, 0xff, 0xff, 0xff, 0xff, 0x01, 0x00, 0x00, 0x00, 0x03, 0x00, 0x00, 0x00, 0x20, 0x00, 0x00, 0x00, 0x34, 0xf1, 0xff, 0xff, 0x08, 0x00, 0x00, 0x00, 0x14, 0x00, 0x00, 0x00, 0x01, 0x00, 0x00, 0x00, 0x80, 0xff, 0xff, 0xff, 0xff, 0xff, 0xff, 0xff, 0x00, 0x00, 0x00, 0x00, 0x01, 0x00, 0x00, 0x00, 0xd8, 0x34, 0xa9, 0x3c, 0x1d, 0x00, 0x00, 0x00, 0x4b, 0x57, 0x53, 0x5f, 0x31, 0x44, 0x43, 0x4e, 0x4e, 0x5f, 0x31, 0x2f, 0x70, 0x6f, 0x6f, 0x6c, 0x32, 0x5f, 0x31, 0x2f, 0x4d, 0x61, 0x78, 0x50, 0x6f, 0x6f, 0x6c, 0x31, 0x64, 0x00, 0x00, 0x00, 0x04, 0x00, 0x00, 0x00, 0x01, 0x00, 0x00, 0x00, 0x01, 0x00, 0x00, 0x00, 0x03, 0x00, 0x00, 0x00, 0x20, 0x00, 0x00, 0x00, 0x9a, 0xf8, 0xff, 0xff, 0x00, 0x00, 0x00, 0x01, 0x18, 0x00, 0x00, 0x00, 0x28, 0x00, 0x00, 0x00, 0x48, 0x00, 0x00, 0x00, 0x1b, 0x00, 0x00, 0x00, 0x00, 0x00, 0x00, 0x09, 0x6c, 0x00, 0x00, 0x00, 0x04, 0x00, 0x00, 0x00, 0xff, 0xff, 0xff, 0xff, 0x01, 0x00, 0x00, 0x00, 0x07, 0x00, 0x00, 0x00, 0x20, 0x00, 0x00, 0x00, 0xc4, 0xf1, 0xff, 0xff, 0x08, 0x00, 0x00, 0x00, 0x14, 0x00, 0x00, 0x00, 0x01, 0x00, 0x00, 0x00, 0x80, 0xff, 0xff, 0xff, 0xff, 0xff, 0xff, 0xff, 0x00, 0x00, 0x00, 0x00, 0x01, 0x00, 0x00, 0x00, 0xd8, 0x34, 0xa9, 0x3c, 0x28, 0x00, 0x00, 0x00, 0x4b, 0x57, 0x53, 0x5f, 0x31, 0x44, 0x43, 0x4e, 0x4e, 0x5f, 0x31, 0x2f, 0x70, 0x6f, 0x6f, 0x6c, 0x32, 0x5f, 0x31, 0x2f, 0x4d, 0x61, 0x78, 0x50, 0x6f, 0x6f, 0x6c, 0x31, 0x64, 0x2f, 0x45, 0x78, 0x70, 0x61, 0x6e, 0x64, 0x44, 0x69, 0x6d, 0x73, 0x00, 0x00, 0x00, 0x00, 0x04, 0x00, 0x00, 0x00, 0x01, 0x00, 0x00, 0x00, 0x01, 0x00, 0x00, 0x00, 0x07, 0x00, 0x00, 0x00, 0x20, 0x00, 0x00, 0x00, 0x36, 0xf9, 0xff, 0xff, 0x00, 0x00, 0x00, 0x01, 0x18, 0x00, 0x00, 0x00, 0x24, 0x00, 0x00, 0x00, 0x44, 0x00, 0x00, 0x00, 0x1a, 0x00, 0x00, 0x00, 0x00, 0x00, 0x00, 0x09, 0xb8, 0x00, 0x00, 0x00, 0x03, 0x00, 0x00, 0x00, 0xff, 0xff, 0xff, 0xff, 0x07, 0x00, 0x00, 0x00, 0x20, 0x00, 0x00, 0x00, 0x5c, 0xf2, 0xff, 0xff, 0x08, 0x00, 0x00, 0x00, 0x14, 0x00, 0x00, 0x00, 0x01, 0x00, 0x00, 0x00, 0x80, 0xff, 0xff, 0xff, 0xff, 0xff, 0xff, 0xff, 0x00, 0x00, 0x00, 0x00, 0x01, 0x00, 0x00, 0x00, 0xd8, 0x34, 0xa9, 0x3c, 0x78, 0x00, 0x00, 0x00, 0x4b, 0x57, 0x53, 0x5f, 0x31, 0x44, 0x43, 0x4e, 0x4e, 0x5f, 0x31, 0x2f, 0x63, 0x6f, 0x6e, 0x76, 0x32, 0x5f, 0x31, 0x2f, 0x52, 0x65, 0x6c, 0x75, 0x3b, 0x4b, 0x57, 0x53, 0x5f, 0x31, 0x44, 0x43, 0x4e, 0x4e, 0x5f, 0x31, 0x2f, 0x63, 0x6f, 0x6e, 0x76, 0x32, 0x5f, 0x31, 0x2f, 0x42, 0x69, 0x61, 0x73, 0x41, 0x64, 0x64, 0x3b, 0x4b, 0x57, 0x53, 0x5f, 0x31, 0x44, 0x43, 0x4e, 0x4e, 0x5f, 0x31, 0x2f, 0x63, 0x6f, 0x6e, 0x76, 0x32, 0x5f, 0x31, 0x2f, 0x63, 0x6f, 0x6e, 0x76, 0x6f, 0x6c, 0x75, 0x74, 0x69, 0x6f, 0x6e, 0x2f, 0x53, 0x71, 0x75, 0x65, 0x65, 0x7a, 0x65, 0x3b, 0x4b, 0x57, 0x53, 0x5f, 0x31, 0x44, 0x43, 0x4e, 0x4e, 0x5f, 0x31, 0x2f, 0x63, 0x6f, 0x6e, 0x76, 0x32, 0x5f, 0x31, 0x2f, 0x53, 0x71, 0x75, 0x65, 0x65, 0x7a, 0x65, 0x00, 0x00, 0x00, 0x00, 0x03, 0x00, 0x00, 0x00, 0x01, 0x00, 0x00, 0x00, 0x07, 0x00, 0x00, 0x00, 0x20, 0x00, 0x00, 0x00, 0x1a, 0xfa, 0xff, 0xff, 0x00, 0x00, 0x00, 0x01, 0x18, 0x00, 0x00, 0x00, 0x28, 0x00, 0x00, 0x00, 0x44, 0x00, 0x00, 0x00, 0x19, 0x00, 0x00, 0x00, 0x00, 0x00, 0x00, 0x09, 0xd8, 0x00, 0x00, 0x00, 0x04, 0x00, 0x00, 0x00, 0xff, 0xff, 0xff, 0xff, 0x01, 0x00, 0x00, 0x00, 0x07, 0x00, 0x00, 0x00, 0x20, 0x00, 0x00, 0x00, 0x44, 0xf3, 0xff, 0xff, 0x08, 0x00, 0x00, 0x00, 0x10, 0x00, 0x00, 0x00, 0x01, 0x00, 0x00, 0x00, 0x80, 0xff, 0xff, 0xff, 0xff, 0xff, 0xff, 0xff, 0x01, 0x00, 0x00, 0x00, 0xd8, 0x34, 0xa9, 0x3c, 0x98, 0x00, 0x00, 0x00, 0x4b, 0x57, 0x53, 0x5f, 0x31, 0x44, 0x43, 0x4e, 0x4e, 0x5f, 0x31, 0x2f, 0x63, 0x6f, 0x6e, 0x76, 0x32, 0x5f, 0x31, 0x2f, 0x52, 0x65, 0x6c, 0x75, 0x3b, 0x4b, 0x57, 0x53, 0x5f, 0x31, 0x44, 0x43, 0x4e, 0x4e, 0x5f, 0x31, 0x2f, 0x63, 0x6f, 0x6e, 0x76, 0x32, 0x5f, 0x31, 0x2f, 0x42, 0x69, 0x61, 0x73, 0x41, 0x64, 0x64, 0x3b, 0x4b, 0x57, 0x53, 0x5f, 0x31, 0x44, 0x43, 0x4e, 0x4e, 0x5f, 0x31, 0x2f, 0x63, 0x6f, 0x6e, 0x76, 0x32, 0x5f, 0x31, 0x2f, 0x63, 0x6f, 0x6e, 0x76, 0x6f, 0x6c, 0x75, 0x74, 0x69, 0x6f, 0x6e, 0x2f, 0x53, 0x71, 0x75, 0x65, 0x65, 0x7a, 0x65, 0x3b, 0x4b, 0x57, 0x53, 0x5f, 0x31, 0x44, 0x43, 0x4e, 0x4e, 0x5f, 0x31, 0x2f, 0x63, 0x6f, 0x6e, 0x76, 0x32, 0x5f, 0x31, 0x2f, 0x53, 0x71, 0x75, 0x65, 0x65, 0x7a, 0x65, 0x3b, 0x4b, 0x57, 0x53, 0x5f, 0x31, 0x44, 0x43, 0x4e, 0x4e, 0x5f, 0x31, 0x2f, 0x63, 0x6f, 0x6e, 0x76, 0x32, 0x5f, 0x31, 0x2f, 0x63, 0x6f, 0x6e, 0x76, 0x6f, 0x6c, 0x75, 0x74, 0x69, 0x6f, 0x6e, 0x00, 0x00, 0x00, 0x00, 0x04, 0x00, 0x00, 0x00, 0x01, 0x00, 0x00, 0x00, 0x01, 0x00, 0x00, 0x00, 0x07, 0x00, 0x00, 0x00, 0x20, 0x00, 0x00, 0x00, 0x22, 0xfb, 0xff, 0xff, 0x00, 0x00, 0x00, 0x01, 0x18, 0x00, 0x00, 0x00, 0x28, 0x00, 0x00, 0x00, 0x48, 0x00, 0x00, 0x00, 0x18, 0x00, 0x00, 0x00, 0x00, 0x00, 0x00, 0x09, 0x6c, 0x00, 0x00, 0x00, 0x04, 0x00, 0x00, 0x00, 0xff, 0xff, 0xff, 0xff, 0x01, 0x00, 0x00, 0x00, 0x07, 0x00, 0x00, 0x00, 0x10, 0x00, 0x00, 0x00, 0x4c, 0xf4, 0xff, 0xff, 0x08, 0x00, 0x00, 0x00, 0x14, 0x00, 0x00, 0x00, 0x01, 0x00, 0x00, 0x00, 0x80, 0xff, 0xff, 0xff, 0xff, 0xff, 0xff, 0xff, 0x00, 0x00, 0x00, 0x00, 0x01, 0x00, 0x00, 0x00, 0x24, 0xff, 0xbf, 0x3c, 0x2a, 0x00, 0x00, 0x00, 0x4b, 0x57, 0x53, 0x5f, 0x31, 0x44, 0x43, 0x4e, 0x4e, 0x5f, 0x31, 0x2f, 0x63, 0x6f, 0x6e, 0x76, 0x32, 0x5f, 0x31, 0x2f, 0x63, 0x6f, 0x6e, 0x76, 0x6f, 0x6c, 0x75, 0x74, 0x69, 0x6f, 0x6e, 0x2f, 0x45, 0x78, 0x70, 0x61, 0x6e, 0x64, 0x44, 0x69, 0x6d, 0x73, 0x00, 0x00, 0x04, 0x00, 0x00, 0x00, 0x01, 0x00, 0x00, 0x00, 0x01, 0x00, 0x00, 0x00, 0x07, 0x00, 0x00, 0x00, 0x10, 0x00, 0x00, 0x00, 0xbe, 0xfb, 0xff, 0xff, 0x00, 0x00, 0x00, 0x01, 0x18, 0x00, 0x00, 0x00, 0x24, 0x00, 0x00, 0x00, 0x40, 0x00, 0x00, 0x00, 0x17, 0x00, 0x00, 0x00, 0x00, 0x00, 0x00, 0x09, 0x60, 0x00, 0x00, 0x00, 0x03, 0x00, 0x00, 0x00, 0xff, 0xff, 0xff, 0xff, 0x07, 0x00, 0x00, 0x00, 0x10, 0x00, 0x00, 0x00, 0xe4, 0xf4, 0xff, 0xff, 0x08, 0x00, 0x00, 0x00, 0x10, 0x00, 0x00, 0x00, 0x01, 0x00, 0x00, 0x00, 0x80, 0xff, 0xff, 0xff, 0xff, 0xff, 0xff, 0xff, 0x01, 0x00, 0x00, 0x00, 0x24, 0xff, 0xbf, 0x3c, 0x25, 0x00, 0x00, 0x00, 0x4b, 0x57, 0x53, 0x5f, 0x31, 0x44, 0x43, 0x4e, 0x4e, 0x5f, 0x31, 0x2f, 0x70, 0x6f, 0x6f, 0x6c, 0x31, 0x5f, 0x31, 0x2f, 0x4d, 0x61, 0x78, 0x50, 0x6f, 0x6f, 0x6c, 0x31, 0x64, 0x2f, 0x53, 0x71, 0x75, 0x65, 0x65, 0x7a, 0x65, 0x00, 0x00, 0x00, 0x03, 0x00, 0x00, 0x00, 0x01, 0x00, 0x00, 0x00, 0x07, 0x00, 0x00, 0x00, 0x10, 0x00, 0x00, 0x00, 0x4a, 0xfc, 0xff, 0xff, 0x00, 0x00, 0x00, 0x01, 0x18, 0x00, 0x00, 0x00, 0x28, 0x00, 0x00, 0x00, 0x48, 0x00, 0x00, 0x00, 0x16, 0x00, 0x00, 0x00, 0x00, 0x00, 0x00, 0x09, 0x60, 0x00, 0x00, 0x00, 0x04, 0x00, 0x00, 0x00, 0xff, 0xff, 0xff, 0xff, 0x01, 0x00, 0x00, 0x00, 0x07, 0x00, 0x00, 0x00, 0x10, 0x00, 0x00, 0x00, 0x74, 0xf5, 0xff, 0xff, 0x08, 0x00, 0x00, 0x00, 0x14, 0x00, 0x00, 0x00, 0x01, 0x00, 0x00, 0x00, 0x80, 0xff, 0xff, 0xff, 0xff, 0xff, 0xff, 0xff, 0x00, 0x00, 0x00, 0x00, 0x01, 0x00, 0x00, 0x00, 0x24, 0xff, 0xbf, 0x3c, 0x1d, 0x00, 0x00, 0x00, 0x4b, 0x57, 0x53, 0x5f, 0x31, 0x44, 0x43, 0x4e, 0x4e, 0x5f, 0x31, 0x2f, 0x70, 0x6f, 0x6f, 0x6c, 0x31, 0x5f, 0x31, 0x2f, 0x4d, 0x61, 0x78, 0x50, 0x6f, 0x6f, 0x6c, 0x31, 0x64, 0x00, 0x00, 0x00, 0x04, 0x00, 0x00, 0x00, 0x01, 0x00, 0x00, 0x00, 0x01, 0x00, 0x00, 0x00, 0x07, 0x00, 0x00, 0x00, 0x10, 0x00, 0x00, 0x00, 0xda, 0xfc, 0xff, 0xff, 0x00, 0x00, 0x00, 0x01, 0x18, 0x00, 0x00, 0x00, 0x28, 0x00, 0x00, 0x00, 0x48, 0x00, 0x00, 0x00, 0x15, 0x00, 0x00, 0x00, 0x00, 0x00, 0x00, 0x09, 0x6c, 0x00, 0x00, 0x00, 0x04, 0x00, 0x00, 0x00, 0xff, 0xff, 0xff, 0xff, 0x01, 0x00, 0x00, 0x00, 0x0e, 0x00, 0x00, 0x00, 0x10, 0x00, 0x00, 0x00, 0x04, 0xf6, 0xff, 0xff, 0x08, 0x00, 0x00, 0x00, 0x14, 0x00, 0x00, 0x00, 0x01, 0x00, 0x00, 0x00, 0x80, 0xff, 0xff, 0xff, 0xff, 0xff, 0xff, 0xff, 0x00, 0x00, 0x00, 0x00, 0x01, 0x00, 0x00, 0x00, 0x24, 0xff, 0xbf, 0x3c, 0x28, 0x00, 0x00, 0x00, 0x4b, 0x57, 0x53, 0x5f, 0x31, 0x44, 0x43, 0x4e, 0x4e, 0x5f, 0x31, 0x2f, 0x70, 0x6f, 0x6f, 0x6c, 0x31, 0x5f, 0x31, 0x2f, 0x4d, 0x61, 0x78, 0x50, 0x6f, 0x6f, 0x6c, 0x31, 0x64, 0x2f, 0x45, 0x78, 0x70, 0x61, 0x6e, 0x64, 0x44, 0x69, 0x6d, 0x73, 0x00, 0x00, 0x00, 0x00, 0x04, 0x00, 0x00, 0x00, 0x01, 0x00, 0x00, 0x00, 0x01, 0x00, 0x00, 0x00, 0x0e, 0x00, 0x00, 0x00, 0x10, 0x00, 0x00, 0x00, 0x76, 0xfd, 0xff, 0xff, 0x00, 0x00, 0x00, 0x01, 0x18, 0x00, 0x00, 0x00, 0x24, 0x00, 0x00, 0x00, 0x44, 0x00, 0x00, 0x00, 0x14, 0x00, 0x00, 0x00, 0x00, 0x00, 0x00, 0x09, 0xb8, 0x00, 0x00, 0x00, 0x03, 0x00, 0x00, 0x00, 0xff, 0xff, 0xff, 0xff, 0x0e, 0x00, 0x00, 0x00, 0x10, 0x00, 0x00, 0x00, 0x9c, 0xf6, 0xff, 0xff, 0x08, 0x00, 0x00, 0x00, 0x14, 0x00, 0x00, 0x00, 0x01, 0x00, 0x00, 0x00, 0x80, 0xff, 0xff, 0xff, 0xff, 0xff, 0xff, 0xff, 0x00, 0x00, 0x00, 0x00, 0x01, 0x00, 0x00, 0x00, 0x24, 0xff, 0xbf, 0x3c, 0x78, 0x00, 0x00, 0x00, 0x4b, 0x57, 0x53, 0x5f, 0x31, 0x44, 0x43, 0x4e, 0x4e, 0x5f, 0x31, 0x2f, 0x63, 0x6f, 0x6e, 0x76, 0x31, 0x5f, 0x31, 0x2f, 0x52, 0x65, 0x6c, 0x75, 0x3b, 0x4b, 0x57, 0x53, 0x5f, 0x31, 0x44, 0x43, 0x4e, 0x4e, 0x5f, 0x31, 0x2f, 0x63, 0x6f, 0x6e, 0x76, 0x31, 0x5f, 0x31, 0x2f, 0x42, 0x69, 0x61, 0x73, 0x41, 0x64, 0x64, 0x3b, 0x4b, 0x57, 0x53, 0x5f, 0x31, 0x44, 0x43, 0x4e, 0x4e, 0x5f, 0x31, 0x2f, 0x63, 0x6f, 0x6e, 0x76, 0x31, 0x5f, 0x31, 0x2f, 0x63, 0x6f, 0x6e, 0x76, 0x6f, 0x6c, 0x75, 0x74, 0x69, 0x6f, 0x6e, 0x2f, 0x53, 0x71, 0x75, 0x65, 0x65, 0x7a, 0x65, 0x3b, 0x4b, 0x57, 0x53, 0x5f, 0x31, 0x44, 0x43, 0x4e, 0x4e, 0x5f, 0x31, 0x2f, 0x63, 0x6f, 0x6e, 0x76, 0x31, 0x5f, 0x31, 0x2f, 0x53, 0x71, 0x75, 0x65, 0x65, 0x7a, 0x65, 0x00, 0x00, 0x00, 0x00, 0x03, 0x00, 0x00, 0x00, 0x01, 0x00, 0x00, 0x00, 0x0e, 0x00, 0x00, 0x00, 0x10, 0x00, 0x00, 0x00, 0x5a, 0xfe, 0xff, 0xff, 0x00, 0x00, 0x00, 0x01, 0x18, 0x00, 0x00, 0x00, 0x28, 0x00, 0x00, 0x00, 0x44, 0x00, 0x00, 0x00, 0x13, 0x00, 0x00, 0x00, 0x00, 0x00, 0x00, 0x09, 0xd8, 0x00, 0x00, 0x00, 0x04, 0x00, 0x00, 0x00, 0xff, 0xff, 0xff, 0xff, 0x01, 0x00, 0x00, 0x00, 0x0e, 0x00, 0x00, 0x00, 0x10, 0x00, 0x00, 0x00, 0x84, 0xf7, 0xff, 0xff, 0x08, 0x00, 0x00, 0x00, 0x10, 0x00, 0x00, 0x00, 0x01, 0x00, 0x00, 0x00, 0x80, 0xff, 0xff, 0xff, 0xff, 0xff, 0xff, 0xff, 0x01, 0x00, 0x00, 0x00, 0x24, 0xff, 0xbf, 0x3c, 0x98, 0x00, 0x00, 0x00, 0x4b, 0x57, 0x53, 0x5f, 0x31, 0x44, 0x43, 0x4e, 0x4e, 0x5f, 0x31, 0x2f, 0x63, 0x6f, 0x6e, 0x76, 0x31, 0x5f, 0x31, 0x2f, 0x52, 0x65, 0x6c, 0x75, 0x3b, 0x4b, 0x57, 0x53, 0x5f, 0x31, 0x44, 0x43, 0x4e, 0x4e, 0x5f, 0x31, 0x2f, 0x63, 0x6f, 0x6e, 0x76, 0x31, 0x5f, 0x31, 0x2f, 0x42, 0x69, 0x61, 0x73, 0x41, 0x64, 0x64, 0x3b, 0x4b, 0x57, 0x53, 0x5f, 0x31, 0x44, 0x43, 0x4e, 0x4e, 0x5f, 0x31, 0x2f, 0x63, 0x6f, 0x6e, 0x76, 0x31, 0x5f, 0x31, 0x2f, 0x63, 0x6f, 0x6e, 0x76, 0x6f, 0x6c, 0x75, 0x74, 0x69, 0x6f, 0x6e, 0x2f, 0x53, 0x71, 0x75, 0x65, 0x65, 0x7a, 0x65, 0x3b, 0x4b, 0x57, 0x53, 0x5f, 0x31, 0x44, 0x43, 0x4e, 0x4e, 0x5f, 0x31, 0x2f, 0x63, 0x6f, 0x6e, 0x76, 0x31, 0x5f, 0x31, 0x2f, 0x53, 0x71, 0x75, 0x65, 0x65, 0x7a, 0x65, 0x3b, 0x4b, 0x57, 0x53, 0x5f, 0x31, 0x44, 0x43, 0x4e, 0x4e, 0x5f, 0x31, 0x2f, 0x63, 0x6f, 0x6e, 0x76, 0x31, 0x5f, 0x31, 0x2f, 0x63, 0x6f, 0x6e, 0x76, 0x6f, 0x6c, 0x75, 0x74, 0x69, 0x6f, 0x6e, 0x00, 0x00, 0x00, 0x00, 0x04, 0x00, 0x00, 0x00, 0x01, 0x00, 0x00, 0x00, 0x01, 0x00, 0x00, 0x00, 0x0e, 0x00, 0x00, 0x00, 0x10, 0x00, 0x00, 0x00, 0x62, 0xff, 0xff, 0xff, 0x00, 0x00, 0x00, 0x01, 0x18, 0x00, 0x00, 0x00, 0x28, 0x00, 0x00, 0x00, 0x48, 0x00, 0x00, 0x00, 0x12, 0x00, 0x00, 0x00, 0x00, 0x00, 0x00, 0x09, 0x6c, 0x00, 0x00, 0x00, 0x04, 0x00, 0x00, 0x00, 0xff, 0xff, 0xff, 0xff, 0x01, 0x00, 0x00, 0x00, 0x0e, 0x00, 0x00, 0x00, 0x0d, 0x00, 0x00, 0x00, 0x8c, 0xf8, 0xff, 0xff, 0x08, 0x00, 0x00, 0x00, 0x14, 0x00, 0x00, 0x00, 0x01, 0x00, 0x00, 0x00, 0xfa, 0xff, 0xff, 0xff, 0xff, 0xff, 0xff, 0xff, 0x00, 0x00, 0x00, 0x00, 0x01, 0x00, 0x00, 0x00, 0x93, 0x62, 0xe4, 0x3c, 0x2a, 0x00, 0x00, 0x00, 0x4b, 0x57, 0x53, 0x5f, 0x31, 0x44, 0x43, 0x4e, 0x4e, 0x5f, 0x31, 0x2f, 0x63, 0x6f, 0x6e, 0x76, 0x31, 0x5f, 0x31, 0x2f, 0x63, 0x6f, 0x6e, 0x76, 0x6f, 0x6c, 0x75, 0x74, 0x69, 0x6f, 0x6e, 0x2f, 0x45, 0x78, 0x70, 0x61, 0x6e, 0x64, 0x44, 0x69, 0x6d, 0x73, 0x00, 0x00, 0x04, 0x00, 0x00, 0x00, 0x01, 0x00, 0x00, 0x00, 0x01, 0x00, 0x00, 0x00, 0x0e, 0x00, 0x00, 0x00, 0x0d, 0x00, 0x00, 0x00, 0x00, 0x00, 0x16, 0x00, 0x20, 0x00, 0x1c, 0x00, 0x1b, 0x00, 0x14, 0x00, 0x10, 0x00, 0x0c, 0x00, 0x00, 0x00, 0x00, 0x00, 0x08, 0x00, 0x07, 0x00, 0x16, 0x00, 0x00, 0x00, 0x00, 0x00, 0x00, 0x01, 0x18, 0x00, 0x00, 0x00, 0x24, 0x00, 0x00, 0x00, 0x40, 0x00, 0x00, 0x00, 0x11, 0x00, 0x00, 0x00, 0x00, 0x00, 0x00, 0x09, 0x48, 0x00, 0x00, 0x00, 0x03, 0x00, 0x00, 0x00, 0xff, 0xff, 0xff, 0xff, 0x0e, 0x00, 0x00, 0x00, 0x0d, 0x00, 0x00, 0x00, 0x3c, 0xf9, 0xff, 0xff, 0x08, 0x00, 0x00, 0x00, 0x10, 0x00, 0x00, 0x00, 0x01, 0x00, 0x00, 0x00, 0xfa, 0xff, 0xff, 0xff, 0xff, 0xff, 0xff, 0xff, 0x01, 0x00, 0x00, 0x00, 0x93, 0x62, 0xe4, 0x3c, 0x0c, 0x00, 0x00, 0x00, 0x74, 0x66, 0x6c, 0x2e, 0x71, 0x75, 0x61, 0x6e, 0x74, 0x69, 0x7a, 0x65, 0x00, 0x00, 0x00, 0x00, 0x03, 0x00, 0x00, 0x00, 0x01, 0x00, 0x00, 0x00, 0x0e, 0x00, 0x00, 0x00, 0x0d, 0x00, 0x00, 0x00, 0x32, 0xf7, 0xff, 0xff, 0x00, 0x00, 0x00, 0x01, 0x14, 0x00, 0x00, 0x00, 0xe8, 0x00, 0x00, 0x00, 0x10, 0x00, 0x00, 0x00, 0x00, 0x00, 0x00, 0x09, 0xf4, 0x00, 0x00, 0x00, 0x9c, 0xf9, 0xff, 0xff, 0x08, 0x00, 0x00, 0x00, 0x8c, 0x00, 0x00, 0x00, 0x10, 0x00, 0x00, 0x00, 0x00, 0x00, 0x00, 0x00, 0x00, 0x00, 0x00, 0x00, 0x00, 0x00, 0x00, 0x00, 0x00, 0x00, 0x00, 0x00, 0x00, 0x00, 0x00, 0x00, 0x00, 0x00, 0x00, 0x00, 0x00, 0x00, 0x00, 0x00, 0x00, 0x00, 0x00, 0x00, 0x00, 0x00, 0x00, 0x00, 0x00, 0x00, 0x00, 0x00, 0x00, 0x00, 0x00, 0x00, 0x00, 0x00, 0x00, 0x00, 0x00, 0x00, 0x00, 0x00, 0x00, 0x00, 0x00, 0x00, 0x00, 0x00, 0x00, 0x00, 0x00, 0x00, 0x00, 0x00, 0x00, 0x00, 0x00, 0x00, 0x00, 0x00, 0x00, 0x00, 0x00, 0x00, 0x00, 0x00, 0x00, 0x00, 0x00, 0x00, 0x00, 0x00, 0x00, 0x00, 0x00, 0x00, 0x00, 0x00, 0x00, 0x00, 0x00, 0x00, 0x00, 0x00, 0x00, 0x00, 0x00, 0x00, 0x00, 0x00, 0x00, 0x00, 0x00, 0x00, 0x00, 0x00, 0x00, 0x00, 0x00, 0x00, 0x00, 0x00, 0x00, 0x00, 0x00, 0x00, 0x00, 0x00, 0x00, 0x00, 0x00, 0x00, 0x00, 0x00, 0x00, 0x00, 0x00, 0x00, 0x00, 0x00, 0x00, 0x00, 0x10, 0x00, 0x00, 0x00, 0x6e, 0x83, 0x07, 0x3b, 0x25, 0x63, 0xfc, 0x3a, 0xee, 0x2a, 0xf4, 0x3a, 0x8d, 0xfc, 0x02, 0x3b, 0x19, 0xaf, 0x01, 0x3b, 0x34, 0x0a, 0x05, 0x3b, 0x35, 0x4a, 0x01, 0x3b, 0x01, 0xf2, 0xe6, 0x3a, 0x4a, 0x74, 0xe5, 0x3a, 0xe5, 0xa7, 0xfc, 0x3a, 0x36, 0x12, 0x02, 0x3b, 0x11, 0xe8, 0xf4, 0x3a, 0x2e, 0xc7, 0xe8, 0x3a, 0x41, 0x8a, 0x01, 0x3b, 0xba, 0xf6, 0xed, 0x3a, 0x70, 0xb5, 0xfe, 0x3a, 0x12, 0x00, 0x00, 0x00, 0x74, 0x66, 0x6c, 0x2e, 0x70, 0x73, 0x65, 0x75, 0x64, 0x6f, 0x5f, 0x71, 0x63, 0x6f, 0x6e, 0x73, 0x74, 0x35, 0x00, 0x00, 0x04, 0x00, 0x00, 0x00, 0x10, 0x00, 0x00, 0x00, 0x01, 0x00, 0x00, 0x00, 0x05, 0x00, 0x00, 0x00, 0x0d, 0x00, 0x00, 0x00, 0x52, 0xf8, 0xff, 0xff, 0x00, 0x00, 0x00, 0x01, 0x14, 0x00, 0x00, 0x00, 0xe4, 0x00, 0x00, 0x00, 0x0f, 0x00, 0x00, 0x00, 0x00, 0x00, 0x00, 0x02, 0xf0, 0x00, 0x00, 0x00, 0xbc, 0xfa, 0xff, 0xff, 0x08, 0x00, 0x00, 0x00, 0x88, 0x00, 0x00, 0x00, 0x10, 0x00, 0x00, 0x00, 0x00, 0x00, 0x00, 0x00, 0x00, 0x00, 0x00, 0x00, 0x00, 0x00, 0x00, 0x00, 0x00, 0x00, 0x00, 0x00, 0x00, 0x00, 0x00, 0x00, 0x00, 0x00, 0x00, 0x00, 0x00, 0x00, 0x00, 0x00, 0x00, 0x00, 0x00, 0x00, 0x00, 0x00, 0x00, 0x00, 0x00, 0x00, 0x00, 0x00, 0x00, 0x00, 0x00, 0x00, 0x00, 0x00, 0x00, 0x00, 0x00, 0x00, 0x00, 0x00, 0x00, 0x00, 0x00, 0x00, 0x00, 0x00, 0x00, 0x00, 0x00, 0x00, 0x00, 0x00, 0x00, 0x00, 0x00, 0x00, 0x00, 0x00, 0x00, 0x00, 0x00, 0x00, 0x00, 0x00, 0x00, 0x00, 0x00, 0x00, 0x00, 0x00, 0x00, 0x00, 0x00, 0x00, 0x00, 0x00, 0x00, 0x00, 0x00, 0x00, 0x00, 0x00, 0x00, 0x00, 0x00, 0x00, 0x00, 0x00, 0x00, 0x00, 0x00, 0x00, 0x00, 0x00, 0x00, 0x00, 0x00, 0x00, 0x00, 0x00, 0x00, 0x00, 0x00, 0x00, 0x00, 0x00, 0x00, 0x00, 0x00, 0x00, 0x00, 0x00, 0x00, 0x00, 0x00, 0x00, 0x10, 0x00, 0x00, 0x00, 0x78, 0xca, 0x71, 0x38, 0x7c, 0x29, 0x61, 0x38, 0x41, 0xd4, 0x59, 0x38, 0xbb, 0xb6, 0x69, 0x38, 0xc4, 0x63, 0x67, 0x38, 0xa1, 0x60, 0x6d, 0x38, 0xc0, 0xaf, 0x66, 0x38, 0x76, 0x08, 0x4e, 0x38, 0xec, 0xb3, 0x4c, 0x38, 0xd1, 0x66, 0x61, 0x38, 0x9c, 0x14, 0x68, 0x38, 0xfd, 0x7c, 0x5a, 0x38, 0x07, 0xab, 0x4f, 0x38, 0x06, 0x22, 0x67, 0x38, 0x5f, 0x4b, 0x54, 0x38, 0xab, 0x3b, 0x63, 0x38, 0x12, 0x00, 0x00, 0x00, 0x74, 0x66, 0x6c, 0x2e, 0x70, 0x73, 0x65, 0x75, 0x64, 0x6f, 0x5f, 0x71, 0x63, 0x6f, 0x6e, 0x73, 0x74, 0x34, 0x00, 0x00, 0x01, 0x00, 0x00, 0x00, 0x10, 0x00, 0x00, 0x00, 0x62, 0xf9, 0xff, 0xff, 0x00, 0x00, 0x00, 0x01, 0x14, 0x00, 0x00, 0x00, 0xa8, 0x01, 0x00, 0x00, 0x0e, 0x00, 0x00, 0x00, 0x00, 0x00, 0x00, 0x09, 0xb4, 0x01, 0x00, 0x00, 0xcc, 0xfb, 0xff, 0xff, 0x08, 0x00, 0x00, 0x00, 0x0c, 0x01, 0x00, 0x00, 0x20, 0x00, 0x00, 0x00, 0x00, 0x00, 0x00, 0x00, 0x00, 0x00, 0x00, 0x00, 0x00, 0x00, 0x00, 0x00, 0x00, 0x00, 0x00, 0x00, 0x00, 0x00, 0x00, 0x00, 0x00, 0x00, 0x00, 0x00, 0x00, 0x00, 0x00, 0x00, 0x00, 0x00, 0x00, 0x00, 0x00, 0x00, 0x00, 0x00, 0x00, 0x00, 0x00, 0x00, 0x00, 0x00, 0x00, 0x00, 0x00, 0x00, 0x00, 0x00, 0x00, 0x00, 0x00, 0x00, 0x00, 0x00, 0x00, 0x00, 0x00, 0x00, 0x00, 0x00, 0x00, 0x00, 0x00, 0x00, 0x00, 0x00, 0x00, 0x00, 0x00, 0x00, 0x00, 0x00, 0x00, 0x00, 0x00, 0x00, 0x00, 0x00, 0x00, 0x00, 0x00, 0x00, 0x00, 0x00, 0x00, 0x00, 0x00, 0x00, 0x00, 0x00, 0x00, 0x00, 0x00, 0x00, 0x00, 0x00, 0x00, 0x00, 0x00, 0x00, 0x00, 0x00, 0x00, 0x00, 0x00, 0x00, 0x00, 0x00, 0x00, 0x00, 0x00, 0x00, 0x00, 0x00, 0x00, 0x00, 0x00, 0x00, 0x00, 0x00, 0x00, 0x00, 0x00, 0x00, 0x00, 0x00, 0x00, 0x00, 0x00, 0x00, 0x00, 0x00, 0x00, 0x00, 0x00, 0x00, 0x00, 0x00, 0x00, 0x00, 0x00, 0x00, 0x00, 0x00, 0x00, 0x00, 0x00, 0x00, 0x00, 0x00, 0x00, 0x00, 0x00, 0x00, 0x00, 0x00, 0x00, 0x00, 0x00, 0x00, 0x00, 0x00, 0x00, 0x00, 0x00, 0x00, 0x00, 0x00, 0x00, 0x00, 0x00, 0x00, 0x00, 0x00, 0x00, 0x00, 0x00, 0x00, 0x00, 0x00, 0x00, 0x00, 0x00, 0x00, 0x00, 0x00, 0x00, 0x00, 0x00, 0x00, 0x00, 0x00, 0x00, 0x00, 0x00, 0x00, 0x00, 0x00, 0x00, 0x00, 0x00, 0x00, 0x00, 0x00, 0x00, 0x00, 0x00, 0x00, 0x00, 0x00, 0x00, 0x00, 0x00, 0x00, 0x00, 0x00, 0x00, 0x00, 0x00, 0x00, 0x00, 0x00, 0x00, 0x00, 0x00, 0x00, 0x00, 0x00, 0x00, 0x00, 0x00, 0x00, 0x00, 0x00, 0x00, 0x00, 0x00, 0x00, 0x00, 0x00, 0x00, 0x00, 0x00, 0x00, 0x00, 0x00, 0x00, 0x00, 0x00, 0x00, 0x00, 0x00, 0x00, 0x00, 0x00, 0x00, 0x00, 0x00, 0x00, 0x00, 0x20, 0x00, 0x00, 0x00, 0xcb, 0xd5, 0x01, 0x3b, 0x44, 0x46, 0x08, 0x3b, 0x4e, 0x78, 0x07, 0x3b, 0x4e, 0x63, 0x0c, 0x3b, 0xda, 0x0b, 0x0f, 0x3b, 0x81, 0x68, 0x03, 0x3b, 0xae, 0x38, 0x06, 0x3b, 0xc8, 0xa0, 0xe8, 0x3a, 0x93, 0x90, 0xeb, 0x3a, 0x2b, 0xb0, 0x0a, 0x3b, 0xc3, 0x49, 0xf4, 0x3a, 0x74, 0x70, 0xf3, 0x3a, 0x03, 0x6d, 0xf5, 0x3a, 0xc8, 0xca, 0xf5, 0x3a, 0x83, 0x3c, 0x0a, 0x3b, 0x93, 0x31, 0x01, 0x3b, 0xbb, 0xa8, 0x02, 0x3b, 0x6c, 0xa4, 0xeb, 0x3a, 0x99, 0x3b, 0xde, 0x3a, 0xc7, 0x9a, 0x04, 0x3b, 0x2f, 0x29, 0xf3, 0x3a, 0xeb, 0xb8, 0xed, 0x3a, 0x15, 0x56, 0xdf, 0x3a, 0xed, 0xb9, 0xe9, 0x3a, 0xf3, 0x78, 0xfb, 0x3a, 0x73, 0x04, 0xe0, 0x3a, 0x7a, 0x57, 0x00, 0x3b, 0x8e, 0x41, 0xd7, 0x3a, 0x13, 0x44, 0x0c, 0x3b, 0xd9, 0xda, 0x05, 0x3b, 0xcb, 0x4d, 0x03, 0x3b, 0xe6, 0x61, 0x07, 0x3b, 0x12, 0x00, 0x00, 0x00, 0x74, 0x66, 0x6c, 0x2e, 0x70, 0x73, 0x65, 0x75, 0x64, 0x6f, 0x5f, 0x71, 0x63, 0x6f, 0x6e, 0x73, 0x74, 0x33, 0x00, 0x00, 0x04, 0x00, 0x00, 0x00, 0x20, 0x00, 0x00, 0x00, 0x01, 0x00, 0x00, 0x00, 0x03, 0x00, 0x00, 0x00, 0x10, 0x00, 0x00, 0x00, 0x42, 0xfb, 0xff, 0xff, 0x00, 0x00, 0x00, 0x01, 0x14, 0x00, 0x00, 0x00, 0xa4, 0x01, 0x00, 0x00, 0x0d, 0x00, 0x00, 0x00, 0x00, 0x00, 0x00, 0x02, 0xb0, 0x01, 0x00, 0x00, 0xac, 0xfd, 0xff, 0xff, 0x08, 0x00, 0x00, 0x00, 0x08, 0x01, 0x00, 0x00, 0x20, 0x00, 0x00, 0x00, 0x00, 0x00, 0x00, 0x00, 0x00, 0x00, 0x00, 0x00, 0x00, 0x00, 0x00, 0x00, 0x00, 0x00, 0x00, 0x00, 0x00, 0x00, 0x00, 0x00, 0x00, 0x00, 0x00, 0x00, 0x00, 0x00, 0x00, 0x00, 0x00, 0x00, 0x00, 0x00, 0x00, 0x00, 0x00, 0x00, 0x00, 0x00, 0x00, 0x00, 0x00, 0x00, 0x00, 0x00, 0x00, 0x00, 0x00, 0x00, 0x00, 0x00, 0x00, 0x00, 0x00, 0x00, 0x00, 0x00, 0x00, 0x00, 0x00, 0x00, 0x00, 0x00, 0x00, 0x00, 0x00, 0x00, 0x00, 0x00, 0x00, 0x00, 0x00, 0x00, 0x00, 0x00, 0x00, 0x00, 0x00, 0x00, 0x00, 0x00, 0x00, 0x00, 0x00, 0x00, 0x00, 0x00, 0x00, 0x00, 0x00, 0x00, 0x00, 0x00, 0x00, 0x00, 0x00, 0x00, 0x00, 0x00, 0x00, 0x00, 0x00, 0x00, 0x00, 0x00, 0x00, 0x00, 0x00, 0x00, 0x00, 0x00, 0x00, 0x00, 0x00, 0x00, 0x00, 0x00, 0x00, 0x00, 0x00, 0x00, 0x00, 0x00, 0x00, 0x00, 0x00, 0x00, 0x00, 0x00, 0x00, 0x00, 0x00, 0x00, 0x00, 0x00, 0x00, 0x00, 0x00, 0x00, 0x00, 0x00, 0x00, 0x00, 0x00, 0x00, 0x00, 0x00, 0x00, 0x00, 0x00, 0x00, 0x00, 0x00, 0x00, 0x00, 0x00, 0x00, 0x00, 0x00, 0x00, 0x00, 0x00, 0x00, 0x00, 0x00, 0x00, 0x00, 0x00, 0x00, 0x00, 0x00, 0x00, 0x00, 0x00, 0x00, 0x00, 0x00, 0x00, 0x00, 0x00, 0x00, 0x00, 0x00, 0x00, 0x00, 0x00, 0x00, 0x00, 0x00, 0x00, 0x00, 0x00, 0x00, 0x00, 0x00, 0x00, 0x00, 0x00, 0x00, 0x00, 0x00, 0x00, 0x00, 0x00, 0x00, 0x00, 0x00, 0x00, 0x00, 0x00, 0x00, 0x00, 0x00, 0x00, 0x00, 0x00, 0x00, 0x00, 0x00, 0x00, 0x00, 0x00, 0x00, 0x00, 0x00, 0x00, 0x00, 0x00, 0x00, 0x00, 0x00, 0x00, 0x00, 0x00, 0x00, 0x00, 0x00, 0x00, 0x00, 0x00, 0x00, 0x00, 0x00, 0x00, 0x00, 0x00, 0x00, 0x00, 0x00, 0x00, 0x00, 0x00, 0x00, 0x00, 0x00, 0x00, 0x00, 0x20, 0x00, 0x00, 0x00, 0xd1, 0xbf, 0x42, 0x38, 0x7c, 0x68, 0x4c, 0x38, 0x8c, 0x33, 0x4b, 0x38, 0x04, 0x94, 0x52, 0x38, 0xd1, 0x90, 0x56, 0x38, 0xe0, 0x1b, 0x45, 0x38, 0x1e, 0x54, 0x49, 0x38, 0xce, 0x77, 0x2e, 0x38, 0xa4, 0xab, 0x30, 0x38, 0x52, 0x07, 0x50, 0x38, 0x80, 0x36, 0x37, 0x38, 0x86, 0x93, 0x36, 0x38, 0xef, 0x10, 0x38, 0x38, 0x43, 0x57, 0x38, 0x38, 0xd7, 0x59, 0x4f, 0x38, 0x7e, 0xc9, 0x41, 0x38, 0x38, 0xfc, 0x43, 0x38, 0x86, 0xba, 0x30, 0x38, 0xf4, 0xab, 0x26, 0x38, 0x47, 0xe7, 0x46, 0x38, 0x12, 0x5e, 0x36, 0x38, 0xe4, 0x49, 0x32, 0x38, 0xd0, 0x7f, 0x27, 0x38, 0xa9, 0x4a, 0x2f, 0x38, 0xde, 0x99, 0x3c, 0x38, 0x96, 0x02, 0x28, 0x38, 0x5a, 0x82, 0x40, 0x38, 0x72, 0x70, 0x21, 0x38, 0x2b, 0x65, 0x52, 0x38, 0x5f, 0xc7, 0x48, 0x38, 0xcf, 0xf3, 0x44, 0x38, 0xf0, 0x11, 0x4b, 0x38, 0x12, 0x00, 0x00, 0x00, 0x74, 0x66, 0x6c, 0x2e, 0x70, 0x73, 0x65, 0x75, 0x64, 0x6f, 0x5f, 0x71, 0x63, 0x6f, 0x6e, 0x73, 0x74, 0x32, 0x00, 0x00, 0x01, 0x00, 0x00, 0x00, 0x20, 0x00, 0x00, 0x00, 0x12, 0xfd, 0xff, 0xff, 0x00, 0x00, 0x00, 0x01, 0x14, 0x00, 0x00, 0x00, 0x54, 0x00, 0x00, 0x00, 0x0c, 0x00, 0x00, 0x00, 0x00, 0x00, 0x00, 0x09, 0x60, 0x00, 0x00, 0x00, 0x7c, 0xff, 0xff, 0xff, 0x08, 0x00, 0x00, 0x00, 0x28, 0x00, 0x00, 0x00, 0x04, 0x00, 0x00, 0x00, 0x00, 0x00, 0x00, 0x00, 0x00, 0x00, 0x00, 0x00, 0x00, 0x00, 0x00, 0x00, 0x00, 0x00, 0x00, 0x00, 0x00, 0x00, 0x00, 0x00, 0x00, 0x00, 0x00, 0x00, 0x00, 0x00, 0x00, 0x00, 0x00, 0x00, 0x00, 0x00, 0x04, 0x00, 0x00, 0x00, 0xa0, 0x13, 0x19, 0x3b, 0x51, 0xd0, 0xba, 0x3b, 0x5d, 0x7c, 0x3f, 0x3b, 0x41, 0xb7, 0x60, 0x3b, 0x12, 0x00, 0x00, 0x00, 0x74, 0x66, 0x6c, 0x2e, 0x70, 0x73, 0x65, 0x75, 0x64, 0x6f, 0x5f, 0x71, 0x63, 0x6f, 0x6e, 0x73, 0x74, 0x31, 0x00, 0x00, 0x02, 0x00, 0x00, 0x00, 0x04, 0x00, 0x00, 0x00, 0x60, 0x00, 0x00, 0x00, 0x96, 0xfd, 0xff, 0xff, 0x00, 0x00, 0x00, 0x01, 0x20, 0x00, 0x00, 0x00, 0x64, 0x00, 0x00, 0x00, 0x0b, 0x00, 0x00, 0x00, 0x00, 0x00, 0x00, 0x02, 0x70, 0x00, 0x00, 0x00, 0x0c, 0x00, 0x0c, 0x00, 0x00, 0x00, 0x00, 0x00, 0x08, 0x00, 0x04, 0x00, 0x0c, 0x00, 0x00, 0x00, 0x08, 0x00, 0x00, 0x00, 0x2c, 0x00, 0x00, 0x00, 0x04, 0x00, 0x00, 0x00, 0x00, 0x00, 0x00, 0x00, 0x00, 0x00, 0x00, 0x00, 0x00, 0x00, 0x00, 0x00, 0x00, 0x00, 0x00, 0x00, 0x00, 0x00, 0x00, 0x00, 0x00, 0x00, 0x00, 0x00, 0x00, 0x00, 0x00, 0x00, 0x00, 0x00, 0x00, 0x00, 0x00, 0x00, 0x00, 0x00, 0x04, 0x00, 0x00, 0x00, 0x1c, 0x5b, 0x4a, 0x38, 0x2b, 0xf4, 0xf6, 0x38, 0x40, 0x21, 0x7d, 0x38, 0x5d, 0x87, 0x94, 0x38, 0x11, 0x00, 0x00, 0x00, 0x74, 0x66, 0x6c, 0x2e, 0x70, 0x73, 0x65, 0x75, 0x64, 0x6f, 0x5f, 0x71, 0x63, 0x6f, 0x6e, 0x73, 0x74, 0x00, 0x00, 0x00, 0x01, 0x00, 0x00, 0x00, 0x04, 0x00, 0x00, 0x00, 0x26, 0xfe, 0xff, 0xff, 0x00, 0x00, 0x00, 0x01, 0x14, 0x00, 0x00, 0x00, 0x14, 0x00, 0x00, 0x00, 0x0a, 0x00, 0x00, 0x00, 0x00, 0x00, 0x00, 0x02, 0x1c, 0x00, 0x00, 0x00, 0xb0, 0xfd, 0xff, 0xff, 0x0f, 0x00, 0x00, 0x00, 0x61, 0x72, 0x69, 0x74, 0x68, 0x2e, 0x63, 0x6f, 0x6e, 0x73, 0x74, 0x61, 0x6e, 0x74, 0x38, 0x00, 0x00, 0x00, 0x00, 0x00, 0x5e, 0xfe, 0xff, 0xff, 0x00, 0x00, 0x00, 0x01, 0x14, 0x00, 0x00, 0x00, 0x14, 0x00, 0x00, 0x00, 0x04, 0x00, 0x00, 0x00, 0x00, 0x00, 0x00, 0x02, 0x1c, 0x00, 0x00, 0x00, 0xe8, 0xfd, 0xff, 0xff, 0x0f, 0x00, 0x00, 0x00, 0x61, 0x72, 0x69, 0x74, 0x68, 0x2e, 0x63, 0x6f, 0x6e, 0x73, 0x74, 0x61, 0x6e, 0x74, 0x37, 0x00, 0x01, 0x00, 0x00, 0x00, 0x01, 0x00, 0x00, 0x00, 0x9a, 0xfe, 0xff, 0xff, 0x00, 0x00, 0x00, 0x01, 0x14, 0x00, 0x00, 0x00, 0x14, 0x00, 0x00, 0x00, 0x08, 0x00, 0x00, 0x00, 0x00, 0x00, 0x00, 0x02, 0x1c, 0x00, 0x00, 0x00, 0x24, 0xfe, 0xff, 0xff, 0x0f, 0x00, 0x00, 0x00, 0x61, 0x72, 0x69, 0x74, 0x68, 0x2e, 0x63, 0x6f, 0x6e, 0x73, 0x74, 0x61, 0x6e, 0x74, 0x36, 0x00, 0x01, 0x00, 0x00, 0x00, 0x01, 0x00, 0x00, 0x00, 0xd6, 0xfe, 0xff, 0xff, 0x00, 0x00, 0x00, 0x01, 0x14, 0x00, 0x00, 0x00, 0x14, 0x00, 0x00, 0x00, 0x07, 0x00, 0x00, 0x00, 0x00, 0x00, 0x00, 0x02, 0x1c, 0x00, 0x00, 0x00, 0x60, 0xfe, 0xff, 0xff, 0x0f, 0x00, 0x00, 0x00, 0x61, 0x72, 0x69, 0x74, 0x68, 0x2e, 0x63, 0x6f, 0x6e, 0x73, 0x74, 0x61, 0x6e, 0x74, 0x35, 0x00, 0x01, 0x00, 0x00, 0x00, 0x03, 0x00, 0x00, 0x00, 0x12, 0xff, 0xff, 0xff, 0x00, 0x00, 0x00, 0x01, 0x14, 0x00, 0x00, 0x00, 0x14, 0x00, 0x00, 0x00, 0x06, 0x00, 0x00, 0x00, 0x00, 0x00, 0x00, 0x02, 0x1c, 0x00, 0x00, 0x00, 0x9c, 0xfe, 0xff, 0xff, 0x0f, 0x00, 0x00, 0x00, 0x61, 0x72, 0x69, 0x74, 0x68, 0x2e, 0x63, 0x6f, 0x6e, 0x73, 0x74, 0x61, 0x6e, 0x74, 0x34, 0x00, 0x01, 0x00, 0x00, 0x00, 0x03, 0x00, 0x00, 0x00, 0x4e, 0xff, 0xff, 0xff, 0x00, 0x00, 0x00, 0x01, 0x14, 0x00, 0x00, 0x00, 0x14, 0x00, 0x00, 0x00, 0x05, 0x00, 0x00, 0x00, 0x00, 0x00, 0x00, 0x02, 0x1c, 0x00, 0x00, 0x00, 0xd8, 0xfe, 0xff, 0xff, 0x0f, 0x00, 0x00, 0x00, 0x61, 0x72, 0x69, 0x74, 0x68, 0x2e, 0x63, 0x6f, 0x6e, 0x73, 0x74, 0x61, 0x6e, 0x74, 0x33, 0x00, 0x01, 0x00, 0x00, 0x00, 0x03, 0x00, 0x00, 0x00, 0x8a, 0xff, 0xff, 0xff, 0x00, 0x00, 0x00, 0x01, 0x14, 0x00, 0x00, 0x00, 0x14, 0x00, 0x00, 0x00, 0x04, 0x00, 0x00, 0x00, 0x00, 0x00, 0x00, 0x02, 0x1c, 0x00, 0x00, 0x00, 0x14, 0xff, 0xff, 0xff, 0x0f, 0x00, 0x00, 0x00, 0x61, 0x72, 0x69, 0x74, 0x68, 0x2e, 0x63, 0x6f, 0x6e, 0x73, 0x74, 0x61, 0x6e, 0x74, 0x32, 0x00, 0x00, 0x00, 0x00, 0x00, 0xc2, 0xff, 0xff, 0xff, 0x00, 0x00, 0x00, 0x01, 0x14, 0x00, 0x00, 0x00, 0x14, 0x00, 0x00, 0x00, 0x03, 0x00, 0x00, 0x00, 0x00, 0x00, 0x00, 0x02, 0x1c, 0x00, 0x00, 0x00, 0x4c, 0xff, 0xff, 0xff, 0x0f, 0x00, 0x00, 0x00, 0x61, 0x72, 0x69, 0x74, 0x68, 0x2e, 0x63, 0x6f, 0x6e, 0x73, 0x74, 0x61, 0x6e, 0x74, 0x31, 0x00, 0x01, 0x00, 0x00, 0x00, 0x03, 0x00, 0x00, 0x00, 0x00, 0x00, 0x16, 0x00, 0x1c, 0x00, 0x18, 0x00, 0x17, 0x00, 0x10, 0x00, 0x0c, 0x00, 0x08, 0x00, 0x00, 0x00, 0x00, 0x00, 0x00, 0x00, 0x07, 0x00, 0x16, 0x00, 0x00, 0x00, 0x00, 0x00, 0x00, 0x01, 0x14, 0x00, 0x00, 0x00, 0x14, 0x00, 0x00, 0x00, 0x02, 0x00, 0x00, 0x00, 0x00, 0x00, 0x00, 0x02, 0x1c, 0x00, 0x00, 0x00, 0xa0, 0xff, 0xff, 0xff, 0x0e, 0x00, 0x00, 0x00, 0x61, 0x72, 0x69, 0x74, 0x68, 0x2e, 0x63, 0x6f, 0x6e, 0x73, 0x74, 0x61, 0x6e, 0x74, 0x00, 0x00, 0x00, 0x00, 0x00, 0x00, 0x00, 0x00, 0x16, 0x00, 0x1c, 0x00, 0x18, 0x00, 0x00, 0x00, 0x14, 0x00, 0x10, 0x00, 0x0c, 0x00, 0x00, 0x00, 0x00, 0x00, 0x08, 0x00, 0x07, 0x00, 0x16, 0x00, 0x00, 0x00, 0x00, 0x00, 0x00, 0x01, 0x14, 0x00, 0x00, 0x00, 0x24, 0x00, 0x00, 0x00, 0x24, 0x00, 0x00, 0x00, 0x01, 0x00, 0x00, 0x00, 0x40, 0x00, 0x00, 0x00, 0x03, 0x00, 0x00, 0x00, 0xff, 0xff, 0xff, 0xff, 0x0e, 0x00, 0x00, 0x00, 0x0d, 0x00, 0x00, 0x00, 0x04, 0x00, 0x04, 0x00, 0x04, 0x00, 0x00, 0x00, 0x1c, 0x00, 0x00, 0x00, 0x73, 0x65, 0x72, 0x76, 0x69, 0x6e, 0x67, 0x5f, 0x64, 0x65, 0x66, 0x61, 0x75, 0x6c, 0x74, 0x5f, 0x6d, 0x66, 0x63, 0x63, 0x5f, 0x69, 0x6e, 0x70, 0x75, 0x74, 0x3a, 0x30, 0x00, 0x00, 0x00, 0x00, 0x03, 0x00, 0x00, 0x00, 0x01, 0x00, 0x00, 0x00, 0x0e, 0x00, 0x00, 0x00, 0x0d, 0x00, 0x00, 0x00, 0x0b, 0x00, 0x00, 0x00, 0xd0, 0x00, 0x00, 0x00, 0xb4, 0x00, 0x00, 0x00, 0xa0, 0x00, 0x00, 0x00, 0x84, 0x00, 0x00, 0x00, 0x70, 0x00, 0x00, 0x00, 0x60, 0x00, 0x00, 0x00, 0x50, 0x00, 0x00, 0x00, 0x40, 0x00, 0x00, 0x00, 0x2c, 0x00, 0x00, 0x00, 0x18, 0x00, 0x00, 0x00, 0x04, 0x00, 0x00, 0x00, 0x90, 0xff, 0xff, 0xff, 0x06, 0x00, 0x00, 0x00, 0x02, 0x00, 0x00, 0x00, 0x00, 0x00, 0x00, 0x06, 0xa0, 0xff, 0xff, 0xff, 0x19, 0x00, 0x00, 0x00, 0x02, 0x00, 0x00, 0x00, 0x00, 0x00, 0x00, 0x19, 0xb0, 0xff, 0xff, 0xff, 0x09, 0x00, 0x00, 0x00, 0x04, 0x00, 0x00, 0x00, 0x00, 0x00, 0x00, 0x09, 0x98, 0xff, 0xff, 0xff, 0x53, 0x00, 0x00, 0x00, 0x00, 0x00, 0x00, 0x53, 0xa4, 0xff, 0xff, 0xff, 0x2d, 0x00, 0x00, 0x00, 0x00, 0x00, 0x00, 0x2d, 0xb0, 0xff, 0xff, 0xff, 0x4d, 0x00, 0x00, 0x00, 0x00, 0x00, 0x00, 0x4d, 0xe4, 0xff, 0xff, 0xff, 0x11, 0x00, 0x00, 0x00, 0x02, 0x00, 0x00, 0x00, 0x00, 0x00, 0x00, 0x11, 0xcc, 0xff, 0xff, 0xff, 0x16, 0x00, 0x00, 0x00, 0x00, 0x00, 0x00, 0x16, 0x0c, 0x00, 0x10, 0x00, 0x0f, 0x00, 0x00, 0x00, 0x08, 0x00, 0x04, 0x00, 0x0c, 0x00, 0x00, 0x00, 0x03, 0x00, 0x00, 0x00, 0x03, 0x00, 0x00, 0x00, 0x00, 0x00, 0x00, 0x03, 0xf4, 0xff, 0xff, 0xff, 0x46, 0x00, 0x00, 0x00, 0x00, 0x00, 0x00, 0x46, 0x0c, 0x00, 0x0c, 0x00, 0x0b, 0x00, 0x00, 0x00, 0x00, 0x00, 0x04, 0x00, 0x0c, 0x00, 0x00, 0x00, 0x72, 0x00, 0x00, 0x00, 0x00, 0x00, 0x00, 0x72
};
