// Auto-generated by KWS_MFCC_Training.ipynb
// TFLite model — INT8 quantised
#pragma once
#include <stdint.h>

const unsigned int kws_model_len = 11240;
alignas(8) const uint8_t kws_model_data[] = {
  0x1c, 0x00, 0x00, 0x00, 0x54, 0x46, 0x4c, 0x33, 0x14, 0x00, 0x20, 0x00, 0x1c, 0x00, 0x18, 0x00, 0x14, 0x00, 0x10, 0x00, 0x0c, 0x00, 0x00, 0x00, 0x08, 0x00, 0x04, 0x00, 0x14, 0x00, 0x00, 0x00, 0x1c, 0x00, 0x00, 0x00, 0x88, 0x00, 0x00, 0x00, 0x08, 0x01, 0x00, 0x00, 0xf0, 0x0f, 0x00, 0x00, 0x00, 0x10, 0x00, 0x00, 0xd4, 0x2a, 0x00, 0x00, 0x03, 0x00, 0x00, 0x00, 0x01, 0x00, 0x00, 0x00, 0x04, 0x00, 0x00, 0x00, 0x3e, 0xec, 0xff, 0xff, 0x0c, 0x00, 0x00, 0x00, 0x1c, 0x00, 0x00, 0x00, 0x3c, 0x00, 0x00, 0x00, 0x0f, 0x00, 0x00, 0x00, 0x73, 0x65, 0x72, 0x76, 0x69, 0x6e, 0x67, 0x5f, 0x64, 0x65, 0x66, 0x61, 0x75, 0x6c, 0x74, 0x00, 0x01, 0x00, 0x00, 0x00, 0x04, 0x00, 0x00, 0x00, 0x6c, 0xff, 0xff, 0xff, 0x23, 0x00, 0x00, 0x00, 0x04, 0x00, 0x00, 0x00, 0x08, 0x00, 0x00, 0x00, 0x6f, 0x75, 0x74, 0x70, 0x75, 0x74, 0x5f, 0x30, 0x00, 0x00, 0x00, 0x00, 0x01, 0x00, 0x00, 0x00, 0x04, 0x00, 0x00, 0x00, 0x12, 0xef, 0xff, 0xff, 0x04, 0x00, 0x00, 0x00, 0x0a, 0x00, 0x00, 0x00, 0x6d, 0x66, 0x63, 0x63, 0x5f, 0x69, 0x6e, 0x70, 0x75, 0x74, 0x00, 0x00, 0x03, 0x00, 0x00, 0x00, 0x5c, 0x00, 0x00, 0x00, 0x2c, 0x00, 0x00, 0x00, 0x04, 0x00, 0x00, 0x00, 0xb8, 0xff, 0xff, 0xff, 0x27, 0x00, 0x00, 0x00, 0x04, 0x00, 0x00, 0x00, 0x13, 0x00, 0x00, 0x00, 0x43, 0x4f, 0x4e, 0x56, 0x45, 0x52, 0x53, 0x49, 0x4f, 0x4e, 0x5f, 0x4d, 0x45, 0x54, 0x41, 0x44, 0x41, 0x54, 0x41, 0x00, 0xdc, 0xff, 0xff, 0xff, 0x26, 0x00, 0x00, 0x00, 0x04, 0x00, 0x00, 0x00, 0x13, 0x00, 0x00, 0x00, 0x6d, 0x69, 0x6e, 0x5f, 0x72, 0x75, 0x6e, 0x74, 0x69, 0x6d, 0x65, 0x5f, 0x76, 0x65, 0x72, 0x73, 0x69, 0x6f, 0x6e, 0x00, 0x08, 0x00, 0x0c, 0x00, 0x08, 0x00, 0x04, 0x00, 0x08, 0x00, 0x00, 0x00, 0x25, 0x00, 0x00, 0x00, 0x04, 0x00, 0x00, 0x00, 0x13, 0x00, 0x00, 0x00, 0x6d, 0x69, 0x6e, 0x5f, 0x72, 0x75, 0x6e, 0x74, 0x69, 0x6d, 0x65, 0x5f, 0x76, 0x65, 0x72, 0x73, 0x69, 0x6f, 0x6e, 0x00, 0x28, 0x00, 0x00, 0x00, 0xe4, 0x0e, 0x00, 0x00, 0xdc, 0x0e, 0x00, 0x00, 0xc8, 0x0e, 0x00, 0x00, 0xac, 0x0e, 0x00, 0x00, 0x98, 0x0e, 0x00, 0x00, 0x7c, 0x0e, 0x00, 0x00, 0x60, 0x0e, 0x00, 0x00, 0x44, 0x0e, 0x00, 0x00, 0x30, 0x0e, 0x00, 0x00, 0x28, 0x0e, 0x00, 0x00, 0x14, 0x0e, 0x00, 0x00, 0xf4, 0x0d, 0x00, 0x00, 0x64, 0x0c, 0x00, 0x00, 0xd4, 0x0b, 0x00, 0x00, 0xc4, 0x05, 0x00, 0x00, 0x74, 0x05, 0x00, 0x00, 0x54, 0x01, 0x00, 0x00, 0x4c, 0x01, 0x00, 0x00, 0x44, 0x01, 0x00, 0x00, 0x3c, 0x01, 0x00, 0x00, 0x34, 0x01, 0x00, 0x00, 0x2c, 0x01, 0x00, 0x00, 0x24, 0x01, 0x00, 0x00, 0x1c, 0x01, 0x00, 0x00, 0x14, 0x01, 0x00, 0x00, 0x0c, 0x01, 0x00, 0x00, 0x04, 0x01, 0x00, 0x00, 0xfc, 0x00, 0x00, 0x00, 0xf4, 0x00, 0x00, 0x00, 0xec, 0x00, 0x00, 0x00, 0xe4, 0x00, 0x00, 0x00, 0xdc, 0x00, 0x00, 0x00, 0xd4, 0x00, 0x00, 0x00, 0xcc, 0x00, 0x00, 0x00, 0xc4, 0x00, 0x00, 0x00, 0xbc, 0x00, 0x00, 0x00, 0xb4, 0x00, 0x00, 0x00, 0x94, 0x00, 0x00, 0x00, 0x74, 0x00, 0x00, 0x00, 0x04, 0x00, 0x00, 0x00, 0x52, 0xf0, 0xff, 0xff, 0x04, 0x00, 0x00, 0x00, 0x60, 0x00, 0x00, 0x00, 0x0c, 0x00, 0x00, 0x00, 0x08, 0x00, 0x0e, 0x00, 0x08, 0x00, 0x04, 0x00, 0x08, 0x00, 0x00, 0x00, 0x10, 0x00, 0x00, 0x00, 0x28, 0x00, 0x00, 0x00, 0x00, 0x00, 0x06, 0x00, 0x08, 0x00, 0x04, 0x00, 0x06, 0x00, 0x00, 0x00, 0x04, 0x00, 0x00, 0x00, 0x01, 0x00, 0x00, 0x00, 0xeb, 0x03, 0x00, 0x00, 0x0c, 0x00, 0x18, 0x00, 0x14, 0x00, 0x10, 0x00, 0x0c, 0x00, 0x04, 0x00, 0x0c, 0x00, 0x00, 0x00, 0xdb, 0xab, 0xfa, 0xee, 0x91, 0x60, 0xa3, 0x9a, 0x02, 0x00, 0x00, 0x00, 0x02, 0x00, 0x00, 0x00, 0x04, 0x00, 0x00, 0x00, 0x06, 0x00, 0x00, 0x00, 0x32, 0x2e, 0x31, 0x39, 0x2e, 0x30, 0x00, 0x00, 0xbe, 0xf0, 0xff, 0xff, 0x04, 0x00, 0x00, 0x00, 0x10, 0x00, 0x00, 0x00, 0x00, 0x00, 0x00, 0x00, 0x00, 0x00, 0x00, 0x00, 0x00, 0x00, 0x00, 0x00, 0x00, 0x00, 0x00, 0x00, 0xda, 0xf0, 0xff, 0xff, 0x04, 0x00, 0x00, 0x00, 0x10, 0x00, 0x00, 0x00, 0x31, 0x2e, 0x31, 0x34, 0x2e, 0x30, 0x00, 0x00, 0x00, 0x00, 0x00, 0x00, 0x00, 0x00, 0x00, 0x00, 0xac, 0xd7, 0xff, 0xff, 0xb0, 0xd7, 0xff, 0xff, 0xb4, 0xd7, 0xff, 0xff, 0xb8, 0xd7, 0xff, 0xff, 0xbc, 0xd7, 0xff, 0xff, 0xc0, 0xd7, 0xff, 0xff, 0xc4, 0xd7, 0xff, 0xff, 0xc8, 0xd7, 0xff, 0xff, 0xcc, 0xd7, 0xff, 0xff, 0xd0, 0xd7, 0xff, 0xff, 0xd4, 0xd7, 0xff, 0xff, 0xd8, 0xd7, 0xff, 0xff, 0xdc, 0xd7, 0xff, 0xff, 0xe0, 0xd7, 0xff, 0xff, 0xe4, 0xd7, 0xff, 0xff, 0xe8, 0xd7, 0xff, 0xff, 0xec, 0xd7, 0xff, 0xff, 0xf0, 0xd7, 0xff, 0xff, 0xf4, 0xd7, 0xff, 0xff, 0xf8, 0xd7, 0xff, 0xff, 0x46, 0xf1, 0xff, 0xff, 0x04, 0x00, 0x00, 0x00, 0x10, 0x04, 0x00, 0x00, 0x00, 0xa7, 0x0c, 0x1d, 0xb0, 0xff, 0xb8, 0x3b, 0xf4, 0x1c, 0xc9, 0xf2, 0x03, 0xff, 0x8d, 0xf0, 0x33, 0x63, 0xa3, 0x87, 0xef, 0x25, 0xf1, 0x3c, 0x4d, 0x13, 0xca, 0xf2, 0x39, 0x58, 0x09, 0xf6, 0xe8, 0x2d, 0x6e, 0x57, 0xc8, 0xdd, 0x3a, 0x2c, 0x0d, 0xd3, 0x04, 0xb8, 0x24, 0xbe, 0x55, 0x03, 0xfb, 0x1c, 0x08, 0x65, 0x23, 0x81, 0x10, 0x48, 0xd3, 0xab, 0x06, 0x1a, 0xe9, 0x5c, 0x9a, 0x00, 0xea, 0xa7, 0x9d, 0xe1, 0x35, 0x5d, 0x96, 0x45, 0xc1, 0x3f, 0x55, 0xf3, 0x4c, 0xf4, 0x8b, 0x00, 0x18, 0x3c, 0x27, 0xc9, 0x43, 0xd7, 0x10, 0xc9, 0x03, 0x44, 0xb8, 0xf9, 0x02, 0x08, 0x13, 0x5a, 0xbd, 0x22, 0x18, 0x4f, 0x44, 0x28, 0xc8, 0x20, 0xfc, 0xf1, 0xb7, 0x01, 0x55, 0x1a, 0xef, 0xbd, 0xb9, 0x16, 0x2b, 0xe7, 0x77, 0xa4, 0x81, 0xd8, 0x21, 0xfc, 0xef, 0xe8, 0x28, 0x69, 0xfc, 0x0e, 0x4f, 0x25, 0xc8, 0xc1, 0x2c, 0xff, 0xbc, 0x97, 0x20, 0xd6, 0x45, 0x93, 0x81, 0x18, 0x38, 0x71, 0x48, 0x72, 0xac, 0x20, 0xca, 0x41, 0x31, 0xb2, 0xe5, 0xc1, 0x96, 0x02, 0x22, 0x04, 0x2e, 0x66, 0xa0, 0x17, 0x54, 0xea, 0x5b, 0xf0, 0xde, 0xc0, 0x09, 0xe7, 0x40, 0x7c, 0xd8, 0x24, 0x01, 0xb4, 0xd1, 0x13, 0xcc, 0xd9, 0xc2, 0xe8, 0x25, 0x06, 0x06, 0x44, 0xf8, 0x10, 0xdb, 0xca, 0xa4, 0xfc, 0xd9, 0xa6, 0xee, 0xbe, 0x74, 0xd8, 0x64, 0x1f, 0xf5, 0x1e, 0x61, 0x41, 0x3d, 0xeb, 0xcc, 0x5b, 0x2e, 0xdf, 0xc7, 0x36, 0x47, 0xc2, 0x21, 0x2d, 0xe7, 0xb9, 0x13, 0x0a, 0x0c, 0x7d, 0x18, 0x7f, 0x1f, 0x11, 0x39, 0x05, 0xf0, 0x0e, 0xff, 0x4f, 0xaf, 0x48, 0x2f, 0x15, 0x7a, 0x19, 0xee, 0xb2, 0x2e, 0x5a, 0x3b, 0xba, 0x97, 0x1c, 0xd1, 0x1a, 0x27, 0x4b, 0xc4, 0x3e, 0x3a, 0xa4, 0x10, 0xbd, 0x2f, 0x99, 0xd7, 0x38, 0xbd, 0x01, 0x9b, 0x28, 0x21, 0x46, 0xe1, 0xe5, 0x31, 0xd2, 0x3d, 0x52, 0x28, 0x17, 0x55, 0x4c, 0xf0, 0x23, 0x7a, 0x37, 0xcb, 0x98, 0x46, 0x20, 0x76, 0xca, 0x23, 0xfd, 0xc9, 0xc3, 0xea, 0x62, 0x34, 0x81, 0xe4, 0xa5, 0x6b, 0xb9, 0x3e, 0x25, 0xf3, 0xb8, 0x01, 0x17, 0x6e, 0xeb, 0xfd, 0x0a, 0x0d, 0xd4, 0xf1, 0x4e, 0x4c, 0x4e, 0xea, 0xdc, 0x61, 0x4f, 0xc9, 0xd2, 0x08, 0x65, 0x31, 0xc5, 0x9b, 0xb1, 0xa2, 0xf9, 0x9c, 0x9d, 0xd4, 0x25, 0x5a, 0x47, 0x8c, 0xad, 0xfd, 0xb1, 0xe8, 0x9d, 0x72, 0x70, 0xbe, 0xb5, 0x2b, 0xba, 0xe1, 0x55, 0xb7, 0x25, 0x14, 0xd1, 0xfb, 0x38, 0x64, 0x24, 0x37, 0xd3, 0x52, 0x7f, 0x15, 0x32, 0x1c, 0xae, 0x44, 0xcf, 0xad, 0xb4, 0x0d, 0xa5, 0x91, 0x66, 0xa5, 0x42, 0x79, 0xee, 0x11, 0x9b, 0xcc, 0xaa, 0x82, 0x2a, 0x4a, 0x63, 0xf6, 0x90, 0x50, 0x42, 0xc4, 0x15, 0xc5, 0xbb, 0xf7, 0xde, 0xda, 0x27, 0x67, 0x16, 0xe9, 0xe0, 0xdc, 0x3c, 0x44, 0xee, 0x0a, 0x9b, 0x31, 0x0a, 0xb4, 0xfe, 0x20, 0xdb, 0x51, 0x10, 0xd9, 0x43, 0x38, 0xb1, 0x3c, 0xeb, 0xfb, 0x5b, 0x65, 0x52, 0xe7, 0x0c, 0xc9, 0x48, 0xc8, 0xe7, 0x41, 0x15, 0xe4, 0xd0, 0xdf, 0xba, 0xd9, 0x4b, 0x11, 0x39, 0xb5, 0xc1, 0x9e, 0x50, 0xe3, 0x81, 0xfb, 0x36, 0x46, 0x49, 0xf5, 0xe4, 0x2a, 0xdd, 0xc4, 0xc4, 0x6c, 0xbf, 0x28, 0x52, 0x38, 0xce, 0x89, 0x53, 0xd3, 0xef, 0x68, 0x98, 0x49, 0x45, 0xe1, 0x0e, 0xcf, 0xbc, 0x7b, 0xcd, 0x82, 0x36, 0x1b, 0x7f, 0x60, 0x98, 0x36, 0xd8, 0xd8, 0xa8, 0x58, 0x4c, 0x35, 0x08, 0xb4, 0x7d, 0xb0, 0xad, 0x9a, 0x6b, 0x4f, 0x45, 0x6a, 0x74, 0xcc, 0x43, 0xb5, 0x12, 0xfb, 0x7b, 0xfa, 0x98, 0xca, 0xed, 0x17, 0x4b, 0xc3, 0x22, 0xac, 0x3e, 0x58, 0x6a, 0x55, 0xb2, 0xe3, 0xb2, 0x2d, 0xa1, 0x3c, 0xbb, 0xb8, 0xea, 0x13, 0xd8, 0xd6, 0xb9, 0x51, 0xd9, 0xe6, 0xf4, 0xe5, 0xd7, 0xab, 0x70, 0x6f, 0xc6, 0x13, 0xb7, 0xb6, 0xf9, 0xac, 0x10, 0x19, 0xb0, 0x9f, 0x25, 0xa6, 0x65, 0x7f, 0xa2, 0xe0, 0xa1, 0xaf, 0x16, 0x43, 0x40, 0xb0, 0xe3, 0x16, 0xd8, 0x12, 0xd5, 0xda, 0xad, 0xdf, 0xe3, 0xdc, 0x73, 0x91, 0xec, 0x8e, 0x32, 0x45, 0xc0, 0xb0, 0x7b, 0xa4, 0xcb, 0xad, 0x0f, 0x8e, 0xbf, 0x2d, 0x25, 0x30, 0x8d, 0xdd, 0x93, 0xd0, 0xb3, 0x4d, 0x46, 0x4f, 0xf8, 0xb6, 0x63, 0xfb, 0xeb, 0x9b, 0xb7, 0x43, 0xca, 0xdb, 0x4c, 0x99, 0x60, 0x12, 0x2f, 0xff, 0x39, 0x05, 0xd0, 0xd8, 0xc5, 0x25, 0xfc, 0x07, 0xed, 0xc3, 0x64, 0xef, 0x39, 0xd6, 0x27, 0x11, 0xdb, 0x9d, 0x7f, 0x48, 0x23, 0x3a, 0x52, 0x56, 0xf6, 0x78, 0xe0, 0x43, 0x3a, 0xbc, 0xb4, 0x8c, 0x4c, 0x40, 0x43, 0xc4, 0x05, 0xcb, 0x78, 0x26, 0x5b, 0x05, 0x71, 0xca, 0xd8, 0x18, 0xdf, 0xc8, 0xc4, 0x35, 0x42, 0x7c, 0xa2, 0x38, 0xee, 0x03, 0xfd, 0x05, 0x11, 0x7d, 0x66, 0xcb, 0x9c, 0x63, 0xe5, 0xe9, 0x59, 0xa4, 0x3b, 0x10, 0xd9, 0x9e, 0x47, 0xe4, 0x3c, 0x73, 0x61, 0xae, 0x50, 0x75, 0x0a, 0xe9, 0x81, 0x53, 0xa2, 0xce, 0xd6, 0x65, 0xfd, 0x26, 0x6c, 0x53, 0x13, 0xc1, 0xe3, 0xdd, 0x44, 0xc7, 0xac, 0x50, 0xf3, 0x22, 0xd5, 0x34, 0x2d, 0x5e, 0xa2, 0xf1, 0x28, 0x95, 0xbf, 0xfc, 0xfd, 0xba, 0x7f, 0xab, 0x96, 0x54, 0x34, 0x3b, 0x45, 0xa7, 0x3b, 0xc2, 0x21, 0xe0, 0x27, 0x56, 0x06, 0x24, 0xd5, 0x01, 0x38, 0x1a, 0x24, 0xde, 0xb3, 0xd7, 0x4b, 0x0c, 0x64, 0x17, 0xe6, 0xd5, 0x2d, 0x64, 0x9e, 0xab, 0x9c, 0x9b, 0xbb, 0xac, 0x8d, 0x72, 0xbd, 0x0a, 0x31, 0xed, 0x78, 0xa7, 0xa5, 0x63, 0x39, 0xb3, 0x51, 0x2a, 0xc8, 0xa7, 0xda, 0x42, 0x99, 0xa9, 0x46, 0xd8, 0xce, 0xa4, 0x8c, 0xd2, 0x66, 0x86, 0x94, 0x58, 0x5d, 0xe5, 0xc4, 0x71, 0x78, 0x0d, 0x10, 0x20, 0x2e, 0x49, 0xd5, 0x4a, 0x0f, 0x28, 0x81, 0xa1, 0x69, 0x54, 0x47, 0xb2, 0xec, 0xc0, 0x59, 0x8e, 0x4c, 0x15, 0x25, 0x11, 0x42, 0x2f, 0x39, 0xb2, 0x30, 0x2e, 0x57, 0x01, 0x89, 0x4f, 0x53, 0xd6, 0xba, 0xbc, 0xd3, 0x76, 0xff, 0xd9, 0x4f, 0x2e, 0x14, 0x4b, 0x95, 0x1d, 0xb3, 0xc9, 0x0d, 0xed, 0xff, 0xfc, 0x16, 0xe2, 0x30, 0xc8, 0xc2, 0x49, 0x9f, 0xf4, 0xe9, 0xcb, 0x3d, 0xda, 0x37, 0x13, 0xd5, 0x21, 0x89, 0x28, 0xd7, 0x13, 0xf1, 0x04, 0x30, 0x58, 0x12, 0x58, 0xb9, 0x06, 0x48, 0x99, 0x52, 0x06, 0xda, 0xb9, 0x14, 0xe7, 0xf2, 0xe6, 0xfd, 0xc3, 0xf8, 0x1e, 0xcb, 0xfb, 0x4f, 0x24, 0x53, 0x81, 0xda, 0xe5, 0x7b, 0xf3, 0x17, 0xc0, 0x04, 0x61, 0x08, 0x77, 0x7b, 0x02, 0xde, 0x6c, 0x00, 0x11, 0x9e, 0x1a, 0x55, 0x4a, 0x22, 0x2f, 0x17, 0x29, 0x9e, 0x88, 0xd9, 0xac, 0x18, 0xfb, 0xf9, 0xae, 0x08, 0x63, 0x34, 0xca, 0xeb, 0x1c, 0x05, 0x2b, 0xf5, 0xc5, 0x8b, 0x81, 0xe6, 0x38, 0x61, 0x4d, 0xf0, 0x2d, 0xe8, 0x8f, 0x2c, 0x1c, 0x8f, 0x63, 0xe6, 0x60, 0x4f, 0x30, 0x1c, 0xd6, 0xf0, 0xce, 0x6d, 0x1b, 0x2b, 0x25, 0xa5, 0xeb, 0xa8, 0x21, 0xea, 0x29, 0xfe, 0x3a, 0xad, 0xb2, 0x93, 0x48, 0xef, 0xca, 0xe4, 0xfa, 0x19, 0xe2, 0x06, 0xa1, 0x21, 0x6d, 0x2c, 0x06, 0x17, 0x5c, 0xab, 0x92, 0xdd, 0xb2, 0x3c, 0xc2, 0xcf, 0x64, 0xef, 0xa1, 0xff, 0xd6, 0xe3, 0x36, 0x45, 0x3f, 0xe4, 0xfd, 0xe6, 0xf4, 0x35, 0xe3, 0xbe, 0x81, 0xf9, 0x52, 0x56, 0xb6, 0x9a, 0x1f, 0xc9, 0xdd, 0x09, 0xe5, 0xea, 0x1b, 0xd3, 0xde, 0xe7, 0x0a, 0xdf, 0x61, 0x13, 0x62, 0xf5, 0xff, 0xff, 0x04, 0x00, 0x00, 0x00, 0x40, 0x00, 0x00, 0x00, 0x1d, 0x04, 0x00, 0x00, 0x05, 0x03, 0x00, 0x00, 0x18, 0x04, 0x00, 0x00, 0x32, 0x04, 0x00, 0x00, 0x2d, 0x03, 0x00, 0x00, 0xc4, 0xfe, 0xff, 0xff, 0xa4, 0x00, 0x00, 0x00, 0xad, 0x04, 0x00, 0x00, 0x8a, 0x01, 0x00, 0x00, 0x65, 0xff, 0xff, 0xff, 0xda, 0x01, 0x00, 0x00, 0xf3, 0x01, 0x00, 0x00, 0x75, 0x04, 0x00, 0x00, 0xd8, 0x01, 0x00, 0x00, 0xd2, 0x01, 0x00, 0x00, 0xbb, 0x02, 0x00, 0x00, 0xae, 0xf5, 0xff, 0xff, 0x04, 0x00, 0x00, 0x00, 0x00, 0x06, 0x00, 0x00, 0x98, 0xc8, 0x6e, 0x17, 0xa0, 0xc6, 0x01, 0xb4, 0x2b, 0xc0, 0x66, 0x49, 0x4e, 0x71, 0xdc, 0x1d, 0x8b, 0xdf, 0xb3, 0x2c, 0xba, 0x09, 0x46, 0x42, 0xff, 0xd1, 0xad, 0x7d, 0x8d, 0xfc, 0x52, 0x0c, 0x91, 0x1f, 0x23, 0x6f, 0xa5, 0x8f, 0xc0, 0xc2, 0xe7, 0xe3, 0x2d, 0xcc, 0x81, 0x36, 0xbf, 0x54, 0x25, 0x1e, 0x33, 0x7e, 0xe3, 0x01, 0xf6, 0x02, 0xe0, 0x1c, 0xd3, 0x83, 0x60, 0xdb, 0x3a, 0xfa, 0xc3, 0x14, 0x2a, 0xe8, 0x38, 0x23, 0x28, 0xc6, 0xcc, 0x04, 0xd7, 0x16, 0x6a, 0x99, 0xb6, 0xb7, 0x7f, 0x3d, 0xde, 0x77, 0x11, 0xa2, 0x36, 0xbc, 0x0b, 0x2a, 0x20, 0xb3, 0x6f, 0x0e, 0x23, 0x39, 0x05, 0xae, 0x6f, 0xc5, 0x00, 0x0c, 0x79, 0x3b, 0xe3, 0xa3, 0x9d, 0xe8, 0x2c, 0x50, 0xcd, 0xec, 0xbf, 0xe6, 0x65, 0x93, 0x7f, 0xa7, 0x03, 0x6c, 0xb9, 0xce, 0x2a, 0x78, 0x26, 0x66, 0x17, 0x95, 0xf6, 0xc2, 0xc3, 0x69, 0x6c, 0xd6, 0x7b, 0xe6, 0xd7, 0x54, 0x30, 0x1e, 0x19, 0xe4, 0xa8, 0xb4, 0x56, 0x4a, 0x35, 0x0b, 0xdb, 0x38, 0x36, 0x0f, 0x68, 0xc4, 0xc6, 0x62, 0x90, 0x35, 0x5d, 0x34, 0x04, 0x01, 0x57, 0x11, 0x4f, 0x6d, 0xdb, 0x50, 0x3e, 0xf7, 0x2c, 0xf6, 0xca, 0xcb, 0xa8, 0x5d, 0xdf, 0x5c, 0x44, 0xcf, 0xa6, 0xb8, 0x23, 0x7a, 0xcf, 0x62, 0x42, 0x21, 0x81, 0xc0, 0x86, 0xff, 0xd3, 0xe7, 0x49, 0x4d, 0xb6, 0x69, 0x3f, 0x72, 0xfb, 0xc0, 0xe7, 0xc4, 0xd1, 0x0b, 0x81, 0x98, 0x0f, 0x4f, 0xc2, 0x5e, 0x52, 0xaa, 0xe1, 0x58, 0xa2, 0xf5, 0xf9, 0x09, 0x1c, 0x58, 0xa2, 0x64, 0x12, 0xa5, 0x1b, 0x55, 0xfa, 0xb2, 0x2f, 0xfd, 0x39, 0x7d, 0xd0, 0xa4, 0xe9, 0x08, 0x2c, 0x94, 0xc1, 0xc1, 0x7f, 0x56, 0xbc, 0xd0, 0xa1, 0xf4, 0x59, 0xdf, 0x45, 0xa4, 0x4c, 0xd0, 0x42, 0x52, 0xd2, 0x98, 0x10, 0x61, 0xa7, 0xb5, 0xd5, 0xae, 0xcf, 0xb0, 0x53, 0x42, 0x42, 0xaf, 0x50, 0x03, 0x72, 0xc0, 0x62, 0x73, 0x36, 0x4e, 0x02, 0x24, 0xb6, 0x32, 0x34, 0x96, 0x55, 0x8f, 0x68, 0x54, 0xce, 0xe3, 0x7f, 0xef, 0x40, 0x11, 0x1a, 0x63, 0x55, 0x29, 0x52, 0x1c, 0x5b, 0xde, 0xda, 0xe5, 0x53, 0xd8, 0xb3, 0xb2, 0x0f, 0x21, 0xd8, 0x2e, 0x5d, 0xc6, 0x1a, 0xb3, 0xd0, 0x2a, 0x43, 0xf6, 0xce, 0xfa, 0xce, 0xd7, 0x4d, 0x3d, 0xbc, 0x0a, 0x59, 0x69, 0xf7, 0x59, 0xf2, 0x23, 0x65, 0xb2, 0xec, 0x90, 0xcf, 0xbb, 0xa4, 0xb2, 0xd3, 0x20, 0x40, 0x01, 0x2e, 0x0e, 0x9b, 0xb7, 0xd0, 0xa7, 0x34, 0xc0, 0x3b, 0xf7, 0x45, 0xaa, 0x88, 0x8b, 0x21, 0xa5, 0x0d, 0xbc, 0xe3, 0xd1, 0xbb, 0xee, 0x9b, 0x36, 0x61, 0x37, 0x0a, 0x81, 0xc3, 0xa3, 0x92, 0x2f, 0x0b, 0xd0, 0x13, 0x50, 0x26, 0x91, 0x37, 0xc0, 0x0a, 0x3d, 0x2a, 0xcb, 0x81, 0xd2, 0x59, 0xce, 0xb8, 0xb6, 0x1a, 0xf2, 0xc1, 0x2a, 0x65, 0xdf, 0xb0, 0xae, 0x78, 0x25, 0x8b, 0xb6, 0x16, 0xbb, 0x41, 0xe9, 0x70, 0xbd, 0xf3, 0x24, 0xfb, 0x3b, 0xec, 0xb8, 0xb1, 0x11, 0xc4, 0xc4, 0xde, 0x12, 0x07, 0xa5, 0xe4, 0x4d, 0xa7, 0x33, 0xdb, 0x72, 0x41, 0x14, 0x87, 0x9a, 0xfa, 0xac, 0x0d, 0xcd, 0xc1, 0xaa, 0x40, 0x1e, 0x6a, 0x82, 0x36, 0xac, 0xd4, 0x4b, 0x85, 0x3f, 0x34, 0xe8, 0xce, 0x53, 0xcd, 0x85, 0x11, 0xe0, 0x46, 0x08, 0x8b, 0xe1, 0xa8, 0xa2, 0x8b, 0x15, 0x13, 0x1a, 0xe4, 0x11, 0x81, 0xa2, 0x3f, 0xc9, 0x9a, 0xce, 0x5a, 0x88, 0xf1, 0x23, 0x32, 0x05, 0x15, 0x3e, 0xbb, 0xd7, 0xe6, 0x0f, 0x52, 0xd1, 0x24, 0x18, 0x16, 0x4e, 0x5f, 0xb7, 0x29, 0x1d, 0x55, 0x42, 0xe5, 0xcd, 0x73, 0x69, 0x4c, 0x7f, 0x72, 0x17, 0xff, 0xea, 0x65, 0xaa, 0x55, 0x10, 0xc0, 0x6b, 0x7e, 0x3e, 0xcb, 0xef, 0xd2, 0xc3, 0xb4, 0xc2, 0x71, 0xfd, 0x94, 0x8f, 0x54, 0x79, 0x3c, 0x71, 0xd5, 0xff, 0x50, 0x5b, 0xf7, 0x33, 0xb0, 0x4f, 0x5c, 0x7f, 0x20, 0x97, 0xea, 0x45, 0xf2, 0x2a, 0xa2, 0xb2, 0x92, 0xbd, 0xcc, 0xe5, 0xaf, 0xe8, 0x55, 0xeb, 0xff, 0x11, 0x31, 0x53, 0x62, 0x72, 0x19, 0x6e, 0x42, 0xa7, 0x4b, 0xbf, 0xd3, 0x1d, 0x09, 0xf4, 0x28, 0x7f, 0xb3, 0xa7, 0xf6, 0x1e, 0x1d, 0xee, 0xba, 0x03, 0xe5, 0x32, 0x41, 0x21, 0x19, 0x02, 0x76, 0x4f, 0x16, 0xff, 0x15, 0x5f, 0xe1, 0xb5, 0x33, 0x76, 0x0d, 0xed, 0xdd, 0x1b, 0x1f, 0xb5, 0x46, 0x38, 0x86, 0x3e, 0x2f, 0xfe, 0x3f, 0x09, 0xe6, 0xd2, 0xc7, 0x6c, 0x1d, 0x0a, 0x52, 0xdd, 0xbe, 0x2d, 0x7f, 0xb3, 0xf0, 0x6f, 0x29, 0xfd, 0x1a, 0xae, 0x3a, 0x90, 0xc6, 0x04, 0xae, 0x6c, 0xb2, 0xb8, 0x4e, 0x0e, 0x10, 0x26, 0x17, 0x54, 0x39, 0x4a, 0x23, 0x00, 0xd0, 0xc2, 0x97, 0x35, 0x47, 0x14, 0x2e, 0xab, 0x0a, 0x3e, 0x03, 0xda, 0x21, 0x00, 0x52, 0xc2, 0x00, 0x04, 0x04, 0xf1, 0x4a, 0xb7, 0xe8, 0x07, 0x18, 0x96, 0x3b, 0xb9, 0xcb, 0xa3, 0xba, 0x0e, 0x12, 0x4a, 0xe2, 0x5c, 0x38, 0x54, 0x4e, 0x66, 0xec, 0x29, 0x60, 0xba, 0xec, 0x43, 0xb9, 0x1f, 0xd7, 0xba, 0xe7, 0xb4, 0x47, 0x61, 0xf0, 0xc3, 0x4c, 0x4b, 0x7f, 0x35, 0xc3, 0xe6, 0x87, 0x5d, 0xf1, 0xd7, 0xcf, 0xe3, 0x3c, 0xe4, 0x3c, 0x1a, 0x7f, 0xea, 0x77, 0xec, 0x52, 0xbc, 0xc7, 0x52, 0x4f, 0x9a, 0x1e, 0xcd, 0xc3, 0x46, 0x41, 0x47, 0x55, 0x11, 0x15, 0xc9, 0x5d, 0xd2, 0x47, 0xcb, 0xf0, 0x9e, 0x09, 0x62, 0x6e, 0x66, 0xc0, 0x2e, 0x2d, 0xd5, 0xca, 0x47, 0xb6, 0x5e, 0xf4, 0x55, 0x08, 0xd9, 0xc7, 0x5c, 0x81, 0x36, 0x41, 0xd0, 0xae, 0x25, 0x6a, 0xf7, 0x59, 0x42, 0xd2, 0xdc, 0x98, 0xf4, 0xf8, 0xb0, 0xc6, 0xec, 0x0b, 0x07, 0x46, 0xf8, 0xdc, 0x3e, 0xe8, 0xad, 0x9b, 0x41, 0xa6, 0xb8, 0xe5, 0xc6, 0xcd, 0x3d, 0x31, 0xab, 0xf5, 0xc2, 0x42, 0x10, 0x0c, 0xf1, 0xb4, 0x3f, 0x6f, 0x2e, 0x16, 0x23, 0x97, 0xa5, 0xe0, 0x0b, 0xfd, 0x3b, 0xe4, 0x2d, 0x00, 0x0c, 0x31, 0x09, 0xb9, 0x58, 0x6c, 0x66, 0x2d, 0xdb, 0x2a, 0xce, 0xb7, 0xf8, 0xfb, 0x54, 0xc5, 0x1b, 0xcb, 0x47, 0xf5, 0x22, 0xe4, 0x52, 0x19, 0x81, 0x4e, 0xb9, 0x2a, 0xe5, 0x01, 0x53, 0x14, 0x0f, 0x4e, 0x49, 0xfc, 0x5c, 0x90, 0xe3, 0x81, 0xda, 0x53, 0xe1, 0x98, 0xb5, 0x95, 0x10, 0x6e, 0xfb, 0xd7, 0x93, 0x32, 0x09, 0xdf, 0xe3, 0xe7, 0x86, 0x1b, 0xca, 0xb6, 0xc1, 0xc0, 0xda, 0xa4, 0xa8, 0xba, 0xef, 0xf1, 0xe1, 0xf8, 0x34, 0xf0, 0x16, 0xb4, 0x89, 0x59, 0xfb, 0xbd, 0x45, 0x00, 0xbc, 0xd8, 0x1f, 0x7a, 0x35, 0x19, 0xed, 0xb5, 0x38, 0x3b, 0xb8, 0xfc, 0xa6, 0x02, 0xf3, 0x45, 0xf6, 0x32, 0x39, 0xd5, 0x03, 0x6a, 0x1a, 0x10, 0xb9, 0x3f, 0xd2, 0xee, 0xb3, 0x9f, 0x09, 0xc9, 0xf0, 0x97, 0x95, 0x9d, 0x68, 0x11, 0xbf, 0xb6, 0xad, 0xc1, 0x56, 0x0c, 0x67, 0xfc, 0xe1, 0x06, 0xad, 0x26, 0x09, 0x7f, 0xe4, 0xcc, 0x40, 0xaf, 0xd6, 0x71, 0xe5, 0x3c, 0x18, 0x3b, 0xb9, 0xcb, 0x18, 0xf9, 0x4c, 0xa5, 0x01, 0xd5, 0x4a, 0xbb, 0xa3, 0xf7, 0xd8, 0x7e, 0x3d, 0x27, 0xc0, 0xbb, 0xfe, 0xa4, 0x7f, 0xf4, 0xcc, 0xed, 0xe8, 0xe4, 0x66, 0xe3, 0xc8, 0x21, 0x39, 0x57, 0xcc, 0xd4, 0xc9, 0x88, 0x4d, 0x45, 0xd1, 0x23, 0xdb, 0xc5, 0x04, 0x96, 0xfe, 0x6d, 0xab, 0x59, 0x3a, 0xb6, 0x73, 0x07, 0x75, 0xa4, 0x3c, 0x4d, 0x7c, 0x3b, 0xc7, 0xf5, 0x63, 0x14, 0xaa, 0x4e, 0x2b, 0x30, 0x0c, 0xf1, 0xc7, 0x48, 0x15, 0xef, 0x7f, 0xf3, 0xa4, 0xc7, 0xc0, 0x0f, 0x02, 0x24, 0x88, 0x2c, 0x21, 0x15, 0x36, 0xce, 0x45, 0x22, 0xfd, 0x45, 0xbe, 0x15, 0x6a, 0xd9, 0x49, 0x39, 0x8a, 0x8b, 0xa9, 0x38, 0x60, 0x03, 0xf4, 0x27, 0x7c, 0xa8, 0xaf, 0xa1, 0x59, 0xbe, 0xe2, 0x1c, 0x05, 0x81, 0xd6, 0x5f, 0x0e, 0xf0, 0x36, 0x4c, 0x66, 0x82, 0x18, 0xd5, 0xc5, 0xd5, 0xaf, 0xcb, 0x9a, 0xca, 0xda, 0x78, 0x55, 0xfe, 0x6e, 0x37, 0x05, 0xbe, 0x37, 0xb3, 0x23, 0xd9, 0x18, 0x3f, 0x76, 0x40, 0x56, 0x63, 0x37, 0x4f, 0xa1, 0x0e, 0x3a, 0x07, 0xb1, 0xb0, 0x36, 0x91, 0xcb, 0xa4, 0x3e, 0xf7, 0xc4, 0x7f, 0x00, 0xfd, 0xa0, 0xd0, 0x39, 0x34, 0xbd, 0xc2, 0x52, 0xb8, 0x2f, 0xd1, 0x91, 0xfc, 0xf7, 0x07, 0x1d, 0x33, 0xd1, 0x5d, 0xe2, 0x7f, 0x66, 0x2f, 0xc1, 0xeb, 0x19, 0xc0, 0x3e, 0xe0, 0xdd, 0xcf, 0xf3, 0x44, 0xee, 0xb4, 0xa2, 0x62, 0x68, 0x05, 0xe1, 0xf6, 0x53, 0x4a, 0xaa, 0x41, 0xba, 0xe0, 0xe3, 0x1b, 0x13, 0x45, 0xa0, 0x28, 0x6b, 0x9a, 0x41, 0x9a, 0xfa, 0xd9, 0x60, 0xbc, 0x54, 0xf4, 0x5a, 0x41, 0x54, 0x4c, 0x18, 0x55, 0x35, 0xd4, 0xa6, 0x8c, 0x16, 0xbb, 0xdc, 0x36, 0x48, 0x6e, 0x05, 0xd7, 0x0a, 0x33, 0x33, 0x0c, 0x26, 0xbc, 0xcf, 0xec, 0xe9, 0x99, 0x46, 0x2a, 0x83, 0x5f, 0xaa, 0xc9, 0x4c, 0x7f, 0x0d, 0x25, 0x76, 0x1b, 0x52, 0x4b, 0x07, 0x52, 0x22, 0xe1, 0xeb, 0xc9, 0xc3, 0xf0, 0x66, 0x47, 0xd0, 0x10, 0xa1, 0x24, 0x05, 0xd2, 0x59, 0xad, 0xc3, 0x0e, 0x23, 0xf9, 0x33, 0x87, 0x5e, 0x41, 0xe4, 0xcd, 0x63, 0x7f, 0xcc, 0x11, 0xfb, 0xa8, 0x59, 0xf1, 0x51, 0x14, 0x4a, 0xbc, 0xba, 0x7a, 0x50, 0xed, 0xae, 0x5b, 0xc1, 0x9b, 0x55, 0x24, 0x1c, 0x9c, 0x4b, 0x15, 0xd8, 0x1c, 0x03, 0x24, 0x5a, 0xd9, 0xbf, 0x08, 0x0c, 0x0f, 0xd0, 0x18, 0xe7, 0x23, 0x54, 0x81, 0x19, 0x1c, 0xbf, 0x15, 0xd7, 0xae, 0xe5, 0xea, 0xc1, 0x12, 0x48, 0xa3, 0xff, 0xff, 0x00, 0xb3, 0x2a, 0x38, 0xc3, 0x05, 0xff, 0xe4, 0x0a, 0x6b, 0xe0, 0xf3, 0x6b, 0xe5, 0x08, 0x14, 0x20, 0x24, 0xe4, 0xe4, 0xc5, 0xd8, 0x48, 0x1c, 0xc3, 0x1f, 0xc4, 0x7f, 0x6f, 0x59, 0x33, 0xf8, 0xf4, 0x9c, 0x25, 0x31, 0x04, 0xe2, 0x6c, 0xfb, 0xaf, 0xb2, 0x27, 0x30, 0x19, 0xdf, 0xed, 0x6b, 0x00, 0xa2, 0x56, 0xce, 0xf7, 0xc1, 0x20, 0xd8, 0xf1, 0x0e, 0x03, 0x50, 0xab, 0xda, 0x66, 0x51, 0xe0, 0x14, 0xd2, 0x00, 0x1c, 0x1f, 0x7f, 0x02, 0xda, 0xf0, 0x12, 0x53, 0xcb, 0x33, 0xa6, 0xc9, 0x71, 0x2a, 0xa6, 0xec, 0x0b, 0x33, 0x4d, 0xee, 0xfd, 0x91, 0x60, 0xcd, 0xd5, 0x1c, 0xf6, 0xe6, 0x20, 0x74, 0x27, 0xae, 0xd2, 0x73, 0x70, 0xe5, 0xec, 0x35, 0xdf, 0xd5, 0x51, 0x47, 0x4a, 0x00, 0x91, 0x61, 0x4b, 0x91, 0x75, 0x13, 0x04, 0xcf, 0xa7, 0xbe, 0x2b, 0x5b, 0x25, 0xbd, 0xd4, 0xbc, 0xd3, 0x3b, 0xe4, 0xa0, 0x34, 0x81, 0x1f, 0xad, 0x3e, 0x34, 0x57, 0x59, 0x62, 0x63, 0x1a, 0xc8, 0xe9, 0xb2, 0x7d, 0x5c, 0x89, 0x1e, 0x38, 0x70, 0x4e, 0xfd, 0x49, 0x1d, 0xf0, 0x26, 0x4c, 0xd4, 0x1f, 0xab, 0x3b, 0x1d, 0x15, 0xf0, 0xd4, 0xdc, 0xb5, 0x26, 0xd7, 0xd7, 0x53, 0xb3, 0xb9, 0xf7, 0x24, 0xd4, 0xa4, 0x81, 0x1c, 0xaf, 0x55, 0xfa, 0x11, 0x29, 0xc2, 0xae, 0xd1, 0x17, 0xae, 0xff, 0x05, 0xed, 0xe4, 0x14, 0x55, 0xa6, 0x25, 0x17, 0xd1, 0xee, 0x38, 0x05, 0xee, 0x59, 0xd0, 0xfa, 0x4c, 0xbd, 0xfd, 0x33, 0xf0, 0xba, 0xfb, 0xff, 0xff, 0x04, 0x00, 0x00, 0x00, 0x80, 0x00, 0x00, 0x00, 0xf7, 0x01, 0x00, 0x00, 0x9f, 0x03, 0x00, 0x00, 0x0e, 0x03, 0x00, 0x00, 0x29, 0x03, 0x00, 0x00, 0x76, 0x01, 0x00, 0x00, 0x9d, 0x02, 0x00, 0x00, 0x04, 0x00, 0x00, 0x00, 0xde, 0xfd, 0xff, 0xff, 0xcb, 0x02, 0x00, 0x00, 0x84, 0xfc, 0xff, 0xff, 0xc9, 0x01, 0x00, 0x00, 0xa9, 0x01, 0x00, 0x00, 0x09, 0x04, 0x00, 0x00, 0xae, 0xff, 0xff, 0xff, 0xf9, 0x03, 0x00, 0x00, 0x5d, 0x01, 0x00, 0x00, 0x23, 0x00, 0x00, 0x00, 0xe0, 0xfe, 0xff, 0xff, 0x00, 0x00, 0x00, 0x00, 0x4b, 0xff, 0xff, 0xff, 0x52, 0x04, 0x00, 0x00, 0xf6, 0x02, 0x00, 0x00, 0xd8, 0x02, 0x00, 0x00, 0x8e, 0xfe, 0xff, 0xff, 0x17, 0x04, 0x00, 0x00, 0x25, 0x01, 0x00, 0x00, 0xb2, 0x02, 0x00, 0x00, 0x59, 0x03, 0x00, 0x00, 0xcd, 0x03, 0x00, 0x00, 0xf9, 0xfe, 0xff, 0xff, 0xf2, 0x00, 0x00, 0x00, 0x3e, 0x01, 0x00, 0x00, 0x46, 0xfc, 0xff, 0xff, 0x04, 0x00, 0x00, 0x00, 0x80, 0x01, 0x00, 0x00, 0x88, 0x74, 0xc4, 0xc0, 0x44, 0x5f, 0xf4, 0x26, 0x9d, 0xfa, 0xa3, 0x01, 0x02, 0xbc, 0x90, 0xb0, 0x2e, 0xc4, 0xa9, 0x50, 0xfe, 0xd6, 0xd9, 0xb3, 0x4c, 0x26, 0x55, 0xc7, 0x36, 0xa2, 0x93, 0xfc, 0x88, 0x4b, 0x81, 0x8e, 0xca, 0x5c, 0x0f, 0xaa, 0x92, 0xa6, 0xc2, 0xe1, 0x16, 0x63, 0x93, 0x68, 0xce, 0xe1, 0xcb, 0x4b, 0xf4, 0xc1, 0xb3, 0x30, 0x4c, 0x38, 0xa4, 0x43, 0x9b, 0xde, 0x10, 0x4b, 0x83, 0xe8, 0xaf, 0xbf, 0x1f, 0x63, 0xb2, 0xcb, 0x23, 0xcd, 0x3e, 0x83, 0x65, 0x5d, 0xbd, 0xd3, 0xac, 0x46, 0x48, 0x0d, 0x1f, 0xc0, 0xa0, 0x2e, 0xb8, 0xc7, 0x91, 0xc5, 0x2a, 0xfe, 0x11, 0x0f, 0x29, 0xb8, 0xf7, 0x08, 0xac, 0x97, 0xe9, 0x03, 0xbc, 0x2a, 0x18, 0xf4, 0x44, 0x93, 0xbf, 0x0c, 0x3c, 0x3c, 0x3b, 0x26, 0x1a, 0x4a, 0xdc, 0x08, 0xed, 0xdd, 0xa3, 0xf9, 0xfc, 0xf0, 0x47, 0x16, 0x43, 0x85, 0x89, 0xfe, 0x14, 0xc2, 0x33, 0xa9, 0xa7, 0xd5, 0xfc, 0x33, 0xf6, 0x13, 0x68, 0x50, 0xb7, 0xb9, 0xf7, 0xe5, 0x09, 0xea, 0xb6, 0xd7, 0x08, 0xbd, 0xf8, 0x81, 0x47, 0x12, 0xe6, 0xad, 0x26, 0xa5, 0x29, 0x02, 0x26, 0x23, 0x1f, 0xbf, 0xa6, 0xce, 0xe0, 0x4b, 0x4b, 0xc6, 0x56, 0xfb, 0xb4, 0xd2, 0xfc, 0xa6, 0x20, 0x2f, 0x23, 0xbb, 0x55, 0xd6, 0x91, 0x29, 0x05, 0xe3, 0x15, 0x91, 0xa3, 0x4b, 0xf3, 0xdd, 0x9f, 0x9d, 0xbc, 0x11, 0x0b, 0xb7, 0xca, 0xfa, 0x9f, 0x48, 0xad, 0xcd, 0x43, 0x4c, 0xbc, 0x62, 0xb3, 0x65, 0x0e, 0x3a, 0x37, 0xfe, 0x2f, 0xac, 0x1b, 0x4b, 0xf1, 0xc4, 0xbd, 0xd3, 0xae, 0xc0, 0xfb, 0xe7, 0xb9, 0x07, 0x2c, 0xea, 0xb4, 0xb9, 0xe4, 0x51, 0x2b, 0x25, 0x95, 0x6f, 0x03, 0xdc, 0xc6, 0x9d, 0xd4, 0xc7, 0x81, 0x15, 0x1b, 0x25, 0xc7, 0x1f, 0xa7, 0x5e, 0x27, 0x73, 0xd6, 0xbc, 0x34, 0x2b, 0xaf, 0xc1, 0x05, 0xc8, 0xc0, 0x59, 0xad, 0xb3, 0xf3, 0xd2, 0x8f, 0x27, 0x18, 0x6b, 0x9e, 0x1d, 0x4f, 0x3a, 0x9e, 0x06, 0x05, 0x29, 0x91, 0xe0, 0xe6, 0xb3, 0x23, 0xc0, 0x54, 0xad, 0x18, 0xdf, 0x0a, 0x4f, 0xb2, 0x1b, 0x27, 0x22, 0xb6, 0x67, 0x3e, 0x98, 0x59, 0x38, 0x5c, 0x53, 0x20, 0x0b, 0x8f, 0x09, 0xb0, 0xa5, 0x14, 0x23, 0xc3, 0x9d, 0xfe, 0xf6, 0x21, 0x08, 0xe7, 0x26, 0x40, 0xb9, 0x39, 0x0f, 0xca, 0xb6, 0xb3, 0xf7, 0xa7, 0x6f, 0x92, 0x18, 0xa3, 0x02, 0x00, 0xf8, 0xd9, 0xd5, 0x8b, 0xf4, 0x06, 0xb2, 0x12, 0x7f, 0x24, 0xd2, 0xc4, 0xee, 0x20, 0xff, 0xed, 0x29, 0x44, 0xa5, 0x25, 0xed, 0xd7, 0x11, 0xd5, 0x40, 0xbc, 0x54, 0x91, 0x2b, 0x21, 0x32, 0x4c, 0x52, 0x55, 0x8f, 0xcc, 0x1a, 0xbc, 0xf6, 0xcf, 0x5b, 0x36, 0x17, 0x2b, 0x1f, 0xd2, 0xfd, 0xff, 0xff, 0x04, 0x00, 0x00, 0x00, 0x10, 0x00, 0x00, 0x00, 0xcf, 0x00, 0x00, 0x00, 0x2a, 0x01, 0x00, 0x00, 0x17, 0xff, 0xff, 0xff, 0x37, 0xfe, 0xff, 0xff, 0xee, 0xfd, 0xff, 0xff, 0x04, 0x00, 0x00, 0x00, 0x04, 0x00, 0x00, 0x00, 0x60, 0x00, 0x00, 0x00, 0xb4, 0xe4, 0xff, 0xff, 0x02, 0xfe, 0xff, 0xff, 0x04, 0x00, 0x00, 0x00, 0x04, 0x00, 0x00, 0x00, 0x00, 0x00, 0x00, 0x00, 0x12, 0xfe, 0xff, 0xff, 0x04, 0x00, 0x00, 0x00, 0x0c, 0x00, 0x00, 0x00, 0xff, 0xff, 0xff, 0xff, 0x03, 0x00, 0x00, 0x00, 0x20, 0x00, 0x00, 0x00, 0x2a, 0xfe, 0xff, 0xff, 0x04, 0x00, 0x00, 0x00, 0x0c, 0x00, 0x00, 0x00, 0xff, 0xff, 0xff, 0xff, 0x07, 0x00, 0x00, 0x00, 0x20, 0x00, 0x00, 0x00, 0x42, 0xfe, 0xff, 0xff, 0x04, 0x00, 0x00, 0x00, 0x0c, 0x00, 0x00, 0x00, 0xff, 0xff, 0xff, 0xff, 0x07, 0x00, 0x00, 0x00, 0x10, 0x00, 0x00, 0x00, 0x5a, 0xfe, 0xff, 0xff, 0x04, 0x00, 0x00, 0x00, 0x04, 0x00, 0x00, 0x00, 0x01, 0x00, 0x00, 0x00, 0x6a, 0xfe, 0xff, 0xff, 0x04, 0x00, 0x00, 0x00, 0x0c, 0x00, 0x00, 0x00, 0xff, 0xff, 0xff, 0xff, 0x0e, 0x00, 0x00, 0x00, 0x10, 0x00, 0x00, 0x00, 0x82, 0xfe, 0xff, 0xff, 0x04, 0x00, 0x00, 0x00, 0x04, 0x00, 0x00, 0x00, 0xfd, 0xff, 0xff, 0xff, 0x48, 0xe5, 0xff, 0xff, 0x4c, 0xe5, 0xff, 0xff, 0x0f, 0x00, 0x00, 0x00, 0x4d, 0x4c, 0x49, 0x52, 0x20, 0x43, 0x6f, 0x6e, 0x76, 0x65, 0x72, 0x74, 0x65, 0x64, 0x2e, 0x00, 0x01, 0x00, 0x00, 0x00, 0x14, 0x00, 0x00, 0x00, 0x00, 0x00, 0x0e, 0x00, 0x18, 0x00, 0x14, 0x00, 0x10, 0x00, 0x0c, 0x00, 0x08, 0x00, 0x04, 0x00, 0x0e, 0x00, 0x00, 0x00, 0x14, 0x00, 0x00, 0x00, 0x1c, 0x00, 0x00, 0x00, 0x94, 0x04, 0x00, 0x00, 0x98, 0x04, 0x00, 0x00, 0x9c, 0x04, 0x00, 0x00, 0x04, 0x00, 0x00, 0x00, 0x6d, 0x61, 0x69, 0x6e, 0x00, 0x00, 0x00, 0x00, 0x14, 0x00, 0x00, 0x00, 0x5c, 0x04, 0x00, 0x00, 0x1c, 0x04, 0x00, 0x00, 0xbc, 0x03, 0x00, 0x00, 0x94, 0x03, 0x00, 0x00, 0x54, 0x03, 0x00, 0x00, 0x00, 0x03, 0x00, 0x00, 0xc8, 0x02, 0x00, 0x00, 0x94, 0x02, 0x00, 0x00, 0x50, 0x02, 0x00, 0x00, 0x28, 0x02, 0x00, 0x00, 0xf4, 0x01, 0x00, 0x00, 0xb0, 0x01, 0x00, 0x00, 0x88, 0x01, 0x00, 0x00, 0x4c, 0x01, 0x00, 0x00, 0xfc, 0x00, 0x00, 0x00, 0xbc, 0x00, 0x00, 0x00, 0x94, 0x00, 0x00, 0x00, 0x5c, 0x00, 0x00, 0x00, 0x28, 0x00, 0x00, 0x00, 0x04, 0x00, 0x00, 0x00, 0xba, 0xfc, 0xff, 0xff, 0x0c, 0x00, 0x00, 0x00, 0x10, 0x00, 0x00, 0x00, 0x0a, 0x00, 0x00, 0x00, 0x01, 0x00, 0x00, 0x00, 0x23, 0x00, 0x00, 0x00, 0x01, 0x00, 0x00, 0x00, 0x22, 0x00, 0x00, 0x00, 0x5e, 0xfc, 0xff, 0xff, 0x14, 0x00, 0x00, 0x00, 0x00, 0x00, 0x00, 0x09, 0x14, 0x00, 0x00, 0x00, 0x18, 0x00, 0x00, 0x00, 0x09, 0x00, 0x00, 0x00, 0x76, 0xff, 0xff, 0xff, 0x00, 0x00, 0x80, 0x3f, 0x01, 0x00, 0x00, 0x00, 0x22, 0x00, 0x00, 0x00, 0x01, 0x00, 0x00, 0x00, 0x21, 0x00, 0x00, 0x00, 0x8e, 0xfc, 0xff, 0xff, 0x14, 0x00, 0x00, 0x00, 0x00, 0x00, 0x00, 0x08, 0x10, 0x00, 0x00, 0x00, 0x14, 0x00, 0x00, 0x00, 0x08, 0x00, 0x00, 0x00, 0x5c, 0xe6, 0xff, 0xff, 0x01, 0x00, 0x00, 0x00, 0x21, 0x00, 0x00, 0x00, 0x03, 0x00, 0x00, 0x00, 0x20, 0x00, 0x00, 0x00, 0x0b, 0x00, 0x00, 0x00, 0x0a, 0x00, 0x00, 0x00, 0x3e, 0xfd, 0xff, 0xff, 0x0c, 0x00, 0x00, 0x00, 0x10, 0x00, 0x00, 0x00, 0x03, 0x00, 0x00, 0x00, 0x01, 0x00, 0x00, 0x00, 0x20, 0x00, 0x00, 0x00, 0x02, 0x00, 0x00, 0x00, 0x1b, 0x00, 0x00, 0x00, 0x1f, 0x00, 0x00, 0x00, 0xf2, 0xfd, 0xff, 0xff, 0x1c, 0x00, 0x00, 0x00, 0x00, 0x00, 0x00, 0x3b, 0x1c, 0x00, 0x00, 0x00, 0x20, 0x00, 0x00, 0x00, 0x07, 0x00, 0x00, 0x00, 0x00, 0x00, 0x06, 0x00, 0x08, 0x00, 0x04, 0x00, 0x06, 0x00, 0x00, 0x00, 0x02, 0x00, 0x00, 0x00, 0x01, 0x00, 0x00, 0x00, 0x1f, 0x00, 0x00, 0x00, 0x02, 0x00, 0x00, 0x00, 0x1e, 0x00, 0x00, 0x00, 0x09, 0x00, 0x00, 0x00, 0x2e, 0xfe, 0xff, 0xff, 0x24, 0x00, 0x00, 0x00, 0x00, 0x00, 0x00, 0x20, 0x24, 0x00, 0x00, 0x00, 0x28, 0x00, 0x00, 0x00, 0x06, 0x00, 0x00, 0x00, 0x00, 0x00, 0x0e, 0x00, 0x08, 0x00, 0x00, 0x00, 0x00, 0x00, 0x00, 0x00, 0x00, 0x00, 0x04, 0x00, 0x0e, 0x00, 0x00, 0x00, 0x01, 0x00, 0x00, 0x00, 0x01, 0x00, 0x00, 0x00, 0x1e, 0x00, 0x00, 0x00, 0x04, 0x00, 0x00, 0x00, 0x1d, 0x00, 0x00, 0x00, 0x07, 0x00, 0x00, 0x00, 0x08, 0x00, 0x00, 0x00, 0x08, 0x00, 0x00, 0x00, 0x7a, 0xfe, 0xff, 0xff, 0x1c, 0x00, 0x00, 0x00, 0x00, 0x00, 0x00, 0x37, 0x1c, 0x00, 0x00, 0x00, 0x20, 0x00, 0x00, 0x00, 0x05, 0x00, 0x00, 0x00, 0x00, 0x00, 0x06, 0x00, 0x08, 0x00, 0x07, 0x00, 0x06, 0x00, 0x00, 0x00, 0x00, 0x00, 0x00, 0x02, 0x01, 0x00, 0x00, 0x00, 0x1d, 0x00, 0x00, 0x00, 0x01, 0x00, 0x00, 0x00, 0x1c, 0x00, 0x00, 0x00, 0x22, 0xfe, 0xff, 0xff, 0x0c, 0x00, 0x00, 0x00, 0x10, 0x00, 0x00, 0x00, 0x03, 0x00, 0x00, 0x00, 0x01, 0x00, 0x00, 0x00, 0x1c, 0x00, 0x00, 0x00, 0x02, 0x00, 0x00, 0x00, 0x1b, 0x00, 0x00, 0x00, 0x06, 0x00, 0x00, 0x00, 0xca, 0xfd, 0xff, 0xff, 0x14, 0x00, 0x00, 0x00, 0x00, 0x00, 0x00, 0x05, 0x24, 0x00, 0x00, 0x00, 0x28, 0x00, 0x00, 0x00, 0x04, 0x00, 0x00, 0x00, 0xc6, 0xfe, 0xff, 0xff, 0x01, 0x00, 0x00, 0x00, 0x02, 0x00, 0x00, 0x00, 0x01, 0x00, 0x00, 0x00, 0x02, 0x00, 0x00, 0x00, 0x00, 0x00, 0x00, 0x01, 0x01, 0x00, 0x00, 0x00, 0x1b, 0x00, 0x00, 0x00, 0x01, 0x00, 0x00, 0x00, 0x1a, 0x00, 0x00, 0x00, 0x0a, 0xfe, 0xff, 0xff, 0x14, 0x00, 0x00, 0x00, 0x00, 0x00, 0x00, 0x34, 0x10, 0x00, 0x00, 0x00, 0x14, 0x00, 0x00, 0x00, 0x01, 0x00, 0x00, 0x00, 0xd8, 0xe7, 0xff, 0xff, 0x01, 0x00, 0x00, 0x00, 0x1a, 0x00, 0x00, 0x00, 0x02, 0x00, 0x00, 0x00, 0x19, 0x00, 0x00, 0x00, 0x03, 0x00, 0x00, 0x00, 0xb6, 0xfe, 0xff, 0xff, 0x0c, 0x00, 0x00, 0x00, 0x10, 0x00, 0x00, 0x00, 0x03, 0x00, 0x00, 0x00, 0x01, 0x00, 0x00, 0x00, 0x19, 0x00, 0x00, 0x00, 0x02, 0x00, 0x00, 0x00, 0x18, 0x00, 0x00, 0x00, 0x05, 0x00, 0x00, 0x00, 0x5e, 0xfe, 0xff, 0xff, 0x14, 0x00, 0x00, 0x00, 0x00, 0x00, 0x00, 0x01, 0x1c, 0x00, 0x00, 0x00, 0x20, 0x00, 0x00, 0x00, 0x02, 0x00, 0x00, 0x00, 0xac, 0xfe, 0xff, 0xff, 0x00, 0x00, 0x00, 0x01, 0x01, 0x00, 0x00, 0x00, 0x01, 0x00, 0x00, 0x00, 0x01, 0x00, 0x00, 0x00, 0x18, 0x00, 0x00, 0x00, 0x03, 0x00, 0x00, 0x00, 0x17, 0x00, 0x00, 0x00, 0x0d, 0x00, 0x00, 0x00, 0x0c, 0x00, 0x00, 0x00, 0x9e, 0xfe, 0xff, 0xff, 0x14, 0x00, 0x00, 0x00, 0x00, 0x00, 0x00, 0x34, 0x10, 0x00, 0x00, 0x00, 0x14, 0x00, 0x00, 0x00, 0x01, 0x00, 0x00, 0x00, 0x6c, 0xe8, 0xff, 0xff, 0x01, 0x00, 0x00, 0x00, 0x17, 0x00, 0x00, 0x00, 0x02, 0x00, 0x00, 0x00, 0x16, 0x00, 0x00, 0x00, 0x01, 0x00, 0x00, 0x00, 0x4a, 0xff, 0xff, 0xff, 0x0c, 0x00, 0x00, 0x00, 0x10, 0x00, 0x00, 0x00, 0x03, 0x00, 0x00, 0x00, 0x01, 0x00, 0x00, 0x00, 0x16, 0x00, 0x00, 0x00, 0x02, 0x00, 0x00, 0x00, 0x15, 0x00, 0x00, 0x00, 0x04, 0x00, 0x00, 0x00, 0x00, 0x00, 0x0e, 0x00, 0x1a, 0x00, 0x14, 0x00, 0x10, 0x00, 0x0c, 0x00, 0x0b, 0x00, 0x04, 0x00, 0x0e, 0x00, 0x00, 0x00, 0x24, 0x00, 0x00, 0x00, 0x00, 0x00, 0x00, 0x05, 0x34, 0x00, 0x00, 0x00, 0x38, 0x00, 0x00, 0x00, 0x04, 0x00, 0x00, 0x00, 0x00, 0x00, 0x0e, 0x00, 0x18, 0x00, 0x17, 0x00, 0x10, 0x00, 0x0c, 0x00, 0x08, 0x00, 0x04, 0x00, 0x0e, 0x00, 0x00, 0x00, 0x01, 0x00, 0x00, 0x00, 0x02, 0x00, 0x00, 0x00, 0x01, 0x00, 0x00, 0x00, 0x02, 0x00, 0x00, 0x00, 0x00, 0x00, 0x00, 0x01, 0x01, 0x00, 0x00, 0x00, 0x15, 0x00, 0x00, 0x00, 0x01, 0x00, 0x00, 0x00, 0x14, 0x00, 0x00, 0x00, 0x52, 0xff, 0xff, 0xff, 0x14, 0x00, 0x00, 0x00, 0x00, 0x00, 0x00, 0x34, 0x10, 0x00, 0x00, 0x00, 0x14, 0x00, 0x00, 0x00, 0x01, 0x00, 0x00, 0x00, 0x20, 0xe9, 0xff, 0xff, 0x01, 0x00, 0x00, 0x00, 0x14, 0x00, 0x00, 0x00, 0x02, 0x00, 0x00, 0x00, 0x13, 0x00, 0x00, 0x00, 0x03, 0x00, 0x00, 0x00, 0x00, 0x00, 0x0a, 0x00, 0x10, 0x00, 0x0c, 0x00, 0x08, 0x00, 0x04, 0x00, 0x0a, 0x00, 0x00, 0x00, 0x0c, 0x00, 0x00, 0x00, 0x10, 0x00, 0x00, 0x00, 0x03, 0x00, 0x00, 0x00, 0x01, 0x00, 0x00, 0x00, 0x13, 0x00, 0x00, 0x00, 0x02, 0x00, 0x00, 0x00, 0x12, 0x00, 0x00, 0x00, 0x02, 0x00, 0x00, 0x00, 0xb2, 0xff, 0xff, 0xff, 0x20, 0x00, 0x00, 0x00, 0x00, 0x00, 0x00, 0x01, 0x28, 0x00, 0x00, 0x00, 0x2c, 0x00, 0x00, 0x00, 0x02, 0x00, 0x00, 0x00, 0x0c, 0x00, 0x10, 0x00, 0x00, 0x00, 0x0c, 0x00, 0x08, 0x00, 0x07, 0x00, 0x0c, 0x00, 0x00, 0x00, 0x00, 0x00, 0x00, 0x01, 0x01, 0x00, 0x00, 0x00, 0x01, 0x00, 0x00, 0x00, 0x01, 0x00, 0x00, 0x00, 0x12, 0x00, 0x00, 0x00, 0x03, 0x00, 0x00, 0x00, 0x11, 0x00, 0x00, 0x00, 0x0f, 0x00, 0x00, 0x00, 0x0e, 0x00, 0x00, 0x00, 0x00, 0x00, 0x0e, 0x00, 0x18, 0x00, 0x14, 0x00, 0x10, 0x00, 0x0c, 0x00, 0x0b, 0x00, 0x04, 0x00, 0x0e, 0x00, 0x00, 0x00, 0x14, 0x00, 0x00, 0x00, 0x00, 0x00, 0x00, 0x34, 0x10, 0x00, 0x00, 0x00, 0x14, 0x00, 0x00, 0x00, 0x01, 0x00, 0x00, 0x00, 0xdc, 0xe9, 0xff, 0xff, 0x01, 0x00, 0x00, 0x00, 0x11, 0x00, 0x00, 0x00, 0x02, 0x00, 0x00, 0x00, 0x10, 0x00, 0x00, 0x00, 0x01, 0x00, 0x00, 0x00, 0x00, 0x00, 0x0a, 0x00, 0x0c, 0x00, 0x00, 0x00, 0x08, 0x00, 0x04, 0x00, 0x0a, 0x00, 0x00, 0x00, 0x08, 0x00, 0x00, 0x00, 0x0c, 0x00, 0x00, 0x00, 0x01, 0x00, 0x00, 0x00, 0x10, 0x00, 0x00, 0x00, 0x01, 0x00, 0x00, 0x00, 0x00, 0x00, 0x00, 0x00, 0x01, 0x00, 0x00, 0x00, 0x23, 0x00, 0x00, 0x00, 0x01, 0x00, 0x00, 0x00, 0x00, 0x00, 0x00, 0x00, 0x24, 0x00, 0x00, 0x00, 0xa4, 0x15, 0x00, 0x00, 0x50, 0x15, 0x00, 0x00, 0xf8, 0x14, 0x00, 0x00, 0xbc, 0x14, 0x00, 0x00, 0x7c, 0x14, 0x00, 0x00, 0x3c, 0x14, 0x00, 0x00, 0xfc, 0x13, 0x00, 0x00, 0xbc, 0x13, 0x00, 0x00, 0x7c, 0x13, 0x00, 0x00, 0x40, 0x13, 0x00, 0x00, 0xac, 0x12, 0x00, 0x00, 0x24, 0x12, 0x00, 0x00, 0x50, 0x10, 0x00, 0x00, 0x6c, 0x0e, 0x00, 0x00, 0x58, 0x0d, 0x00, 0x00, 0x34, 0x0c, 0x00, 0x00, 0xbc, 0x0b, 0x00, 0x00, 0x04, 0x0b, 0x00, 0x00, 0xf8, 0x09, 0x00, 0x00, 0x10, 0x09, 0x00, 0x00, 0x70, 0x08, 0x00, 0x00, 0xdc, 0x07, 0x00, 0x00, 0x4c, 0x07, 0x00, 0x00, 0xac, 0x06, 0x00, 0x00, 0xa0, 0x05, 0x00, 0x00, 0xb8, 0x04, 0x00, 0x00, 0x18, 0x04, 0x00, 0x00, 0x84, 0x03, 0x00, 0x00, 0xf4, 0x02, 0x00, 0x00, 0xa8, 0x02, 0x00, 0x00, 0x58, 0x02, 0x00, 0x00, 0x04, 0x02, 0x00, 0x00, 0x80, 0x01, 0x00, 0x00, 0xe4, 0x00, 0x00, 0x00, 0x60, 0x00, 0x00, 0x00, 0x04, 0x00, 0x00, 0x00, 0x02, 0xeb, 0xff, 0xff, 0x00, 0x00, 0x00, 0x01, 0x14, 0x00, 0x00, 0x00, 0x1c, 0x00, 0x00, 0x00, 0x1c, 0x00, 0x00, 0x00, 0x24, 0x00, 0x00, 0x00, 0x34, 0x00, 0x00, 0x00, 0x02, 0x00, 0x00, 0x00, 0xff, 0xff, 0xff, 0xff, 0x04, 0x00, 0x00, 0x00, 0xe8, 0xea, 0xff, 0xff, 0x1b, 0x00, 0x00, 0x00, 0x53, 0x74, 0x61, 0x74, 0x65, 0x66, 0x75, 0x6c, 0x50, 0x61, 0x72, 0x74, 0x69, 0x74, 0x69, 0x6f, 0x6e, 0x65, 0x64, 0x43, 0x61, 0x6c, 0x6c, 0x5f, 0x31, 0x3a, 0x30, 0x00, 0x02, 0x00, 0x00, 0x00, 0x01, 0x00, 0x00, 0x00, 0x04, 0x00, 0x00, 0x00, 0x02, 0xf5, 0xff, 0xff, 0x00, 0x00, 0x00, 0x01, 0x18, 0x00, 0x00, 0x00, 0x20, 0x00, 0x00, 0x00, 0x40, 0x00, 0x00, 0x00, 0x23, 0x00, 0x00, 0x00, 0x00, 0x00, 0x00, 0x09, 0x58, 0x00, 0x00, 0x00, 0x02, 0x00, 0x00, 0x00, 0xff, 0xff, 0xff, 0xff, 0x04, 0x00, 0x00, 0x00, 0x24, 0xee, 0xff, 0xff, 0x08, 0x00, 0x00, 0x00, 0x14, 0x00, 0x00, 0x00, 0x01, 0x00, 0x00, 0x00, 0x80, 0xff, 0xff, 0xff, 0xff, 0xff, 0xff, 0xff, 0x00, 0x00, 0x00, 0x00, 0x01, 0x00, 0x00, 0x00, 0x00, 0x00, 0x80, 0x3b, 0x1c, 0x00, 0x00, 0x00, 0x53, 0x74, 0x61, 0x74, 0x65, 0x66, 0x75, 0x6c, 0x50, 0x61, 0x72, 0x74, 0x69, 0x74, 0x69, 0x6f, 0x6e, 0x65, 0x64, 0x43, 0x61, 0x6c, 0x6c, 0x5f, 0x31, 0x3a, 0x30, 0x31, 0x00, 0x00, 0x00, 0x00, 0x02, 0x00, 0x00, 0x00, 0x01, 0x00, 0x00, 0x00, 0x04, 0x00, 0x00, 0x00, 0x82, 0xf5, 0xff, 0xff, 0x00, 0x00, 0x00, 0x01, 0x18, 0x00, 0x00, 0x00, 0x20, 0x00, 0x00, 0x00, 0x3c, 0x00, 0x00, 0x00, 0x22, 0x00, 0x00, 0x00, 0x00, 0x00, 0x00, 0x09, 0x70, 0x00, 0x00, 0x00, 0x02, 0x00, 0x00, 0x00, 0xff, 0xff, 0xff, 0xff, 0x04, 0x00, 0x00, 0x00, 0xa4, 0xee, 0xff, 0xff, 0x08, 0x00, 0x00, 0x00, 0x10, 0x00, 0x00, 0x00, 0x01, 0x00, 0x00, 0x00, 0x07, 0x00, 0x00, 0x00, 0x00, 0x00, 0x00, 0x00, 0x01, 0x00, 0x00, 0x00, 0xac, 0xae, 0x8e, 0x3d, 0x38, 0x00, 0x00, 0x00, 0x4b, 0x57, 0x53, 0x5f, 0x31, 0x44, 0x43, 0x4e, 0x4e, 0x5f, 0x31, 0x2f, 0x6f, 0x75, 0x74, 0x70, 0x75, 0x74, 0x5f, 0x31, 0x2f, 0x4d, 0x61, 0x74, 0x4d, 0x75, 0x6c, 0x3b, 0x4b, 0x57, 0x53, 0x5f, 0x31, 0x44, 0x43, 0x4e, 0x4e, 0x5f, 0x31, 0x2f, 0x6f, 0x75, 0x74, 0x70, 0x75, 0x74, 0x5f, 0x31, 0x2f, 0x42, 0x69, 0x61, 0x73, 0x41, 0x64, 0x64, 0x00, 0x00, 0x00, 0x00, 0x02, 0x00, 0x00, 0x00, 0x01, 0x00, 0x00, 0x00, 0x04, 0x00, 0x00, 0x00, 0x1a, 0xf6, 0xff, 0xff, 0x00, 0x00, 0x00, 0x01, 0x18, 0x00, 0x00, 0x00, 0x20, 0x00, 0x00, 0x00, 0x40, 0x00, 0x00, 0x00, 0x21, 0x00, 0x00, 0x00, 0x00, 0x00, 0x00, 0x09, 0x58, 0x00, 0x00, 0x00, 0x02, 0x00, 0x00, 0x00, 0xff, 0xff, 0xff, 0xff, 0x60, 0x00, 0x00, 0x00, 0x3c, 0xef, 0xff, 0xff, 0x08, 0x00, 0x00, 0x00, 0x14, 0x00, 0x00, 0x00, 0x01, 0x00, 0x00, 0x00, 0x80, 0xff, 0xff, 0xff, 0xff, 0xff, 0xff, 0xff, 0x00, 0x00, 0x00, 0x00, 0x01, 0x00, 0x00, 0x00, 0x93, 0x78, 0xc2, 0x3c, 0x1d, 0x00, 0x00, 0x00, 0x4b, 0x57, 0x53, 0x5f, 0x31, 0x44, 0x43, 0x4e, 0x4e, 0x5f, 0x31, 0x2f, 0x66, 0x6c, 0x61, 0x74, 0x74, 0x65, 0x6e, 0x5f, 0x31, 0x2f, 0x52, 0x65, 0x73, 0x68, 0x61, 0x70, 0x65, 0x00, 0x00, 0x00, 0x02, 0x00, 0x00, 0x00, 0x01, 0x00, 0x00, 0x00, 0x60, 0x00, 0x00, 0x00, 0x42, 0xed, 0xff, 0xff, 0x00, 0x00, 0x00, 0x01, 0x14, 0x00, 0x00, 0x00, 0x14, 0x00, 0x00, 0x00, 0x20, 0x00, 0x00, 0x00, 0x00, 0x00, 0x00, 0x02, 0x30, 0x00, 0x00, 0x00, 0xcc, 0xec, 0xff, 0xff, 0x23, 0x00, 0x00, 0x00, 0x4b, 0x57, 0x53, 0x5f, 0x31, 0x44, 0x43, 0x4e, 0x4e, 0x5f, 0x31, 0x2f, 0x66, 0x6c, 0x61, 0x74, 0x74, 0x65, 0x6e, 0x5f, 0x31, 0x2f, 0x52, 0x65, 0x73, 0x68, 0x61, 0x70, 0x65, 0x2f, 0x73, 0x68, 0x61, 0x70, 0x65, 0x00, 0x01, 0x00, 0x00, 0x00, 0x02, 0x00, 0x00, 0x00, 0x92, 0xed, 0xff, 0xff, 0x00, 0x00, 0x00, 0x01, 0x14, 0x00, 0x00, 0x00, 0x14, 0x00, 0x00, 0x00, 0x1f, 0x00, 0x00, 0x00, 0x00, 0x00, 0x00, 0x02, 0x30, 0x00, 0x00, 0x00, 0x1c, 0xed, 0xff, 0xff, 0x23, 0x00, 0x00, 0x00, 0x4b, 0x57, 0x53, 0x5f, 0x31, 0x44, 0x43, 0x4e, 0x4e, 0x5f, 0x31, 0x2f, 0x66, 0x6c, 0x61, 0x74, 0x74, 0x65, 0x6e, 0x5f, 0x31, 0x2f, 0x73, 0x74, 0x72, 0x69, 0x64, 0x65, 0x64, 0x5f, 0x73, 0x6c, 0x69, 0x63, 0x65, 0x00, 0x00, 0x00, 0x00, 0x00, 0xde, 0xed, 0xff, 0xff, 0x00, 0x00, 0x00, 0x01, 0x14, 0x00, 0x00, 0x00, 0x14, 0x00, 0x00, 0x00, 0x1e, 0x00, 0x00, 0x00, 0x00, 0x00, 0x00, 0x02, 0x28, 0x00, 0x00, 0x00, 0x68, 0xed, 0xff, 0xff, 0x1b, 0x00, 0x00, 0x00, 0x4b, 0x57, 0x53, 0x5f, 0x31, 0x44, 0x43, 0x4e, 0x4e, 0x5f, 0x31, 0x2f, 0x66, 0x6c, 0x61, 0x74, 0x74, 0x65, 0x6e, 0x5f, 0x31, 0x2f, 0x53, 0x68, 0x61, 0x70, 0x65, 0x00, 0x01, 0x00, 0x00, 0x00, 0x03, 0x00, 0x00, 0x00, 0x7e, 0xf7, 0xff, 0xff, 0x00, 0x00, 0x00, 0x01, 0x18, 0x00, 0x00, 0x00, 0x24, 0x00, 0x00, 0x00, 0x40, 0x00, 0x00, 0x00, 0x1d, 0x00, 0x00, 0x00, 0x00, 0x00, 0x00, 0x09, 0x60, 0x00, 0x00, 0x00, 0x03, 0x00, 0x00, 0x00, 0xff, 0xff, 0xff, 0xff, 0x03, 0x00, 0x00, 0x00, 0x20, 0x00, 0x00, 0x00, 0xa4, 0xf0, 0xff, 0xff, 0x08, 0x00, 0x00, 0x00, 0x10, 0x00, 0x00, 0x00, 0x01, 0x00, 0x00, 0x00, 0x80, 0xff, 0xff, 0xff, 0xff, 0xff, 0xff, 0xff, 0x01, 0x00, 0x00, 0x00, 0x93, 0x78, 0xc2, 0x3c, 0x25, 0x00, 0x00, 0x00, 0x4b, 0x57, 0x53, 0x5f, 0x31, 0x44, 0x43, 0x4e, 0x4e, 0x5f, 0x31, 0x2f, 0x70, 0x6f, 0x6f, 0x6c, 0x32, 0x5f, 0x31, 0x2f, 0x4d, 0x61, 0x78, 0x50, 0x6f, 0x6f, 0x6c, 0x31, 0x64, 0x2f, 0x53, 0x71, 0x75, 0x65, 0x65, 0x7a, 0x65, 0x00, 0x00, 0x00, 0x03, 0x00, 0x00, 0x00, 0x01, 0x00, 0x00, 0x00, 0x03, 0x00, 0x00, 0x00, 0x20, 0x00, 0x00, 0x00, 0x0a, 0xf8, 0xff, 0xff, 0x00, 0x00, 0x00, 0x01, 0x18, 0x00, 0x00, 0x00, 0x28, 0x00, 0x00, 0x00, 0x48, 0x00, 0x00, 0x00, 0x1c, 0x00, 0x00, 0x00, 0x00, 0x00, 0x00, 0x09, 0x60, 0x00, 0x00, 0x00, 0x04, 0x00, 0x00, 0x00, 0xff, 0xff, 0xff, 0xff, 0x01, 0x00, 0x00, 0x00, 0x03, 0x00, 0x00, 0x00, 0x20, 0x00, 0x00, 0x00, 0x34, 0xf1, 0xff, 0xff, 0x08, 0x00, 0x00, 0x00, 0x14, 0x00, 0x00, 0x00, 0x01, 0x00, 0x00, 0x00, 0x80, 0xff, 0xff, 0xff, 0xff, 0xff, 0xff, 0xff, 0x00, 0x00, 0x00, 0x00, 0x01, 0x00, 0x00, 0x00, 0x93, 0x78, 0xc2, 0x3c, 0x1d, 0x00, 0x00, 0x00, 0x4b, 0x57, 0x53, 0x5f, 0x31, 0x44, 0x43, 0x4e, 0x4e, 0x5f, 0x31, 0x2f, 0x70, 0x6f, 0x6f, 0x6c, 0x32, 0x5f, 0x31, 0x2f, 0x4d, 0x61, 0x78, 0x50, 0x6f, 0x6f, 0x6c, 0x31, 0x64, 0x00, 0x00, 0x00, 0x04, 0x00, 0x00, 0x00, 0x01, 0x00, 0x00, 0x00, 0x01, 0x00, 0x00, 0x00, 0x03, 0x00, 0x00, 0x00, 0x20, 0x00, 0x00, 0x00, 0x9a, 0xf8, 0xff, 0xff, 0x00, 0x00, 0x00, 0x01, 0x18, 0x00, 0x00, 0x00, 0x28, 0x00, 0x00, 0x00, 0x48, 0x00, 0x00, 0x00, 0x1b, 0x00, 0x00, 0x00, 0x00, 0x00, 0x00, 0x09, 0x6c, 0x00, 0x00, 0x00, 0x04, 0x00, 0x00, 0x00, 0xff, 0xff, 0xff, 0xff, 0x01, 0x00, 0x00, 0x00, 0x07, 0x00, 0x00, 0x00, 0x20, 0x00, 0x00, 0x00, 0xc4, 0xf1, 0xff, 0xff, 0x08, 0x00, 0x00, 0x00, 0x14, 0x00, 0x00, 0x00, 0x01, 0x00, 0x00, 0x00, 0x80, 0xff, 0xff, 0xff, 0xff, 0xff, 0xff, 0xff, 0x00, 0x00, 0x00, 0x00, 0x01, 0x00, 0x00, 0x00, 0x93, 0x78, 0xc2, 0x3c, 0x28, 0x00, 0x00, 0x00, 0x4b, 0x57, 0x53, 0x5f, 0x31, 0x44, 0x43, 0x4e, 0x4e, 0x5f, 0x31, 0x2f, 0x70, 0x6f, 0x6f, 0x6c, 0x32, 0x5f, 0x31, 0x2f, 0x4d, 0x61, 0x78, 0x50, 0x6f, 0x6f, 0x6c, 0x31, 0x64, 0x2f, 0x45, 0x78, 0x70, 0x61, 0x6e, 0x64, 0x44, 0x69, 0x6d, 0x73, 0x00, 0x00, 0x00, 0x00, 0x04, 0x00, 0x00, 0x00, 0x01, 0x00, 0x00, 0x00, 0x01, 0x00, 0x00, 0x00, 0x07, 0x00, 0x00, 0x00, 0x20, 0x00, 0x00, 0x00, 0x36, 0xf9, 0xff, 0xff, 0x00, 0x00, 0x00, 0x01, 0x18, 0x00, 0x00, 0x00, 0x24, 0x00, 0x00, 0x00, 0x44, 0x00, 0x00, 0x00, 0x1a, 0x00, 0x00, 0x00, 0x00, 0x00, 0x00, 0x09, 0xb8, 0x00, 0x00, 0x00, 0x03, 0x00, 0x00, 0x00, 0xff, 0xff, 0xff, 0xff, 0x07, 0x00, 0x00, 0x00, 0x20, 0x00, 0x00, 0x00, 0x5c, 0xf2, 0xff, 0xff, 0x08, 0x00, 0x00, 0x00, 0x14, 0x00, 0x00, 0x00, 0x01, 0x00, 0x00, 0x00, 0x80, 0xff, 0xff, 0xff, 0xff, 0xff, 0xff, 0xff, 0x00, 0x00, 0x00, 0x00, 0x01, 0x00, 0x00, 0x00, 0x93, 0x78, 0xc2, 0x3c, 0x78, 0x00, 0x00, 0x00, 0x4b, 0x57, 0x53, 0x5f, 0x31, 0x44, 0x43, 0x4e, 0x4e, 0x5f, 0x31, 0x2f, 0x63, 0x6f, 0x6e, 0x76, 0x32, 0x5f, 0x31, 0x2f, 0x52, 0x65, 0x6c, 0x75, 0x3b, 0x4b, 0x57, 0x53, 0x5f, 0x31, 0x44, 0x43, 0x4e, 0x4e, 0x5f, 0x31, 0x2f, 0x63, 0x6f, 0x6e, 0x76, 0x32, 0x5f, 0x31, 0x2f, 0x42, 0x69, 0x61, 0x73, 0x41, 0x64, 0x64, 0x3b, 0x4b, 0x57, 0x53, 0x5f, 0x31, 0x44, 0x43, 0x4e, 0x4e, 0x5f, 0x31, 0x2f, 0x63, 0x6f, 0x6e, 0x76, 0x32, 0x5f, 0x31, 0x2f, 0x63, 0x6f, 0x6e, 0x76, 0x6f, 0x6c, 0x75, 0x74, 0x69, 0x6f, 0x6e, 0x2f, 0x53, 0x71, 0x75, 0x65, 0x65, 0x7a, 0x65, 0x3b, 0x4b, 0x57, 0x53, 0x5f, 0x31, 0x44, 0x43, 0x4e, 0x4e, 0x5f, 0x31, 0x2f, 0x63, 0x6f, 0x6e, 0x76, 0x32, 0x5f, 0x31, 0x2f, 0x53, 0x71, 0x75, 0x65, 0x65, 0x7a, 0x65, 0x00, 0x00, 0x00, 0x00, 0x03, 0x00, 0x00, 0x00, 0x01, 0x00, 0x00, 0x00, 0x07, 0x00, 0x00, 0x00, 0x20, 0x00, 0x00, 0x00, 0x1a, 0xfa, 0xff, 0xff, 0x00, 0x00, 0x00, 0x01, 0x18, 0x00, 0x00, 0x00, 0x28, 0x00, 0x00, 0x00, 0x44, 0x00, 0x00, 0x00, 0x19, 0x00, 0x00, 0x00, 0x00, 0x00, 0x00, 0x09, 0xd8, 0x00, 0x00, 0x00, 0x04, 0x00, 0x00, 0x00, 0xff, 0xff, 0xff, 0xff, 0x01, 0x00, 0x00, 0x00, 0x07, 0x00, 0x00, 0x00, 0x20, 0x00, 0x00, 0x00, 0x44, 0xf3, 0xff, 0xff, 0x08, 0x00, 0x00, 0x00, 0x10, 0x00, 0x00, 0x00, 0x01, 0x00, 0x00, 0x00, 0x80, 0xff, 0xff, 0xff, 0xff, 0xff, 0xff, 0xff, 0x01, 0x00, 0x00, 0x00, 0x93, 0x78, 0xc2, 0x3c, 0x98, 0x00, 0x00, 0x00, 0x4b, 0x57, 0x53, 0x5f, 0x31, 0x44, 0x43, 0x4e, 0x4e, 0x5f, 0x31, 0x2f, 0x63, 0x6f, 0x6e, 0x76, 0x32, 0x5f, 0x31, 0x2f, 0x52, 0x65, 0x6c, 0x75, 0x3b, 0x4b, 0x57, 0x53, 0x5f, 0x31, 0x44, 0x43, 0x4e, 0x4e, 0x5f, 0x31, 0x2f, 0x63, 0x6f, 0x6e, 0x76, 0x32, 0x5f, 0x31, 0x2f, 0x42, 0x69, 0x61, 0x73, 0x41, 0x64, 0x64, 0x3b, 0x4b, 0x57, 0x53, 0x5f, 0x31, 0x44, 0x43, 0x4e, 0x4e, 0x5f, 0x31, 0x2f, 0x63, 0x6f, 0x6e, 0x76, 0x32, 0x5f, 0x31, 0x2f, 0x63, 0x6f, 0x6e, 0x76, 0x6f, 0x6c, 0x75, 0x74, 0x69, 0x6f, 0x6e, 0x2f, 0x53, 0x71, 0x75, 0x65, 0x65, 0x7a, 0x65, 0x3b, 0x4b, 0x57, 0x53, 0x5f, 0x31, 0x44, 0x43, 0x4e, 0x4e, 0x5f, 0x31, 0x2f, 0x63, 0x6f, 0x6e, 0x76, 0x32, 0x5f, 0x31, 0x2f, 0x53, 0x71, 0x75, 0x65, 0x65, 0x7a, 0x65, 0x3b, 0x4b, 0x57, 0x53, 0x5f, 0x31, 0x44, 0x43, 0x4e, 0x4e, 0x5f, 0x31, 0x2f, 0x63, 0x6f, 0x6e, 0x76, 0x32, 0x5f, 0x31, 0x2f, 0x63, 0x6f, 0x6e, 0x76, 0x6f, 0x6c, 0x75, 0x74, 0x69, 0x6f, 0x6e, 0x00, 0x00, 0x00, 0x00, 0x04, 0x00, 0x00, 0x00, 0x01, 0x00, 0x00, 0x00, 0x01, 0x00, 0x00, 0x00, 0x07, 0x00, 0x00, 0x00, 0x20, 0x00, 0x00, 0x00, 0x22, 0xfb, 0xff, 0xff, 0x00, 0x00, 0x00, 0x01, 0x18, 0x00, 0x00, 0x00, 0x28, 0x00, 0x00, 0x00, 0x48, 0x00, 0x00, 0x00, 0x18, 0x00, 0x00, 0x00, 0x00, 0x00, 0x00, 0x09, 0x6c, 0x00, 0x00, 0x00, 0x04, 0x00, 0x00, 0x00, 0xff, 0xff, 0xff, 0xff, 0x01, 0x00, 0x00, 0x00, 0x07, 0x00, 0x00, 0x00, 0x10, 0x00, 0x00, 0x00, 0x4c, 0xf4, 0xff, 0xff, 0x08, 0x00, 0x00, 0x00, 0x14, 0x00, 0x00, 0x00, 0x01, 0x00, 0x00, 0x00, 0x80, 0xff, 0xff, 0xff, 0xff, 0xff, 0xff, 0xff, 0x00, 0x00, 0x00, 0x00, 0x01, 0x00, 0x00, 0x00, 0xb1, 0xb1, 0xa9, 0x3c, 0x2a, 0x00, 0x00, 0x00, 0x4b, 0x57, 0x53, 0x5f, 0x31, 0x44, 0x43, 0x4e, 0x4e, 0x5f, 0x31, 0x2f, 0x63, 0x6f, 0x6e, 0x76, 0x32, 0x5f, 0x31, 0x2f, 0x63, 0x6f, 0x6e, 0x76, 0x6f, 0x6c, 0x75, 0x74, 0x69, 0x6f, 0x6e, 0x2f, 0x45, 0x78, 0x70, 0x61, 0x6e, 0x64, 0x44, 0x69, 0x6d, 0x73, 0x00, 0x00, 0x04, 0x00, 0x00, 0x00, 0x01, 0x00, 0x00, 0x00, 0x01, 0x00, 0x00, 0x00, 0x07, 0x00, 0x00, 0x00, 0x10, 0x00, 0x00, 0x00, 0xbe, 0xfb, 0xff, 0xff, 0x00, 0x00, 0x00, 0x01, 0x18, 0x00, 0x00, 0x00, 0x24, 0x00, 0x00, 0x00, 0x40, 0x00, 0x00, 0x00, 0x17, 0x00, 0x00, 0x00, 0x00, 0x00, 0x00, 0x09, 0x60, 0x00, 0x00, 0x00, 0x03, 0x00, 0x00, 0x00, 0xff, 0xff, 0xff, 0xff, 0x07, 0x00, 0x00, 0x00, 0x10, 0x00, 0x00, 0x00, 0xe4, 0xf4, 0xff, 0xff, 0x08, 0x00, 0x00, 0x00, 0x10, 0x00, 0x00, 0x00, 0x01, 0x00, 0x00, 0x00, 0x80, 0xff, 0xff, 0xff, 0xff, 0xff, 0xff, 0xff, 0x01, 0x00, 0x00, 0x00, 0xb1, 0xb1, 0xa9, 0x3c, 0x25, 0x00, 0x00, 0x00, 0x4b, 0x57, 0x53, 0x5f, 0x31, 0x44, 0x43, 0x4e, 0x4e, 0x5f, 0x31, 0x2f, 0x70, 0x6f, 0x6f, 0x6c, 0x31, 0x5f, 0x31, 0x2f, 0x4d, 0x61, 0x78, 0x50, 0x6f, 0x6f, 0x6c, 0x31, 0x64, 0x2f, 0x53, 0x71, 0x75, 0x65, 0x65, 0x7a, 0x65, 0x00, 0x00, 0x00, 0x03, 0x00, 0x00, 0x00, 0x01, 0x00, 0x00, 0x00, 0x07, 0x00, 0x00, 0x00, 0x10, 0x00, 0x00, 0x00, 0x4a, 0xfc, 0xff, 0xff, 0x00, 0x00, 0x00, 0x01, 0x18, 0x00, 0x00, 0x00, 0x28, 0x00, 0x00, 0x00, 0x48, 0x00, 0x00, 0x00, 0x16, 0x00, 0x00, 0x00, 0x00, 0x00, 0x00, 0x09, 0x60, 0x00, 0x00, 0x00, 0x04, 0x00, 0x00, 0x00, 0xff, 0xff, 0xff, 0xff, 0x01, 0x00, 0x00, 0x00, 0x07, 0x00, 0x00, 0x00, 0x10, 0x00, 0x00, 0x00, 0x74, 0xf5, 0xff, 0xff, 0x08, 0x00, 0x00, 0x00, 0x14, 0x00, 0x00, 0x00, 0x01, 0x00, 0x00, 0x00, 0x80, 0xff, 0xff, 0xff, 0xff, 0xff, 0xff, 0xff, 0x00, 0x00, 0x00, 0x00, 0x01, 0x00, 0x00, 0x00, 0xb1, 0xb1, 0xa9, 0x3c, 0x1d, 0x00, 0x00, 0x00, 0x4b, 0x57, 0x53, 0x5f, 0x31, 0x44, 0x43, 0x4e, 0x4e, 0x5f, 0x31, 0x2f, 0x70, 0x6f, 0x6f, 0x6c, 0x31, 0x5f, 0x31, 0x2f, 0x4d, 0x61, 0x78, 0x50, 0x6f, 0x6f, 0x6c, 0x31, 0x64, 0x00, 0x00, 0x00, 0x04, 0x00, 0x00, 0x00, 0x01, 0x00, 0x00, 0x00, 0x01, 0x00, 0x00, 0x00, 0x07, 0x00, 0x00, 0x00, 0x10, 0x00, 0x00, 0x00, 0xda, 0xfc, 0xff, 0xff, 0x00, 0x00, 0x00, 0x01, 0x18, 0x00, 0x00, 0x00, 0x28, 0x00, 0x00, 0x00, 0x48, 0x00, 0x00, 0x00, 0x15, 0x00, 0x00, 0x00, 0x00, 0x00, 0x00, 0x09, 0x6c, 0x00, 0x00, 0x00, 0x04, 0x00, 0x00, 0x00, 0xff, 0xff, 0xff, 0xff, 0x01, 0x00, 0x00, 0x00, 0x0e, 0x00, 0x00, 0x00, 0x10, 0x00, 0x00, 0x00, 0x04, 0xf6, 0xff, 0xff, 0x08, 0x00, 0x00, 0x00, 0x14, 0x00, 0x00, 0x00, 0x01, 0x00, 0x00, 0x00, 0x80, 0xff, 0xff, 0xff, 0xff, 0xff, 0xff, 0xff, 0x00, 0x00, 0x00, 0x00, 0x01, 0x00, 0x00, 0x00, 0xb1, 0xb1, 0xa9, 0x3c, 0x28, 0x00, 0x00, 0x00, 0x4b, 0x57, 0x53, 0x5f, 0x31, 0x44, 0x43, 0x4e, 0x4e, 0x5f, 0x31, 0x2f, 0x70, 0x6f, 0x6f, 0x6c, 0x31, 0x5f, 0x31, 0x2f, 0x4d, 0x61, 0x78, 0x50, 0x6f, 0x6f, 0x6c, 0x31, 0x64, 0x2f, 0x45, 0x78, 0x70, 0x61, 0x6e, 0x64, 0x44, 0x69, 0x6d, 0x73, 0x00, 0x00, 0x00, 0x00, 0x04, 0x00, 0x00, 0x00, 0x01, 0x00, 0x00, 0x00, 0x01, 0x00, 0x00, 0x00, 0x0e, 0x00, 0x00, 0x00, 0x10, 0x00, 0x00, 0x00, 0x76, 0xfd, 0xff, 0xff, 0x00, 0x00, 0x00, 0x01, 0x18, 0x00, 0x00, 0x00, 0x24, 0x00, 0x00, 0x00, 0x44, 0x00, 0x00, 0x00, 0x14, 0x00, 0x00, 0x00, 0x00, 0x00, 0x00, 0x09, 0xb8, 0x00, 0x00, 0x00, 0x03, 0x00, 0x00, 0x00, 0xff, 0xff, 0xff, 0xff, 0x0e, 0x00, 0x00, 0x00, 0x10, 0x00, 0x00, 0x00, 0x9c, 0xf6, 0xff, 0xff, 0x08, 0x00, 0x00, 0x00, 0x14, 0x00, 0x00, 0x00, 0x01, 0x00, 0x00, 0x00, 0x80, 0xff, 0xff, 0xff, 0xff, 0xff, 0xff, 0xff, 0x00, 0x00, 0x00, 0x00, 0x01, 0x00, 0x00, 0x00, 0xb1, 0xb1, 0xa9, 0x3c, 0x78, 0x00, 0x00, 0x00, 0x4b, 0x57, 0x53, 0x5f, 0x31, 0x44, 0x43, 0x4e, 0x4e, 0x5f, 0x31, 0x2f, 0x63, 0x6f, 0x6e, 0x76, 0x31, 0x5f, 0x31, 0x2f, 0x52, 0x65, 0x6c, 0x75, 0x3b, 0x4b, 0x57, 0x53, 0x5f, 0x31, 0x44, 0x43, 0x4e, 0x4e, 0x5f, 0x31, 0x2f, 0x63, 0x6f, 0x6e, 0x76, 0x31, 0x5f, 0x31, 0x2f, 0x42, 0x69, 0x61, 0x73, 0x41, 0x64, 0x64, 0x3b, 0x4b, 0x57, 0x53, 0x5f, 0x31, 0x44, 0x43, 0x4e, 0x4e, 0x5f, 0x31, 0x2f, 0x63, 0x6f, 0x6e, 0x76, 0x31, 0x5f, 0x31, 0x2f, 0x63, 0x6f, 0x6e, 0x76, 0x6f, 0x6c, 0x75, 0x74, 0x69, 0x6f, 0x6e, 0x2f, 0x53, 0x71, 0x75, 0x65, 0x65, 0x7a, 0x65, 0x3b, 0x4b, 0x57, 0x53, 0x5f, 0x31, 0x44, 0x43, 0x4e, 0x4e, 0x5f, 0x31, 0x2f, 0x63, 0x6f, 0x6e, 0x76, 0x31, 0x5f, 0x31, 0x2f, 0x53, 0x71, 0x75, 0x65, 0x65, 0x7a, 0x65, 0x00, 0x00, 0x00, 0x00, 0x03, 0x00, 0x00, 0x00, 0x01, 0x00, 0x00, 0x00, 0x0e, 0x00, 0x00, 0x00, 0x10, 0x00, 0x00, 0x00, 0x5a, 0xfe, 0xff, 0xff, 0x00, 0x00, 0x00, 0x01, 0x18, 0x00, 0x00, 0x00, 0x28, 0x00, 0x00, 0x00, 0x44, 0x00, 0x00, 0x00, 0x13, 0x00, 0x00, 0x00, 0x00, 0x00, 0x00, 0x09, 0xd8, 0x00, 0x00, 0x00, 0x04, 0x00, 0x00, 0x00, 0xff, 0xff, 0xff, 0xff, 0x01, 0x00, 0x00, 0x00, 0x0e, 0x00, 0x00, 0x00, 0x10, 0x00, 0x00, 0x00, 0x84, 0xf7, 0xff, 0xff, 0x08, 0x00, 0x00, 0x00, 0x10, 0x00, 0x00, 0x00, 0x01, 0x00, 0x00, 0x00, 0x80, 0xff, 0xff, 0xff, 0xff, 0xff, 0xff, 0xff, 0x01, 0x00, 0x00, 0x00, 0xb1, 0xb1, 0xa9, 0x3c, 0x98, 0x00, 0x00, 0x00, 0x4b, 0x57, 0x53, 0x5f, 0x31, 0x44, 0x43, 0x4e, 0x4e, 0x5f, 0x31, 0x2f, 0x63, 0x6f, 0x6e, 0x76, 0x31, 0x5f, 0x31, 0x2f, 0x52, 0x65, 0x6c, 0x75, 0x3b, 0x4b, 0x57, 0x53, 0x5f, 0x31, 0x44, 0x43, 0x4e, 0x4e, 0x5f, 0x31, 0x2f, 0x63, 0x6f, 0x6e, 0x76, 0x31, 0x5f, 0x31, 0x2f, 0x42, 0x69, 0x61, 0x73, 0x41, 0x64, 0x64, 0x3b, 0x4b, 0x57, 0x53, 0x5f, 0x31, 0x44, 0x43, 0x4e, 0x4e, 0x5f, 0x31, 0x2f, 0x63, 0x6f, 0x6e, 0x76, 0x31, 0x5f, 0x31, 0x2f, 0x63, 0x6f, 0x6e, 0x76, 0x6f, 0x6c, 0x75, 0x74, 0x69, 0x6f, 0x6e, 0x2f, 0x53, 0x71, 0x75, 0x65, 0x65, 0x7a, 0x65, 0x3b, 0x4b, 0x57, 0x53, 0x5f, 0x31, 0x44, 0x43, 0x4e, 0x4e, 0x5f, 0x31, 0x2f, 0x63, 0x6f, 0x6e, 0x76, 0x31, 0x5f, 0x31, 0x2f, 0x53, 0x71, 0x75, 0x65, 0x65, 0x7a, 0x65, 0x3b, 0x4b, 0x57, 0x53, 0x5f, 0x31, 0x44, 0x43, 0x4e, 0x4e, 0x5f, 0x31, 0x2f, 0x63, 0x6f, 0x6e, 0x76, 0x31, 0x5f, 0x31, 0x2f, 0x63, 0x6f, 0x6e, 0x76, 0x6f, 0x6c, 0x75, 0x74, 0x69, 0x6f, 0x6e, 0x00, 0x00, 0x00, 0x00, 0x04, 0x00, 0x00, 0x00, 0x01, 0x00, 0x00, 0x00, 0x01, 0x00, 0x00, 0x00, 0x0e, 0x00, 0x00, 0x00, 0x10, 0x00, 0x00, 0x00, 0x62, 0xff, 0xff, 0xff, 0x00, 0x00, 0x00, 0x01, 0x18, 0x00, 0x00, 0x00, 0x28, 0x00, 0x00, 0x00, 0x48, 0x00, 0x00, 0x00, 0x12, 0x00, 0x00, 0x00, 0x00, 0x00, 0x00, 0x09, 0x6c, 0x00, 0x00, 0x00, 0x04, 0x00, 0x00, 0x00, 0xff, 0xff, 0xff, 0xff, 0x01, 0x00, 0x00, 0x00, 0x0e, 0x00, 0x00, 0x00, 0x0d, 0x00, 0x00, 0x00, 0x8c, 0xf8, 0xff, 0xff, 0x08, 0x00, 0x00, 0x00, 0x14, 0x00, 0x00, 0x00, 0x01, 0x00, 0x00, 0x00, 0xfa, 0xff, 0xff, 0xff, 0xff, 0xff, 0xff, 0xff, 0x00, 0x00, 0x00, 0x00, 0x01, 0x00, 0x00, 0x00, 0x93, 0x62, 0xe4, 0x3c, 0x2a, 0x00, 0x00, 0x00, 0x4b, 0x57, 0x53, 0x5f, 0x31, 0x44, 0x43, 0x4e, 0x4e, 0x5f, 0x31, 0x2f, 0x63, 0x6f, 0x6e, 0x76, 0x31, 0x5f, 0x31, 0x2f, 0x63, 0x6f, 0x6e, 0x76, 0x6f, 0x6c, 0x75, 0x74, 0x69, 0x6f, 0x6e, 0x2f, 0x45, 0x78, 0x70, 0x61, 0x6e, 0x64, 0x44, 0x69, 0x6d, 0x73, 0x00, 0x00, 0x04, 0x00, 0x00, 0x00, 0x01, 0x00, 0x00, 0x00, 0x01, 0x00, 0x00, 0x00, 0x0e, 0x00, 0x00, 0x00, 0x0d, 0x00, 0x00, 0x00, 0x00, 0x00, 0x16, 0x00, 0x20, 0x00, 0x1c, 0x00, 0x1b, 0x00, 0x14, 0x00, 0x10, 0x00, 0x0c, 0x00, 0x00, 0x00, 0x00, 0x00, 0x08, 0x00, 0x07, 0x00, 0x16, 0x00, 0x00, 0x00, 0x00, 0x00, 0x00, 0x01, 0x18, 0x00, 0x00, 0x00, 0x24, 0x00, 0x00, 0x00, 0x40, 0x00, 0x00, 0x00, 0x11, 0x00, 0x00, 0x00, 0x00, 0x00, 0x00, 0x09, 0x48, 0x00, 0x00, 0x00, 0x03, 0x00, 0x00, 0x00, 0xff, 0xff, 0xff, 0xff, 0x0e, 0x00, 0x00, 0x00, 0x0d, 0x00, 0x00, 0x00, 0x3c, 0xf9, 0xff, 0xff, 0x08, 0x00, 0x00, 0x00, 0x10, 0x00, 0x00, 0x00, 0x01, 0x00, 0x00, 0x00, 0xfa, 0xff, 0xff, 0xff, 0xff, 0xff, 0xff, 0xff, 0x01, 0x00, 0x00, 0x00, 0x93, 0x62, 0xe4, 0x3c, 0x0c, 0x00, 0x00, 0x00, 0x74, 0x66, 0x6c, 0x2e, 0x71, 0x75, 0x61, 0x6e, 0x74, 0x69, 0x7a, 0x65, 0x00, 0x00, 0x00, 0x00, 0x03, 0x00, 0x00, 0x00, 0x01, 0x00, 0x00, 0x00, 0x0e, 0x00, 0x00, 0x00, 0x0d, 0x00, 0x00, 0x00, 0x32, 0xf7, 0xff, 0xff, 0x00, 0x00, 0x00, 0x01, 0x14, 0x00, 0x00, 0x00, 0xe8, 0x00, 0x00, 0x00, 0x10, 0x00, 0x00, 0x00, 0x00, 0x00, 0x00, 0x09, 0xf4, 0x00, 0x00, 0x00, 0x9c, 0xf9, 0xff, 0xff, 0x08, 0x00, 0x00, 0x00, 0x8c, 0x00, 0x00, 0x00, 0x10, 0x00, 0x00, 0x00, 0x00, 0x00, 0x00, 0x00, 0x00, 0x00, 0x00, 0x00, 0x00, 0x00, 0x00, 0x00, 0x00, 0x00, 0x00, 0x00, 0x00, 0x00, 0x00, 0x00, 0x00, 0x00, 0x00, 0x00, 0x00, 0x00, 0x00, 0x00, 0x00, 0x00, 0x00, 0x00, 0x00, 0x00, 0x00, 0x00, 0x00, 0x00, 0x00, 0x00, 0x00, 0x00, 0x00, 0x00, 0x00, 0x00, 0x00, 0x00, 0x00, 0x00, 0x00, 0x00, 0x00, 0x00, 0x00, 0x00, 0x00, 0x00, 0x00, 0x00, 0x00, 0x00, 0x00, 0x00, 0x00, 0x00, 0x00, 0x00, 0x00, 0x00, 0x00, 0x00, 0x00, 0x00, 0x00, 0x00, 0x00, 0x00, 0x00, 0x00, 0x00, 0x00, 0x00, 0x00, 0x00, 0x00, 0x00, 0x00, 0x00, 0x00, 0x00, 0x00, 0x00, 0x00, 0x00, 0x00, 0x00, 0x00, 0x00, 0x00, 0x00, 0x00, 0x00, 0x00, 0x00, 0x00, 0x00, 0x00, 0x00, 0x00, 0x00, 0x00, 0x00, 0x00, 0x00, 0x00, 0x00, 0x00, 0x00, 0x00, 0x00, 0x00, 0x00, 0x00, 0x00, 0x00, 0x00, 0x00, 0x00, 0x00, 0x00, 0x00, 0x10, 0x00, 0x00, 0x00, 0x2a, 0xac, 0x09, 0x3b, 0x67, 0x53, 0x05, 0x3b, 0x09, 0x7d, 0x05, 0x3b, 0x6f, 0x3a, 0x04, 0x3b, 0x74, 0x4c, 0xfb, 0x3a, 0xc6, 0x6f, 0xd5, 0x3a, 0x17, 0x31, 0x0f, 0x3b, 0x4c, 0x6a, 0xee, 0x3a, 0x35, 0xaf, 0xf4, 0x3a, 0x06, 0x25, 0xea, 0x3a, 0x0e, 0xd8, 0xef, 0x3a, 0xbc, 0xa2, 0xf3, 0x3a, 0xc6, 0x94, 0x01, 0x3b, 0x9a, 0xfa, 0xf5, 0x3a, 0x53, 0x9c, 0xd7, 0x3a, 0x0b, 0x0f, 0x03, 0x3b, 0x12, 0x00, 0x00, 0x00, 0x74, 0x66, 0x6c, 0x2e, 0x70, 0x73, 0x65, 0x75, 0x64, 0x6f, 0x5f, 0x71, 0x63, 0x6f, 0x6e, 0x73, 0x74, 0x35, 0x00, 0x00, 0x04, 0x00, 0x00, 0x00, 0x10, 0x00, 0x00, 0x00, 0x01, 0x00, 0x00, 0x00, 0x05, 0x00, 0x00, 0x00, 0x0d, 0x00, 0x00, 0x00, 0x52, 0xf8, 0xff, 0xff, 0x00, 0x00, 0x00, 0x01, 0x14, 0x00, 0x00, 0x00, 0xe4, 0x00, 0x00, 0x00, 0x0f, 0x00, 0x00, 0x00, 0x00, 0x00, 0x00, 0x02, 0xf0, 0x00, 0x00, 0x00, 0xbc, 0xfa, 0xff, 0xff, 0x08, 0x00, 0x00, 0x00, 0x88, 0x00, 0x00, 0x00, 0x10, 0x00, 0x00, 0x00, 0x00, 0x00, 0x00, 0x00, 0x00, 0x00, 0x00, 0x00, 0x00, 0x00, 0x00, 0x00, 0x00, 0x00, 0x00, 0x00, 0x00, 0x00, 0x00, 0x00, 0x00, 0x00, 0x00, 0x00, 0x00, 0x00, 0x00, 0x00, 0x00, 0x00, 0x00, 0x00, 0x00, 0x00, 0x00, 0x00, 0x00, 0x00, 0x00, 0x00, 0x00, 0x00, 0x00, 0x00, 0x00, 0x00, 0x00, 0x00, 0x00, 0x00, 0x00, 0x00, 0x00, 0x00, 0x00, 0x00, 0x00, 0x00, 0x00, 0x00, 0x00, 0x00, 0x00, 0x00, 0x00, 0x00, 0x00, 0x00, 0x00, 0x00, 0x00, 0x00, 0x00, 0x00, 0x00, 0x00, 0x00, 0x00, 0x00, 0x00, 0x00, 0x00, 0x00, 0x00, 0x00, 0x00, 0x00, 0x00, 0x00, 0x00, 0x00, 0x00, 0x00, 0x00, 0x00, 0x00, 0x00, 0x00, 0x00, 0x00, 0x00, 0x00, 0x00, 0x00, 0x00, 0x00, 0x00, 0x00, 0x00, 0x00, 0x00, 0x00, 0x00, 0x00, 0x00, 0x00, 0x00, 0x00, 0x00, 0x00, 0x00, 0x00, 0x00, 0x00, 0x00, 0x00, 0x00, 0x00, 0x10, 0x00, 0x00, 0x00, 0xb1, 0xa4, 0x75, 0x38, 0x3c, 0xe3, 0x6d, 0x38, 0x85, 0x2d, 0x6e, 0x38, 0xea, 0xed, 0x6b, 0x38, 0xdb, 0x30, 0x60, 0x38, 0xbc, 0x69, 0x3e, 0x38, 0xb7, 0x7d, 0x7f, 0x38, 0x79, 0xb2, 0x54, 0x38, 0x43, 0x4a, 0x5a, 0x38, 0x22, 0xe3, 0x50, 0x38, 0xc7, 0xf8, 0x55, 0x38, 0xc0, 0x5a, 0x59, 0x38, 0xcb, 0x34, 0x67, 0x38, 0xe8, 0x71, 0x5b, 0x38, 0x40, 0x5a, 0x40, 0x38, 0xba, 0xd7, 0x69, 0x38, 0x12, 0x00, 0x00, 0x00, 0x74, 0x66, 0x6c, 0x2e, 0x70, 0x73, 0x65, 0x75, 0x64, 0x6f, 0x5f, 0x71, 0x63, 0x6f, 0x6e, 0x73, 0x74, 0x34, 0x00, 0x00, 0x01, 0x00, 0x00, 0x00, 0x10, 0x00, 0x00, 0x00, 0x62, 0xf9, 0xff, 0xff, 0x00, 0x00, 0x00, 0x01, 0x14, 0x00, 0x00, 0x00, 0xa8, 0x01, 0x00, 0x00, 0x0e, 0x00, 0x00, 0x00, 0x00, 0x00, 0x00, 0x09, 0xb4, 0x01, 0x00, 0x00, 0xcc, 0xfb, 0xff, 0xff, 0x08, 0x00, 0x00, 0x00, 0x0c, 0x01, 0x00, 0x00, 0x20, 0x00, 0x00, 0x00, 0x00, 0x00, 0x00, 0x00, 0x00, 0x00, 0x00, 0x00, 0x00, 0x00, 0x00, 0x00, 0x00, 0x00, 0x00, 0x00, 0x00, 0x00, 0x00, 0x00, 0x00, 0x00, 0x00, 0x00, 0x00, 0x00, 0x00, 0x00, 0x00, 0x00, 0x00, 0x00, 0x00, 0x00, 0x00, 0x00, 0x00, 0x00, 0x00, 0x00, 0x00, 0x00, 0x00, 0x00, 0x00, 0x00, 0x00, 0x00, 0x00, 0x00, 0x00, 0x00, 0x00, 0x00, 0x00, 0x00, 0x00, 0x00, 0x00, 0x00, 0x00, 0x00, 0x00, 0x00, 0x00, 0x00, 0x00, 0x00, 0x00, 0x00, 0x00, 0x00, 0x00, 0x00, 0x00, 0x00, 0x00, 0x00, 0x00, 0x00, 0x00, 0x00, 0x00, 0x00, 0x00, 0x00, 0x00, 0x00, 0x00, 0x00, 0x00, 0x00, 0x00, 0x00, 0x00, 0x00, 0x00, 0x00, 0x00, 0x00, 0x00, 0x00, 0x00, 0x00, 0x00, 0x00, 0x00, 0x00, 0x00, 0x00, 0x00, 0x00, 0x00, 0x00, 0x00, 0x00, 0x00, 0x00, 0x00, 0x00, 0x00, 0x00, 0x00, 0x00, 0x00, 0x00, 0x00, 0x00, 0x00, 0x00, 0x00, 0x00, 0x00, 0x00, 0x00, 0x00, 0x00, 0x00, 0x00, 0x00, 0x00, 0x00, 0x00, 0x00, 0x00, 0x00, 0x00, 0x00, 0x00, 0x00, 0x00, 0x00, 0x00, 0x00, 0x00, 0x00, 0x00, 0x00, 0x00, 0x00, 0x00, 0x00, 0x00, 0x00, 0x00, 0x00, 0x00, 0x00, 0x00, 0x00, 0x00, 0x00, 0x00, 0x00, 0x00, 0x00, 0x00, 0x00, 0x00, 0x00, 0x00, 0x00, 0x00, 0x00, 0x00, 0x00, 0x00, 0x00, 0x00, 0x00, 0x00, 0x00, 0x00, 0x00, 0x00, 0x00, 0x00, 0x00, 0x00, 0x00, 0x00, 0x00, 0x00, 0x00, 0x00, 0x00, 0x00, 0x00, 0x00, 0x00, 0x00, 0x00, 0x00, 0x00, 0x00, 0x00, 0x00, 0x00, 0x00, 0x00, 0x00, 0x00, 0x00, 0x00, 0x00, 0x00, 0x00, 0x00, 0x00, 0x00, 0x00, 0x00, 0x00, 0x00, 0x00, 0x00, 0x00, 0x00, 0x00, 0x00, 0x00, 0x00, 0x00, 0x00, 0x00, 0x00, 0x00, 0x00, 0x00, 0x00, 0x00, 0x00, 0x00, 0x00, 0x00, 0x00, 0x00, 0x00, 0x00, 0x00, 0x20, 0x00, 0x00, 0x00, 0xa1, 0x60, 0xf2, 0x3a, 0x2f, 0x71, 0x00, 0x3b, 0x47, 0x4a, 0xe9, 0x3a, 0xc4, 0x72, 0xee, 0x3a, 0xc9, 0x1f, 0xf2, 0x3a, 0x51, 0x36, 0xfa, 0x3a, 0x22, 0x48, 0xe1, 0x3a, 0x83, 0xd9, 0xdc, 0x3a, 0xc8, 0xb6, 0x03, 0x3b, 0xd0, 0x76, 0xd6, 0x3a, 0xf6, 0xe9, 0xf8, 0x3a, 0x00, 0x2a, 0xf4, 0x3a, 0x32, 0x1c, 0x09, 0x3b, 0x1b, 0x47, 0x00, 0x3b, 0x34, 0x18, 0x04, 0x3b, 0xff, 0x4a, 0xff, 0x3a, 0x12, 0x2e, 0xd5, 0x3a, 0xb7, 0x19, 0x04, 0x3b, 0xca, 0xa5, 0xd1, 0x3a, 0xfd, 0xaf, 0xe5, 0x3a, 0xd3, 0x9a, 0x03, 0x3b, 0x19, 0x20, 0xfd, 0x3a, 0xcf, 0xea, 0xee, 0x3a, 0x16, 0x94, 0x07, 0x3b, 0xeb, 0x17, 0x01, 0x3b, 0x24, 0x1b, 0xf2, 0x3a, 0xdc, 0xda, 0x07, 0x3b, 0xeb, 0x0d, 0x22, 0x3b, 0x5a, 0x5e, 0x00, 0x3b, 0xfb, 0x92, 0xfb, 0x3a, 0x0b, 0x2a, 0xec, 0x3a, 0x1c, 0x6f, 0x10, 0x3b, 0x12, 0x00, 0x00, 0x00, 0x74, 0x66, 0x6c, 0x2e, 0x70, 0x73, 0x65, 0x75, 0x64, 0x6f, 0x5f, 0x71, 0x63, 0x6f, 0x6e, 0x73, 0x74, 0x33, 0x00, 0x00, 0x04, 0x00, 0x00, 0x00, 0x20, 0x00, 0x00, 0x00, 0x01, 0x00, 0x00, 0x00, 0x03, 0x00, 0x00, 0x00, 0x10, 0x00, 0x00, 0x00, 0x42, 0xfb, 0xff, 0xff, 0x00, 0x00, 0x00, 0x01, 0x14, 0x00, 0x00, 0x00, 0xa4, 0x01, 0x00, 0x00, 0x0d, 0x00, 0x00, 0x00, 0x00, 0x00, 0x00, 0x02, 0xb0, 0x01, 0x00, 0x00, 0xac, 0xfd, 0xff, 0xff, 0x08, 0x00, 0x00, 0x00, 0x08, 0x01, 0x00, 0x00, 0x20, 0x00, 0x00, 0x00, 0x00, 0x00, 0x00, 0x00, 0x00, 0x00, 0x00, 0x00, 0x00, 0x00, 0x00, 0x00, 0x00, 0x00, 0x00, 0x00, 0x00, 0x00, 0x00, 0x00, 0x00, 0x00, 0x00, 0x00, 0x00, 0x00, 0x00, 0x00, 0x00, 0x00, 0x00, 0x00, 0x00, 0x00, 0x00, 0x00, 0x00, 0x00, 0x00, 0x00, 0x00, 0x00, 0x00, 0x00, 0x00, 0x00, 0x00, 0x00, 0x00, 0x00, 0x00, 0x00, 0x00, 0x00, 0x00, 0x00, 0x00, 0x00, 0x00, 0x00, 0x00, 0x00, 0x00, 0x00, 0x00, 0x00, 0x00, 0x00, 0x00, 0x00, 0x00, 0x00, 0x00, 0x00, 0x00, 0x00, 0x00, 0x00, 0x00, 0x00, 0x00, 0x00, 0x00, 0x00, 0x00, 0x00, 0x00, 0x00, 0x00, 0x00, 0x00, 0x00, 0x00, 0x00, 0x00, 0x00, 0x00, 0x00, 0x00, 0x00, 0x00, 0x00, 0x00, 0x00, 0x00, 0x00, 0x00, 0x00, 0x00, 0x00, 0x00, 0x00, 0x00, 0x00, 0x00, 0x00, 0x00, 0x00, 0x00, 0x00, 0x00, 0x00, 0x00, 0x00, 0x00, 0x00, 0x00, 0x00, 0x00, 0x00, 0x00, 0x00, 0x00, 0x00, 0x00, 0x00, 0x00, 0x00, 0x00, 0x00, 0x00, 0x00, 0x00, 0x00, 0x00, 0x00, 0x00, 0x00, 0x00, 0x00, 0x00, 0x00, 0x00, 0x00, 0x00, 0x00, 0x00, 0x00, 0x00, 0x00, 0x00, 0x00, 0x00, 0x00, 0x00, 0x00, 0x00, 0x00, 0x00, 0x00, 0x00, 0x00, 0x00, 0x00, 0x00, 0x00, 0x00, 0x00, 0x00, 0x00, 0x00, 0x00, 0x00, 0x00, 0x00, 0x00, 0x00, 0x00, 0x00, 0x00, 0x00, 0x00, 0x00, 0x00, 0x00, 0x00, 0x00, 0x00, 0x00, 0x00, 0x00, 0x00, 0x00, 0x00, 0x00, 0x00, 0x00, 0x00, 0x00, 0x00, 0x00, 0x00, 0x00, 0x00, 0x00, 0x00, 0x00, 0x00, 0x00, 0x00, 0x00, 0x00, 0x00, 0x00, 0x00, 0x00, 0x00, 0x00, 0x00, 0x00, 0x00, 0x00, 0x00, 0x00, 0x00, 0x00, 0x00, 0x00, 0x00, 0x00, 0x00, 0x00, 0x00, 0x00, 0x00, 0x00, 0x00, 0x00, 0x00, 0x00, 0x00, 0x00, 0x00, 0x00, 0x00, 0x00, 0x20, 0x00, 0x00, 0x00, 0x07, 0xaa, 0x20, 0x38, 0xbe, 0x47, 0x2a, 0x38, 0xf7, 0xa3, 0x1a, 0x38, 0x46, 0x0f, 0x1e, 0x38, 0x0b, 0x7f, 0x20, 0x38, 0x88, 0xdb, 0x25, 0x38, 0xfd, 0x54, 0x15, 0x38, 0xe3, 0x64, 0x12, 0x38, 0x2d, 0x9e, 0x2e, 0x38, 0x4c, 0x29, 0x0e, 0x38, 0x39, 0xff, 0x24, 0x38, 0x34, 0xd9, 0x21, 0x38, 0x91, 0xc5, 0x35, 0x38, 0xf5, 0x0f, 0x2a, 0x38, 0x55, 0x1f, 0x2f, 0x38, 0xb6, 0x39, 0x29, 0x38, 0x62, 0x4f, 0x0d, 0x38, 0x56, 0x21, 0x2f, 0x38, 0xf7, 0xf7, 0x0a, 0x38, 0x9c, 0x40, 0x18, 0x38, 0x1d, 0x79, 0x2e, 0x38, 0xe3, 0xc9, 0x27, 0x38, 0xd8, 0x5e, 0x1e, 0x38, 0xbb, 0xbd, 0x33, 0x38, 0xca, 0x24, 0x2b, 0x38, 0xf7, 0x7b, 0x20, 0x38, 0x8f, 0x1b, 0x34, 0x38, 0x58, 0xd7, 0x56, 0x38, 0xc7, 0x2e, 0x2a, 0x38, 0xa6, 0xc2, 0x26, 0x38, 0xae, 0x8b, 0x1c, 0x38, 0x34, 0x7b, 0x3f, 0x38, 0x12, 0x00, 0x00, 0x00, 0x74, 0x66, 0x6c, 0x2e, 0x70, 0x73, 0x65, 0x75, 0x64, 0x6f, 0x5f, 0x71, 0x63, 0x6f, 0x6e, 0x73, 0x74, 0x32, 0x00, 0x00, 0x01, 0x00, 0x00, 0x00, 0x20, 0x00, 0x00, 0x00, 0x12, 0xfd, 0xff, 0xff, 0x00, 0x00, 0x00, 0x01, 0x14, 0x00, 0x00, 0x00, 0x54, 0x00, 0x00, 0x00, 0x0c, 0x00, 0x00, 0x00, 0x00, 0x00, 0x00, 0x09, 0x60, 0x00, 0x00, 0x00, 0x7c, 0xff, 0xff, 0xff, 0x08, 0x00, 0x00, 0x00, 0x28, 0x00, 0x00, 0x00, 0x04, 0x00, 0x00, 0x00, 0x00, 0x00, 0x00, 0x00, 0x00, 0x00, 0x00, 0x00, 0x00, 0x00, 0x00, 0x00, 0x00, 0x00, 0x00, 0x00, 0x00, 0x00, 0x00, 0x00, 0x00, 0x00, 0x00, 0x00, 0x00, 0x00, 0x00, 0x00, 0x00, 0x00, 0x00, 0x00, 0x04, 0x00, 0x00, 0x00, 0x62, 0x8e, 0x1c, 0x3b, 0x4c, 0xc2, 0x24, 0x3b, 0x7c, 0x1e, 0x17, 0x3b, 0x26, 0x07, 0x25, 0x3b, 0x12, 0x00, 0x00, 0x00, 0x74, 0x66, 0x6c, 0x2e, 0x70, 0x73, 0x65, 0x75, 0x64, 0x6f, 0x5f, 0x71, 0x63, 0x6f, 0x6e, 0x73, 0x74, 0x31, 0x00, 0x00, 0x02, 0x00, 0x00, 0x00, 0x04, 0x00, 0x00, 0x00, 0x60, 0x00, 0x00, 0x00, 0x96, 0xfd, 0xff, 0xff, 0x00, 0x00, 0x00, 0x01, 0x20, 0x00, 0x00, 0x00, 0x64, 0x00, 0x00, 0x00, 0x0b, 0x00, 0x00, 0x00, 0x00, 0x00, 0x00, 0x02, 0x70, 0x00, 0x00, 0x00, 0x0c, 0x00, 0x0c, 0x00, 0x00, 0x00, 0x00, 0x00, 0x08, 0x00, 0x04, 0x00, 0x0c, 0x00, 0x00, 0x00, 0x08, 0x00, 0x00, 0x00, 0x2c, 0x00, 0x00, 0x00, 0x04, 0x00, 0x00, 0x00, 0x00, 0x00, 0x00, 0x00, 0x00, 0x00, 0x00, 0x00, 0x00, 0x00, 0x00, 0x00, 0x00, 0x00, 0x00, 0x00, 0x00, 0x00, 0x00, 0x00, 0x00, 0x00, 0x00, 0x00, 0x00, 0x00, 0x00, 0x00, 0x00, 0x00, 0x00, 0x00, 0x00, 0x00, 0x00, 0x00, 0x04, 0x00, 0x00, 0x00, 0x46, 0xdb, 0x6d, 0x38, 0xaf, 0x51, 0x7a, 0x38, 0x8e, 0x98, 0x65, 0x38, 0x4a, 0xba, 0x7a, 0x38, 0x11, 0x00, 0x00, 0x00, 0x74, 0x66, 0x6c, 0x2e, 0x70, 0x73, 0x65, 0x75, 0x64, 0x6f, 0x5f, 0x71, 0x63, 0x6f, 0x6e, 0x73, 0x74, 0x00, 0x00, 0x00, 0x01, 0x00, 0x00, 0x00, 0x04, 0x00, 0x00, 0x00, 0x26, 0xfe, 0xff, 0xff, 0x00, 0x00, 0x00, 0x01, 0x14, 0x00, 0x00, 0x00, 0x14, 0x00, 0x00, 0x00, 0x0a, 0x00, 0x00, 0x00, 0x00, 0x00, 0x00, 0x02, 0x1c, 0x00, 0x00, 0x00, 0xb0, 0xfd, 0xff, 0xff, 0x0f, 0x00, 0x00, 0x00, 0x61, 0x72, 0x69, 0x74, 0x68, 0x2e, 0x63, 0x6f, 0x6e, 0x73, 0x74, 0x61, 0x6e, 0x74, 0x38, 0x00, 0x00, 0x00, 0x00, 0x00, 0x5e, 0xfe, 0xff, 0xff, 0x00, 0x00, 0x00, 0x01, 0x14, 0x00, 0x00, 0x00, 0x14, 0x00, 0x00, 0x00, 0x04, 0x00, 0x00, 0x00, 0x00, 0x00, 0x00, 0x02, 0x1c, 0x00, 0x00, 0x00, 0xe8, 0xfd, 0xff, 0xff, 0x0f, 0x00, 0x00, 0x00, 0x61, 0x72, 0x69, 0x74, 0x68, 0x2e, 0x63, 0x6f, 0x6e, 0x73, 0x74, 0x61, 0x6e, 0x74, 0x37, 0x00, 0x01, 0x00, 0x00, 0x00, 0x01, 0x00, 0x00, 0x00, 0x9a, 0xfe, 0xff, 0xff, 0x00, 0x00, 0x00, 0x01, 0x14, 0x00, 0x00, 0x00, 0x14, 0x00, 0x00, 0x00, 0x08, 0x00, 0x00, 0x00, 0x00, 0x00, 0x00, 0x02, 0x1c, 0x00, 0x00, 0x00, 0x24, 0xfe, 0xff, 0xff, 0x0f, 0x00, 0x00, 0x00, 0x61, 0x72, 0x69, 0x74, 0x68, 0x2e, 0x63, 0x6f, 0x6e, 0x73, 0x74, 0x61, 0x6e, 0x74, 0x36, 0x00, 0x01, 0x00, 0x00, 0x00, 0x01, 0x00, 0x00, 0x00, 0xd6, 0xfe, 0xff, 0xff, 0x00, 0x00, 0x00, 0x01, 0x14, 0x00, 0x00, 0x00, 0x14, 0x00, 0x00, 0x00, 0x07, 0x00, 0x00, 0x00, 0x00, 0x00, 0x00, 0x02, 0x1c, 0x00, 0x00, 0x00, 0x60, 0xfe, 0xff, 0xff, 0x0f, 0x00, 0x00, 0x00, 0x61, 0x72, 0x69, 0x74, 0x68, 0x2e, 0x63, 0x6f, 0x6e, 0x73, 0x74, 0x61, 0x6e, 0x74, 0x35, 0x00, 0x01, 0x00, 0x00, 0x00, 0x03, 0x00, 0x00, 0x00, 0x12, 0xff, 0xff, 0xff, 0x00, 0x00, 0x00, 0x01, 0x14, 0x00, 0x00, 0x00, 0x14, 0x00, 0x00, 0x00, 0x06, 0x00, 0x00, 0x00, 0x00, 0x00, 0x00, 0x02, 0x1c, 0x00, 0x00, 0x00, 0x9c, 0xfe, 0xff, 0xff, 0x0f, 0x00, 0x00, 0x00, 0x61, 0x72, 0x69, 0x74, 0x68, 0x2e, 0x63, 0x6f, 0x6e, 0x73, 0x74, 0x61, 0x6e, 0x74, 0x34, 0x00, 0x01, 0x00, 0x00, 0x00, 0x03, 0x00, 0x00, 0x00, 0x4e, 0xff, 0xff, 0xff, 0x00, 0x00, 0x00, 0x01, 0x14, 0x00, 0x00, 0x00, 0x14, 0x00, 0x00, 0x00, 0x05, 0x00, 0x00, 0x00, 0x00, 0x00, 0x00, 0x02, 0x1c, 0x00, 0x00, 0x00, 0xd8, 0xfe, 0xff, 0xff, 0x0f, 0x00, 0x00, 0x00, 0x61, 0x72, 0x69, 0x74, 0x68, 0x2e, 0x63, 0x6f, 0x6e, 0x73, 0x74, 0x61, 0x6e, 0x74, 0x33, 0x00, 0x01, 0x00, 0x00, 0x00, 0x03, 0x00, 0x00, 0x00, 0x8a, 0xff, 0xff, 0xff, 0x00, 0x00, 0x00, 0x01, 0x14, 0x00, 0x00, 0x00, 0x14, 0x00, 0x00, 0x00, 0x04, 0x00, 0x00, 0x00, 0x00, 0x00, 0x00, 0x02, 0x1c, 0x00, 0x00, 0x00, 0x14, 0xff, 0xff, 0xff, 0x0f, 0x00, 0x00, 0x00, 0x61, 0x72, 0x69, 0x74, 0x68, 0x2e, 0x63, 0x6f, 0x6e, 0x73, 0x74, 0x61, 0x6e, 0x74, 0x32, 0x00, 0x00, 0x00, 0x00, 0x00, 0xc2, 0xff, 0xff, 0xff, 0x00, 0x00, 0x00, 0x01, 0x14, 0x00, 0x00, 0x00, 0x14, 0x00, 0x00, 0x00, 0x03, 0x00, 0x00, 0x00, 0x00, 0x00, 0x00, 0x02, 0x1c, 0x00, 0x00, 0x00, 0x4c, 0xff, 0xff, 0xff, 0x0f, 0x00, 0x00, 0x00, 0x61, 0x72, 0x69, 0x74, 0x68, 0x2e, 0x63, 0x6f, 0x6e, 0x73, 0x74, 0x61, 0x6e, 0x74, 0x31, 0x00, 0x01, 0x00, 0x00, 0x00, 0x03, 0x00, 0x00, 0x00, 0x00, 0x00, 0x16, 0x00, 0x1c, 0x00, 0x18, 0x00, 0x17, 0x00, 0x10, 0x00, 0x0c, 0x00, 0x08, 0x00, 0x00, 0x00, 0x00, 0x00, 0x00, 0x00, 0x07, 0x00, 0x16, 0x00, 0x00, 0x00, 0x00, 0x00, 0x00, 0x01, 0x14, 0x00, 0x00, 0x00, 0x14, 0x00, 0x00, 0x00, 0x02, 0x00, 0x00, 0x00, 0x00, 0x00, 0x00, 0x02, 0x1c, 0x00, 0x00, 0x00, 0xa0, 0xff, 0xff, 0xff, 0x0e, 0x00, 0x00, 0x00, 0x61, 0x72, 0x69, 0x74, 0x68, 0x2e, 0x63, 0x6f, 0x6e, 0x73, 0x74, 0x61, 0x6e, 0x74, 0x00, 0x00, 0x00, 0x00, 0x00, 0x00, 0x00, 0x00, 0x16, 0x00, 0x1c, 0x00, 0x18, 0x00, 0x00, 0x00, 0x14, 0x00, 0x10, 0x00, 0x0c, 0x00, 0x00, 0x00, 0x00, 0x00, 0x08, 0x00, 0x07, 0x00, 0x16, 0x00, 0x00, 0x00, 0x00, 0x00, 0x00, 0x01, 0x14, 0x00, 0x00, 0x00, 0x24, 0x00, 0x00, 0x00, 0x24, 0x00, 0x00, 0x00, 0x01, 0x00, 0x00, 0x00, 0x40, 0x00, 0x00, 0x00, 0x03, 0x00, 0x00, 0x00, 0xff, 0xff, 0xff, 0xff, 0x0e, 0x00, 0x00, 0x00, 0x0d, 0x00, 0x00, 0x00, 0x04, 0x00, 0x04, 0x00, 0x04, 0x00, 0x00, 0x00, 0x1c, 0x00, 0x00, 0x00, 0x73, 0x65, 0x72, 0x76, 0x69, 0x6e, 0x67, 0x5f, 0x64, 0x65, 0x66, 0x61, 0x75, 0x6c, 0x74, 0x5f, 0x6d, 0x66, 0x63, 0x63, 0x5f, 0x69, 0x6e, 0x70, 0x75, 0x74, 0x3a, 0x30, 0x00, 0x00, 0x00, 0x00, 0x03, 0x00, 0x00, 0x00, 0x01, 0x00, 0x00, 0x00, 0x0e, 0x00, 0x00, 0x00, 0x0d, 0x00, 0x00, 0x00, 0x0b, 0x00, 0x00, 0x00, 0xd0, 0x00, 0x00, 0x00, 0xb4, 0x00, 0x00, 0x00, 0xa0, 0x00, 0x00, 0x00, 0x84, 0x00, 0x00, 0x00, 0x70, 0x00, 0x00, 0x00, 0x60, 0x00, 0x00, 0x00, 0x50, 0x00, 0x00, 0x00, 0x40, 0x00, 0x00, 0x00, 0x2c, 0x00, 0x00, 0x00, 0x18, 0x00, 0x00, 0x00, 0x04, 0x00, 0x00, 0x00, 0x90, 0xff, 0xff, 0xff, 0x06, 0x00, 0x00, 0x00, 0x02, 0x00, 0x00, 0x00, 0x00, 0x00, 0x00, 0x06, 0xa0, 0xff, 0xff, 0xff, 0x19, 0x00, 0x00, 0x00, 0x02, 0x00, 0x00, 0x00, 0x00, 0x00, 0x00, 0x19, 0xb0, 0xff, 0xff, 0xff, 0x09, 0x00, 0x00, 0x00, 0x04, 0x00, 0x00, 0x00, 0x00, 0x00, 0x00, 0x09, 0x98, 0xff, 0xff, 0xff, 0x53, 0x00, 0x00, 0x00, 0x00, 0x00, 0x00, 0x53, 0xa4, 0xff, 0xff, 0xff, 0x2d, 0x00, 0x00, 0x00, 0x00, 0x00, 0x00, 0x2d, 0xb0, 0xff, 0xff, 0xff, 0x4d, 0x00, 0x00, 0x00, 0x00, 0x00, 0x00, 0x4d, 0xe4, 0xff, 0xff, 0xff, 0x11, 0x00, 0x00, 0x00, 0x02, 0x00, 0x00, 0x00, 0x00, 0x00, 0x00, 0x11, 0xcc, 0xff, 0xff, 0xff, 0x16, 0x00, 0x00, 0x00, 0x00, 0x00, 0x00, 0x16, 0x0c, 0x00, 0x10, 0x00, 0x0f, 0x00, 0x00, 0x00, 0x08, 0x00, 0x04, 0x00, 0x0c, 0x00, 0x00, 0x00, 0x03, 0x00, 0x00, 0x00, 0x03, 0x00, 0x00, 0x00, 0x00, 0x00, 0x00, 0x03, 0xf4, 0xff, 0xff, 0xff, 0x46, 0x00, 0x00, 0x00, 0x00, 0x00, 0x00, 0x46, 0x0c, 0x00, 0x0c, 0x00, 0x0b, 0x00, 0x00, 0x00, 0x00, 0x00, 0x04, 0x00, 0x0c, 0x00, 0x00, 0x00, 0x72, 0x00, 0x00, 0x00, 0x00, 0x00, 0x00, 0x72
};
